#version: 0.2
Ġ Ġ
Ġ t
Ġ a
i n
h e
r e
o n
ĠĠ ĠĠ
e r
Ġt he
a t
Ġ s
Ġ o
e n
Ġ c
e s
o r
i s
a n
Ġ w
i t
a l
Ġ p
Ġ f
e d
Ġa n
Ġ b
in g
a r
Ġo f
Ġ in
o u
Ġ m
i c
Ġ d
i on
Ġan d
Ġt o
l e
r o
a s
e l
en t
Ġ h
ĠĠ Ġ
ĠĠĠĠ ĠĠĠĠ
c t
Ġt h
Ġ re
i l
s t
Ġ e
o m
Ġ l
Ġ n
e t
i m
o l
Ġ T
Ġ is
u r
a m
i d
v e
u t
s e
Ġ g
at ion
o t
â Ģ
c e
c h
l y
i g
Ġ A
Ġ S
o w
Ġb e
Ġf or
a d
Ġ u
Ġ C
Ġs t
v er
i r
Ġ on
u l
a y
Ġ I
Ġth at
- -
i f
Ġ y
Ġa s
r a
o d
ĠĠĠĠ ĠĠĠ
it h
Ġ 1
Ġ (
Ġc on
he r
Ċ ĠĠĠ
Ġ =
t er
Ġp ro
Ġ M
Ġw ith
g e
u m
Ġd e
is t
Ċ ĠĠĠĠĠĠĠ
Ġ P
n d
Ġ it
Ġa re
Ġw h
or t
Ġa l
Ġo r
es t
at e
Ġy ou
a b
o p
ĠT he
Ġ B
er s
u s
es s
ro m
re s
r i
an d
Ġe x
t h
e m
e ct
a c
q u
Ġ v
Ġ he
m ent
o s
Ġc om
Ġ H
il l
ĠĠĠĠĠĠĠĠ ĠĠĠĠĠĠĠĠ
it y
o re
p p
n t
e re
i es
Ġ 2
o c
Ġ D
k e
a in
Ġs u
Ġ W
Ġ R
Ġ r
i v
Ġb y
Ġ F
l d
ig h
el f
Ġ E
Ġw as
an t
u n
Ġa t
Ġ N
Ġ "
im p
i ve
Ġf rom
p e
Ġc h
u d
Ġ L
âĢ Ļ
o g
Ġn e
Ġs e
ar t
Ġh a
Ġ G
u re
p t
Ġc an
i al
-- --
Ċ ĠĠĠĠĠĠĠĠ
Ġn ot
0 0
en d
Ġ âĢ
Ġ le
ic al
al l
p l
a g
am e
igh t
Ġs h
ion s
ou t
a ge
i z
r ou
in e
Ġha ve
ou r
p er
Ġth is
o st
c l
ar d
ic h
Ġ O
Ġ |
Ġw e
as s
el l
r u
Ġa b
at ed
g h
ul t
Ġp l
Ġu s
a ct
Ġw or
om e
Ġ imp
Ġin t
ou ld
Ġ en
T he
an s
Ġ J
f f
t her
u st
as t
or m
a re
a k
Ġ U
) :
Ġ k
Ġthe ir
' s
# #
Ġre s
ĊĠĠĠĠĠĠĠĠ ĠĠĠ
i p
e ar
i b
Ġcon t
Ġw he
a p
ou s
id e
d u
Ġs elf
i e
i le
Ċ Ċ
Ġa d
c c
on g
Ġwh ich
on e
ĠI n
Ġcom p
ar y
Ġthe y
Ġ '
i a
in t
Ġal l
ation s
ab le
Ġ1 9
in d
e p
i re
Ġyou r
im e
r y
Ġc l
e x
Ġd is
o od
u e
Ġ if
an ce
ac k
v el
ur n
o k
Ġh as
ĠT h
Ġw ill
u al
s o
Ġm ore
Ġd o
b er
ct ion
ent s
Â ł
c on
or d
en ce
as e
Ġa r
at er
Ġ j
ig n
at h
s elf
a v
) .
il d
ic e
Ġo ther
Ġb ut
a ch
en s
Ġm an
res s
Ġw ere
u b
or y
f orm
ou nt
Ġu n
r it
Ġo ut
Ġ K
Ġp er
) ,
a ce
o se
Ġm e
ĠS t
at a
Ġon e
an g
âĢ Ŀ
a ke
Ġde f
Ġal so
Ġs p
Ġa pp
Ċ ĊĠĠĠ
a u
Ġp re
it ion
Ġ2 0
c es
el y
_ _
is h
Ġe v
or s
Ġh is
Ġs c
k s
Ġs o
e f
ic t
Ġ -
Ġp art
Ġimp ort
---- ----
ou nd
Ġs y
re at
ver y
Ġab out
Ġre t
Ġt e
p h
Ġcom m
Ġt r
Ġ 3
a il
ow n
i an
e w
( )
Ġwh o
Ġp e
Ġ V
ĠC h
ĠĠĠĠĠĠĠĠĠĠĠĠĠĠĠĠ ĠĠĠĠĠĠĠĠĠĠĠĠĠĠĠĠ
o b
ĠâĢ ľ
nd er
Ġu p
Ġ qu
Ġthe m
ĠI t
Ġbe c
pe c
ing s
re e
j ect
o ok
if f
ver s
er t
Ġst ud
at es
Ġ ro
g et
Ġp r
Ġl i
ay s
ol og
Ġt ime
m er
l ow
Ġint o
" "
it e
er v
Ġc ol
Ġit s
w e
Ġwhe n
Ġin d
Ġs ome
Ġ #
c re
Ġth an
op le
Ġret urn
o ve
Ġm ay
Ġa g
Ġk n
le ct
Ġthe re
Ġg o
ou gh
Ġy ear
ir st
Ġre c
ter n
y s
' ,
ĠTh is
if ic
rou gh
Ġ Y
am p
Ġbe en
Ġo ver
re d
Ġwor k
i ent
c ess
Ġd iff
Ġthe se
re n
cl ud
Ġb et
Ġh ow
ro w
Ġa ct
al ly
Ġu nder
Ġh ad
ra in
Ġne w
on s
c k
Ġd es
Ġcon s
Ġpe ople
o v
t e
Ġu se
it ies
Ġa cc
i ous
au se
Ġas s
l l
l ic
er m
Ġb l
r ic
Ġt w
o ol
l es
an ge
Ġw ould
st em
ri b
Ġg en
he d
et h
Ġre l
l p
Ġ [
at ing
ar g
Ġo ur
Ġs a
ol d
Ġsu ch
Ġ20 1
Ġm ost
ar k
I n
Ġm od
ad e
n ing
ĠU n
Ġin clud
iz e
is e
c ed
g r
Ġf irst
Ġ 4
ex t
ation al
os s
ul ar
Ġf e
vel op
Ġne ed
n e
ment s
Ġhe lp
al s
f ter
ff ect
Ġo b
rou nd
Ġe m
Ġs pec
ic s
al th
Ġan y
Ġg et
Ġp h
Ġex p
ur ing
Ġn o
Ġof f
Ġwh at
Ġus ed
Ġn um
Ġre p
t y
is s
f rom
ce pt
Ġon ly
Ġth rough
Ġa m
" ,
Ġpro du
Ġ im
Ġli ke
Ġfor m
i ed
in k
Ġre g
Ġtw o
u res
f t
Ġf l
( '
ĠH e
ic k
p ut
Ġpro v
Ġ 5
ra ct
n g
ot h
= =
f ul
Ġ 0
Ġad d
Ġst r
Ġat t
o int
Ġdiff ere
n ame
at ive
ĊĠĠĠĠĠĠĠĠ ĠĠĠĠĠĠĠ
Ġ2 00
Ġman y
as ed
) )
he n
ar s
ĠâĢ ĵ
ar ch
Ġsu b
a x
Ġsy stem
. .
Ġch ild
i et
Ġde velop
Ġ ra
il ity
c om
a w
we en
ow er
Ġre m
it s
ib le
Ġin f
s s
Ġd ata
st r
Ġb u
Ġa c
Ġc o
if e
ut ion
Ġt y
Ġv al
oc k
t en
Ġin v
Ġp ol
Ġ +
el d
Ġbet ween
Ġtr ans
Ġ her
on d
e c
he s
Ġwhe re
Ġs ur
is m
g an
c y
in es
b le
Ġt est
ere d
Ġsu pp
od e
u p
Ġs m
' )
( "
on t
Ġin ter
## ##
Ġsh ould
id ent
d ef
w n
Ġ ke
Ġs et
i o
il y
u es
Ġc ould
i x
Ġw ell
ist s
it ed
Ġyear s
Ċ ĠĠĠĠĠĠĠĠĠĠĠĠĠĠĠĠ
el s
e ver
Ġp res
at ure
Ġres ult
f ore
imp ort
Ġres p
Ġ1 8
Ġre qu
l and
v al
* *
Ġw ater
Ġh igh
Ċ Ġ
p s
ie w
ur al
mer ic
Ġp ers
i eld
Ġ el
u c
ch n
o y
Ġm ake
re ad
u ch
ant s
ual ly
h at
2 0
w ard
olog y
Ġa fter
Ġin st
Ġc all
amp le
Ġv ar
ag es
1 9
t s
Ġf ound
p ar
i ence
or k
v ent
ch ool
t ing
Ġdiffere nt
p r
Ġthe n
Ġhe alth
Ġe ar
in s
ĠR e
Ġs ign
Ġkn ow
Ċ ĊĠĠĠĠĠĠĠ
Ġc re
Ġc ount
p ath
Ġc ent
Ġgen er
ot her
Ġ 6
a pp
n ess
ic es
Ġre f
Ġj ust
ol low
ar m
Ġbec ause
s h
Ġd ist
i vers
g y
Ġl ong
ru ct
Ġwor ld
Ġex per
Ġd et
ĠA meric
" )
' ]
Ġle ar
ak ing
Ġin cre
Ġev en
Ġl oc
Ġ" ""
ical ly
Ġ end
Ġre se
Ġ ed
Ġex t
ĠA l
Ġm ed
Ġc ur
ru e
Ġ ent
Ġg r
ĠA r
Ġs he
Ġt ra
Ġ {
Ġdis c
ĠP ro
Ġe ach
s c
Ġh um
ĠC om
Ġe ffect
Ġb el
Ġpro cess
Ġw ay
od y
form ation
iv es
-------- --------
ut h
Ġe very
Ġse e
iz ed
Ġ very
v ed
Ġp ub
p ro
Ġbe ing
Ġs oc
ect ion
en g
Ġde c
Ġd uring
Ġar t
ir on
in al
Ġp at
Ġc ar
al e
Ġc a
im es
o ad
Ġth ose
c er
Ġ= =
an y
or n
t le
at her
u g
l ed
ĠA n
Ġre ad
as es
Ġw rit
Ġwh ile
Ġf act
Ġf un
Ġf ollow
ra ph
ire ct
âĢ ĵ
Ġde p
Ġm in
T h
l i
Ġl ife
Ġcon f
[ '
Ġb ack
he m
Ġm ain
Ġf am
Ġte chn
gr am
t o
c ent
st and
Ġex pl
Ġcomm un
a ve
Ġpart ic
d ata
m s
Ġdo es
Ġs k
Ġle ad
00 0
Ġo p
ĠS e
Ġo wn
Ġr ight
Ġs ame
ver n
re nt
Ġm on
d s
Ġcl ass
Ġm y
Ġpr int
ĠA s
ut e
1 0
ĠW e
Ġ1 0
Ġin s
Ġh ist
ent ial
ĠThe y
Ġm uch
Ġm ade
t he
Ġus ing
Ġsa id
Ġg rou
Ġf ind
Ġb r
Ġcomp le
' :
Ġb oth
Ġst art
ĠF or
d er
pt ion
Ġp op
at ch
Ġm em
Ġpers on
Ġ 7
Ġg l
Ġnum ber
Ġsh ow
ĠI f
n ce
in ce
eth od
ĠH ow
Ġle vel
v ing
a ir
Ġimport ant
Ġbe fore
ro p
v iron
Ġag ain
u nd
t ed
iv id
Ġs erv
Ġst ate
Ġs er
al ity
us s
o h
Ġin formation
Ġchild ren
Ġd i
Ġa v
t t
g g
Ġs ol
Ġg row
Ġ 8
is hed
Ġf ood
h ip
ĠN ew
Ġpro ble
Ġsm all
Ġp ar
ĠĠĠĠ Ġ
s on
v es
cl ass
' t
ĠI nd
an n
Ġpl ay
ivers ity
v en
i en
as h
p y
f ile
a h
ar ge
en se
et s
Ġstud ents
ter s
Ġg ood
ire d
g en
Ġs chool
r al
Ġl ook
ul l
r or
Ġp oint
ro l
ak es
g er
Ġof ten
S t
Ġp ower
is ion
Ġh im
Ġn ame
Ġd own
Ġstud y
ul ation
Ġh and
Ġp ass
at or
am es
er gy
Ġp oss
Ġm et
ĠD e
a j
an k
Ġn ow
ĠS c
om en
Ġcont in
ĠĠĠĠĠĠĠĠĠĠĠĠĠĠĠĠĠĠĠĠĠĠĠĠĠĠĠĠĠĠĠĠ ĠĠĠĠĠĠĠĠĠĠĠĠĠĠĠĠĠĠĠĠĠĠĠĠĠĠĠĠĠĠĠĠ
Ġpro t
Ġa round
Ġact iv
Ġl it
ur y
. âĢĿ
Ġex ample
Ġl ess
Ġf il
Ġl ist
. "
our ce
Ġd ay
Ġdes ign
it ions
Ġo cc
id es
Ġe lect
ort h
Ġor gan
ro ss
Ġc ell
ain s
an c
Ġb ody
i qu
it al
um ent
ect ed
i er
Ġt ake
Ġc or
ĠE x
in ed
Ġth ree
ou se
Ġpro gram
d ay
ion al
a pe
Ċ ĉ
Ġ 9
Ġsupp ort
w ay
Ġ19 9
Ġcall ed
con d
Ġbu ild
Ġ x
ou n
Ġb re
viron ment
. ,
are d
Ġcon st
act er
Ġall ow
ou th
Ġ :
Ġ est
o x
] ,
Ġunder stand
iet y
Ġd id
Ġm ust
Ġhum an
Ġe qu
Ġs om
Ġcons id
i um
iz ation
m in
s et
Ġt em
Ġcomm on
Âł Âł
Ġt reat
p ort
t on
Ġp os
le ar
Ġgo vern
l ine
Ġkn own
Ġcon d
ang u
t est
âĢ Ķ
Ġop en
Ġre du
Ġg u
ĠC on
Ġc are
== ==
Ġinclud ing
Ġrese arch
" :
id s
Ġr is
a z
ĠY ou
if y
p os
Ġm at
Ġty p
r on
Ġl and
m an
m od
er n
b ers
ĠB ut
ad d
Ġth ough
ĠS h
ri es
Ġd irect
Ġdis e
Ġwith in
er ing
d e
m on
as on
l ish
as k
Th is
ivid ual
Ġad v
w ork
ĠW h
ĠN one
Ġ *
Ġm ight
Ġel se
ĠA d
le ment
con om
Ġar g
Ġch ar
ĠA nd
Ġbe h
Ġv is
Ġty pe
Ġqu est
at ely
ial ly
u ro
n er
her s
Ġp o
Ġp ract
Ġth ink
ĠE ng
oc i
ĠThe re
Ġt erm
iv en
] )
at ic
Ġst ill
Ġc our
i od
am s
ĠI s
Ġen g
ĠâĢ ¢
= '
our ces
ĠL e
are nt
Ġg reat
ĠThe se
cc ess
at s
Ġdes c
Ġpub lic
i or
Ġ Q
Ġpl ace
Ġch ang
ar r
ĠAmeric an
Ġ __
Ġs pe
1 2
Ġm ethod
pl es
ater ial
m e
Ġrep ort
Ġ ide
Ġapp ro
Ġpl an
Ġind ividual
. _
Ġm us
Ġg re
ere st
b s
iv ing
in ation
Ġw ant
v iew
Ġb ook
Ġr un
Ġ i
Ġs imp
Ġs l
Ġc he
ff ic
Ġ ident
Ġl og
Ġe as
x t
Ġch ange
in c
Ġwith out
er al
Ġst and
Ġc ult
Ġc ap
al k
l u
it ive
if ied
re qu
l ess
Ġ &
om s
Ġed uc
ĠC l
Ġen ergy
p ect
Ġa ir
Ġis s
ord ing
iv ely
Ġcur rent
Ġl ight
ert ain
Ġo per
Ġca us
E R
m b
Ġl ine
ot e
Ġp ur
Ġp ot
Ġan other
Ġd on
b y
ab ility
d ict
Ġpres ent
Ġl arge
i k
Ġpro ject
ĠUn iversity
arg s
Ġen vironment
Ġval ue
b r
Ġob ject
ag n
er y
in ess
Ġf ew
ĠC ol
Ġs im
b e
Ġph ys
w are
iv ed
Ġn p
Ġcon n
f or
ĠR es
Ġl ab
Ġprodu ct
Ġlear n
uth or
Ġin c
#### ####
Ġr ange
Ġare a
on se
or ies
t ain
y n
he re
Ġhe ad
Ġm ark
Ġ Z
Ġmod el
aj or
al se
Ġgrou p
Ġl aw
e ad
Ġl angu
i ans
ĠP h
Ġim m
5 0
Ġpro f
I t
Ġinclud e
1 8
Ġbel ie
o le
Ġper form
Ġl ast
Ġse ver
Ġagain st
Ġor ig
Ġd el
Ġm aterial
Ġan al
Ġke y
Ġsoc ial
Ġt ry
Ġre al
og raph
g in
Ġs it
Ġm ove
Ġ .
Ġf r
Ġto p
Ġ /
re t
ar c
Ġimp ro
Ġdevelop ment
Ġb est
l ist
Ġh y
Ġo ld
iss ion
Ġf ile
ĠHow ever
ill ion
Ġo pp
Ġpro per
Ġde v
Ġb en
ent ly
ĠUn ited
ĠP l
l ished
Ġh ome
Ġf in
Ġme as
in a
Ġme an
o f
, âĢĿ
ro du
olog ical
Ġt rain
Ġu nt
w ays
Ġint erest
er c
ĠS p
ent al
Ġp ri
Ġle g
Ġan im
n s
in it
Ġhist ory
Ġbec ome
an e
Ġfam ily
ty pe
Ġor der
p or
ĠâĢ ĺ
ĠĠĠĠ ĠĠ
Ġfun ction
Ġb o
Ġear ly
ot s
t r
Ġbet ter
Ġinv ol
Ġm il
Ġcont rol
im ate
r ist
Ġb as
Ġt ext
an ces
ĊĠĠĠĠĠĠĠĠĠĠĠĠĠĠĠĠ ĠĠĠ
a ult
Ġf ield
em s
o ver
Ġgovern ment
Ġan t
Ġw ar
Ġse cond
il ar
f e
" .
Ġsever al
Ġcre ate
c ur
at ural
Ġ1 2
Ġw omen
"" "
Ġp ain
Ġe conom
Ġ es
res ent
Ġbl ood
ic le
ent ion
Ġke ep
Ġ ve
Ġc al
I N
ĠF r
ol ution
Ġ er
Ġe t
Ġto o
ition al
Ġhe re
Ġme ans
m it
Ġsign ific
l ing
Ġl im
Ġ1 7
ra w
1 1
Ġb ased
Ġl ow
Ġc r
Ġfollow ing
em ber
ill s
is ed
Ġne ar
rib ut
Ġs ince
os ed
ĠW hen
og n
Ġf ore
/ /
un e
f ig
o id
end s
Ġ ess
Ġha pp
Ġn on
Ġm ajor
l oad
Ġper iod
Ġocc ur
Ġdise ase
c le
Ġ %
Ġt re
u le
Ġ1 5
ail able
Ġpartic ular
Ġc reat
, "
n ot
O N
Ġre le
Ġp ost
Ġm ult
Ġb us
u se
Ġs ing
c ing
Ġ z
Ġprov id
Ġle t
Ġspec ies
Ġs ay
Ġl ater
Ġst ruct
ard s
i ents
âĢ ľ
.. .
ate g
Ġd r
l og
Ġposs ible
Ġt urn
Ġprov ide
ĠSt ates
le ction
A T
Ġris k
ress ion
ĠB e
s w
E S
f ace
Ġlear ning
end ed
Ġf ac
s y
id d
Ġb ro
Ġ _
Ġen c
ar get
Ġf our
h y
W hat
Ġ19 8
Ġth ings
Ġother s
Ġo s
ke y
ĠA t
ĠO r
Ġsu ccess
Ġ1 6
or ld
ĠC an
Ġam ong
Ġb i
Ġ $
Ġc ase
Ġtr ad
Ġd ue
t ime
Ġc ause
Ġfe el
Ġh ig
Ġloc al
c ol
Ġunt il
Ġm en
g ing
o in
Ġre ce
e k
on es
oc us
Ġt imes
ut ure
eth ing
= "
id ence
ur ther
Ġv iew
Ġg iven
Ġc ost
Ġp ath
s ize
as ter
Ġpro m
am m
i ver
r ation
Ġsc ient
Ġacc ess
Ġpol it
os p
uro pe
Ġab le
ĠT o
Ġ )
et er
o ot
le t
pl oy
Ġa ffect
Ġli k
l ab
th ough
Ġcount ry
Ġl arg
Ġo pt
m p
ĠE n
Ġrec ord
op e
Ġlangu age
l er
[ "
Ġass ert
iqu e
Ġben ef
eng th
at ures
1 6
Ġ ur
ĠâĢ Ķ
a per
Ġa ut
Ġc ertain
Ġal ong
con t
Ġre st
ab ly
Ġcomp ut
Ġt ri
w ord
Ġin tern
Ġch o
c ul
Ġh ard
Ġm ar
it her
Ġsignific ant
Ġm ov
w w
Ġp ress
Ġex am
Ġr ad
f l
m and
Ġa ge
Ġav ailable
oh n
Ġsom ething
| |
C h
ir d
Ġare as
Ġv ol
A S
ĠO n
Ġvar ious
ĠT e
: //
ob al
Ġsh ort
( ):
Ġproble m
s er
ĠA f
T rue
n um
Ġm aking
1 5
re g
ain ed
ĠE urope
Ġcom e
Ġspec ific
Ġass oci
ĠS o
ĠA ll
Ġne xt
Ġpl ant
ĠU S
ĠW hat
Ġex ist
end ing
Ġp ut
Ġresult s
A s
Ġmon th
W e
Ġs ays
Ġd ri
ic ation
ac y
ĠN ational
ap s
Ġc rit
il s
Ġc ir
v ious
at us
ure d
Ġcom b
ĠC ent
__ (
Ġchar acter
Ġam ount
at ors
Ġper cent
d ir
s el
ore d
Ġf ocus
c o
Ġle ft
3 0
op y
Ġpot ential
Ġpre vent
Ġcell s
y m
du ct
A R
Ġn atural
r ing
s erv
m ber
Ġimp act
ĠCh rist
Ġn et
Ġf low
ĠB l
Ġapp ear
Ġsim ilar
ess age
Ġsp ace
Ġ X
e e
est s
Ġd at
ĠB rit
Ġsystem s
Ġin it
f il
Ġyou ng
Ġbec ame
Ġev ent
Ġb rain
get her
Ġto gether
Ġlit tle
Ġs w
orm al
ic ult
Ġ19 7
Ġf ree
Ġinv est
2 00
al es
Ġapp lic
ĠB y
i ation
st it
ac es
Ġdet erm
Ġwor ds
d ate
ĠE ar
Ġwh y
Ġbeh av
pl ay
us h
ort un
ab les
m y
1 4
Ã ©
ight s
Ġsu gg
Ġind ust
Ġst ep
et ic
ward s
p le
ĠG od
Ġv ir
le y
led ge
Ġproble ms
Ġlevel s
our s
ic ro
app end
Ġs um
g ed
Ġtreat ment
Ġcent ury
1 7
Ġwor ks
Ġa uthor
Ġdesc rib
at ory
Ġal ways
ĠW ar
Ġex cept
age ment
form at
ess ion
Ġrep resent
Ġde ath
ĠS he
I f
a pt
s p
Ġspec ial
ak en
ĠT r
ĠG erm
Ġe le
Ġd ays
s ide
Ġpop ulation
Ġac ross
y l
Ġro le
Ġ <
pr int
is on
Ġsu per
I D
Ġsy m
il ities
vers ion
1 3
" ]
a e
Ġus ually
Ġs ize
or ing
Ġp arent
as ing
om an
Ġtem per
Ġp ast
ĊĊ Ġ
Ġs ide
Ġcommun ity
Ġcour se
Ġc lear
ĠW orld
Ġtechn ology
H ow
en cy
Ġhe art
ru ction
il t
2 5
ĠAf ric
Ġto day
ĠJ ohn
ere nce
Ġim age
n ow
Ġest ab
g s
r ror
re ct
A n
Ġf uture
it ing
ot t
Ġ1 4
Ġdisc uss
Ġus er
her n
Ġwor d
Ġpr im
Ġstr ong
ys is
Ġlik ely
Ġ ut
Ġ ver
ific ation
ri pt
Ġ ill
Ġcond itions
Ġbus iness
Ġcons um
O R
ĠM ed
Ġeduc ation
i res
at t
Ġf ar
Ġrel ations
Ġch all
ort s
Ġm ot
one y
Ġchang es
Ġbe gin
ist ic
u ed
Ġab ove
av es
m ost
Ġsing le
Ġresp ons
y le
Ġinf lu
Ġen s
pl ace
Ġresp onse
a ut
Ġe y
Ġas k
Ġto ol
th ing
Ġne cess
b ack
Ġ19 6
f er
a im
ĠG en
Ġf ull
E N
Ġg ive
Ġdiff icult
r ay
o ber
Ġincre ase
Ġm illion
ip le
Ġc ity
u nt
pec ially
Ġto t
Ġwork ing
act ion
Ġs ens
Ġk ind
## #
ĠI m
l en
Ġl oss
b o
Ġexper ience
ĠM ay
Ġha ving
The re
re en
a i
it le
re am
Ġ3 0
Ġhig her
E rror
Ġtyp es
ro ll
Ġneed s
Ġne ver
sel ves
in ter
g es
f o
Ġhow ever
Ġa way
ass ert
Ġcount ries
Ġen ough
al f
le ep
ĠG e
Ġ >
us er
ars er
ĠC ar
Ġf ri
a f
Ġl ay
Ġd oc
z e
Ġs ource
and om
Ġcont ain
i pp
---------------- ----------------
Ġle ast
read y
Ġw ays
Ġconsid er
ĠO ne
om es
' '
ict ion
ub lic
Ġte am
Ġw ind
ver age
Ġacc ount
Ġh ouse
ĠTh at
ĠG o
au gh
Ġ1 00
Ġrequ ire
Ġgener al
ĠEng lish
N A
Ġgo ing
Ġs ent
y pe
Ġ1 3
] .
Ġquest ion
Ġte ac
c he
Ġ **
Ġst ory
p re
ĠM ar
ĠW ith
val ue
ĠP r
Ġcol lect
our n
Ġb ig
re l
ar ing
Ġd ig
is ter
ch ie
is ing
am ed
ĠS ome
es c
Ġm akes
ur ch
Ġf urther
Ġd am
t ext
um p
Ġc y
Ġpol ic
Ġwhe ther
F or
e b
Ġc hem
Ġsub ject
Ġab s
Ġcan cer
ra ft
ip s
Ġp ort
Ġche ck
Ġcomple x
cl us
Ġe ither
Ġl ower
Ġrequ ired
iv ity
ĠS outh
et imes
Ġimpro ve
Ġan sw
Ġoff ic
Ġan n
Ġt arget
Ġre d
Ġg round
Ġd est
Ġadd ress
u ation
pl it
ac c
m a
m ed
it es
Ġl en
Ġcre ated
pt oms
se qu
I T
Ġc le
Ġeffect s
T o
Ġpl ants
ib ility
S T
and s
Ċĉ ĉ
Ġin put
E x
Ġph ot
Ġes pecially
Ġbuild ing
ĠP ol
at ter
ĠA ust
g ress
Ġpro b
Ġprodu ction
Ġgrou ps
Ġhist or
ib r
Ġcon cept
is es
Ġre ason
Ġa ction
ĠC al
ed s
Ġ19 4
he ad
Ġ @
ach ing
Ġal ready
Ġf ail
==== ====
Ġb ir
i ol
Ġphys ical
Ġout put
Ġm ass
ĠP ar
Ġrese arc
b on
mod el
Ġc ases
Ġrec ogn
b l
is c
Ġm ind
Ġne g
Ġsc ience
Ġknow ledge
Ġunderstand ing
ĠN orth
Ġprot ect
ĠN e
ep end
2 2
Ġp y
ou ra
Ġd om
ar i
f act
Ġcon cer
Ġ2 5
ct or
ne y
Ġs ound
Ġr ather
ĠR ep
Ġse en
ĠM an
ri ption
ĠA b
en c
Ġd one
Ġf und
ove red
Ġre ally
e y
g o
Ġe ff
Ġmem bers
o res
Ġvar i
Ġsu re
Ġm ax
con fig
ill ed
c hes
ĠS y
Ġind ic
Ġgrow th
Ġgl obal
ur l
o on
ĠIn tern
Ġstud ies
h old
Ġem ploy
Ġeng ine
r ight
tt p
iz ing
ĠA ss
iv il
en n
Ġres ources
Ġp ay
un g
Ġtot al
Ġbl ack
Ġf all
w h
em pt
ul es
op h
Ġbre ak
Ġob serv
Ġh old
Ġcol or
ĠC ont
ĠG u
Ġn ational
Ġatt ack
ag ing
ĠT rue
or g
Ġdet ail
sy ch
C on
en ces
ad es
Ġpolit ical
ud e
ell ing
Ġmod ern
Ġsur face
Ġr ate
Ġiss ues
Ġe p
Ġon ce
ord er
Ġp aper
d om
re m
Ġrel ig
Ġl ot
Ġa chie
am b
ear ch
Ġ1 1
p art
Ġf requ
w rit
Ġrelations hip
Ġpartic ip
ac ed
Ġup on
Ġl ive
2 4
ĠH ist
Ġf ive
Ġsimp le
um ents
Ġso ft
Ġmus ic
Ġint rodu
A l
ri ed
A N
Ġbe gan
it er
in ary
Ġbel ow
R e
ĠĠĠĠĠĠĠĠĠĠĠĠĠĠĠĠ ĠĠĠĠĠĠĠĠ
ffic ient
Ġdevelop ed
Ġpat ients
Ġc ame
Ġ --
op t
Ġexper ien
Ġs ite
om m
Ġassoci ated
ĠAmeric a
um e
Ġconsid ered
Ġfl u
ĠF l
e gr
Ġactiv ity
Ġactiv ities
res p
ĠG r
u el
Ġsym ptoms
Ġl iving
Ġcont ent
Ġquest ions
Ġar ch
Ġcir c
Ġf ig
it ary
en ing
Ġex c
Ġacc ording
ĠA m
Ġact ually
Ġwh ite
en e
N one
Ġpat tern
Ġg ra
Ġadd ition
Ġc ut
as c
in ing
o at
iv al
im ent
Ġst ates
es e
ĠY ork
ch an
Ġneed ed
al t
Ġart icle
2 1
Ġess ential
Ġg e
ap an
Ġn ut
re c
en ed
Ġ[ ]
Ġl a
W hen
ĠA fter
Ġn ature
Ġj ob
Ġanim als
Ġpart s
Ġme et
ct ions
Ġqu ality
Ġval ues
et ers
ide o
Ġst op
Ġpos ition
Ġev idence
Ġsk ills
le x
Ġto ok
Ġproduct s
Ġw id
Ġpress ure
ĠN o
Ġthem selves
Ġ ri
ĠBrit ish
Ġthough t
Ġt aken
Ġent ire
m ission
os is
Ġprof ess
Ġsugg est
Ġmark et
idd le
ly ing
par am
cept ion
ĠSt ud
Ġpub lished
Ġredu ce
d f
ĠH is
ag ed
ut ions
Ġcomp any
Ġe ver
m l
Ġwho le
st er
n ces
t rain
Ġcan not
Ġt er
re ed
p oint
Ġwrit ing
ĠEar th
m ax
ĠS oc
2 3
er ation
Ġcl imate
in put
Ġide a
ect ions
Ġl ink
n ew
Ġf arm
Ġc at
Ġcom es
Ġmed ical
ult s
th on
Ġd ru
Ġwe ight
Ġbu ilt
Ġright s
Ġqu ick
st ance
am in
li ke
d at
Ġlit er
Ġrel ated
. )
ĠD r
Ġpop ular
Ġindividual s
Ġmain tain
Ġde b
end er
Ġse par
h ib
ver se
Ġopp ortun
Ġfam il
ĠSt ate
Ġit self
Ġserv ice
Ġpre vious
row n
Ġem b
ĠM e
ourn al
Ġpract ice
it or
R E
ĠP e
Ġm oney
Ġincre ased
Ġreg ion
p ose
d d
ust om
u ff
Ġd iet
c hed
Ġthrough out
u ck
Ġs ix
ĠS chool
P ro
ĠA ct
ĊĠĠĠĠĠĠĠĠĠĠĠĠĠĠĠĠ ĠĠĠĠĠĠĠĠ
ind ex
a it
m ing
ist ance
Ġpri v
Ġ{ }
ad a
Ġcontin ue
Ġm icro
Ġ5 0
Y ou
Ġmod els
Ġeconom ic
Ġfact ors
I C
Ġan c
ĠĠĠĠĠĠĠĠĠĠĠĠĠĠĠĠĠĠĠĠĠĠĠĠĠĠĠĠĠĠĠĠĠĠĠĠĠĠĠĠĠĠĠĠĠĠĠĠĠĠĠĠĠĠĠĠĠĠĠĠĠĠĠĠ ĠĠĠĠĠĠĠĠĠĠĠĠĠĠĠĠĠĠĠĠĠĠĠĠĠĠĠĠĠĠĠĠĠĠĠĠĠĠĠĠĠĠĠĠĠĠĠĠĠĠĠĠĠĠĠĠĠĠĠĠĠĠĠĠ
Ġresearc hers
ĠHe alth
es tern
ĠB r
ĠC o
Ġperson al
an ced
Ġab ility
Ġra ise
Ġpro te
Ġmethod s
qu al
Ġsu n
Ġpr inc
Ġser ies
Ġde g
Ġmaterial s
od es
ĠD o
Ġorig inal
rou p
ĠJ an
ow s
ver t
A L
Ġh alf
um n
j oin
Ġc ode
ren ch
Ġtrain ing
Ġe mer
Ġmeas ure
Ġcomput er
Ġstruct ure
Ġwe ek
t a
Ġc amp
Ġst ress
Ġm or
Ġanal ysis
Ġcl aim
ĠI I
if t
Ġconf ig
et y
at ives
ut es
Ġ \
Ġb ar
le ge
Ġsk in
i ate
Ġeffect ive
Ġsoc iety
W h
Ġav oid
ograph y
Ġserv ices
m et
ÂłÂł ÂłÂł
ĠJ apan
Ġnecess ary
g round
Ġprov ides
Ġg as
Ġp ie
pp er
Ġal most
Ġev ents
or ch
ol ic
ar ies
Ġsu ff
ĠE d
ĠD ep
Ċ ĠĠĠĠ
l s
Ġy et
4 0
Ġrec omm
Ġprodu ce
Ġm ach
ra p
ĠQ u
Ġreg ard
Ġre v
Ġt ell
ĠS u
ĠJ u
( [
ens ion
Ġl o
ic les
Ġstud ent
st ate
it ation
Ġl ed
Ġt rue
er ous
ac he
O n
Ġ Â
Ġf ish
ĠK ing
L E
Ġmean ing
Ġterm s
Ġo il
Ġde ep
Ġchall eng
Ġcont ext
op s
######## ########
Ġ+ =
Ġg ame
Ġfe ed
Ġde cl
ĠM in
b ased
n a
ill i
Ġcond ition
em ic
ve re
an a
Ġcle an
ens ive
ĠA pp
Ġappro ach
Ġcomp et
Ġl oad
a ff
ĠA ug
er ate
am ent
Ġf em
Ġrem ain
Ġman agement
Ġf ru
ĠC ount
f r
Ġshow s
s u
Ġt alk
Ġf ire
Ġorig in
e le
3 2
Ġse lect
Ġmonth s
I S
Ġs ense
ĠWh ile
ĠP er
Ġs at
Ġtemper ature
h ood
ers on
art ment
ĠAust ral
av ing
Ġgre en
ĠF alse
Ġs leep
Ġincre asing
Ġex erc
Ġhealth y
Ġdef ault
ĠJ ew
Ġwrit ten
i ke
Ġcl ose
in fo
Ġcl os
cc ording
B ut
Ġt aking
Ġf at
u ary
C l
ist ics
Ġst e
f ield
Ġprovid ed
im ately
ac hed
Ġ- >
et ime
ĠI nt
Ġp age
Ġcon duct
Ġn ormal
A C
Ġcomp on
he t
r s
Ġb ase
Ġac cept
w ith
s ub
r ict
âĢ ¦
l t
Ġsur v
ren g
Ġse x
Ġbehav ior
ru st
Ġnet work
o or
min ist
Ġsom etimes
Ġmat ter
ol l
cre t
Ġun ique
l ight
ast ic
Ġparent s
ab it
Ġchem ical
() )
Ġpre dict
Ġl ives
F alse
Ġs qu
Ġgr ad
land s
ĠN ot
Ġpoint s
ful ly
al ing
en ame
Ġlong er
im age
Ġhe av
Ġhe at
ĠV al
Ġinst ead
Ċ ĠĠĠĠĠ
Ġcom pl
Ġreg ular
Ġcult ure
ul ations
Ġmed ic
Ġd iv
id ge
Ġd og
Ġread ing
Ġcomm and
Ġsa f
im um
Ġa verage
Ġd raw
Ġform s
in o
C om
ĠP art
al y
Ġ }
Ġse em
e v
oun ter
am ples
iss ions
um b
Ġus es
m un
Ġrequ est
Ġl ength
Ġh ost
ob ject
Ġth ing
Ġdesign ed
Ġexp ress
Ġet c
rib ute
( ).
Ġme chan
ĠO ct
Ġstand ard
Ġca pt
arr ay
iz er
Ġcaus ed
ail y
or ks
Ġimp lement
Ġcor rect
rib ution
Ġf ace
h a
Ġun it
pr il
le ase
Ġm ix
Ġfor ce
Ġresp ect
Ġh ours
ur s
t ings
Ġon line
' .
res h
8 0
am a
Ġrec ent
c ount
i us
E T
Ġb al
o ff
] [
ra py
Ġnum bers
Ġsp read
ĠP res
' re
Ġto wn
ĠR et
ĠAr t
Ġl ate
st art
ar ily
com p
ĠM arch
j son
E D
ĠR uss
Ġsome one
Ġass ess
ra g
Ġatt empt
un ction
Ġindust ry
6 0
Ġ2 4
l im
il le
Ġdoes n
Ġp ack
Ġmove ment
t ies
ĊĠĠĠĠĠĠĠĠĠĠĠĠĠĠĠĠ ĠĠĠĠĠĠĠ
Ġsimp ly
Ġs low
u ild
Ġem ot
out put
Ġinvol ved
as et
Ġenvironment al
b ook
Ġso il
Ġens ure
Ġcaus es
Ġbr ing
Ġstart ed
Ġhelp s
Ġv iol
u k
ĠF rench
b an
g ar
l oc
id ed
Ġint egr
ĠCom p
Ġinclud ed
ie f
Ġp ict
Ġinclud es
Ġin j
m ain
Ġmult iple
Ġcont act
ed eral
Ġiss ue
H e
ac hes
Ġfe atures
it ch
Ġwrit e
r ate
ri al
Ġprodu ced
or ation
l ied
w here
Ġcons ist
Ġrem ov
Ġde mon
ve y
l in
Ġcar bon
ap ter
ĠInd ia
Ġout side
Ġgre ater
Ġs ources
Ġdo ing
Ġre view
Ġsh are
ĠSe pt
A r
rop ri
Ġt ax
Ġansw er
Ġf oot
Ġear th
Ġtra vel
ok en
ell ow
Ġfil m
ĠAug ust
ĠJ une
Ġa x
Ġt able
s v
R es
p es
. [
Ġdoc ument
Ġpos itive
o ch
Ġeas y
Ġse arch
er ve
em ent
Ġbenef its
rough t
Ġst reng
Ġref er
Ġh arm
u fact
Ġthe ory
Ġcomp an
Ġsh own
Ġ ,
sh ape
Ġp sych
Ġto wards
qu e
Ġschool s
c ks
Ġ version
ic ense
ag er
Ġde mand
Ġ4 0
Ġl ack
Ġbelie ve
Ġelect ric
Ġn amed
Ġallow s
Ġhe ld
Ġa ff
Ġst ri
Ġpre c
n p
m at
Ġth reat
Ġt ree
Ġw ild
Ġscient ists
Ġenc oura
Ġparticular ly
n ed
Ġident ify
Ġt akes
x y
ĠRe g
Ġl ove
ron ic
Ġl ines
w args
Ġinst ance
Ġperform ance
b all
im al
Ġev al
Ġm essage
Ġtrad itional
ĠM us
Ġbas ic
Ġse ason
cur ity
Ġdi agn
ĠC O
Ġele ments
iqu es
Ġb acter
Ġbl ock
ound s
Ġr out
ric ult
Ġm agn
ers hip
is ions
Ġcomple te
ĠIn stit
Ġatt ention
ĠCh ina
Ġ19 5
t es
Ġs old
Ġind epend
r ast
Ċ ĠĠĠĠĠĠĠĠĠĠĠĠĠĠĠĠĠĠĠĠĠĠĠĠĠĠĠĠĠĠĠĠ
er o
ĠA pril
Ġprogram s
ĠJu ly
Ġdemon str
Ġmed ia
Ġc ross
ĠRes earch
Ġexp ected
Ġarg s
re w
du c
Ġd ou
on y
Ġa ud
Ġprim ary
Ġcomm it
mb ol
ĠC ons
n own
at tle
Ġas pect
p ite
tr ans
ĠW est
it ude
b it
Ġins ide
ĠGerm an
Ġdam age
Ġv ideo
Ġ201 0
at ively
f ect
y ear
Ġbro ad
Ġgener ally
Ġe at
ĠS w
pl ot
ab et
Ġex ec
Ġf av
r un
d b
6 4
Ġacc om
Ġf inal
Ġre pl
Ġsa fe
Ġadd ed
ĠY our
p id
n ov
s plit
ĠM ore
Ġm other
ĠEurope an
O ne
ĠCh ar
ce mber
Ġreport ed
Ġn ight
Ġth ird
Ġ201 2
Ġsh ape
Ġd ate
b or
ĠI S
act ions
ing ton
Ġestab lished
9 9
Ġmil itary
Ġsu st
r am
Ġtool s
Â °
Ġc ivil
Ġe th
ĠSept ember
Ġpolic y
Ġvar iety
ĠS ch
Ġb orn
ro om
Ġprob ably
u ge
Ġhy d
3 3
ri e
k en
Ġim ages
Ġsoft ware
Ġse a
c ode
Ġloc ated
ove mber
Ġfr ont
Ġ ir
Ġref lect
Ġdiffere nce
Ġfore st
c ial
an ks
Ġintern ational
__ __
Ġrece ived
Ġwe bs
Ġcommun ities
B y
Ġs il
1 00
erv ation
Ġanim al
Ġw on
ĠA g
Ġe c
Ġel if
ĠS m
od ing
ribut ed
cl es
ir it
ĠHist ory
ĠJan uary
ĠSc ience
o es
Ġw arm
Ġb it
Ġext ra
Ġlead ing
Ġpro gress
ĠOct ober
ĠAd d
Ġc ustom
R O
as ons
U T
Ġst atus
Ġear li
ĠB ar
Ġhum ans
c ome
Ġbeh ind
Ġide as
l ay
Ġfin anc
Ġ201 1
Ġpo or
Ġgrow ing
Ġw ent
Ġfe et
Ġal tern
Ġ id
Ġw all
Ġget ting
ĠM y
ĠM any
Ġlarg er
m ark
ĠG l
im in
Ġw ood
ol es
S c
Ġind ex
Ġh or
ou d
ĠE m
Ġcrit ical
Ġdevelop ing
Ġth us
Ġacc ur
ĠM on
. __
Ġre ve
od el
Ġdev ice
us ed
A P
Ġr andom
Ġanal y
tt ps
Ġman ufact
Ġpar am
con n
il es
ĠD es
Ġinvest ig
ic ated
Ġag o
ĠH ar
Ġqu ant
Ġbook s
ww w
ret urn
Ġan g
ĠInd ian
Ġval id
Ġact ive
ce ed
ĠE l
Ġse qu
Ġvis it
ĠA c
Ġmem ber
in ks
Ġspe ed
Ġa ware
ur ation
Ġco ver
Ċ ĊĠĠĠĠĠĠĠĠĠĠĠ
if orn
ec ause
A M
Ġfood s
S o
ex p
Ġlook ing
use um
ĠP re
Ġoff er
Ġm om
Ġvir us
Ġb ur
I ON
w ise
Ġc it
Ġro ad
Ġpre p
Ġ201 3
e ch
I m
h aps
ĠF eb
writ e
ĠM c
Ġ2 1
Ġst at
Ġfor mer
Ġqu ite
Ġf ul
ul ate
on om
9 0
er g
or por
Ġfr ame
j oy
Ġj son
Ġser ious
n et
ĠA nt
w o
Ġob tain
ist ry
d is
pro cess
Ġmem ory
Ġeas ily
ic a
Ġro w
Ġcont ains
Ġadd itional
Ġquick ly
U n
Ġor d
iz es
Ġex act
in ct
Ġpat ient
Ġsaf ety
Ġc red
ien cy
Ġm ental
ce an
h ing
Ġl if
Ġ â
Ġs ection
Ġv acc
Ġd aily
Ġn orth
ĠH er
Ġinst it
ĠU s
Ġs al
ĠO ther
S E
Ġdirect ly
Ġscient ific
Ġcomp ared
2 7
ĠDe cember
i ers
Ġa im
Ġcult ural
Ġt orch
a ul
iforn ia
Ġb ad
ibr ary
bo ard
ĠT est
v ant
Ġconn ect
el t
Ġachie ve
id er
Ġdeterm ine
E qual
Ġcon cent
Ġspe ak
Ġde m
Ġs n
Ġest im
ag s
all ed
Ġstr ateg
Ġcompan ies
Ġn ames
an cy
ism s
Ġ `
ter m
ĊĊ Ċ
ĠM ost
ĠD av
ens or
ĠC ity
Ġim ag
Ġd ied
C O
ĠAfric a
Ġapp ropri
Ġcreat ing
Ġal though
D ata
ĠF irst
Ġcent ral
Ġst ay
Ġth ous
am er
Ġobject s
Ġoffic ial
Ġc opy
ĠG ree
ĠN ovember
ro te
ĠIntern ational
out hern
A D
l ict
Ġ Ð
Ġon es
Ġn uc
Ġcal cul
[ :
Ġthere fore
Ġexp ect
Ġsur round
c il
Ġ201 4
Ġfe ature
il os
it ect
Ġtrans port
ed i
d a
Ġpro pos
h t
ar a
ĠW illi
par se
vent ion
Ġpri or
l ation
Ġro ot
Ġapplic ation
Ġf ather
Ġt end
Ġdescrib ed
clus ion
ĠCent er
Ġd ang
ĠC he
ĠR ec
Ġtechn iques
ort hern
e ed
Ġs us
Ġde cre
ines e
Ġl ost
Ġf it
ire ction
ru ary
Ġad apt
Ġve get
Ġse curity
Ġg ot
ol ar
Ġs ong
Ġc ru
I I
o ke
ra ck
ĠF rom
y ond
Ġso on
St ep
ir m
Ġey e
ĠAfric an
Ġbir th
Ġanc ient
Ġf ast
2 8
Ġrequ ires
Ġd er
ĠR iver
Ġn ation
Ġw alk
i pl
Ġpro p
Ġs outh
ond on
Ġs on
Ġh ot
Ġb ab
o e
Ġm ount
Ġloc ation
Ġc ard
Ġf ight
Ġtra ck
re st
Ġrele ased
Ġinflu ence
3 5
C T
ĠCal ifornia
ro y
Ġtest s
Ġh ttp
Ġfamil ies
o ice
Ġwh ose
Ġk ids
{ }
Ġlab el
os ition
Ġ200 9
lab el
b ed
g l
Ġt iss
g n
ic ate
Ġsa ve
Ġfri end
os ing
air s
ĠD is
Ġbec omes
Ġstr ing
h am
om et
Ġcap ital
iz ations
ĠEng land
um an
Ġsy s
Ġ200 8
A nd
S e
I V
Ġfil es
ĠTr ans
u ous
r ange
Ġac id
u ate
r ong
H E
Ġt im
f ord
Ġse ems
olog ies
Ġbegin ning
Ġg raph
Ġhigh ly
Ġcomple t
k nown
Ġdef in
Ġproper ty
3 4
re et
an ch
2 6
j ust
Ã ¡
und red
Ġp arser
Ġtre es
Ġhistor ical
ab ase
ĠĠĠĠĠĠĠĠ ĠĠĠ
Ġcent er
ĠE duc
Ġm ole
Ġprocess es
Ġc ateg
Ġlim ited
A t
Ġimport ance
Ġsol ution
n o
à ¤
ill ing
r ad
ĠH igh
ul a
act ive
ur ies
Ġst ru
Ġins p
Ġwe b
Ġdec ision
od ies
ĠInstit ute
Ġ201 5
m ap
Ġthink ing
Ġteac hers
ĠP ark
Ġd ark
Ġpriv ate
Ġsol ar
Ġlim it
Ġen joy
hen s
d own
T est
Ġad minist
Ġuse ful
Ġdise ases
7 0
Ġevery one
Ġmin utes
Ġcol on
a ur
ur g
r ig
h and
oc ks
Ġapp e
ã ģ
e ks
Ġexpl ore
i ot
ĠChrist ian
Ġcommun ication
Ġsit uation
Ġnew s
Ġm id
Ġrem ains
Ġv ill
Ġt ask
ann el
ig r
Ġv it
Ġinit ial
Ġsupp ly
ra b
Ġsust ain
am ic
ĠCount y
Ġgo al
Ġse vere
c an
Ġc ool
( ),
t em
ic o
Ġdis play
S h
Ġpur pose
Ġd ry
Ġj ud
Ġneg ative
c ast
Ġrelig ious
o very
Ġpro ced
og le
Ġfinanc ial
f ort
Ġw ide
Ġfor ces
Ġlab or
m en
Ġv ia
ĠH ol
Ġh ar
ri x
m ethod
un ch
Ġm ention
ĠAl though
an ish
Ġlarg est
or age
oc r
om b
ĠR ed
ect or
Ġfun ctions
s um
Ġprote in
Ġu nd
Ġsc ale
Ġve h
Ġar ri
v ision
Ġtyp ically
ĉ ĉ
Ġdev ices
ĠPres ident
ĠDep artment
od ay
( (
ĠJ es
Ġcap ac
gen cy
Ġexerc ise
) ;
ele br
ĠS erv
Ġro ck
Ġp an
assert Equal
ĠI r
ro gen
Ġst age
Ġv ict
ĠFeb ruary
Ġdr ink
sh ip
Ġhand s
p red
Ġestab lish
Ġ201 6
Ġdo ctor
Ġaut om
Ġpract ices
3 6
Ġcar ry
Ġexam ples
Ġb rought
Ġe lement
7 8
Ġc ou
por ary
Ġeff orts
ell ig
l ib
Ġbe aut
p ass
in stance
ens ity
2 9
ĠB o
a id
ĠU nder
ch ange
Ġtrans form
Ġw rote
Ġen h
Ġopt ions
val id
tern al
ĠL ondon
k y
Ġpl aces
Ġb all
ro s
ĠCh urch
Ġhim self
Ġro om
requ est
ĠUn ion
ord ers
Ġst ories
k wargs
Ġover all
ĠCan ada
Ġwork ers
os ure
Ġ ice
l or
Ġro b
Ġevery thing
c raft
Ġd ict
Ġt en
Ġer ror
b ox
ĠAss oci
Ġg ard
ough t
Ġs ort
om ing
ĊĠĠĠĠ ĊĠĠĠ
Ġapplic ations
Ġvis ual
Ġpol l
O T
C ont
Ġre ach
as ks
Ġb ox
Ġconf lict
arg ument
ul ated
Ġprom ot
Ġstep s
Ġfri ends
Ġne igh
Ġh abit
ĠCh inese
** **
Ġ200 7
ord s
Ġm atch
le vel
Ġw in
he l
D E
Ġr ates
Ġsy mbol
Ġbe yond
pl ate
Ġr ules
m ar
Ġ6 0
an i
Ġg ain
ĠE ast
Ġus ers
Ġsa w
Ġsc reen
Ġ ]
ä ¸
Ġcont roll
m ore
Ġ2 3
Ġte le
Ġm ill
Ġ ...
re es
z er
id ents
Ġcontin ued
Ġtr ade
augh t
ap i
ip ment
oc ol
Ġdig ital
str ing
abet es
Ġform at
Ġchalleng es
ĠG reat
Ġinf ection
Ġrespons ible
ag ue
Ġt itle
Ġtest ing
Ġcost s
ĠR oman
Ġm is
Ġb urn
i ar
Ġst yle
Ġp ick
W ith
ĠL ab
un c
Ġ !
Ġh ous
Ġsee k
ĠW ash
Ġ rain
Ġallow ed
Ġfollow ed
st e
Ġm ap
ud d
it able
Ġh undred
Ġprofess ional
m osp
Ġsmall er
Ġconst ruction
y ing
Ġconst ruct
ĠD uring
Ġany thing
ar ian
at form
Ġis n
i ples
Ġyour self
Ġra pid
Ġexpl ain
at ur
Ġsuccess ful
Ġf uel
al ed
ĠGo vern
Ġm iddle
Ġey es
Ġ2 2
f low
Ġfield s
Ġdist ance
c oh
d im
ed ia
Ġ2 8
Ġit em
ĠBl ack
se e
oun cil
Ġ201 7
ĠSy stem
ot al
Ġlog ging
v est
or ge
en ge
pp ed
Ġle aves
Ġcit iz
Ġcol l
Ġtry ing
ĠTe chn
Ġe gg
Ġproject s
Ġleg al
Ġm iss
Ġdep end
ild ren
Ġresp ond
I M
ĠH ere
Ġin form
Ġwork ed
Ġadv ant
Ġb ound
Ġs ample
Ġo ption
Ġcl in
ĠH ouse
Ġnear ly
Ġmil es
Ġcol lection
Ġplay ed
Ġb ott
3 8
se ct
Ġf ix
Ġc ook
Ġconst ant
w orks
Ġg ives
or ial
Ġte aching
Ġh on
Ġfor ward
Ġto ld
ĠF in
Ġm er
ĠA ng
Ġin str
st ant
I s
Ġwe eks
ib er
ĠJ ust
Ġr ule
Ġappro x
Ġm ag
Ġappropri ate
Ġform ed
w ater
19 9
Ġde ad
l ife
Ġbacter ia
Ġra re
Ġhy p
Ġconst it
âĢ ¢
Ġrem ember
ord in
ra el
IN G
'] ,
Ġrun ning
ing u
U R
Ġac qu
Ġprovid ing
Ġag ricult
ĠAmeric ans
F ield
ĠD ay
3 7
Ġt f
Ġpattern s
Ġnot hing
Ġexperien ces
em y
Ġk ing
re me
Ġprot ection
Ð °
Ġd en
ĠC ong
i as
ĠCom mun
Ġco ast
ĠS an
ĠA ir
gr ad
Ġno vel
Ġc elebr
Ġsh all
Ð ¾
Ġ2 6
ign ed
al d
Ġa w
Ġwas te
Ġs ch
re f
Ġ vers
at in
ĠFr ance
Ġa p
us ion
hem at
Ġask ed
Ġdeg ree
Ġw ond
Ġ200 0
en v
Ġcurrent ly
Ġpower ful
b re
Ġproper ties
Ġit ems
l ies
ir ing
Ġmach ine
ĠP at
Ġb ul
Ġsp irit
Ġearli er
Ġbehav i
ĠP ress
Ġnum py
ic ip
Ġse c
Ġplan et
Ġgo es
Ġact ions
z z
Ġcol d
Ġw oman
C ol
Ġserv ed
it is
Ġant i
Ġdiffere nces
Ġd yn
ĠC our
Ġcho ose
3 9
Ġgu id
Ġwebs ite
Ġelect r
Ġ2 7
Ġde al
b in
Ġchang ed
ĠC or
'] )
m essage
Ġbas is
Ġdisc overed
Ġlaw s
ĠL ist
Ġconn ection
Ġg old
ĠGerm any
Ġcont ribut
Ġre asons
cl ient
im g
Ġad ults
Ġsum mer
ub e
ĠAustral ia
Ġsit es
ĠN ow
ph as
Ġstreng th
Ġexp and
U S
ĠL icense
l o
Ġold er
Ġcon sequ
he st
Ġvir t
ĠM ex
Ġ200 6
Ġbo ard
Ġd im
Ġoccur s
Ġst ation
se mb
ĠĠĠĠĠĠĠĠ ĠĠ
stand ing
e qu
Ġpl t
Ġorgan ization
Ġr at
Ġarch itect
osp ital
ĠL et
if ul
t op
4 5
Ġlay er
T ype
Ġl at
ĠV ir
ĠA ccording
er ror
st ances
ru pt
Ġcompon ents
Ġch urch
Ġp ow
Ġeconom y
Ġ201 8
Ġbelie f
enc ies
ĠJes us
ĠWash ington
Ġcare er
e es
Ġc op
Ġcont ract
Ġwe ather
Ġm ut
act ers
Ġteac her
Ġt ur
Ġf ear
ĠB i
b orn
Ġ20 20
ĠRe ad
Ġpass ed
v is
Ġu lt
Ġsu gar
Ġ19 0
ĠD ef
Ġro t
res ult
u x
ĠDe velop
ĠThe n
ĠL aw
A ll
w ide
ĠPh il
Ġre pe
Ġd irection
ĠĠĠĠĠĠĠĠ Ġ
Ġr ich
in y
ĠE ven
ĠĠĠĠĠĠĠĠ ĠĠĠĠ
Ġrece ive
Ġequ al
Ġess ay
b um
---- --
ĠIn ter
ĠGen eral
Ġpr ice
Ġn orm
Ġaffect ed
Ġpl aced
Ġdid n
ĠD NA
Ġe ating
w id
Ġcomplet ely
Ġph ilos
Ġfem ale
ig en
Ġst ar
Ġdru g
Ġr ise
os es
Ġmov ed
The se
un k
âĢĿ .
Ġf air
i i
. """
est ic
mit ted
Ġinterest ing
Ġequ ipment
Ġin nov
f ix
l ength
Ġle ave
Ġal one
Ġent er
Ġrec ently
coh ol
Ġm ath
el ine
Ġf a
ic ations
p ret
idd en
ht ml
ĠWilli am
Ġper fect
Ġy ield
om as
Ġpur ch
a ign
ro ad
ĠU se
Ġev olution
Ġsh ap
Ġs we
ib ly
ĠO ver
Ġmom ent
Ġocc up
ĠD on
Ġrem ove
Ġbenef it
Ġbe g
Ġcol lab
Ġrele ase
Ġat mosp
ĠS er
Ġc and
Ġc ry
it em
Ġst ore
Ġcommon ly
Ġext rem
Ġtrans fer
ĠL ear
Ġg ave
le te
Ġdetail s
I L
Ġmov ing
ĠK e
Ġa uth
Ġact ual
Ġexist ing
for ce
Ġdef ined
Ġgen etic
Ġstru gg
ĠIs rael
st atus
l ant
st ruct
ĠAr ch
Wh ile
Ġf ederal
Ġg ir
ĠCol lege
I nt
a res
ĠN et
Ġc orn
A fter
Ġredu ced
Ġcho ice
Ġem ail
cre ate
g or
Ġe ight
Ġto ward
ĠM ich
Ġsit u
i j
Ġpie ce
ri p
ĠS ince
Ġcomm erc
ĠEduc ation
======== ========
A B
Ð µ
7 5
Ġthe rapy
h ouse
Ġac ad
ĠM or
Ġapp lied
Ġpict ure
Ġ! =
Ġevent ually
l ines
i os
Ġ ign
Ġass um
p an
Ġfact or
Ġut il
Ġp et
Ġdest roy
Ġmeas ures
Ġn av
h ost
ĠP al
g u
Ġbal ance
Ġeff ort
ĠS ur
Ġt ou
ĠS im
Ġpres ident
Ġe fficient
st ep
if ically
Ġoff ers
ĠO f
Ġill ust
' ll
ĠC ur
Ġhe ight
n ers
Ġcomp ar
N ow
ĠA re
g al
ĠL a
re p
Ġopportun ities
Ġbir ds
al le
Ġpart y
Ġb illion
de v
ĠJ ames
Ġstrateg ies
ĠU K
n ode
ak er
Ġfig ure
Ġg ames
rom e
Ġnot e
ĠD ist
ĠPe ople
Ġw rong
reed om
Ġfav or
Ġstruct ures
E n
Ġexp osure
Ġd f
ĠA N
r is
ĠThe ir
Ġj oint
os y
S ome
Ġ --------
Ġdist rict
Ġ200 5
ĠO ur
Ġcon v
ĠE ach
P h
ĠB ook
Ġm ob
Ġcapac ity
Ġopportun ity
Ġmajor ity
Ġb and
ef ore
ĠD em
ĠSoc iety
Ġpres ence
P I
p at
c sv
Ġcom ing
Ġ ing
ĠRep ublic
Ġc ities
id ing
Ġn ode
ab ilities
ri ef
ien ces
ra ction
s pec
ĠDav id
ous ly
p en
Ġw inter
Ġchar acters
Ġfore ign
ast e
og en
Ġass ist
ĠAl so
ĠW estern
N ame
Ġ Ã
yn c
Ġpers pect
p ost
ere nces
d o
Ġp en
Ġful ly
Ġr ound
c are
Ġres ource
Ġoff ice
E M
ĠB ra
r im
ĠP y
ent y
Ġapp ly
Ġstand ards
b ase
at ers
Ġdru gs
Ġappear s
Ġper haps
ĠM et
Ġsp ect
Ġqu al
t itle
fl oat
val ues
op en
Ġpe ace
Ġc ounter
Ġ201 9
ĠR em
Ġdist ribution
Ġreg ions
Ġbl ue
Ġ Âł
P S
Ġex hib
ĠS pec
i ance
Ġcl ient
ĠJew ish
Ġimm une
Ġaspect s
gy pt
Ġsignificant ly
Ġident ified
Ġte eth
r ors
f ind
Ġgen e
Ġsepar ate
u it
ĠD ata
Ġbelie ved
Ġh ope
p ing
i ated
Ġrecomm end
I G
' ),
0 1
ĠAssoci ation
g roup
id a
Ġd ivid
L ist
ĠJapan ese
Ġcom ment
Ġc ore
fil ename
Ġri ver
ain t
ĠR ober
L e
Ġw atch
Ġw orth
ĠG reen
Ġpre gn
as ion
Ġ' ''
ĠJ ournal
ĠP aul
Ġexper iment
Ġser ve
Ã Ń
Ġv oc
ition ally
fr ame
Ġ2 9
Ġd b
Ġte ach
ed ing
F rom
Ġem phas
ĠO b
Ġw a
Ġdi abetes
t oken
l ast
Ġoper ations
b al
Ġincre ases
Ġref erence
n n
s k
Ġg iving
Ġback ground
Ġf resh
Ġl ived
Ġrel atively
6 5
rel ated
Ġv ot
oy al
resp ond
n ames
Ġm ission
Ġha ir
b ody
Ġe ffic
ĠB el
m d
Ġshow ed
def ault
p ed
N o
y a
ĠB ecause
Ġj ournal
H O
y d
o o
Ġm ale
ro ps
g ment
ĠP ort
xy gen
om a
Ġst im
Ġun c
Ġpl atform
ĠIn st
Ġlearn ed
Ġb ank
P A
par ams
Ġes c
Ġsc en
Ġrecord s
Ġinc ome
* -
w ar
ĠGe orge
Ġnum erous
Ġbre ath
Ġinvol ves
Ġh om
4 8
Ġabs or
ric s
Ġperform ed
Ġinc orpor
Ġres istance
ut ils
Ġm outh
Ġclass es
che ck
ĠI N
le g
Ġsign s
w in
ĠM at
Ġfru it
ol ved
ĠM od
ul s
Ġtop ic
um ber
resp onse
gor ith
Ġp hen
ail s
Ġexper im
Ġcitiz ens
L O
oun ced
3 1
ĊĊ ĊĊ
ï ¼
ĠM ary
Ġstart ing
Ġrad io
ric k
Ġre str
N ot
r c
old er
ĠPro gram
ke ys
Ġint ellig
Ġliter ature
s ave
Ġm ess
mod els
Ġtrans l
Ġ iron
Ġfam ous
Ġill ness
Ġbec oming
Ġexact ly
ĠW ater
Ġinst ruct
l a
] :
Ġwant ed
Ġthous ands
Ġre place
ĠPro f
Ġhapp en
in ated
Ġconn ected
Ġset ting
Ġun its
d ec
Ġn ative
Ġobserv ed
Ġto x
Ġgu ide
Ġgo als
se c
Ġsign al
ĠP ublic
Ġcour t
Ġ( "
amb da
Ġget s
ĠS ub
Ġl ib
Ġd ed
Ġan x
Ġgener ation
m ary
Ġtiss ue
Ġrelationship s
Ġlet ter
ĠRe v
Ġorgan izations
Ġintrodu ced
Ġcommerc ial
' ve
n es
ĠM ark
Ġre ality
Ġt ru
Ġdist inct
g a
Ġdet ect
Ġb odies
Ġatt ract
ĠR ich
Ġ- *-
Ġli qu
Ġcon ver
Ġnut ri
Ġem issions
Ġplay er
qu est
Ġexp ression
ger y
Ġk illed
Ġheav y
u able
ad o
erv ed
Ġgener ate
st ream
b ar
ĠSe e
Ġra ce
ĠM al
augh ter
Ġb atter
Ġnuc lear
Ġcy cle
Ġreturn ed
Ġ8 0
ĠV ol
ĠR el
Ġc ast
Ġinf l
us es
Ġar ray
Ġser ver
Ġbab y
Ġs av
op hy
Ġse ven
Ġfl oat
c ell
ĠE gypt
Ġt rust
Ġapprox imately
Ġconsum ption
Ġ200 4
i able
Ġchall enge
t ical
C C
iver se
ag o
Ġimm edi
Ġcomp re
F ile
r m
Ġal cohol
ĠGree k
Ġsugg ests
F r
ĠSp anish
5 5
t arget
Ġsur pr
ic ks
i pe
ĠCong ress
we ight
Ġmet al
Ġant ib
Ġresult ing
Ġspe ech
ct ors
Ġgl ass
olog ist
ĠT ur
Ġlead ers
f it
' ))
Ġtechn ologies
is ation
Ġeas ier
Ġ[ '
ock et
z a
Ġh op
Ġsh ared
ot hes
Ġs end
ing er
Ġsl ight
Ġst orage
ic ian
Ġlangu ages
if ier
G en
Ð ¸
Ġhig hest
Ġst aff
ĠF ound
Ġimmedi ately
Ġhouse hold
te e
Ġal t
ĠC ouncil
c ular
r andom
Ġfind ings
Ġintern al
Ġplan ning
ĠCon f
Ġexec ut
Ġsex ual
Ġcru cial
ĠD i
A G
Ġhapp ens
Ġinst all
Ġcont rast
Ã ³
Ġsqu are
h ist
wid th
Ġcamp aign
ool s
ograph ic
Ġo xygen
ĠH en
Ġse cret
Ġtr ig
Ġcaus ing
ĠJ e
Ġmus cle
rodu ction
Ġpl ans
ro ot
ĠIt s
} ,
on ic
Ġs em
ent h
Ġdesc ription
Ġapp oint
op er
Ġex cess
Ġdec ided
up date
av a
Ġv ary
Ġs ac
ĠQ ue
Ġtr uth
I nd
Ġaltern ative
Ġnut rit
Ġu pper
ot o
um ns
ĠA v
Ġdec isions
Ġch ance
a el
ĠS un
Ġpresent ed
4 4
Ġem p
ress ed
n ormal
Ġindepend ent
Ġh ol
Ġbuild ings
app ing
at tr
Ġcre ation
Ġopt im
Ġprinc iples
Ġt our
em porary
ĠB er
ĠTh us
EN T
Ġoper ation
row s
Ġh uge
ĠWe b
ac ing
Ġv ision
Ġeduc ational
Ġcar ried
cl ose
ob j
Ġur ban
ro ph
Ġmon it
Ġbu y
Ġmin or
Ċ ĠĠ
Ġbott om
B C
per ty
ap ers
Ġter rit
ig ure
Ġstate ment
ĠG et
Ġb one
Ġmil k
Âł Ċ
Ġchang ing
ify ing
ĠM art
Ġregard ing
w ood
Ġindust rial
ĠC re
Ġcor respond
ph a
C H
Ġreport s
Ġp d
Ġsol utions
Ġbro ther
Ġbel ong
ĠC ath
rib e
q l
Ġdat abase
Ġident ity
ĠWh y
Ġpop ulations
Ġsy nt
Ġdec ades
Ġelectric ity
ed d
O S
Ġextrem ely
Ġm o
Ġb attle
Ġnot es
il it
l oss
ĠCl ass
ri a
Ġg ender
cur rent
M odel
esc ription
ruct ure
el ines
Ġpol y
Ġin sect
ĠF ore
Ġar m
Ġur l
ĠO ut
and er
Ġm aster
ĠM useum
Ġturn ed
Ġpolic ies
Ġm al
d oc
ĠE v
Ġad just
8 8
Ġrequire ments
f unction
Ġj oin
Ġcol lege
Ġsh ip
Ġdri ve
The y
ĠY ear
Ġallow ing
Ġr ul
ĠT ra
Ġmod e
word s
r um
Ġmedic ine
ĠM ount
V al
Ġremov ed
ang o
ang ing
I R
Ġdat etime
Ġop in
ann ed
ens es
Ġdis order
b atch
Ġwe ak
at ically
angu age
io x
Ġmost ly
p arser
Ġfrequ ently
ã Ĥ
Ġvol ume
D A
Ġre b
it ems
ber g
Ġ200 3
ur t
Ġh it
ĠEn vironment
p age
Ġo cean
ĠW ork
Ġinvol ve
A d
Ġmat hemat
our ney
Ġ ^
Ġplay ing
Ġun ivers
id x
Ġpl ot
ĠSoc ial
Ġhelp ed
Ġp p
Ġdisc over
Ġc v
t able
h ttp
ens us
com mand
Ġprevious ly
Ġd rop
ul f
Ġhe ard
Ġmention ed
Ġland sc
ĠIs land
Ġpre d
} )
Ġwid ely
Ġcharacter istics
s l
con ds
Ġtre ated
ens ions
urn s
ĠU p
Ġtemper atures
Ġsol id
Ġauth ors
Ġp al
ã ĥ
ri an
N ew
Ġrefer red
Ġcont ribute
Ġtre nd
ĠP ri
Ġfa ith
Ġgard en
com es
Ġcomb ination
Ġ199 0
ĠW rit
Ġf ert
ĠL ou
Ġredu cing
st ract
Ġleg is
Ġst ream
b and
Ġw est
Ġany one
Ġeffect ively
Ġadv anced
W hy
Ġsupport ed
ĠM ac
ĠO nce
Ġprocess ing
cont ent
ĠO ff
as tern
ĠS am
t ra
ĠH el
Ġsp ring
Ġc amer
Ġrecord ed
Ġpre fer
ĠCour t
k a
Ġdefin ition
Ġgen es
Ġn arr
K ey
het ic
h i
Ġse ed
Ġtechn ique
u ing
Ġfind ing
Ġst ra
ate gy
Ġcomple ted
Ġb ond
Ġch arg
U N
ĠCent ral
col or
Ġfail ure
Ġvill age
iction ary
w ell
qu ery
Ġconcept s
ĠM ars
Ġdep ression
Ġris ks
anc ing
Ġinter pret
Ġfin ally
olog ists
c all
Ä ģ
Ġk id
B N
Ġa st
Ġs ession
ĠU N
Ġpl astic
AS A
Ġdou b
Ġsy n
)) )
Ġnot ed
Ġread y
Ġ9 0
Ġarg ument
Ġval uable
Ġprom ote
Ġrelig ion
Ġext ract
ĠTh rough
Ġconcer ns
me an
Ã ¼
ig ration
Ġconduct ed
Ġsurround ing
Ġsay ing
ur ance
Ġwh om
ĠS al
am ental
ĠTh omas
ad ian
ĠPl an
Ġs amples
ĠM il
Ġv ess
num ber
Ġsur vey
iet ies
ĠWh ite
ish ing
ic ial
iven ess
Ġw ife
g est
Ġis instance
ri age
ĠB en
Ġc overed
ou l
b ut
il ing
b i
How ever
y cl
wh ich
Ġad ult
Ġdep ending
Ġj o
Ġre action
ĠIntern et
Ġin h
ĠL ord
Ġcal c
M E
Ġis land
P E
Ġdeg rees
Ġch arge
Ġfrequ ency
ĠO F
ab s
v ille
Ġrad iation
Ġh ttps
Ġfeel ing
p arent
ĠIs l
Ġf ol
Ġsp ent
ar io
Ġset tings
Ġ( '
ĠD el
ĠAc ad
en ced
Ġp le
ĠM iss
Ġsc ript
Ġre ached
Ġ q
Ġnot ice
ĠB as
ust er
ber t
Ġth ick
Ġ{ '
Ġrele vant
M L
Ġd ial
Ġrestr ict
Ġestim ated
Ġlead s
Ġmeet ing
9 5
Ġ200 1
ĠAr my
Ġcontain ing
Ġm el
ĠSt ep
ĠPro ject
Ġt asks
ol ve
ant ed
p ack
6 6
l ong
Ġcl ick
Ġpie ces
ĠT ex
Ġdescrib e
ang es
Ġrel ative
pos ition
Ġis ol
fil es
Ġh omes
Ġcol umn
Ġdiscuss ion
Ġemot ional
ĠA lex
Ġe ast
Ġra il
Ġg od
Ġs and
âĢĿ ,
o oth
Ġk ill
Ġdis s
Ġpre t
Ġref ers
Ġf reedom
ĠDevelop ment
c a
ĠAn y
Ġfl ood
Ġbre ast
Ġp and
z y
Ġatmosp here
Ġviol ence
Ġd u
rie ved
Ġph ase
Ġhe ar
Ġbeaut iful
Ġpre par
in n
ĠFr anc
Ġme ant
Ġs outhern
ic ed
Ġmot or
Ġc ogn
ĠH uman
Ġapp rec
Ġb ed
is her
H ere
Ġd ie
stit ution
g reg
Ġclin ical
Ġwind ow
ĠL ife
z ing
ĠS T
I d
C E
Ġsp ot
" ),
Ġacad emic
Ġm ist
= [
Ġrem ained
Ġclear ly
ĠĠĠĠĠĠĠĠ ĠĠĠĠĠĠ
Ġal bum
ĠSt e
Ġcirc um
Ġcons c
D e
Ġ200 2
Ġ7 0
ĠServ ice
ĠS et
ĠS om
Ġn orthern
t xt
Ġdis orders
s m
Ġinv ent
Ġprim arily
r ich
ĠN av
ig ation
t ure
ĠThere fore
Ġcon vers
Ġlink ed
Ġv ul
-------------------------------- --------------------------------
act s
ay er
ĠS k
os en
Ġwe alth
Ġb atch
Ġprof ession
Ġclass room
Ġdi verse
ĠA tt
5 00
Ġdirect or
ar p
4 7
ĠP en
ĠRober t
ĠAs ia
Ġdep th
U s
r ated
ul um
Ġdes pite
A ccording
ĠP ost
ĠF urther
M S
as ure
ĠSe cond
Ġengine ering
w est
Ġsc hem
in i
Ġun f
Ġman age
Ġspec ifically
re ement
ĠD irect
Ġvari able
Ġim g
ĠPh ys
up le
Ġ ----------------
Ġexperien ced
ĠOr gan
if orm
Ġ Î
ĠGovern ment
Ġorgan ic
0 5
ov iet
ĠMex ico
8 5
e al
Ġsequ ence
Ġh our
go ing
U L
Ġadvant age
ĠA D
ĠN or
ĠS en
Ġent ry
ĠRuss ian
Ġra w
ĠK ore
n y
Ġcompre hens
Ġcontin ues
Ñ Ĥ
Q u
ren ce
Ġdeterm ined
res ents
I P
Ġlead er
osy stem
B e
Ġsub sequ
st yle
v an
Ġvict im
d ated
ĠJ er
pos es
A b
ĠT oday
G et
ĠA rab
Ġdou ble
Ġfil ter
Ġal gorith
Ġrecomm ended
d et
ĠBrit ain
cre te
c at
Ġstr ategy
ĠĠĠĠĠĠĠĠ ĠĠĠĠĠ
Ġc ere
Ġprofess or
n el
w er
Ġro ll
Ġst ars
Ġann ual
ĠO ld
Ġhelp ing
Ġcompon ent
P l
B l
Ġsc ore
Ġform ation
Ġdang erous
Ġgr and
Ġco al
Ġp un
ot ic
Ġt um
c al
Ġsus p
ortun ately
Ġp ages
n ic
Ġh orm
al ian
Ġch apter
', '
Ġmax imum
T hat
Ġon to
r d
dat aset
ĠD iv
Ġel imin
Ġcol ors
Ġra ised
s ource
Ġadv ance
c her
ri er
Ġproper ly
Ġ3 5
ic it
Ġp ark
Ġke pt
Ġselect ed
Ġcom fort
i ant
ac ific
Ġdog s
Ġj ourney
rain s
ĠW ell
Ġpol ice
Ġanx iety
Ġf asc
Ġinj ury
Ġar my
Ġamount s
Ġexper t
Ġwrit er
) [
Ġdist ributed
ĠJew s
p ace
T P
Ġfor ced
igen ous
ĠL atin
ak ers
ar row
ic ians
Ġdown load
M any
ĠO R
Ġgl ob
Ġcand id
R ead
Ġimpro ved
opy right
e per
Ġencoura ge
7 7
Ġme at
Ġvit amin
ĠR ef
Ġch ronic
Ġparticip ants
Ġsitu ations
Ġn or
j ango
ĠTex as
os a
ĠM r
g raph
Ġad op
Ġmain ly
Ġeffic iency
ĠE lect
Ġlook s
Ġpl ays
E L
lic k
er ial
Ġlog ger
Ġcomb ined
Ġcred it
Ġphen omen
Ġ3 1
D F
Ġpy thon
) ]
Ġappe ared
Ġegg s
ann els
Ġmanufact ure
P O
Ġsur gery
Ġa id
Ġf ine
Ġpropos ed
Ġf elt
m m
Ġinterest ed
Ġart icles
Ġpartic les
ol ars
Ġrequ ests
Ġabs ol
Ġinfl amm
ĠF ood
ĠB ay
he nt
oss ible
ro id
Ġsound s
4 9
Ġst re
iv ation
c el
ov ed
ĠB ro
Ġex ternal
ok ing
ess or
Ġa part
Ġoper ating
Ġrev olution
Ġstra ight
Ġtou ch
y p
am il
ĠE very
s or
A dd
ĠW ind
ĠT wo
Ġbeg ins
Ġc oding
. ;
ĠS l
ĠB oth
Ġcol le
ĠEx pl
ang le
Ġhand le
Ġother wise
sc ale
ĠG roup
Ġinstit utions
Ġk il
Ġexper ts
Ġaware ness
Ġf aster
Ġse eds
Ġassess ment
is hes
ĠS oviet
ĠChar les
Ġcent uries
fil ter
S S
ĠVir gin
O D
8 9
ĠCh ildren
is f
ĠS um
Ġp ul
ĠMed ic
Ġt rou
4 6
ĠC ivil
ro ke
Ġ20 21
il ed
Ġrep resents
ĠC are
Ġob vious
Ġfocus ed
Ġexp osed
Ġv oice
Ġass ign
um ps
ĠNew s
H T
Ġint ended
Ġopen ed
Ġfl at
Ġup date
Ġliqu id
Ġgr ass
ĠPro t
Ġmot ion
nd rome
ĠSt reet
Ġv ital
Ġlet ters
al ysis
00 00
am ily
Ġsustain able
Ġb rief
Ð ½
Ġjob s
Ġfor t
Ġst orm
Ã ¶
ĠA p
ĠT ime
ocr atic
os ite
ĠRuss ia
Ġoccur red
A meric
w hat
Ġv ast
st on
ĠComp any
ĠPart y
Ġt ro
Ġexc ell
Ġh ospital
ang ed
a ud
Ġexist ence
Ġb ud
Ġy ellow
################ ################
ĠMus lim
sh ow
Ġwond er
Ġinf ections
Ġed ge
Ġ198 0
wh ile
G o
os c
Ġg un
ĠM em
Ġmod ule
8 6
Ġset tle
Ġpract ical
Ġset t
Ġep is
ĠE mp
ap h
Ġvol unt
Ġset s
Ñ Ģ
um in
b ug
Ġb ra
Ġcon clud
Ġf lex
7 6
ind ing
Ġcons ervation
ur d
ak s
Ġmar ried
Ġprep ared
Ġex ists
er ia
Ġqu ar
C L
[: ,
Ġpo et
ing ly
Ġparam eters
Ġelectr ical
ĠM iddle
ost er
Ġpoll ution
Ġw ave
Ġimp lic
Ġpur poses
s g
semb ly
le ft
Ġthough ts
ĠM ont
Ġtop ics
Ġshow ing
c ers
ĠSp ace
it age
ist an
ipp ed
Ġst one
s es
ĠM ass
Ġare n
Ġstud ied
Ġqu e
ĠJ ose
Ġconsequ ences
f irst
Ġhapp ened
Ġle aving
5 6
Ġwe ap
f aces
ĠT em
Ġfollow s
an es
am pl
s ession
Ġoff ered
ĠG old
Ġfail ed
Ġl ibrary
Ġbr ight
Ġax is
ĠM ag
Ġch ain
b uild
Ġhy per
ĠIS BN
ĠHen ry
an o
ĠW omen
Ġvul ner
Ġp lease
Ġc ert
ĠI d
ot a
ĠHist or
ĠSm ith
Ġf oss
Ġinit i
Ġne ut
Ġincreasing ly
ol a
in ations
Ġattack s
ĠĠĠĠĠĠĠĠ ĠĠĠĠĠĠĠ
Ġl inks
Ġth read
pp ort
g ent
ĠW il
Ġcons ult
S et
Ġcl osed
oth ing
Ġadd ing
oc al
ĠK h
Ġs plit
ĠD ec
Ġauthor ity
ĠR ad
ĠCath olic
Ġs alt
Ġlarg ely
h ttps
Ġf ib
v ar
ic on
Ġjo ined
Ġt aught
a uthor
T ime
ĠS ing
Ġprote ins
ic y
Ġre new
Ġco ordin
Ġindic ate
Ġkeep ing
Ġv ent
Ġa str
Ġb ird
b urg
Ġ199 9
Ġfarm ers
ĠF il
L og
Ġsh ut
Ġne uro
Ġconcer n
U p
Ġcr is
ell ed
im er
Ġhe aring
Ġyou th
Ġp ush
Ġslight ly
---- -
Ġs en
Ġcons ists
Ġgr ade
ĠJ ack
c ar
Ġexpl an
4 2
ĠR o
Ġb ot
ĠF orm
ĠT HE
ab led
it ness
ific ial
Ġinstr ument
Ġsent ence
Ġfeel ings
ĠF e
Ġdom in
Ġcrit ic
om y
Ġgener ated
Ġpr ison
ĠGo ogle
ĠM ain
Ġman ner
con s
Al though
Ġpro s
Ġvacc ine
Ġch art
T r
ĠC D
Ġappear ance
Ġcontin uous
pp ing
Ġar r
Ġst ock
Ġview s
Ġaccur ate
on a
p op
Ġst ated
ĠPro v
Ġredu ction
ĠM ake
y pes
ĠInst ead
M ore
ĠM o
al a
Ġcho ices
Ġproced ure
Ġf if
Ġdivid ed
Ġveget ables
or ter
Ġshe ll
ĠCar ol
Ġgood s
Ġorigin ally
ĠFl or
Ġflu id
st rip
Ġw estern
ĠUs ing
Ġf le
Ġdat aset
Ġbl og
Ġkind s
Ġ18 9
Ġide al
Ġre act
Ġfund amental
Ġfact s
Ġo x
Ġfamil iar
Ġpass word
ĠN ASA
Ġveh icle
Ġ3 2
Ġconn ections
Ġexpl ained
in et
Ġadv oc
An other
Ġ197 0
Ġcl im
a o
Ġext reme
id ay
ĠP acific
th at
Ġtri ed
Ġchemical s
Ġdi am
'' '
Ġperspect ive
F orm
S A
k m
Ġf illed
ĠL and
ough ly
Ġec osystem
Ġinterest s
Ġless on
Ġph one
Ġpre m
Ġneigh b
Ġele v
Ġper man
at o
Ġres ist
Ġperiod s
Ġsu fficient
Ġsubject s
ĠâĢ ¦
M ost
Ġclos ely
ĠDist rict
et ch
Ġmus cles
Ġm ere
d en
Ġex change
e vent
ç ļ
li ament
Ġmor ning
Ġn ations
ur ity
Ġb ill
ĠL ake
Ġappro aches
M A
ĠLou is
ĠB et
ĠH all
ĠRet rieved
M y
e ger
Ġmin im
ĠCom mission
T H
ĠĠĠĠĠĠĠĠĠĠĠĠĠĠĠĠ Ġ
r ates
Ġto oth
Ġbusiness es
c or
l ers
ms g
Ġcon vent
ĠFr ank
point s
ĠSt and
Ġmove ments
Ġpres c
Ġdis app
se arch
Ġtechn ical
pt y
ell a
Ġd oll
C ase
Ġjust ice
ĠAustral ian
el i
ĠTechn ology
pro perty
Ġpotential ly
Ġb ow
Ġm ort
Ġfig ures
ĠSe a
Ġun iverse
Ġmin imum
Ġsuggest ed
ĠEn ergy
it ter
= (
çļ Ħ
.. ..
= {
Ġtri al
Ġpr ices
ĠEng ine
Ġsp end
Ġcont emporary
Ġw aters
Ñ ģ
Ġdig est
' ):
en a
ĠĠĠĠĠĠĠĠĠĠĠĠĠĠĠĠĠĠĠĠĠĠĠĠĠĠĠĠĠĠĠĠĠĠĠĠĠĠĠĠĠĠĠĠĠĠĠĠĠĠĠĠĠĠĠĠĠĠĠĠĠĠĠĠĠĠĠĠĠĠĠĠĠĠĠĠĠĠĠĠĠĠĠĠĠĠĠĠĠĠĠĠĠĠĠĠĠĠĠĠĠĠĠĠĠĠĠĠĠĠĠĠĠĠĠĠĠĠĠĠĠĠĠĠĠĠĠĠ ĠĠĠĠĠĠĠĠĠĠĠĠĠĠĠĠĠĠĠĠĠĠĠĠĠĠĠĠĠĠĠĠĠĠĠĠĠĠĠĠĠĠĠĠĠĠĠĠĠĠĠĠĠĠĠĠĠĠĠĠĠĠĠĠĠĠĠĠĠĠĠĠĠĠĠĠĠĠĠĠĠĠĠĠĠĠĠĠĠĠĠĠĠĠĠĠĠĠĠĠĠĠĠĠĠĠĠĠĠĠĠĠĠĠĠĠĠĠĠĠĠĠĠĠĠĠĠĠ
Ġcertain ly
ĠH IV
Ġsub stant
u zz
Ġs ides
Ġcollect ed
ĠD et
d ri
Ġtyp ical
gen er
ĠPar is
Ġt it
O ur
ser ver
L et
atur ally
Ġcall s
Ġdep ends
dis play
as p
Ġfl oor
Ġf ill
Ġsm art
ol f
Ġimpact s
ak ed
Ġrespons ibility
ĠP eter
ĠStud ents
f all
Ġth in
Ġfound ed
Ġe lection
D uring
Ġlay ers
ĠAn other
Ġair craft
Ġ4 5
Ġcontroll ed
7 9
0 2
Ġext ent
ag on
Ġing red
Ġmeas ured
f ree
ĠIn c
Ġch annel
Ġenh ance
l ook
or gan
ĠM ad
Ġn erv
ro t
ĠS ol
ict or
Ġintellig ence
ĠT V
Ġch ief
Ġtrad ition
Ġlab els
ĠA ut
Ġp il
S D
Ġt ail
Ġst ored
Ġvari ables
V ID
Ġinter view
re place
Ġrecogn ized
Ġhealth care
Ġd aughter
og ue
ric ulum
Ġsold iers
ĠFound ation
Ġen viron
Ġse lection
ĠB udd
s ys
ed y
Ġbi ological
Ġcap able
Ġver b
Ġa ward
Ġann ounced
ĠIn f
Ġd ro
Ġdrink ing
ĠT w
Ġw et
Ġnet works
Ġaffect s
Ġs now
ÂłÂłÂłÂł ÂłÂłÂłÂł
ĊĠĠĠĠĠĠĠĠĠĠĠĠĠĠĠĠĠĠĠĠĠĠĠĠ ĠĠĠ
it ud
Ġer a
it a
n am
Ġsp orts
Ġlook ed
cul es
ĠEar ly
Ġf irm
ĠR ob
Ġdetail ed
Ġre nder
ĠM icro
Ġwall s
ĊĠĠĠĠĠĠĠĠ ĊĠĠĠĠĠĠĠ
Ġf ro
Ġapp arent
Ġdef e
Ġp air
A pp
Ġstart s
st ood
Ġj u
ĠRich ard
log ger
Ġclaim s
alle l
Ġ199 8
ĠL u
Ġ5 00
ĠAt lant
el ess
s he
Ġd iversity
us r
ĠP ower
Ġro ots
Ġtreat ments
ribut es
ĠL ike
Ġl ose
P L
Ġout comes
R I
le ts
b ing
Ð¾ Ð
Ġdiagn osis
Ġs ector
Ġph r
Ġre form
Ġqu ery
ern el
Ġnutri ents
Ġdisc overy
Ġremain ing
Ġam b
Ġvis ible
Ġmet ab
y e
Ġs in
Ġc ars
Ġgovern ments
low er
ĠVal ue
Ġdr am
Ġcomput ers
Ġtox ic
ex ec
r at
Ġspirit ual
Ġk m
Ġd ir
Ġz ero
Ġanc est
Ġre in
ĠK ey
ĠE conom
Ġd ra
Ġm it
in ating
object s
ĠCan adian
Ġinf rast
Ġflow ers
d ep
Ġt al
ĠR oyal
8 7
Ġread ers
Ġsat ell
ans ion
u a
ra cy
Ġcl ub
Ġless ons
Ġrecogn ize
Ġs ell
ab il
ib ilities
ra v
ate ver
Ġn it
if ies
r out
Ġrapid ly
Ġconsc ious
od er
ĠJ ud
sc ore
u nder
Ġg ar
Ġopen ing
Ġsec ure
P ar
ad ata
> >
Ġrepl aced
Ġarg uments
Ġdist ingu
Ġpret ty
Ġ196 0
Ġr ural
ĠMed ical
Ġg ather
Ġcon clusion
ĠT reat
Ġwid th
Ġcreat es
Ġinvest ment
ver ty
D o
Ġm arg
Ġt un
Ġfac ilities
' m
Ġmed ium
Ġkn ew
Ġm ir
Ġlist ed
Ġexpl ains
Ġposs ess
g ers
Ġpart ies
Ġâ Ĩ
Ġfl ag
l ink
Ġplay ers
Ġmy th
Ġto ken
ĠB re
4 3
Ġpo verty
Ġthe rm
Ġpro port
lab els
com ing
Ġun known
Ġag reed
" ],
k i
Ġworld wide
Ġ18 6
Ġcult ures
Ġf re
C D
ĠMich ael
ĠD isc
R A
Ġhelp ful
Ġmonit oring
r and
con f
Ġtalk ing
Ġinst ruction
Ġgra v
Ġdiv ision
Ġd ut
um s
Ġr ank
[ -
Ġaccept ed
Ġfac ilit
ĠĠĠĠĠĠĠĠĠĠĠĠĠĠĠĠ ĠĠĠ
Ġsol ve
el lect
Ġli ver
ĠFranc is
Ġeng age
Ġdoc uments
Ġcogn itive
] ]
Ġobtain ed
Ġlat est
it ors
or a
Ġm oon
Ġemer gency
ĠCon n
t age
ag ine
ĠRe view
Ġcou ple
Ġintern et
m es
f unc
m as
Ġagricult ural
Ġcris is
re al
Ġprinc iple
Ġn n
Ġper m
u ated
Ġart ists
Ġst em
Ġh unt
s pe
Ġcor por
Ġstudy ing
it t
Ġhor se
Ġfl ight
Ġofficial s
ten ance
Ġp aid
Ġd jango
Ġport ion
Ġsw itch
B ase
ail ed
M e
5 9
ste in
as er
Ċĉĉ ĉ
w ind
c ore
Ġ' __
Ġsu c
Ġp ip
Ġc rops
Ġw aves
a uth
Ġgreat est
ot he
Ġs an
Ġhundred s
our se
Ġtest ed
Ġadv ice
P ath
cont ext
ce ived
Ġdel iver
Ġres idents
ĠS uch
Ġrepresent ed
Ġd ensity
Ġcreat ive
g ame
ĠG ood
ĠT ype
Ġaccom pl
Ġtra ffic
re land
os m
Ġfru its
z en
ut ed
Ġp ig
4 1
ĠT or
Ġmill ions
Ġreg ional
be ing
ĠC ult
Ġexcell ent
Ġm ask
Ġrat io
Ġrep rodu
Ġsch olars
ul ating
ere nt
Ġlead ership
ph one
Ġdri ving
O b
Ġst ick
or ig
p i
ĠLear ning
res hold
ĠB ible
Ġequ ival
ĠIn formation
Ġenviron ments
Ġregular ly
ES T
Ġc up
amp ions
Ġentire ly
Ġen able
p onse
Ġcollab or
Ġl un
d ist
ific ations
ad y
dd en
Ġconcent ration
ĠAn n
us ing
ĠCom mon
Ġst ret
ind er
Ġgir ls
st d
Ġs ed
Ġcamer a
est yle
ad s
r int
and a
ĠIt aly
Ġsuccess fully
Ġg al
ir ation
ĠIt alian
Ġno ise
Ġpre v
p ol
Ġmo ist
Ġsecond ary
ĊĠĠĠĠĠĠĠĠ Ġ
d irect
Ġv ote
pl t
Ġgrow n
Ġmass ive
k es
å ı
) ):
Ġprodu cing
m ail
Ġmor al
Ġfix ed
ry pt
Ġloc ations
Ġread er
os h
Ġintrodu ction
Ġreturn s
p ers
in ity
ic an
Ġact s
Ġprogram ming
Ġveh icles
Ġrun s
Ġfil ename
rol og
Ġwe ar
Ġlandsc ape
con st
z il
O L
ĠI P
Ġtell s
Ġsat isf
Ġgr id
Ġw ire
Ġinfrast ructure
t f
Ġimm un
Ġn arrow
c hers
Ġt iny
r ations
ĠB ur
Ġhabit at
Ġprot ected
C an
0 3
Ġt rib
Ġcateg ory
c alled
Ġhous es
ĠH ome
Ġdecre ase
Ġult imately
Ġpers ons
ĠMedic ine
ĠL ong
Ġprep are
ĠD ise
Ġemploy ees
u h
Ġart ist
Ġmess ages
M an
Ġro les
Ġsu dden
Ġhigh light
ĠW ild
A A
ĠLe ague
Ġext ended
or row
Ġha z
Ġfl av
Ġmount ain
d raw
Ġ199 7
se y
et te
y les
Ġsc ene
Ġmult i
Ġp ure
Ġansw ers
oc ation
Ġdef ine
O r
Ġexpl oring
ĠVirgin ia
s end
Ġl atter
Ġder ived
ĠC amp
Ġst ages
Ġin ner
Ġtele vision
Ġcl oud
Ġexp ensive
az ine
k in
Ġc atch
C R
Ġv s
Ġt ag
ut ch
r id
Cl ass
Ġsh ift
ĠEmp ire
Ġcom ments
Ġmar riage
om ic
Ġ3 00
C S
Ġsign als
Ġen um
Ġse conds
( {
s ample
pass word
Ġab use
le ments
P R
Ġr ub
ĠL og
ĠC r
Ġm ac
Ġsh aring
Ġreve aled
Ġb rown
Ġdom estic
in f
ĠP ers
# !
Ġmole cules
ĠR ights
Ġpro min
< /
Ġs ick
Ġconcer ned
Ġdiscuss ed
ĠT op
V iew
ĠSc ott
Ġsuff ering
ĠB uild
ct ic
du le
th rop
l ig
dev ice
Ġrout e
ĠI reland
Ġaud ience
am ing
Ġ{ "
Ġemot ions
Ġdescrib es
ĠCom mit
Ġn aturally
opt ion
Ġ199 6
T ext
Ġexperim ents
ĠS outhern
ĠStud ies
Ġg all
ill a
ĠFlor ida
Ġp ull
Ġdirect ory
Ġor al
Ġposs ibly
Ġc art
ĠC ast
8 4
Ġform al
pr ing
ĠC am
ra c
Ġw ait
Ġacc el
` `
D es
m ask
Ġh us
ĠF ederal
ĠRet urns
ĠJose ph
ff ee
ĠCol umb
ĠCh ic
or al
Ġman aged
Ġimag ine
Ġl ies
Ġimplement ation
ĠR ome
ĠR oad
ag ers
ax is
Ġimp ossible
c ript
Ġ[ "
ash ion
ĠI ll
b ot
Ġshe l
Im age
Ġal le
em ail
Ġnew sp
Ġch osen
un ched
ĠP ath
Ġpar ams
Ġdom ain
el come
de bug
ĠL ibrary
ĠChe ck
Ġmix ed
F A
ĠI mp
Ġp ump
n ext
F irst
i ology
Ġsm ooth
Ġadop ted
Ġpl ate
Ġb order
Ġsens itive
__ ':
Ġm useum
pred ict
ck now
Ġmaintain ing
Ġhe ro
Ġag ree
k er
ot es
in clud
Ġre ject
O ther
ĠP op
Ġaw ait
0 4
Ġh idden
it z
ĠSc ient
Ġc raft
Ġopin ion
Ġmob ile
du ction
M od
ĠE nd
O f
Ġneigh bor
Ġnorm ally
R ec
? "
Ġproced ures
ĠAcad emy
re y
lay er
Ġrepe ated
m ath
Ġinter act
Ġaccount s
Ġpict ures
Ġpos itions
ĠS ec
____ ____
se ction
Ġded icated
ĠMan agement
Ġspe aking
os ph
Ġbud get
Ġw ants
Ġcompet ition
ĠO pen
S ee
rop ical
ĠN orthern
am i
} }
Ġt ips
b a
ar ia
Ġsy ndrome
ĠA cc
bl ock
Ġsign ed
ĠSp ain
Ġag reement
Ġcon vert
ĠCont rol
Ġphot o
Ġwarm ing
Ġmark ed
et her
Ġadminist ration
Ġbelief s
um es
ĠIm age
ĠC at
ĠV is
Ġelect ed
Ġtw ice
Ġachie ved
ul in
**** ****
Ġprot ocol
Ġar ms
Ġlist en
Ġrespons es
Ġunder stood
ĠAb out
ren cy
Ġmedic ations
Ġdeath s
Ġsu itable
Ġsh ot
Ġgener ations
ĠKing dom
Ġopp osite
ĠP sych
cl s
ĠM er
ĠOn ly
Ġtro ops
Ġin ject
0 6
Ġrec overy
pro ject
Ġprom pt
Ġer rors
in ally
ĠA I
n ings
Ġpolit ics
et t
i h
ch ar
y r
Ġconsist ent
ĠAdd itionally
ap ed
ra ce
exp ected
Ġf rag
Ġclos er
Ġdef ic
az ing
Ġfound ation
Ġc rop
Ġsurv ive
Ġagricult ure
he ast
5 7
um a
ĠĠĠĠĠĠĠĠĠĠĠĠĠĠĠĠ ĠĠ
Ġpregn ancy
Ġins ert
Ġfund ing
Ġbatter y
Ġde eper
Ġhor iz
ĠH aw
0 9
S p
Ġimpro ving
est ed
Ġsurv ival
p ress
Ġmiss ing
Ġsub stance
ab ul
ĠS il
asc ular
ĠC ap
Ġsignific ance
E d
k ing
Ġsk y
Ġpr on
c ut
ĠEx ception
Ġsupport ing
ĠM a
ĠH T
Ġste el
Ġang le
Ġprofession als
Ġstrugg le
Ġrem ote
ĠT om
gr id
Ġtem p
ĠE p
ex ample
ĠG al
as ive
w ing
ĠDes ign
i at
Ġm amm
clus ive
Ġdec ide
Ġnear by
Ġmagn etic
Ġf ly
Ġbr anch
ag ues
cy cl
so ft
k ins
ĠRev olution
ĠS ant
Ġf alse
Ġbehavi our
Ġcapt ure
Ġus age
b as
T e
ic ing
Ġcard i
ip al
Ġpre f
Ġend s
Ġtru ly
ĠN ature
it tle
ĠW he
od ed
res ults
Ġb le
d el
ĠCon stitution
ĠU ser
S ub
hem ical
Ġinf ected
un it
is ters
Ġelect ron
Ġarchitect ure
t ag
ĠB ank
Ġb ones
Ġexpress ed
Ġ3 6
Ġelect ronic
Ġdraw ing
Ġtrans ition
it an
Ġint ellect
Ġmach ines
Ġorgan ized
Ġcirc uit
ĠCom put
Ġbro ken
es ter
Ġsp aces
he dule
Ġa f
Ġcare fully
st one
Ġle af
Ġconf ir
oc racy
ĠB ill
conn ect
Ġvirt ual
ri end
G B
Ġcon c
Ġm ock
5 8
ĠP ub
Ġdisc ipl
ut f
st atic
onom y
ra int
Ġcomp osition
om ach
Ġknow s
Ġ199 5
p et
Ġob j
ĠV ictor
Ġguid elines
Ġth or
ĠLab or
Ġposs ibility
e er
ab its
Ġdo or
Ġmechan ism
Ġgre w
Ġun iversity
ad ing
ĠM odel
Ġcircum stances
Ġreg ist
ty pes
Ġto ler
] ))
Ġch rom
d es
Ġ20 22
ar ant
ĠSc ot
S I
Ġprodu ces
er als
------ -
Ġem pty
Ġinc hes
Con fig
_ {
Ġinter action
Ġdo ctors
Ġsee ing
Ġbl ocks
Y our
Ġhapp y
ĠEx per
Ġforest s
l ambda
Ġag es
t hen
Ġun less
Ġinflamm ation
Ġphilos ophy
ĊĠĠĠĠĠĠĠĠ ĠĠĠĠ
loc al
ĠW ood
Ġmanufact uring
Ġarri ved
Ġmar ine
ĠLe g
Ġslow ly
Ġext ensive
ĠProf essor
S u
Ġexcept ion
Americ an
Ġrec ycl
Ġpers ist
Ġsuc ceed
Ġinf o
Ġl ots
Ġsk ill
Ġmon itor
~ ~
Ġharm ful
Ġad equ
cl aim
ĠV er
it c
ĠW ik
Ġchalleng ing
ĠUS A
Ġfight ing
ĠD u
Ġdep os
r an
S ince
us iness
ĠOff ice
ĠP an
'] .
Ġhar vest
Ġfoot ball
Ġunder lying
ES S
Ġend ed
v ol
t im
#! /
ĠO h
ro vers
ĠC a
ĠAng el
t otal
? âĢĿ
br idge
h av
al i
ĠT imes
0 8
Ġa th
ĠM el
ĠCre ate
Ġtrans mission
H and
ĠT er
Ġrecogn ition
Ġdecl ine
ĊĊ ĊĠĠĠ
Ġmain tenance
Ġrem ark
Ġc oun
ven ue
Tr ans
ĠSu per
Ġla unch
Ġdel ay
Ġelect ro
Ġtext s
Ġeth nic
ant ly
Ġcomprehens ive
Ġindic ates
ĠK ar
Ġinvol ving
Ġturn s
Ġaccur acy
tem plate
Ġa cknow
ot ed
Ġm sg
Ġall erg
port s
ĠL ib
O ut
f n
Ġdestroy ed
d iv
7 1
Ġadminist r
ĠM ill
5 4
ic ious
Ġsh ips
U M
ĠB ig
un icip
ĠMus ic
Ġwor se
ĠBra zil
å Ī
Ġd in
Ġsuff er
Ġsh op
5 3
T O
d escription
ĠCommit tee
erson al
est ival
ĠChic ago
Ġframe work
Ġd ust
Ġdec ade
igh ter
in ction
ur a
Ġr hy
S he
Ġexam ine
ollow ing
Ġacc um
ĠCol or
M ed
p u
st ore
m ode
ipp ing
Ġind eed
Ġorgan isms
ir s
ĠO cean
k l
Ġsc ores
St ring
Ġag ent
ĠGl obal
Ġcur riculum
Ġswe et
Ġwild life
ĠGr and
Ġw itness
Ġfoss il
8 3
ĠIr ish
Ch ar
ĠO x
Ġequival ent
Ġn ine
on ym
in du
R et
Ġdep ict
u id
Ġour selves
Ġmat rix
ym ph
Ġdri ver
ov es
and on
D r
ĠB ase
Ġres olution
Ã ¤
Ġab und
Fr ame
Ġcol our
7 2
Ġcr ime
ĠO per
h ow
Ġaff ord
F igure
Ġass istance
o om
ic ide
Ġauthor ities
c opy
ï¼ Į
Ġatt end
Ġon going
Ġsh if
fe atures
oura ge
Ġun able
r as
Ġpow ers
7 3
Ġwas n
Ġb an
f ill
P er
Ġlim its
er ies
iox ide
. '
Ġla unched
Ġsupport s
Ġappoint ed
ort ed
Ġdeb ate
(' /
Ġa qu
ĠT im
Ġatt ached
add ress
Ġwalk ing
ĠE astern
ers ion
âĢĻ .
Ġphys ics
Ġeas tern
Ġz one
S C
5 2
v a
Ġm ent
hip s
or ph
omet ry
ĠN ations
Ġ199 4
Ġfeed back
Ġinstruct ions
Ġcomp are
pt ions
l at
F I
Ġn an
Ġvess els
Ġantib iot
ĠGe org
Ġyoung er
Ġhold s
Ġnutrit ion
ri ers
on ent
Ġad vent
Ġfin ished
iz ers
Ġdirect ed
ĠTh ose
l ock
ĠJ ul
Ġint ake
Ġcommun icate
arg v
ear s
Ġconvent ional
Ġwhere as
Ġcompar ison
user name
Ġhyp othes
c ase
it ory
Ġa head
Ġconstit ution
Ġte ams
al og
Ġterrit ory
ĠL anguage
Ġor g
ĠZ eal
7 4
ĠFurther more
Ġspec ified
Ġpar se
N e
Ġbehavi ors
Ġpain ting
ĠMin ister
ont al
Ġhyd ro
Ġmechan isms
Ġchild hood
Ġsub s
ĠH ave
ĠSw ed
Ġun s
ĠE th
itud es
Ġfavor ite
Ġrepresent ation
or ous
ã Ģ
Ġhyd rogen
Ġstand s
ĠE ss
ĠB rown
se lect
m em
Ġacc ident
ĠF ort
ĠKe ep
ig ate
ĠK now
ĠC ON
Ġinter actions
5 1
Ġcateg ories
Ġfert il
ĠB ack
Ġinstit ution
ĠI D
Ġhous ing
Ġent ered
Ġcomp r
. ")
hes is
Ġman if
r t
trans form
Ġfac ed
am ics
Ġlo op
Ġcollect ions
lic ation
Ġut f
he red
ur b
f ish
Ġre actions
ĠEnvironment al
s uch
P e
h as
ĠW ill
Ġt all
Ġst able
Ġmay be
ed iate
Ġbr idge
8 1
es ity
ĠMart in
Ġn om
Ġf ab
Ġgreat ly
Ġb io
Ġart ificial
Ġprevent ion
Ġbe ar
Ġcut ting
" ).
ĠVal ley
Ġserv es
ree k
Ġexp ansion
Ġstand ing
Ġcomp osed
rib ed
ĠMore over
Ġobserv ations
Ġperman ent
Ġre ward
Ġcour ses
Ġ19 50
Ġbenef icial
Ġs od
" ))
ploy ment
Ġp ool
Ġf ell
Ġbo ost
Ġconf idence
St ud
ĠZeal and
ex cept
im a
Ex ception
pl oad
ors es
C A
s ign
Ġc row
8 2
ĠUnder standing
Ġtrain ed
ob s
Ġar range
Ġinsect s
Ġmed ication
ĠBo ard
Ġseek ing
Ġ eld
Ġinit ially
AT E
ic ens
est amp
m aking
t rue
Ġsupp lement
v als
ĠP ract
Ġst omach
dat etime
C he
ĠD iff
Ġrec ip
rain ing
Ġimm ediate
Ġinstr uments
v ari
ĠPy thon
ĠM ax
Ġun us
is k
Ġac ids
n ership
Ġthe ore
st s
ink ing
Ġincre d
ĠN ative
U ser
er ior
Ġinj uries
Ġre verse
Ġg one
ĠH ill
te en
ĠM en
Ġconsum ers
D on
Ġdifficult y
oles ter
Ġor ient
et a
" ])
imp le
ou p
op eration
Ġreg ulations
Ġre cept
mod ule
Q L
Ġdec or
Ġro of
O ver
Ġdes ired
Ġins ights
Ġcent re
F T
Ġob ser
he rent
all ow
Ġco ffee
ĠY et
on ia
Ġcont ained
all s
Ġvol tage
Ġrel ax
ch ing
c f
ĠB est
ĠCarol ina
igr ants
im ages
ĠT re
ĠII I
Ġ1 50
Ġres erv
b ur
Ġst reet
Ġr id
ĠB C
Ġown er
C re
ant ic
Ġindepend ence
ĠD en
i very
Ġdep artment
d i
( __
ĠDe v
Ġtransport ation
Ġocc asion
b ra
ol ving
Ġnecess arily
S ection
ĠWh o
ĠG ard
on ents
Ġmov ie
ĠCO VID
9 6
Ġw ish
Ġinter face
Ġresult ed
ĠD ig
ĠDiv ision
Ġreg ul
Ġn one
Ġd ioxide
Ġfunction al
Ġinst alled
Ġserv ing
Ġoff ering
Ġp ra
Ġman ip
ent ed
ĠS pe
Ġag encies
ex ists
Ġinter vention
z ed
ĠB ab
hem a
com mon
O nce
Ġnuc le
Ġbig gest
Ġt aste
ĠM ult
Ġfew er
ĠSim ilar
' ).
Ġhus band
he ight
ig ma
Ġthous and
ĠS ir
** :
anc hes
Ġdoub t
ption al
D ef
as ters
Ġr ig
ian a
Ġc m
Ġcollab oration
Ġc e
P arser
og ether
Ġmem br
t ask
Ġpar allel
ĠStud y
Ġpercent age
w orld
ĠR om
Ġ4 00
Ġsw im
Ġeval uation
Ġso le
ter y
Ġarg parse
Ġbreath ing
py thon
olester ol
0 7
ĠN ote
Ġtrad itions
ĠC reat
Ġne ur
Ġfasc inating
Ġconstruct ed
ly mp
O C
Ġexpl o
ĠYou ng
Ġin hib
ip edia
ĠD ou
iv ated
r ine
Ġg ained
oc y
Ġad j
f ortunately
Ġv el
rim ination
ĠH y
Ġar rest
Ġpurch ase
-- -
it ar
Ġeval uate
ĠF ree
Ġtyp ing
Ġaut hent
e val
Ġsupp osed
Ġcustom ers
Ġdes ire
Ġlif estyle
Ġland s
Ġwor ry
ri v
cre en
Ġshe et
ir us
E X
ĠAd minist
M P
Ġp apers
con v
Ġag ency
Ġens uring
Ġfour th
Ġsh arp
Ġs ight
ĠDes pite
ars h
mat rix
Ġn erve
ast y
Ġcry st
ĠP o
Ġpsych ological
ĠB ir
Ġas ync
B S
p read
Ġemploy ed
Ġhold ing
out s
Ġconsum er
u gh
AN T
ĠP ass
Ġcon crete
cl ick
Ġpro ve
c s
Ġwh atever
Ġ< =
: **
il ation
Ġmat ters
'] ['
( *
Ġcont rovers
it ivity
ĠS ar
Ġcomp ounds
us hed
Ġoper ate
Ġb oy
Ġdep art
Ġb read
Ġed itor
Ġc ards
Ġrel ation
Ġmov es
Ġen v
Ġdeb t
Ġphot ograph
em ia
Ġ1 000
ĠN atural
ĠIn it
ish op
Ġmark ets
, '
ĠAs ian
Ġcol umns
Ġn urs
t ree
ĠN az
: :
Ġmus ical
ateg ory
Ġ199 2
Ġh abits
ides pread
Ġthem e
Ġ' .
Ġtw enty
Ġexplan ation
u i
Ġtarget s
Ġsong s
Con n
Ġiss ued
L ear
i ary
Ġn ob
m i
Ġparticip ate
Ġman ager
Ġm aps
ĠR ock
ag raph
Ġv ac
ĠEx t
opt ions
ĠQu est
ĠC opyright
Ġal ter
ĠN on
ĠValue Error
ut orial
le an
Test Case
Ġmet ers
Ġs ke
Ġs ections
C P
ig an
Ġleg s
f older
a fe
Ġdemonstr ated
ide os
is p
us al
st op
Ch apter
Ġm and
abul ary
Ġin her
( -
ĠD ar
Ġr ing
Ġins urance
Ġf iber
Ġlimit ations
oc ity
R ef
Ġdemonstr ate
Ġne ck
op es
Ġw is
Ġtri p
Ġneg ot
as y
ĠSe cret
Ġstr ict
Ġcir cle
R el
Ġimprove ment
Ġdecl ared
Ġhon or
Ġris ing
ĠĠĠĠĠĠĠĠĠĠĠĠĠĠĠĠ ĠĠĠĠ
ĠGu ide
Ġthe ories
rain ed
Ġfund s
Ġweap ons
ĠS at
âĢ ²
ct ive
Ġm eth
ed ge
Re g
ag ram
path y
Ġ199 3
Ġm ales
Ġcapt ured
per or
Ġsupp lies
z one
er r
Ġh ole
Ġd ictionary
Ġ> =
m iss
Ġabsol ute
pro duct
D P
ĠC y
Ġobject ive
m atch
ĠRep ort
Ġref uge
d rop
ĠSt ar
Ġf ellow
Ġinflu enced
ov en
Ġshap es
Ġcount y
ĠAtlant ic
Ġfem ales
Ġcare ful
Ġlabor atory
Ġb ool
c ies
Ġesc ape
Ġke ys
W rit
ĠL ine
Ġask ing
Ġj ump
ft en
Ġ199 1
ap se
ĠO lymp
Ġingred ients
ĠB efore
Ġ ..
field s
Ġassoci ation
Ġp up
Ġf ract
\ \
ĠA ge
Ġdesign s
Ġcre w
n on
sy stem
P art
Ġst roke
ĠV iet
Ġd ental
6 9
Ġad vert
Ġgl uc
Ġs ales
Ġvulner able
c m
hed ul
Ġcomm ission
R L
Ġ å
Ġdra wn
Ġsm oking
Ġl ock
Ġclaim ed
Ġbu ff
ever al
de lete
ĠS ign
Ġcalc ium
ress ive
ib l
Ġgu arant
Ġle ct
ĠA uthor
os ion
E P
ap es
Ġcolle agues
ĠA ward
D S
Ġwill ing
j i
Ġfor get
Ġpart ner
Ġenum erate
Ġm ild
Ġmod ified
Ġf ashion
Ġt ank
ĠNet work
ple te
id ity
Ġte en
ir al
Ġdo i
Ġevery day
Ġg ap
Ġed ition
ĠW here
Val ue
% .
Ġar ts
Ġpass ing
Ġattempt s
(' --
ER S
Ġf er
Ġpromin ent
Ġser ial
n orm
Ġw idespread
Ġimplement ed
Ġline ar
ĠSpec ial
ir atory
ĠÂł ĠÂł
ĠSc iences
F F
E C
ish ment
ĠSt art
ĠCh ange
Ġsubsequ ent
og rap
ĠId ent
Ġab andon
Ġsp ending
Ġpack age
ĠAd v
Ġs ought
Ġr u
æ ķ
Ġsub stances
ĠP M
Ġ7 5
ĠF ield
Ġeng aging
n ight
erm an
ĠP et
Ġsum mary
Ġhistor ic
ins on
ĠP oint
ear chers
ound ed
Ġinsp ired
Ġ' /
ater n
em b
Ġsp in
ost on
Ġc ats
ĠÂ ·
ess ions
Ġdel ivery
Ġre ct
Ġpass age
Ġ" __
% )
A m
Ġsil ver
Ġv eter
ĠT ake
ĠS up
ĠT own
ĠDise ase
lay ers
ĠB attle
Ġplan e
e enth
el esc
Ġown ers
ell s
Ġinter f
! !
Ġinter pre
Ġintellect ual
qu it
Ġl oved
Ġturn ing
ĠAN D
Ġpresent ation
Ġpre val
amp s
Ġfac ing
Ġalgorith m
Ġu l
ĠCom mand
Ġfl o
row ser
ab eth
ani el
Ġgal ax
Ġgreen house
ure au
Ġbeaut y
ĠSom etimes
Ġdet ection
Ġord ered
ĠA ccess
ud a
Ġinform ed
Ġrespect ively
ĠJ ac
Ġtri als
Ġass igned
âĢĻ ,
Ġstrong er
ĠIr an
Ġmeasure ment
Ġcompl icated
lish ing
ro at
Ġen emy
e ffect
th is
Ġmechan ical
Ġ6 5
Ġrece iving
eli hood
Ø §
tem p
b est
Ġput ting
Ġbut ton
Ġ ?
ult ane
Ġp it
am ine
Ġdyn amic
Ġcr im
Ġp in
Ġhe m
Ġpy test
Ġstat istics
Ġindust ries
Ġbr ings
Ġfeed ing
ace book
ident ial
Ġbut ter
ä »
er ator
Ġpe ak
ch o
S P
ear ing
u an
Ġform ula
s im
Ġsac r
Ġgu ess
ĠCur rent
aw s
' d
f ast
Ġemploy ment
Ġimplic ations
ut en
ĠV en
Ġn odes
Ġst uff
Ġre ly
j a
ĠĠĠĠĠĠĠĠĠĠĠĠĠĠĠĠ ĠĠĠĠĠĠ
Ġd type
ĠCh ild
Ċĉĉ ĉĉ
ĠF amily
Ġaccess ible
Ġ ille
Ġre con
li k
id ation
ed it
ac her
Ġl iv
cycl op
es is
Ġcontrol s
d ig
Ġmin ing
P re
Ġest imate
D ate
zer os
s is
Ġb anks
ĠW orks
Ġup dated
æ ľ
ĠE st
op les
Ġcalcul ate
Ġext ension
ol n
Ġthe rap
Ġmeasure ments
we et
Ġme al
ĠU t
Ġpromot ing
AT ION
Ġte a
Ġch ick
h op
AT H
ip her
Ġwrit ers
ĠIsl am
Ġco vers
Ġve ctor
Ġag ents
yl van
ĠJohn son
set tings
Ġliter ary
u els
ĠE c
ri ve
6 7
he lp
R ep
it ative
Ġc av
Ġcook ing
h ar
Ġunc ertain
Ġpo ison
Ġvers ions
Ġ19 30
Ġknow ing
I A
Ġcommit ted
ĠP ak
Ġconsid ering
Ġt ight
Ġr ice
ĠS af
Ġstim ul
Ġdam aged
Ġst ations
bre ak
Ġnew ly
ov ing
ĠS qu
Ġri vers
d iff
Ġass ume
ĠW all
ĠCl ub
ĠCl in
Ã §
Ġd ance
Ġro cks
Ġm os
Ġredu ces
ain ing
ĠD om
Ġtiss ues
Ġch olesterol
Ġcont amin
Ġguid ance
N et
per m
Ġth ir
Ġep id
ĠArt icle
at ial
Ġm ur
Ġorg ans
Ġacqu ired
d isc
ĠPl ay
ĠM ethod
Ġpo em
st ack
Ġcomb at
Ġ3 3
op ic
Ġcent ers
Ġconfig uration
Ġlegis l
Ġtrou ble
Ġ Ċ
ĠâĨ ĳ
Ġab stract
ĠAm ong
Ġfor th
m ond
Ġcon ven
Ġsm oke
Ġparticip ation
ĠIn s
âĢ ĺ
Ġpro of
Ġv an
Ġopp osed
ĠN ov
Ġrel iable
ent ry
ou nce
ĠR ail
St ate
Ġd ates
Ġcy cl
Ġcharacter ized
In ter
Ġbr and
Ġeng aged
Ġst ack
sc ript
ĠE r
Ġfe ver
Ġout er
a fter
__ ":
Ġpro file
ol y
ĠFor ce
Ġsome what
a ired
) ),
ĠS and
Ġconvers ation
Ġt ube
Ġrel ief
Ġp ed
Ī Ĵ
Ġexam ination
r ary
Ġl ie
Ġal ign
e qual
ro g
Ġf urn
Ġexerc ises
ĠInd ust
Ġt ract
Ġm m
Ġt ick
ra pe
Ġrout ine
Ġfrequ ent
Ġaud io
ĠH and
Ġsatell ite
O W
Ġmathemat ics
et ics
amm a
Ġarch ae
Ġres il
gr ade
ĠDo es
ch ain
Ġdest ruction
Ġbe ings
Ġjud ge
ro oms
Ġdef ense
Ġcrim inal
Ġadvant ages
Ġstrong ly
Ġpl us
à ¸
K E
ĠM oon
Ġtrans lation
ĠD own
Ġ20 23
ĠCh ampions
Ġcar b
Ġvol can
Ġoffic ers
Ġinnov ation
C o
Ġdang er
Ġt ons
ĠLe e
Ġst ores
Ġgr anted
ĠM ah
ĠCan cer
Ġdiagn osed
Ġfac ility
Ġam azing
Ġra cial
Ġthan ks
ĠL ook
ĠWind ows
Ġbl ind
h ma
p ower
Ġappro ved
Ġown ed
Ġvictim s
Ġtrig ger
Ġobserv ation
ĠTh ough
Ġn ose
Ġinput s
Ġpl anned
en cing
Ġseem ed
Ð »
. âĢĻ
N ode
Ġsen ior
" ):
Ġheav ily
Ġev olved
Ġne ither
p ub
ra ham
ĠDirect or
Ġcl ar
Ġo d
ĠL os
hy d
t ic
Ġhe l
Ġt ub
ac cess
Ġquant um
Ġearth qu
Ġgrad ually
Ġtem plate
Ġcontain er
Ġneighbor hood
6 8
eng er
C ON
ut s
M O
à ¥
am ber
S ource
ren e
Ġ194 0
ĠA R
ĠP C
Ġoffic er
Ġburn ing
Ġrep air
Ġconstant ly
s leep
il er
serv ice
Ġinvestig ation
Ġsur faces
ĠT ext
Ġestim ates
ĠSec urity
F L
ĠSt at
ĠN OT
ĠCommun ity
c ache
Ġf ont
e ers
ĠMod ern
ot ype
Ġpublic ation
Ġun ion
ĠC ross
Ġind igenous
Ġm ood
Ġdis pl
force ment
Ġunit test
Ġphenomen on
p g
Ġthem es
Ġconfir med
. ')
Ġcl s
Ġcorn er
Ġor bit
ĠIm port
Ġf old
Ġm ice
ru ption
ĠOr ig
Ġgir l
Ġh un
Ġn ull
Ġr an
init ely
Ġtra ce
Ġ' '
ĠW al
Ġcorrect ly
w a
Ġessential ly
ĠW ord
th m
Ġintegr ated
Ġprinc ipal
ĠKore a
Ġtrend s
ĠOx ford
U nder
ĠJe ff
ĠĠĠĠĠĠĠĠĠĠĠĠĠĠĠĠ ĠĠĠĠĠ
Ġcall ing
Ġlegis lation
ĠD utch
Ġsubstant ial
Ġcor rel
Ġbo ys
Ġrob ot
C ar
s qu
Ġtur b
Ġdes ert
Ġ6 4
ĠW ay
ac ent
Ġinterpret ation
ail ability
ylvan ia
plot lib
Ġcarry ing
R em
] ),
Ġaim ed
p ng
ĠL ight
Ġout come
Ġp add
ĠE ffect
Ġautom atically
he alth
loc ation
Ġsl a
ĠFore st
ect s
b les
Ġequ ation
Ġsh ock
ut ation
Ġcorrespond ing
Ġcomp os
Ġsav ed
Ġl ung
Ġmole cular
Ġun iform
N S
lear n
ĠG all
Ġgu ard
w an
ad or
ĠPol it
Ġob st
Â ·
ĠM ot
Ġmin erals
p ool
ĠHol y
Ġvirus es
iz abeth
Ġmin ute
Ġfind s
r h
Ġ198 9
Ġth row
y al
Ġin du
Ġint ent
Ġinnov ative
er a
Ġcl othing
Ã ¨
Ġfor g
Ġmere ly
ĠO ptional
Ġcrit eria
ĠTh ree
epend ent
ul pt
Ġfair ly
Ġsens or
Ġd ream
Ġth r
her ic
Ġpart ners
Ġt ables
Ġbi ology
Ġunivers al
ch arge
ĠC all
ĠN ame
Ġsp ort
arch y
Ġh orses
Ġsh oot
Ġc ab
Ġbound aries
T able
Ġstate ments
Ġnerv ous
Ġemb edd
ĠPr inc
Ġth y
Ġepis ode
em ents
il a
Ġr oughly
t x
Ġn est
ĠUn it
Ġfocus es
er ic
E ng
ĠChrist mas
Ġob esity
Ġprevent ing
Ġse at
Ġab ilities
Ġsc an
ak a
ask a
ĠC ir
em a
inc oln
ep och
es h
ĠF ind
Ġbr anches
are n
u y
ĠB ul
Ġde aling
ĠR h
Ġdoll ars
Ġt ensor
ĠQue en
ĠAg ricult
Ġprocess ed
O P
Ġsur ve
ĠF our
h ome
Ġsla very
on ly
Ġexpl oration
Ġb att
P ost
v ard
Ġb omb
ar ks
Ġ/ /
L ast
un a
ĠS aint
Ġbig ger
ay a
6 3
air y
Ġd ent
ĠEd ward
l as
D ict
Ġper mission
b its
se ed
Ġcoast al
Ġhapp ening
Ġis lands
ĠScot land
Ġadequ ate
Ġfab ric
ĠA PI
ĠCl imate
m ult
ie val
Ġpro ceed
ĠB oston
", "
N ote
Ġspect rum
ĠK en
ĠFin ally
ex it
E ven
g ence
Ġvis ited
ĠS und
class es
Ġtem ple
Ġalong side
Ġmaintain ed
ĠCent re
ĠĠĠĠĠĠĠĠĠĠĠĠĠĠĠĠ ĠĠĠĠĠĠĠ
ang er
Ġreal ize
Ġdepend ent
Ġher itage
ĠH or
Ġl ists
o ids
ble m
ĠCo ast
Ġb ath
ĠPro cess
Ġdisc rimination
Ġch air
ĠB al
ro c
ĠP ot
Ġrepresent ing
o z
rou s
Ġunder t
h ash
Ġdemand s
Ġgluc ose
ive red
Ġscient ist
ĠL in
Ġd raft
ac co
ĠAr ts
ĠL iter
Ġsim ultane
F l
s en
T ER
Ġc ra
Ġprob ability
Ġwar ning
or ic
Ġbring ing
9 7
Ċ ĊĠĠĠĠĠĠĠĠĠĠĠĠĠĠĠ
g ov
Ġf iction
+ +
ig er
ad ow
Ġm unicip
Ġsuff ered
ĠE qu
Ġprov ed
Ġst ability
Ġins ulin
Ġp ounds
Ġfarm ing
ĠL y
Ġs ampl
Ġk wargs
Ġc osm
gress ive
g ression
B efore
Ġkid ney
Ġdet ected
Ġindic ated
I O
Ġcolon ial
Ġath let
Ġfall s
ian o
Ġlog ic
Ġparam eter
ĠF ire
Ġw ine
Ġwind ows
ĠServ ices
p atch
Ġc aught
cont in
Ġdef end
Ġst yles
I ST
u pp
Ġman aging
ir a
Ġcere mon
rem ove
ĠE U
ual ity
ĠV e
ia h
ĠL ast
Ġpl ug
Ã ±
Ġad m
Ġinh abit
Ġsimp l
Ġpart nership
Ġ --------------------------------
Ġrare ly
Ġd uration
ad ed
ist ical
Ġexcess ive
Ġch annels
Ġadd s
ur i
p ay
Ġprepar ation
Ġunus ual
es ides
Ġhard ware
t orch
aw a
Ġmetab ol
ĠColumb ia
Ġsc hedule
Ġpan el
Ġsymbol s
Ġsc ope
H ist
Ġaim s
Ġanaly ze
f s
Ġbl ank
sp ace
Ã ¢
Ġen ables
Ġ{ \
Ġph arm
Ġa er
B ecause
Ġrenew able
az on
Å į
ĠF red
ask et
py test
ĠSup reme
ĠMe an
s rc
» ¿
Ġlist ening
Ġd ys
ĠU r
m ann
Ġcont ributed
Ġlight s
Ġla id
et ts
Ġphr ase
ĠHe ad
rit is
L ine
the less
Hand ler
Ġsent ences
Ġexpand ed
ograph ical
Ġcandid ate
edi at
Ġconver ted
Ġfl our
Ġres id
m ble
it als
Ġthreat s
Ġv ideos
E very
ĠR am
Ġ19 20
Ġh ur
Ġsepar ated
Ġdis put
p ir
Ġin n
r ane
ĠRem ember
ĠJ ava
ĠPort ug
i ro
ï »¿
Ġbab ies
rout e
Ġaut o
ĠL i
ot ton
Ġrem ind
Ġw ra
Ġfil ms
u ber
Ġk ernel
col umns
ch annel
ĠSo ft
Ġpres ents
d ates
Ġter ror
Ġp airs
Ġdiam eter
Ġre aching
Ġform ing
Ġg ro
Ġmathemat ical
ns ylvania
i ological
Ġc ash
ĠC ard
Ġgr ant
r ical
Ġequ ally
3 00
Ġw ww
T oday
az z
Ġhe aling
rou ps
Ġperform ing
it ual
Ġroad s
T R
ĠAlex ander
f ound
Ġpar as
Ġpl enty
Ġcomfort able
ha ust
9 8
Ġprovid er
C ur
Ġse gment
ar n
Ġover w
o is
qu ar
Ġmoist ure
Ġl ake
ĠL ow
includ ing
Ob ject
cent ury
Ġdis rupt
Ġdesc ript
av ed
am l
Ġinf ant
icens ed
ach us
ĠInd ians
at re
Ġpol ar
ĠN ever
Ġfl ash
Ġl ens
Ġflow s
P lease
Ġch lor
Ġab normal
Ġpand as
op her
Ġ3 4
Ġph osph
Ġproport ion
Ġhead s
Ġinst ances
Ġarg ue
Ġobser ve
Ġvar iation
u ating
Ġex clud
ĠU k
Ġbre eding
Ġlearn ers
br id
head er
å ħ
Ġwa iting
Ġrec ording
Ġrad ical
ut ive
Ġmar ks
Ġwhe el
a is
e ast
ĠNav y
ful l
G e
Ġdis aster
ĠPar liament
Ġv en
Ġvisit ors
Ġcop per
Ġpoet ry
Ġbi as
Ġint est
Ġhe ating
at i
D B
Ġat oms
or ate
amm ar
Ġprov en
ru it
Ġdri ven
Ġabs ence
ad der
app ed
Ġev il
cont roll
ĠPl ant
ac le
s q
Ġaccom pan
ĠOh io
i est
c md
Ġsl aves
on al
Ġst ead
col umn
ĠCh o
e lement
ell er
Ġaccom mod
Ġconcer ning
ut rit
ou red
Ġthere by
E E
p df
Ġext end
ĠEngine ering
t mp
Ġfe at
T S
Ġsoc ieties
Ġfac es
Ġver tical
Ġas c
pl ant
ĠR un
ed u
Ġconsider ation
ne g
Ġsurpr ising
Ġins ight
Ġencoura ged
Ġexperim ental
ent er
vent ions
Ġearli est
t ensor
ac les
Ġcreat ures
ĠL ater
Ġc oc
Ġent ertain
up s
ad el
Ġcl ock
Ġint ense
Ġg iant
Ġrow s
S m
end ar
Ġstruct ural
6 1
g ument
ass es
Ġcal ories
ĠBl ue
hold ers
ĠH am
Ġus ual
Ġremov al
ĠP lease
Ġregard less
Ġk illing
Ġphot os
Ġloss es
h an
ĠHe art
Ġtechn ological
Ġanal ys
com fort
ut il
Ġh oles
Ġreve al
Ġcons erv
Ġs izes
Ġl es
Ġra c
Ġold est
ol i
am ins
Ġreg ister
ĠH a
f uture
B ack
Ġengine ers
ĠL ittle
6 2
ĠPhil ipp
Ġf ault
Ġdifficult ies
Ġconsider able
H D
Ġeffect iveness
Ġdel ivered
Ġclass ical
w d
et ary
oh yd
Ġpre ced
ĠP ur
Ġpro hib
Ġcont ents
Ġche st
Ġt ropical
Ð º
v i
Ġ` `
Ġexecut ive
ist ant
Ġsort ed
Ġsl ave
ans as
Ġatt ributes
Ġact ing
ag en
Ġint ensity
Ġra b
ri z
un ct
h igh
P ub
in ition
ĠA gency
g ments
b our
ĠF und
Ġwrit es
ĠL incoln
Ġo v
an z
================ ================
Ġ4 8
ar ation
Ġf ed
re ction
Ġrecommend ations
E ar
oc ial
ĠB usiness
Ġpur su
Ġmy st
Ġf ra
Ġresp iratory
el a
Ġprint ed
Ġcontribut ions
Ar t
display style
ĠCont in
NA ME
ult y
U P
Ġpregn ant
o a
are t
ĠAdminist ration
Ġ rom
ĠPen nsylvania
Ġplan ets
Ġexpl icit
Ġatt ach
: ]
C ons
Ġenc oding
A ss
ĠĠĠĠĠĠĠĠĠĠĠĠĠĠĠĠĠĠĠĠĠĠĠĠĠĠĠĠĠĠĠĠ ĠĠĠĠĠĠĠĠĠĠĠĠĠĠĠĠĠĠĠĠĠĠĠĠ
Ġ" ,
D own
L A
Ġemer ged
Ġal pha
ĠH ospital
Ġaffect ing
Ġtreat ing
Ġco verage
ĠC orn
Ġeth ical
Ġsit ting
Ġrec over
Ġsettle ment
ĠK enn
Ġquar ter
Ġpres erve
Ġhead er
ĠEl izabeth
æķ °
E O
Ġnit rogen
Ġcl uster
Ġbur ied
ĠHe b
Ġcomp ens
Ġdec ay
Ġmeas uring
ĠM ach
ĠRes ources
ens ional
Ġgrav ity
uck y
ru g
Ġfish ing
Ġmicro sc
writ er
! "
Ġcomm ands
Ġcustom er
Ġb at
Ġtax es
se x
ĠM arc
Ġdiscuss ions
Ġemer ging
f riend
y ou
ĠIsl amic
Ġcommit ment
A re
Ġpain t
Ġnarr ative
æ ĸ
ĠSu pp
Ġpar agraph
it amin
ĠSt an
Ġ4 2
b el
og a
ĠB ang
se q
Ġst ake
m al
âĢ ³
Ġ198 8
d oor
c ule
Ġth reshold
ost ic
Ġ3 7
op ath
ĠGeorg ia
Ġass ets
Che ck
ĠChrist ians
Ġstop ped
Ġmin eral
Ġc sv
v in
Ġdeep ly
h us
ĠT able
Ġfun g
ĠL im
Ġany where
Ġquant ity
Ġpe oples
ĠM ur
k g
Ġdis pos
Ġsc ulpt
Ġnewsp aper
log ging
Ġreg ulation
ĠF igure
m n
et ing
Ġdo se
Ġtem porary
Ġidentify ing
m ons
Ġcomplex ity
Ġex ceed
im ents
hand ler
Ġg ut
Ġapprec iate
J ohn
ĠC ub
å Ĳ
Ġintegr ation
oc ument
achus etts
Ġord ers
Ġme als
Ġ} ,
âĢ Ĭ
f oot
load s
Ġg rain
Ã³ n
Ġro se
aw n
ir t
fe ature
ell o
Ġprotect ing
Ġhousehold s
am ination
Ġqu iet
A ct
g reen
ik i
Ġre n
UR L
l ights
Ġperson ality
Ġd rain
Ġste am
Ġcharg ed
ic ular
Ġbroad cast
t d
ĠPar am
F O
Ġm igration
Ġhorm one
Ġinf ect
ĠI V
Ġdim ensions
ĠT ry
Ġsun light
Ġwis dom
Ġmat plotlib
Ġpr ime
Ġsens ors
9 2
ĠO bs
Ġb ag
lect ed
Ġal ive
Ġir rit
dec ode
II I
Ab out
Ġisol ated
Ġtrans c
Ġwould n
ĠM D
Ġarg ued
ID S
Ġmicro b
n odes
Ġcon j
Ġover come
Ġf ought
init ial
s amples
ex ist
ĠMich igan
Ġhe nce
Ġcollect ive
eng ine
Ġmix ture
Ġs ister
Ġsuper ior
Ġexc iting
s ur
ĠJust ice
iv a
Ġhuman ity
9 3
Ġinc ident
Ġpl ain
m ock
Ġcalcul ated
Ġp ix
ĠL ess
Ġprof it
Ġstreng then
Ġprint ing
at al
Ġm igr
Ġcomput ing
ĠOrgan ization
Ġmount ains
Ġconf irm
Ġclean ing
he imer
Ġhand ling
s ent
Ġfeature d
Ġset up
Ġvoc abulary
Ġr ational
direct ory
Ġelimin ate
iod iversity
Ġfocus ing
Ġprop ag
ĠC apt
Ġv o
elf are
Ġpsych ology
Ġper ception
Ġvict ory
Ġexpect ations
pre fix
ĠI ra
ra ine
Ġview ed
L oad
exec ute
i y
AR T
Ġcomp rom
Ġpur s
d ing
head ers
ĠFrancis co
ĠE vent
Ġf lying
ĠP age
ust ers
ĠL o
Ġcompl iance
Ġgrow s
Ġcap abilities
ĠIs lands
Ġr itual
Ġeng agement
Ġb in
ver b
Ġemot ion
Ġs oul
ĊĊ ĉ
Ġconsum e
Ġatt ended
è ¯
Ġb inary
Ġdecre ased
Ġc as
b ound
ob ile
ĠC rit
Ġer r
ĠC ode
Ġl ibr
Ġaward ed
t ok
Ġm ic
Ġphys ician
Pe ople
re q
Ġord inary
Ġh osp
as ets
al m
Ġcool ing
} ")
Ġs pl
Ġcompl ications
Ġg ases
Ġ20 24
Go ogle
Ġaddress ing
Ġconf erence
ĠF ile
Ġintrodu ce
Ġcomp ound
Ġvari ations
log in
( _
Ġconclud ed
w orth
Ġv ibr
su ccess
Ġplatform s
p us
Ġh oney
ĠM id
St art
as ant
Ġfall ing
Ġflow er
ĠInt roduction
ail ing
Ġoverw hel
ĠF act
Ġc ort
ĠSt r
ne ys
ĠV an
Ġent ity
ç Ķ
Ġopt imal
Ġactiv ation
Ġres c
Ġ3 8
om eters
ch ild
Ġmort ality
er ly
Ġign ore
Ġbe at
Ġex it
Ġcop ies
param eters
). __
ĠAnd rew
m ake
ĠM ajor
ĠBook s
Ġident ification
ĠCam bridge
ĠAngel es
Ġ198 6
om atic
Ġl osing
Ġobject ives
Ġc ul
Ġvar ieties
] ['
it ure
Ġoff set
Ġcharacter istic
ĠÂ £
Ġtown s
20 10
Ġdem ocracy
D at
Ġex haust
c hem
Ġmag azine
Ġb low
Ġcover ing
H ave
ov ascular
Cl ient
v as
ĠA L
Ġcould n
Ġf inger
ĠD E
Ġapplic able
ush ing
P r
Ġt ip
ĠE ll
Ġh all
ĠJ im
ri or
Ġ ),
ĠLear n
20 12
Ġcat tle
ĠT O
Ġassum ed
ĠC P
Ġtherm al
er ated
Ġstri ke
Ġeng ines
Ġregard ed
Ġcreat ivity
p erson
t rack
ĠMass achusetts
b ell
Ġac res
Ġfe els
uff er
ĠMed ia
Ġkeep s
ĠOb ject
ĠOr der
ĠCh ief
it arian
Ġ" .
Ġchem istry
y er
Ġprov ince
Ġnot able
Ġdifferent ly
Ġopp osition
Ġprovid ers
ke ep
Ġdut y
ok es
Ġbo at
4 00
b u
dict ion
Ġemphas is
c v
ĊĠĠĠĠĠĠĠĠ ĠĠĠĠĠ
Ġtra its
" {
Ġm ine
ou ds
ĠAn alysis
Ġcon vey
Ġmanif est
ĠChristian ity
d ot
P ATH
Ġim aging
D R
Ġhead ers
ĠH on
cyclop edia
Ġag ed
th ritis
S y
ig ue
ĠF acebook
Ġtem por
ik a
Ġdis k
we b
cre d
el se
__ )
Ġhypothes is
Ġd ress
Ġl ambda
ĠPol icy
Ġdomin ant
em bed
Ġwatch ing
. |
Ġwor st
ĠRead ing
Ġpand emic
ĠH ot
re nder
Ġbre ed
ĠPro p
ĠT ri
Ġexperien cing
Ġoccur ring
Ġl aser
ĠSystem s
ĊĊ ĊĠ
ag an
ĠW in
ä º
Ġremark able
Ġreal ized
Ġenc ounter
ĠF re
Ġmind s
ĠN umber
Ġsub stit
ĠBuild ing
ol esc
Ġf ost
Ġed ges
Ġconscious ness
pt ic
Ġbi om
Ġbroad er
Ġen orm
ĠM ove
ĠAr gs
Ġtr ick
I ES
Ġneut ral
Ġhaz ard
Ġscen ario
Ġ ;
Ġpart ial
Ġd ive
erc ury
c ient
Ġcont ribution
Ġcur ve
Ġanal og
S H
Ġrest aur
oc c
Ġp ond
dep th
S ON
ith ub
Ġperspect ives
Ġ ĊĠĠĠ
Ġsens itivity
Ġequ ality
. :
al so
old s
ol t
Ġhunt ing
Ġmeaning ful
Ġac ute
ĠM ath
ĠA M
Ġvel ocity
Ġdi pl
Ġtrans mit
ĠWith out
Ġshap ed
Ġap i
Ġz ip
D is
Ġterm in
Ġfact ory
Ġ198 7
mon th
ĠEx amples
ro le
ĠF ar
ol k
Ġweak ness
Ġlun gs
Ġt or
cle an
Ġwork er
Ġadv is
Ġst d
ain e
ĠW ales
Ġworks he
Ġinflu ences
ĠL ew
Res ponse
ur is
p o
Ġille gal
Ġ5 5
S pec
Ġwor ship
Ġref erences
. ).
Ġpath s
Ġdyn amics
agn etic
Ġcl ients
j o
Ġorig ins
u um
Log ger
ĠPak istan
Ġres erved
ple x
ĠInd ones
Ġsett led
en ess
ĠCons ider
ĠG ar
Ġl icense
Ġsh r
ange red
ĠO l
ĠSimilar ly
Ġgu itar
ert y
ur ches
Ġprec ise
k o
ab el
Ġdirect ions
Ġl ip
Ġchrom os
Ġpredict ed
ĠV iew
ĠJ un
z ym
b ury
Ġf ant
th rough
Ġ3 9
Ġliter acy
Ġhas h
Ġexam ined
ust ain
ĠAg ain
at hered
Ġsur ge
Ġclass ic
ĠSt ation
Ġch ap
Ġw ing
U se
Ġapp lying
Ġt on
p in
Ġexhib it
Ġtransfer red
I mp
othe rapy
ep s
Ġsus cept
ĠD ie
W here
Ġinter ior
ĠC up
= ['
a a
ĠD at
ĠIra q
Ġfunction ing
Ġc ensus
Ġtrib es
2 000
Ġbu ck
ĠB ern
Com p
Ġhard er
Ġprotect ive
ogen ic
Ġro yal
ann er
Ġc ust
20 11
Ġsp oken
ut her
Ġinter active
Ġav ailability
ap or
Ġmat ches
Ġmembr ane
ĠLe ad
Ġse vent
r ont
orig inal
uss ian
Ġg ast
ĠPal est
ĠDem ocratic
ing le
Ġspec im
Ġspecial ized
Ġtra uma
C al
ĠL ove
Ġd rag
ĠD C
enc ode
ĠE nt
ĠJ oh
ast s
P oint
N E
ab ling
W id
ĠIn vest
Ġd ies
S L
Des pite
Ġas sembly
Ġstre ets
Ġbacter ial
Ġpost s
in st
B A
c ap
Ġimprove ments
Ġst ones
Ġs hed
ĠHeb rew
Ġcy ber
Ġcopy right
f in
20 13
Ġpoint ed
Ġbe es
Ġal ert
Ġastr onom
Ġpass ion
or i
Ġt ack
Ġreport ing
ino is
Ġt act
wind ow
Ġmarket ing
Ġun w
Ġvacc ines
ĠWik ipedia
k ind
Ġnot iced
ĠSaf ety
d est
pro b
Ġbatter ies
ĠT otal
Ġproduct ivity
Ġclass ified
book s
Ġst rain
Ġl ob
Ġess ays
(' \
Ġcolon ies
ĠF ed
Ġpartic le
Ġvers us
W ind
for ward
Ġtrans formation
Ġelect ions
or ical
p ie
ere n
C ount
th ur
ĠConf ed
ĠCar l
Ġtum or
ĠM ic
S im
ial s
ĠStand ard
Ġp uzz
J ust
Ġoper ated
reg ular
ĠD O
ential s
Ġadapt ed
Ġelse where
I F
que ue
Ġ æ
Ġgo ver
ĠUn fortunately
ĠA ff
T wo
Ġbre aking
Re quest
e conom
Ġ" "
Ġbelie ves
Ġid x
ro ve
Ġphys ically
Ġt ab
M ay
ĠTe am
Ġto w
iss ance
Ġpl a
Ġscreen ing
ĠW is
Ġtra cks
Ġ198 5
å ¤
ĠU RL
ĠD aniel
Ġcour ts
M M
ĠFil m
re ams
ĠAr ctic
Ġschem e
pro t
Ġcur rency
Ġantibiot ics
Ġch ose
ĠJ o
ack s
ĠF arm
ro x
Ġf ur
Ġcon version
Ġbond s
ut ely
x x
Ġt ong
Al so
Ġch ances
Us ing
ĠG ame
Ġsc hedul
9 4
Ġw at
Ġt elling
ĠGree ce
ĠK ent
Ġ> >>
Ġ194 5
} \
Ġexp ed
rec ord
Ġal arm
ĠC orpor
ĠF ather
Ġm ouse
B M
Ġpar ad
{ \
Ġfriend ly
Ġmanufacture rs
Ġestablish ment
ĠC reek
Ġprefer red
el ly
Ġconflict s
ĠG re
be an
Ġp ars
ful ness
A tt
Ġc ord
c ard
ĠM aster
Ġwebs ites
ĠJack son
In put
w as
ĠA sh
Ġexist ed
ĠH ard
im m
ĠA P
Ġent r
ĠHistor ical
ĠM S
Ġ ion
Ġacknow led
the w
part s
Ġr anging
utrit ion
ad vant
Ġclass ification
opt im
Ġher self
ĠV ersion
Ġast hma
Ġl ymph
Ġ' --
Ġelectr ons
Ġ4 4
we ights
Ġalgorith ms
ĠI T
20 14
ĠOn line
ĠN O
Ġmet als
m end
Ġt ap
ĠS O
è ¿
Ġp ion
id al
Ġsc r
Ġmod erate
ĠSen ate
Ġecosystem s
Ġsimultane ously
Ġde ploy
Ġg ly
(" \
elesc ope
Ġ" /
Ġf uels
u ity
Ġent ering
Ġpres erv
Ġocc as
ce ive
Ġprom ise
Ġwe ights
il i
ĠSu pport
id ers
dri ver
Ġs aving
l aw
ĠSh ow
ch annels
el ve
Ġd ating
Ġsub t
K e
Ġremov ing
Ġs ad
ĠRe al
b at
Ġg erm
Ġs rc
Ġt ension
out heast
Ġoper ator
l an
Ġg ate
ĠD am
Ġcommit tee
Ġ198 4
Ġaddress ed
Ġmult ip
ĠO tt
Ġl ingu
app y
Ġ1 20
Ġprof ound
M at
Ġfacilit ate
Ġs oph
iv ate
ĠSecret ary
N umber
Ġatt ribute
Ġpass es
ĠBer lin
b ow
.. /
ber ry
Ġcor on
end ment
Ġdiff er
Ġf ing
Ġfarm s
Ġcontribut ing
Ġp estic
ig m
e or
Ġsp an
Ġprior ity
y an
ĠD ictionary
Ġin herent
z heimer
Ġpre y
usal em
Ġs essions
Ġeven ing
Ġpan els
ie ve
spec ific
greg ation
Ġsp r
Ġlow est
fact ory
r ams
Ġpil ot
ĠJ r
ĠEn ter
Ġc ow
Ġint r
Ġgover ning
Ġgen ome
ĠViet nam
Ġcoun sel
Ġsol ving
Ġdo ct
Ġby tes
Ġh ier
Ġresearc her
Ġw ars
Ġconsum ed
Ġdro pped
ĠPro duct
m t
Ġre vers
Ġf o
ĠH it
Ġd rought
Ġdiet ary
ocol ate
Ġm apping
u rolog
re port
ĠN ext
ĠN a
as hes
Ġposs ibilities
Ġdram atic
ĠN orm
Ġpl as
T E
ĠConf erence
Ġthreat ened
ĠS ource
ĠColor ado
z ip
Ġcommun ications
iz z
Ġlight ing
Ġper ceived
rape ut
Ġexec ution
Ġtarget ed
Ġconcent rations
static method
ĠAs sembly
ot ion
Ġactiv ely
Ġbal anced
Ġcry pt
ac hers
v oc
Ġflex ible
H S
Ġdeterm ining
x ml
it led
Ġpr ay
Ġto b
Ġg rains
ĠPol and
Ġs ql
rane an
play er
ol s
AT A
ĠC ost
ĠN ob
Ġengine er
Ġs ect
Ġman ual
% ,
200 9
Ġprogram me
ĠEn c
Ġc ache
ĠA ction
ĠCons ervation
num py
ĠTe le
b ir
ĠDig ital
Ġwhe at
m ade
ÂłÂł Âł
Ġreason able
Ġpurch ased
Ġrequ iring
Ġwe aring
Ġreplace ment
en viron
Ġer u
ol ves
ĠPh ot
Ġver t
Ġeduc ators
Ġr h
Ġf older
id ae
un ctions
Ġra ising
Ġident ical
ĠWilli ams
Im agine
com put
Ġinter ventions
Ġt one
Q U
Ġar med
Ġown ership
Ġaddress es
adel ph
con tain
ĠT itle
ĠI ss
Ġvit amins
Ġdevelop ments
Ġfin ish
Ġstrateg ic
25 5
Ġst ere
G R
Ġoccup ied
Ġest ate
Ġn oun
ĠM A
N N
Ġst ood
con sc
Ġcandid ates
Ġec ological
ĠAN Y
Ġfat ty
F e
ĠCol on
Ġinvestig ate
ra it
Ġdest ination
ĠR E
Ġmin ister
Ġd il
Ġsubsequ ently
Ġc rack
i op
å Ń
conn ection
ĠT urn
Ġbar riers
Ġaccompan ied
u v
ĠY es
Ġregist ered
b urn
al pha
ĠHaw ai
ĠPl ace
th od
Ã £
Ġn ice
Ñ ĥ
ĠJ ones
Ġh al
Ġdisplay ed
Ġsustain ability
g ien
av en
Ġviol ent
ĊĠĠĠĠĠĠĠĠĠĠĠĠĠĠĠĠĠĠĠĠĠĠĠĠ ĠĠĠĠĠĠĠ
Ġminim ize
F act
Ġsaf ely
Ġem it
c os
S R
lik ely
Ġpat ch
ĠSch olar
9 1
ĠTh ink
med iate
e en
com mun
Ġconst raint
Ġover l
ĠIll inois
Ġvess el
Ġg ent
as ync
Ġend ing
in er
ĠChar l
Ġh at
Ġpe er
ĠB a
L ike
Ġpros pect
rou d
Ġcomp ass
Ġm g
200 8
Ġnot ion
ĠG ir
Ġwid er
Ġ ĊĠĠĠĠĠĠĠ
ĠSt ring
Ġmur der
ĠProt ection
by tes
Ġfif th
Ġent hus
Th rough
ĠA ud
Ġking dom
ĠN ic
conn ected
D IR
Ġmin imal
aw are
c ost
Ġcarb ohyd
ĠPr int
ĠAn sw
qu ir
ain ts
Ġbreak s
ĠV ar
Ġneur ons
t wo
Ġgen us
Î ±
Ġunivers ities
Ġmos quit
Ġut ility
input s
Ġint ention
OR T
ĠSoft ware
Ġwe igh
Ġuser name
(). __
Ġconf ront
zy me
Ġha ven
st ra
reg ister
IN D
Ġn ic
b ro
acc ount
Ġre aches
Ġ197 9
1 000
Ġexam ining
Ġref used
Ġqual ities
ĠH om
ĠKore an
Ġtob acco
ins ert
s ort
Ġcl othes
Ġ' ,
ios ity
adelph ia
ok ed
iox id
ĠMex ican
UL T
Ġher b
y es
ĠSp irit
ch ron
OD O
Ġdri vers
ment ed
20 17
Ġachieve ment
Ġk er
ĠS on
Ġcelebr ated
Ġ9 5
ĠHar vard
om eter
or rect
ĠK n
Ġimm igrants
e fficient
clus ions
p m
ari os
Ġmax im
t ered
ĠM arg
Ġfl ask
ĠSund ay
it zer
Ġinhabit ants
Ġne ural
Ġsequ ences
he a
Ġit er
ĠJer usalem
Ġb its
G ET
Ġun like
ĠL at
20 15
ĠG ulf
Ġar ise
Ġexpert ise
ĠSm all
p ow
Ġs ending
itc hen
Ġco operation
qu ality
th read
Ġear n
ĠCh apter
ĠS us
Ġlog ical
ĠInd ex
An y
em pl
ĠD ate
Ġinvolve ment
fr ont
ĠSt ory
omet ric
Ġ ×
Ġbr on
rep rene
ort ion
Ġart istic
Ġbas ically
ĠS ong
Ġf raction
ĠTur k
Ġf ats
Ġwonder ful
Ġb rowser
ĠW AR
Ġleg end
Ġc ure
ĠMuslim s
c r
Ġiniti ative
Ġcontin uing
ious ly
Ġc otton
RO M
ION S
Ġvary ing
Ġbound ary
T C
hav ior
ĠWhe ther
Ġground s
Ġc odes
Ġatt itude
dir name
Ġj oy
ps y
Ġsh orter
Ġcontroll ing
ĠR en
ĠH indu
Ġreve als
Ġaut ism
ĠAss ess
Ġsp atial
Ġc ub
IT Y
G l
Ġp H
Ġs ale
ĠSur vey
spe ed
Ġattempt ed
Ġ198 2
Ġmet res
us ers
sh aped
Ġlif etime
Ġg athered
Ġw ings
cur sor
A F
ot ypes
s ite
ĠR ight
Ġ' -
ĠH um
assert True
ce ans
H is
ĠSh ort
ond ay
ay lor
Ġb are
ĠEconom ic
um my
est ock
Ġrepresent ative
Ġben e
T Y
Ġfore cast
ict ed
Ġmer ch
Ġrob ust
Ġb orrow
Ġrest ore
ĠSant a
s ome
Ġear ned
Ġdis abilities
Ġep och
Ġsudden ly
P D
Ġb ought
Ġas semb
ĠAl zheimer
it ches
on aut
Ġur ine
Ġut ils
Ġdef initely
Ġdefic iency
Ġtheore tical
Ġcomb ine
Ġhabit ats
ph abet
200 7
E nt
Ġreturn ing
o ir
Wh o
oc a
er ver
step s
Ġwhen ever
(' -
t w
20 16
Ġant icip
ĠTr ad
Ġt uple
Ġconf usion
us cript
Ġens ures
ĠTem ple
og s
ĊĊ ĠĠĠĠĠ
Ġaccur ately
E ach
ĠJ on
Ġenorm ous
Ġse es
: %
Ġassist ant
ĠH arr
Ġre ign
Ġplant ing
Ġmy ster
Ġpain tings
Ġsub process
ĠJe an
Ġevolution ary
fo o
Ġhorm ones
ĠWil son
Ġw al
Ġpopular ity
Ġs ons
ĠD yn
Ġiniti atives
Ġrepe at
bor ne
Ġport ray
er b
j ob
Ġdesign ated
Ġdev ast
Ġnutri ent
H el
ĠA k
Ġdistrict s
b ec
Ġcho osing
Ġperson nel
Ġveget ation
Ġatt itudes
Ġadv ances
Ġassoci ate
ĠWh ich
- %
Ġenter pr
Ġsac red
ĠEx p
li er
Ġpay ing
Ġcol ony
ĠS ym
Ġt utorial
Ġsupp lements
Ġrecycl ing
Ġsp ots
load er
Ġbox es
akes pe
ĠNet her
ĠB ob
Ġreflect ed
Ġexpress ions
rop y
ic ode
s n
ĠPre vention
b ul
Ġgod s
ser ial
Ġir rig
Col umn
Ġ198 3
back s
Ġopin ions
Ġs ocket
ĠDe ath
Ġvot es
Ġdim ension
Ġreview s
ist ed
iet al
Ġev ident
Ġfil ters
C M
Ġcelebr ate
w estern
vel ength
h al
Ġdis ability
ĠHel p
Ġsod ium
ol ph
Ġpract ition
Ġde lete
dom in
Ġbene ath
Ġsu it
Ġbehavior al
A c
ĠAre a
Ġsch olar
ĠWe ek
Ù Ħ
ĠR est
D et
Ġsp ark
ĠLabor atory
Ġl on
Ġassign ment
d esc
ĠWrit e
is ely
Ġpriv ile
Ġsp oke
f old
oc ated
ĠB ol
h ard
w ait
ĠT H
Ġob lig
Ġp ill
zym es
P y
Ġstr ings
Ġrot ation
olog ically
ys ical
Ġoffic ially
sh ire
resh ape
ĠAs k
m id
Ġun expected
ĠAm azon
ĠAd am
ĠMin istry
Ġefficient ly
cept ions
Ġst atic
ĠL ocal
ic ating
Ġrul ed
Ġdis h
met ric
Ġbeg un
'] [
Ġverb ose
Ġstr ange
Ġwith draw
ĠO ffic
Ġinv asion
ab out
rop ol
st ation
h ot
S ize
R un
eng ers
Cre ate
Ġcan cers
Ġapparent ly
f ire
Ġtransl ated
Ġcardi ovascular
hem istry
Ġ" --
Ġin equ
ĠConn ect
Ġbet a
ĠGovern or
Ġper mit
Ġrequire ment
Ġmet aph
Ġ' \
Ġgrad uate
man ager
se cond
Ġo l
Ġs elling
Ġsem i
Ġd a
Ġappe al
Ġde grad
ĠUn ivers
ĠMicro soft
Ġmother s
Ġmem ories
Ġro oms
Ġliter ally
ĠE s
get s
row th
ĠP rom
u its
Ġsur g
Ġsus pect
ĠPr ince
onym ous
Ġ4 3
AP I
ou ri
akespe are
V ER
ĠS everal
ĠInd igenous
Ġt mp
Ġvill ages
ĠLe vel
m o
ĠRepublic an
s ql
Ġprec ision
Data Frame
form s
ef ul
il st
Ġdist ances
og ram
Ġt ags
Ġp ipe
Ġpay ment
w all
Ġsh ares
ĠH ung
c ounter
Ġs ulf
Ġh am
or ters
ak i
Ġcap s
Ġrhy thm
ick ing
Ġancest ors
F ore
Ġcy cles
Ġm ature
ĠInd eed
20 18
az e
F C
Ġ-------- --
or us
Ġfat al
E xt
ĠRec ords
qu es
Ġdesc end
ĠPhil adelphia
st ers
t ml
R ed
Ġt ends
Ġsh ore
Ġag gressive
Ġam pl
Ġabsor b
Ġtrans mitted
Ġdescrib ing
Ġstre ams
Ġpredict ions
Ġe ase
KE Y
Ġconnect ing
Ġvar ies
Ġdial ogue
in th
ĠD un
Ġpriv acy
Mod ule
N ext
Ġreg ime
Ġcrow d
per ties
Ġfru str
Ġbro ke
Ġv on
Ġdefe ated
Ġbl ess
å ®
ĠR NA
d istance
Ġto wer
Ġf ires
ter ior
lo op
are st
Ġmed ieval
Ġsu icide
ne um
is ition
iss ipp
Ġincred ible
Ġvir al
ĠF air
Ġcompet itive
p c
hist ory
Ġad olesc
Ġmult ipl
ĠR out
Ġvirt ually
Ġmagn itude
me ga
Ġcirc ulation
ĠSer ies
le m
if ice
The n
et he
ĠR a
'] :
Ġ2 50
ĠB on
Ġmy self
Ġemb ry
Ġsub sc
line ar
PO ST
h our
ĠS pring
ĠE mer
ĠH an
Ġglob e
iter ranean
ĠN um
Ġadministr ative
} "
ĠB ell
S O
Ġgl ac
Ġpres erved
Ġf isher
Ġvis iting
Ġexp ort
Ġm old
Ġpre fix
Ġspace craft
Ġphilos oph
Ġd airy
in v
ĠS em
Ġperfect ly
Ġfem in
wh ite
Ġw elfare
Ġche ap
g t
Ġf et
Ġf oster
com mit
Ġ ~
Ġpers u
ĠD an
Ġmole cule
Ġprepar ing
Ġor ange
: `
ĠF oot
ĠT rust
d ays
Ġdis ag
ĠG ames
m aster
Ġp el
st ud
E vent
ĠIn cre
Ġun likely
ĠC R
Ġpos it
Ġincorpor ate
ĠA h
row ing
ĠH im
ĠMount ain
ĠH o
Ġto m
ĠCent ury
e z
Ġsp ray
Ġre nd
Ġphotograph s
9 78
AS E
Ġdist ant
in ces
ri um
) /
Ġresil ience
Ġ198 1
ĠF uture
IG HT
Ġhoriz ontal
en za
t ry
r ons
ĠB u
Ġam ino
ĠC ell
gh an
Ġprec ip
Ġsurround ed
Ġ: :
Ġb iodiversity
Ġ{} ".
Ġrail way
Ġdocument ation
st ic
aterial s
ades h
Ġ197 5
Ġgr ay
Ġabandon ed
ĠAv oid
oper ative
Ġl ar
D ec
ord inary
Ġsurpr ise
Ġrestrict ions
ĠPer haps
ĠWrit ing
Ġnav igation
Ġmamm als
ĠPol ish
Ġres on
Ex ample
Ġ" \
Ġevery where
Ġquant ities
Ġf t
Ġestablish ing
Ġprov ision
Ġserious ly
res ource
Ġequ ipped
Ġdistingu ish
ĠD ue
e lect
Ġas h
ĠF ollowing
T ensor
Ġwood en
d em
__ ()
riz ona
u is
Ġd ense
Ã£ o
se ud
pr ice
j ud
Ġunder ground
Ġref lection
Ġag ing
ch ildren
ä ½
if er
Ġ196 8
ibl ical
ĠCon fig
E m
Ġtra v
200 6
Ġsk learn
Ġfat igue
pl an
Ġco at
ur able
ĠS olar
ĠNether lands
Ġ197 2
Ġ4 1
Ġper pet
Ġhapp iness
ĠIm agine
sc hema
ann ot
art s
ĠW alk
Ġch urches
Ġjoint s
Ġc ouncil
ĠĠĠĠĠĠĠĠĠĠĠĠĠĠĠĠĠĠĠĠĠĠĠĠ Ġ
tim estamp
Ġinter val
Ġ25 5
ch a
ĠM ir
cont rol
j pg
Ġadd iction
ĠB ureau
Ġr anges
le ton
Ġsav ings
Ġcl ay
Ġwind s
Ġan not
Ġv ice
Ar gument
Ġcre am
Ġfun c
ĠBel g
ub ble
Ġins pect
U G
It em
ĠS n
Ġbu ying
F inally
Ġo w
C lick
ĠR ab
im ary
reg on
Ġhol iday
i ability
Ġp ose
il ly
Ġexpand ing
r ating
Ġprodu cer
Ġcon qu
200 5
AG E
Ġg if
em ies
ĠS ection
Ġmot ivation
Ġdefin itions
Ġsp inal
Ġpain ful
ĠAnt ar
Ġ6 00
Ġrec ur
au g
ĠIm pro
Ġdiv ide
Ġcharg es
Ġsubs id
Ġout break
Ġbe am
Ġsepar ation
Ġaccompl ish
p ublic
Col or
Ġenjoy ed
Ġexecut ed
ag ger
Ġ rib
ĠF er
e ven
ĠT raining
Ġconsist ing
v ation
ĠHer itage
ĠR ay
ĠT enn
Ġleg acy
Ġc rown
ĠW IT
ĠBet ween
In fo
Ġsc ales
r imin
ĠT erm
ane ous
ĠUn like
igh th
ĠTreat ment
Ġp ace
issipp i
en er
Ġorient ation
Ġmet ric
Ġan ch
Ġminor ity
ĠB ad
ib li
st ats
Ġopt ical
Ð° Ð
Ġt ill
Ret urn
Ġgener ator
Ġdiscipl ine
Ġphenomen a
ex per
form ance
M on
ru b
Ġb ind
ĠThe ory
ĠCh all
Ġan ger
Ġv ig
Ġe ars
U D
r in
Ġvar ied
Ġind irect
Ġoption al
Ġg est
ĠBl ood
ĠT ree
Ġact or
g ithub
Ġleg it
sequ ently
Ġdr inks
Ġchick en
met adata
Ġbe ars
Ġcomp ost
Ġre venue
Ġspeak er
Ġrec all
Ġ19 00
ĠRep resent
G O
Ġsurv ived
Ġepis odes
ĠH op
Ġapp lies
i ations
Ġlo an
} /
ater al
b en
Ġencoura ging
c d
so le
a ver
ĠGu ard
} .
Ġhosp itals
Ġmen u
cent er
Ġc ough
Ġ197 8
Ġbrother s
n an
Ġt ort
ĠWild life
Com mand
path s
AL L
P s
ĠRad io
Ġtong ue
n ia
ĠC lick
ĠC H
Ġcorpor ate
ĠU V
F ig
ak h
ĠTh anks
Ġdiv ine
Ġscen es
ĠTur key
ific ate
Âł ĊĠ
Ġ197 6
as hed
Ġat om
ĠA wards
bur gh
8 00
ĠMed iterranean
] ):
Ġlab our
Ġgr ades
met a
Ġrout es
Ġcl ouds
iv ities
Ġread ily
Ġann ually
ĠTest ament
pro fit
Ġsc iences
Ġant ioxid
Ġsc al
rapeut ic
ĠTh ird
ĠLew is
Ġincorpor ated
M ar
s ol
Ġble eding
ĠP ersonal
Ġinsp iration
Ġrese mb
Ġbrain s
Ġthe sis
Ĥ ¬
Ġele ph
h ire
ĠSh ould
amm ad
Ġcoll apse
Ġtrad ing
Ġen abling
chn ology
Ġpolit ician
ĠCult ure
Ġbe ans
ĠN i
Ġdis advant
Ġlibr aries
Ġsc ar
g b
epend ence
Ġad opt
ĠG i
Ġpow der
off set
Ġimplement ing
ĠP ut
Ġdigest ive
Ġpropos al
Ġm ile
o ard
Ġal ike
Ġc able
Ġflex ibility
t ags
Ġdo ors
Ġadapt ation
n atural
Ġult imate
pro v
ĠEgypt ian
is ons
ip h
Ġbar rier
Ġput s
ĠL uc
ĠRet urn
Ġc am
ĠScott ish
S M
ĠAn cient
Z E
or ient
ĠC ook
Ġemp ire
Ġoccasion ally
Ġd imin
ĠD ict
Ġb asket
ĠT y
u z
m ers
ĠJer sey
Ġre nt
Ġin cent
ĠOb ama
Ġpen et
Ġdevelop s
Ġsuggest ing
Ġth roat
Ġaltern atives
un s
Ġj uris
R ANT
Ġse asons
Ġsum mar
ĠO nt
d umps
Ċ ĠĠĠĠĠĠ
d m
ĠAr m
atern al
ĠComput er
er ally
in ite
ĠS her
Ġreflect s
Ġapp s
Ġadj acent
Ġpredict ion
Ġencoura ges
ĠF estival
ĠRel ig
P C
Ġres olve
br is
ĠEx ec
Ġoutput s
ĠM ind
c in
Ġ---------------- --------
ĠW at
ĠA z
Ġenh anced
Ġmod ules
ol er
Ġ197 3
Ġl y
Ġrest oration
l ass
Ġf an
ĠF OR
Ġk g
ro se
Ġfound er
Ġc ig
Ġwin ning
ac cur
Ġan throp
Ġb inding
Ġimp er
Ġc yl
b n
ĠBe ing
ĠM ap
ĠStep hen
quar ters
d t
empt y
ĠP u
Ġinv al
AC T
Ġisol ation
Ġarri val
Ġhon est
ĠAr gent
Ġcomp at
Ġ à¤
Ġen abled
ĠÂ ©
ang el
Ġorgan ism
class method
ĠP arent
Ġeconom ics
uss ion
Ġflav or
ĠB h
ous es
Ġrestrict ed
Ġpar liament
ĠI de
A V
Ġsy mb
Ġen roll
im s
f are
Ġc md
Ġpoll ut
F R
ĠSwed en
ĠD id
Ġent itled
Ġland ing
Ġcivil ization
Ġz ones
it us
Ġattack ed
ĠC ase
Ġprec isely
ĠF ac
ĠCon st
OR D
g ae
ord ination
Ġmag ic
an th
he ster
b et
ĠHT ML
Ġcell ular
S ign
Ġcal m
ĠPr ime
f ont
Ġgr ammar
ir able
Ġent ities
Ġmeet ings
Ġmedic ines
Ġmor ph
Ġconc ert
ĠA rizona
Ġindic ating
ĠO ften
Ġshap ing
ĠS ab
Ġre cre
wh o
Ġdem ocratic
Ġdevelop ers
Ġmin i
ĠS elf
fl amm
ol ine
o ons
ath an
Ġachie ving
ĠW ars
ge x
Ġ ì
de velop
Ġacc ord
Ġemploy ee
Ġfund ed
ĠBro ok
Ġatt ributed
Ġc od
com plete
Ġad verse
Ġret ain
Ġover view
Ġstat istical
ĠPri ze
cul ate
Ġpri est
Ġsp ons
if iers
Lear n
Ġcr imes
D L
ĠEm peror
Ġpros per
Ġmarg inal
ĠMc C
) -
Ġsim ulation
ĠLe on
pat tern
(" /
ĊĠĠĠĠĠĠĠĠĠĠĠĠĠĠĠĠ Ġ
Ġsm ell
Ġ197 1
hold er
form ed
Ġmom ents
Ġearthqu ake
Ġp od
Ġshe ep
Ġtransform ed
ĠPhys ical
ann a
ĠĠĠĠĠĠĠĠĠĠĠĠĠĠĠĠĠĠĠĠĠĠĠĠ ĠĠĠ
per ature
train ing
Ġdi agram
requ ency
istic ated
w orm
Ġ4 6
m ove
Ġun em
Ġ196 9
ĠAgricult ure
ĠD iet
ĠZ h
g roups
Ġresist ant
ass ium
Ġmetabol ism
Ġpub l
Char Field
Ġjud gment
end a
Ġ197 4
Ġh ack
Ġar ter
std out
Ġas ide
Ġnutrit ional
ĠO S
ĠB rain
Ġfav our
ĠĠĠĠĠĠĠĠĠĠĠĠĠĠĠĠĠĠĠĠĠĠĠĠĠĠĠĠĠĠĠĠĠĠĠĠĠĠĠĠĠĠĠĠĠĠĠĠĠĠĠĠĠĠĠĠĠĠĠĠĠĠĠĠ ĠĠĠĠĠĠĠĠĠĠĠĠĠĠĠĠĠĠĠĠĠĠĠĠĠĠĠĠĠĠĠĠ
ĠB ased
Ġsu g
Ġtot ally
Ġliv estock
W AR
Ġdist inction
Ġtrack ing
B I
ĠMiss issippi
ĠWAR RANT
ĠB or
Ġro d
Ġinf ants
ediat ric
P RO
Ġg ift
Ġdefe at
Ġemb ra
Ġdocument ed
c ir
ĠP ain
gien e
Ġcomp ute
Ġman uscript
ĠRes ponse
Ġf ir
Ġpl ates
Ġen zymes
ĠS a
ĠSt one
Ġdispl ays
Ġin ev
Ġlect ure
ĠM rs
ne cess
Ġart if
B O
Ġinvent ed
ĠL ED
Ġrel ate
ong o
Ġcount s
m ic
os aur
AS S
Ã º
Ġcal endar
ar se
Ġmem or
Ġju ice
Ġspread ing
Ġ ------
Ġexec ute
Ġint ric
Ġal umin
Ġillness es
Ġequ ations
ĠR og
ĠH ay
Ġb orders
it ic
Ġexhib ition
Ġscen arios
Sc ient
const ruction
est ion
c ult
ĠK im
ĠS av
ov a
Ġt ape
t imes
b ad
Ġmir ror
Ġsub mit
Ġgard ens
ĠO regon
Ġinflu ential
ent i
Ġinstall ation
f ly
Ġl akes
H ER
EN SE
Ġ4 7
in ate
ĠVictor ia
Ġfit ness
ĠĠĠĠĠĠĠĠĠĠĠĠĠĠĠĠĠĠĠĠĠĠĠĠ ĠĠ
Ġconsequ ence
Ġ4 9
test s
Ġintegr ity
requ ired
ĠT ODO
Ġcomple ment
Ġst er
ĠApp le
ĠPract ice
Ġspeak ers
Ġen forcement
Ġmod ify
z ero
t k
Ġch ocolate
Ġ8 5
ole an
A ut
ĠB ow
Ġmunicip al
Ġcirc ular
Ġpe ers
Ġh urt
Ġen cl
ot ing
Ġamong st
D O
ĠN Y
ĊĠĠĠĠĠĠĠĠ ĠĠĠĠĠĠ
n i
econom ic
au c
in ch
Ġanaly zed
b age
Ġsurg ical
Ġlib eral
Ġinst ant
n ote
are r
Ġrep utation
nes ota
ĠTw itter
W elcome
Ġdeb ug
U C
ĠMiss ouri
pro file
Ġload ed
consc ious
Ġhigh lights
Ġsever ity
Ġb ull
Ġhy brid
Ġso vere
M et
Ġdiscuss ing
Y es
Ġheav en
} ')
M essage
u ations
y o
lu x
Ġm ail
ĠR aj
B uild
Ġout door
Ġ196 4
rib le
Ġreg ulate
Ġinf lation
Ġveget able
m us
H z
Ġwas h
Ġsampl ing
ĠAl aska
Ġ Ï
Ġt ough
P T
ĠOther s
ĠCon vention
ĠB oy
= -
Ġcritic ism
Ġaff airs
Ġmist akes
ĠHit ler
ĠO s
at oes
Ġy es
M ax
ĠF unction
Ġ194 4
ĠE PA
ĠT ai
6 00
Ġinj ured
Ġreason ing
Ġswim ming
ĠLin ux
ĠM and
200 4
Ġp ets
Ġbe e
iv ating
Ġpr ayer
Ġregul atory
Ġt orn
Ġcamp us
Ġanalys es
Ġsome where
A uthor
t ains
Ġatmosp heric
è ¡
Ġp ale
net work
ĠH ig
Ġsens ory
ĠBr idge
Ġreprodu ctive
re ements
ĠP ope
Ġimag ination
Ġ196 7
Ñ ı
Ġor b
Ġpromot ed
Ġrep et
Ġburn ed
Ġ197 7
Ġh ook
ĠS earch
ĠCol l
ĠDav is
Ġnav igate
Ġsurv iv
olic y
ĠBi ology
Ġproduct ive
Ġhistor ian
Ġimp lied
Ġdig it
re ll
Ġc ited
Ġp itch
em et
Ġconf ident
Ġgun s
Ġo ceans
Gen eral
Ġint eger
Ġt s
ch arg
Ġr ays
Ġathlet es
Ġlik elihood
Ġnarr atives
ĠNe g
Ġen comp
Ġincorpor ating
Ġst abil
Ġabsol utely
Ġpain ted
Ġaccept able
Ġsleep ing
ĠCount ry
Ġab ol
ĠAp ache
Ġabsor ption
ĠInt egr
Ġo ste
Ġ Ø
Ġa ster
Ġbuff er
Ġelev ated
ĠPe ace
"] ["
r ison
Ġentr ance
ĠParam eters
Ġoff ices
pl ed
ĠH ence
reat ing
der r
Ġent reprene
M us
ĠH aving
ĠM oh
ĠT aylor
Ġgovern or
dom ain
g ood
ĠH em
Ġen zyme
unit test
Ġque ue
Ġsucceed ed
Ġc tx
Ġbe ach
Ġtw elve
red it
Ġrece ives
Ġde er
ĠG ra
Ġsh ield
thod ox
Ġbur den
Ġdef ines
Ġspecial ist
Ġch amber
W S
N O
ĠG iven
et ry
olog ic
He alth
Ġso ils
edd ing
ĠR os
Ġdri ves
ĠR ub
Ġpre domin
Ġwa velength
ĠJac ob
Ġplant ed
ric ane
Ġpun ishment
F ind
S erv
friend ly
r b
ex pl
Ġconsist ently
av irus
Ġcitiz en
Ġat omic
dim ensional
the re
Ġprodu cers
ĠCare er
Ġin ch
ugh t
he ll
Ġvis its
es ium
Ġcoordin ates
Ġdist urb
Ġarr anged
ĠĠĠĠĠĠĠĠĠĠĠĠĠĠĠĠĠĠĠĠĠĠĠĠ ĠĠĠĠ
Ġexc av
ĠSe lect
Ġcut s
p ur
cf g
p ot
Ġs ail
Ġexpl ored
ĠMat thew
Ġn ick
Ġshel ter
20 19
ĠM IT
Ġhop es
uc lear
ĠD ub
Ġ ic
Ġcollect ing
Ġre ef
et ically
Ġmet a
Ġdi arr
Ġsoc io
ĠWith in
S om
d ess
Ġdi ver
Ġspe eds
. /
25 6
W orld
sc ience
og ens
el ta
ĠCorpor ation
Ġ ):
r us
re ated
ĊĠĠĠĠĠĠĠĠĠĠĠĠĠĠĠĠ ĠĠĠĠ
D ep
M in
o ys
F il
Ġman agers
Ġcontin ent
Ind ex
Ġent ries
Ġpresc ribed
l av
Ġvolunt eers
Ġrad i
S erial
Ġe rect
l anguage
Ġdut ies
ĠNaz i
d ump
Ġh ide
Ġlay out
Ġb ands
ĠA T
Ġ196 5
Ġhealth ier
Ġavoid ing
p air
Ġstru ck
ĠP DF
æ ĺ
W ork
al o
sw ith
Ġcont rad
Â Ń
Ġpart ly
Ġex ch
ĠAf ghan
ĠMar ia
æ Ī
sh ort
ob ic
Ġnut s
Ġo vers
Pro cess
ĠC ond
Ġto mat
nt il
P at
Ġ ----
ment ation
Ġdesign ing
v ideo
Ġprot est
Ġr ough
um atic
Ġm issions
20 20
L S
ĠH yd
Ġindepend ently
P M
Ġc f
p res
gen eration
en ergy
ip y
ess ional
Ġde bris
Man ager
S um
cl ip
Ġres idential
Ġpost ed
Ġcons ent
Ġpart ially
Ġsoph isticated
ĠSt ill
ĠEx ample
Ġfac ulty
Ġreal m
ĠT our
ĠM i
Ġrespons ibilities
Ġprev ents
V D
Ġeduc ated
Ġapprec iation
ore r
Ġ5 1
se cret
ĠF a
ĠC lean
Ġche cks
Ġph ones
Ġfin ance
Ġimp erial
Ġ5 2
ot ten
ĠMar ine
y ard
ou ch
Cur rent
or se
lear ning
ap ing
Ġend angered
IC ENSE
Ġbot tle
c ategory
Ġtravel ing
ĠGard en
] +
less ly
IN E
Ġembedd ed
pl us
Ġmet adata
Ġfing ers
ĠJ ane
h idden
Ġhistor ians
ĠA S
Ġwork place
ĠAb raham
Ġextra ordinary
Ġgener ating
Ġse cre
G S
l ined
Ġsuscept ible
b uffer
ĠD esc
Ġdram atically
ç »
Ġval ley
ac on
O K
est one
Ġimp air
Ġn inet
Ġse iz
Ġpup ils
gl obal
ĠS ix
ig ating
Ġtit les
c uda
Ġfeat uring
P age
ic ity
ur se
ĠU lt
ont o
AB LE
ag ent
ĠB road
' {
Ġn ort
Ġm ig
Ġdepos its
ĠN ight
ĠL ind
Ġwe aken
Ġgr an
ĠMin nesota
is a
ĠAr thur
Ġpreval ence
it ting
ĠK ids
ge bra
lim it
ĠDu ke
ĠR od
Ġlast ing
ĠCor ps
Ġrad ius
Ġabsor bed
Int eger
ug in
Ġabund ant
is ode
Ġ -------
enn y
Ġkil ometers
w hen
Ġmov ies
Ġelement ary
Ġoccup ation
Ġass ault
ues e
Ġcontribut es
ĠO cc
in ery
Ġca ve
ĠPri v
F ound
Ġge ometry
Ġde leg
L C
ĠC ensus
quir y
de g
ĠTh om
Ġ194 1
start swith
un ks
ĠS ep
Ġche ese
Ġpick le
g on
Rel ated
H igh
h uman
ĠTrans port
Ġa est
ĠH as
Ġterm inal
A nt
Ġfr ames
ĠP RO
Ġadvent ure
Ġconvers ations
ĠFr ont
Ġk itchen
ast ics
vern ment
Ġreject ed
act ic
Ġl oyal
Ġo ils
let ter
Ġw age
emet ery
Ġpro long
get Logger
Ġsoc ietal
p a
r ank
Ġtend ency
for ced
ĠAl tern
ĠFr iday
Ġintegr al
Ġsynt hetic
hed ral
ĠDiff erent
Ġt ribe
Ġ icon
Ġaccount ing
Ġsole ly
as a
ĠM other
Ġprison ers
id ate
B ook
Ġmut ations
uff le
it ate
the y
om al
sh ot
Ġcontain ers
sh ips
ĠSam uel
Ġattract ive
ĊĠĠĠĠĠĠĠĠĠĠĠĠĠĠĠĠ ĠĠĠĠĠ
Ġ8 00
Ġtrans action
Ġtoler ance
Ġrain fall
Ġret rie
~~ ~~
ĠPh D
ĠC A
ĠF ish
ast ype
O rig
Ġ Å
ĠA C
Ġl oud
Ġweap on
200 3
Â ®
ic ul
ĠA st
Ġdiet s
B ar
Ġcan n
Ġparticip ated
Ġalt ered
Ġcontrovers ial
ĠCapt ain
Ġpl acing
Ġemp ower
ĠSh akespeare
Ġthy roid
e em
bl ack
Ġf estival
ve ctor
ĠP erson
st ates
is ations
Ġdes k
Ġthir ty
Ġn am
Ġfib ers
Ġsect ors
Ġrail road
Ġ" -
but ton
Ġw ound
Ġcomp aring
Ġag greg
ĠTr ade
Ġinequ ality
Ġinv ention
ed nes
á ¹
Î ¿
Ġgent le
Ġqu ad
Ġqu ote
Ġpred ators
Ġar c
Ġm art
H A
ll ib
Ġtum ors
Î ½
Ġcol ored
Ġrel atives
at ile
Ġcar ries
Ġmyst ery
ĠFore ign
osp el
Ġw ake
ĠC B
ĠMary land
st at
M ult
Ġred irect
ĠB alt
Ġ" )
Ġoff s
u pper
ĠOnt ario
f ol
Ġg um
Ġvalid ation
ivers ary
u ct
r ays
ĠG reg
Le vel
Ġappro val
ĠSum mer
Ġconf used
ĠC ape
ian ces
Ġcan al
ins ula
Ġfore ver
Ġt ar
t i
cons in
Ġperm issions
R C
Ġcur ious
Ġh ung
Imp lement
Ġthan k
Ġexc ited
Ġsed iment
ĠL es
Ġtra il
ĠB BC
Ġm a
Ġdis charge
ĠPhys ics
Ġne urolog
! âĢĿ
Ġg ear
ress ing
Ġh tml
Ġver ify
ĠL ie
Ġmut ual
Ġret ail
im als
d on
ustain able
Ġto k
ĠCar ib
Ġas ks
Ġco ach
Ġdiam ond
ze ch
v ance
ĠGerm ans
Ġ194 2
Ġte ens
ve c
ĠW W
ĠIndones ia
st orm
Ġtreat y
ĠE mb
Ġph y
Ġ ----------------------------------------------------------------
Ġel ab
Ġso y
Ġd ying
ĠCom mons
av ailable
A v
Ġacqu ire
se curity
Ġpro l
Ġsh oes
gu ard
Ġterrit ories
Ġb om
Ġmed ian
Ġcomplet ion
Ġv ag
Ġparticip ating
Ġ( âĢľ
mar ks
Ġvalid ate
Ġem pathy
ĊĠĠĠĠĠĠĠĠ ĊĠĠĠ
yl on
o op
w he
Ġdel ta
ĠOr d
ĠF ull
******** ********
ĠE X
au x
ograp her
Ġper f
U B
Ġdis par
Ġstret ch
Ġpublic ations
Ġw ise
N um
ĠV itamin
Ġoper ational
b t
Ġkn ee
Ġtext ure
Int roduction
Ġcon clusions
Ġsp ir
ĠP aper
as ures
Ġop ens
Ġer osion
ĠQuest ions
. ),
M I
E l
Ġgraph ic
Ġdemonstr ates
Ġeld erly
Ġm uc
Ġch a
ere r
Ġsym pt
L ook
Ġdiagn ostic
Ġanaly zing
C opyright
gen erate
) (
Ġdistinct ive
Ġcalcul ations
ĠG h
Ġ-- -
ge red
Ġorigin ated
ĠTr ump
ib ration
ä¸ Ģ
Ġplas ma
ag le
Ġstud io
Ġv om
ch oice
Ġprom ising
ĠG raph
Ġcorrel ation
: -
Ġgold en
he x
L ess
ĠH ur
Ġintellig ent
pt s
ĠC op
Ġlo ose
st ock
att ered
Ġt ries
clus ively
Ġinc orrect
aw ay
ĠAnt on
Par am
le ted
R NA
ut or
ext ract
Ġmet er
ĠC T
Ġshe ets
Ġvo ices
ĠB ru
Ġ9 9
E nd
Ġmetab olic
Ġt ied
app lication
ĠStud ent
ĠPro test
ĠM ess
Ġvoc al
aps ed
ad min
ĊĠĠĠĠĠĠĠĠ ĠĠ
B ox
ik h
sq rt
N ational
Ġtrans actions
Ġinc idence
Ġdeb ut
Ġsw elling
ĠC it
Ġpadd ing
Ġpro x
Ġâ ĪĴ
ĠSchool s
ef t
ĠB all
ĠR ather
S earch
Ġarri ve
f ather
Ġbus y
Ġloc ally
Ġco ins
Ġinv asive
ĠS C
Ä ĩ
Ġad option
co very
ind ices
ĠGold en
Ġguarant ee
hand le
Ġun ity
M ain
Ġrefuge es
ell i
Ä «
ĠL ady
Ġ19 39
C all
arg o
int on
u f
ĠK ong
Ġess ence
Ġbr id
oc ent
Ġ196 3
ĠSar ah
Ġshould er
} {
ĠMay be
Ġs le
g it
ĠB ush
Ġret ired
atur day
Ġl in
re lu
Ġmodel ing
Ġsuggest ions
el and
Ġfol k
Ġvot ing
Ġcl usters
fl at
e g
Ġc ourage
Ġbr ush
k h
Ġcamp s
Res earchers
ow a
ac ity
Ġvol umes
T em
Ġb ags
Ġeat en
V is
Ġb ass
ĠM os
Ġsett lers
AN D
ĠN ep
ĠN ation
ĠS pr
Ġret ire
ĠNe ed
ĠM oses
h all
uck et
Ġmagn et
act ivity
ues day
Ġm im
Ġt ens
ĠSc ript
Ġd rops
or ney
"] .
uls ion
Ġdri ed
Ġdis pers
() ))
Ġpay load
ĠDe cl
Ġd oses
fact or
ĠC old
Ġr ide
Ġmon ument
Ġb ite
Ġp ad
Ġabund ance
Ġcompass ion
Ġh ill
Ġneighb ors
re nd
j an
t uple
ra id
il ib
200 1
er ical
f c
d r
Ġp roud
Ġsynt hesis
Ġarrest ed
amp ion
Ch rist
IC E
Ġo k
im ation
ĠM es
Ġbelong ing
ĠM it
el ing
Ġutil ize
p any
Ġint ens
Ġarg ues
Ġp ushed
ĠRes p
Ġutil ized
FI LE
ĠO pt
( **
ednes day
Ġprogress ive
ĠV ill
Ġs oup
Ġpurs ue
Ġsearch ing
ĠNe uro
Ġirrig ation
Ġdist ribut
Ġrepresent atives
Ġrob ots
Ġ194 8
ĠH ong
s creen
d type
Ġh arsh
st ru
Ġout line
ĠR oss
Ġar bit
ari able
Ġre ar
Ġen l
atch ing
Ðµ Ð
Ġweek ly
ĠAl bert
urs day
amer a
ĠI M
Ġimp lies
Ġsitu ated
ĠS QL
at on
Ġconstitution al
Ġcir cles
Ġcont amination
ount ered
ro ck
LO G
/ '
Ġsupp lied
Ġdevelopment al
erc ise
ol ly
ĠT ok
ĠI ron
ĠAust ria
Ġd ump
Ġfre ely
Ġcamer as
Ġd ot
Ġpo ems
ry ing
on ing
Ġassum ptions
ĠO p
ar ter
Ġstri king
ĠF ord
Ġr ating
Ġnorm s
Ġan at
ĠC S
w s
å Ľ
Ġl ift
ign ment
in ian
Ġ20 25
ap ore
we ek
ĠKenn edy
dat abase
ĠT en
end ers
ĠScient ific
Le ave
M ap
Ġm es
ĠO pp
Ġinvest ments
Ġimp ressive
Ġad min
Ġt anks
ĠK at
ĠCol umn
Ġund ers
Ġm i
F urther
Ġcontext s
py plot
ou ter
Ġd ivers
Ġshall ow
ord an
ĠL uther
Ġpref erences
Ġhe ter
Ġread s
ĠS E
Ġst raw
Ġpres ervation
Ġconsum ing
G E
ĠScient ists
200 2
ĠS ound
ĠN ap
Ġse al
res et
ĠPh ilos
Ġeval uated
Ġallerg ies
Ġgalax y
Ġw elcome
Ġ ip
ĠIs a
Ġdis miss
Ġmet rics
Ġillust rate
comp ile
ut ical
Ġgen u
Ġw arr
. *
ĠT ogether
os itory
Ġtit led
Ġcr ash
Ġan ten
Ġunder go
R a
ce eds
Ġdis hes
Ġenc ountered
ĠP ay
Ġrel ating
ĠS imp
ul ator
Ġdeterm ination
Ġgather ing
Ġpromot es
ĠWis consin
ob e
Ġpip eline
Ġacc idents
Ġsystem atic
Ġcrit ics
Ġfe ather
Ġun necess
00 1
ile y
Ġmark er
Ġarrange ment
are a
ĠP ow
Ã¡ n
ĠC ore
Ġign ored
ĠDar win
Ġuncertain ty
Ġo dd
Ġu pload
ĠInt ellig
ph ones
ĠP ap
ad er
Res earch
an as
Ġaccept ance
ĠCult ural
ear ly
Ġval ve
Ġfrequ encies
Ġinfect ious
G r
a ft
Ġup dates
c pu
Ġlog in
ĠDou gl
ĠK ansas
ik ing
an ol
ĠD aily
Ġp neum
Ġg au
Ġstrugg ling
Ġb reat
Ġmonth ly
Ġstop s
Ġmanufacture r
Ġcur iosity
Ġdistingu ished
b one
Ġemer ge
Ġ5 6
Ġv ow
ill ance
w alk
Ġ5 4
Ġport ions
enn is
Ġcat aly
Ġsal mon
Ġt ear
EN D
ĠMil itary
ĠPolit ical
Ġinv ited
Ġimm igration
C ode
ĠMove ment
ĠM uh
Ù İ
Ġbatt les
Ġthe rapeutic
am ents
Ġcur sor
ĠP ict
Ġsing ing
od d
( ['
f inal
Ġcontamin ated
z es
claim ed
ĠEn cyclopedia
ab ases
ang ular
su per
Ġconstraint s
ĠIm per
place ment
Ġpow ered
Ġmatch ing
p ick
b b
j s
Ġover look
Ġthor oughly
am ous
Ġsub tle
G u
Ġappoint ment
amil ton
D i
he astern
Ġpersist ent
ĠA mb
p he
Ġdecre ases
l on
Ġ5 3
Ġde ment
Ġbe et
pt on
Ġrock et
ut ter
ĠAl f
Ġseason al
Ġconven ient
v ae
Ġqual ified
Ġ{} '.
ĠE N
Ġsign ature
S k
arm a
Ġinvest ors
Ġb ases
Ġmed itation
cy cle
Ġvacc ination
Ġshort ly
Ġdiscover ies
Ġass et
Ġact ors
Ġph on
ag a
av or
u ates
effect ive
) ).
Ġfost ering
ul ates
Ġg aps
z o
Ġang les
F S
ine a
Ġexplain ing
ĠPol ice
Ġeth ics
Ġseem ingly
ĠNever theless
() [
1 50
om er
Ġco in
su pport
in stein
Ġrul ing
i ac
Ġh ip
Ġoper ators
+ '
Ġver se
Ñ ĭ
! )
Argument Parser
Ġrac ism
ad i
ĠP R
Ġ196 6
os ity
Ġst rains
Ġthor ough
Ġon set
ix ed
t ab
Ġj ew
ch i
Ġimpro ves
fig ure
onom ous
ĠP a
ĠR ole
Ġcheck ing
Ġwor n
Ġmist ake
ĠYear s
ĠH al
l ate
er rors
ĠPhilipp ines
ĠInt erest
Ġp ine
Ġh orn
Ġrespect ive
t an
Ġadvert ising
Ġcomm od
Out put
Ġshould n
Ġp ink
te in
Ġto ys
Ġme ets
Ġwrit ings
Con v
Ġb er
ĠG il
Ġantib odies
Ġpar ks
Ġhome work
ic ates
up iter
Ġ19 18
Ġhost s
Ġd ow
Å ¡
Ġf ate
ĠJ oe
Ġaccom pany
ĠCast le
Ġschem a
s ocket
Ġtrad itionally
Ġcl oth
ĠF ig
Ġconstit u
ol as
v y
Ġar thritis
Ġm urd
Ġth rive
ĠMar x
Ġtour ism
Ġdr ama
Ġhy giene
' }
CO L
Ġsa fer
ĠFrank lin
ĠS ud
sc ope
Ġmass es
ĠSy d
Ġa ug
Ġsurve ys
ĠWARRANT IES
Ġcomm em
Ġsp ine
AC K
Ġfle et
ĠF DA
Ġprevent ed
Ġgra b
Ġal phabet
ĠAcc ount
th s
Ġ' %
Ġconcent rated
Ġle an
ĠAn ne
Ġfail s
health y
A ns
Ġhum idity
ĠM uch
ĠArch itect
Ġst ems
ĠJeff erson
Ġcontinuous ly
Ġaccompl ished
ĠEss ay
Ġcelebr ation
Ġpolit icians
ĠG a
enti eth
Ġphot ography
ĠCh art
ĠDe ep
Ġvac uum
bal ance
Ġhol y
ens is
M ake
ip ation
Ġpy game
Ġthick ness
Ġde als
Ġclos est
ĠF all
Ġext inction
l r
met rics
unt ime
b us
Ġple asure
Ġobvious ly
ĠHistor ic
Ġpath ways
Ġimportant ly
ĠMill er
ee ze
Ġpat ri
Ġpract icing
am an
p ip
om on
ĠT al
pl ane
an ium
Ġstake holders
Ġed it
m outh
pro du
ff e
ĠD raw
anc ial
Ġassess ments
" >
ĠCarib bean
tok ens
ble ms
We b
ĠImp act
Ġc rust
Ġtim ing
W ater
) *
u ction
ĠK ir
ne a
Ġoverwhel ming
Ġorgan isation
ĠM onday
Ġ196 2
Ġw ages
ĠB ox
Ġfound ing
Ġpick ed
s ens
T ake
ist ically
Ġsing er
Ġdement ia
Ġfunction ality
B ased
ĠMat hemat
Ġob s
ĠRes erve
Ġspec ify
Ġstead y
Ġir regular
ĠT ib
F OR
Ġpat ent
ĠAn aly
c ert
Ġreview ed
ĠPortug uese
ĠRom ans
Ġch ron
V I
Ġattempt ing
Stud ents
ĠSt ock
em on
d am
sy mbol
te enth
ĠElect ric
A ug
ors hip
process ing
Ġ196 1
ĠSwed ish
Ġ194 3
o en
ph al
LE CT
Ġgra ce
Ġre h
Ġrevolution ary
Ġmet eor
iot ic
ĠChampions hip
ry ption
ace utical
se mble
es see
Ġmob ility
Ġ7 2
X X
ven ile
Ġmeth ane
A g
k al
Ġv ine
ĠK al
Ġarchitect ural
ist ent
} '
ĠP ier
Ġres erve
op ol
Ġg ains
ĠCon stant
Ġconserv ative
th al
ĠMount ains
Ġbul lying
ĠReg ion
Ġdel ve
Ġext ends
osp here
ent ity
Ġch ip
Ġrest ored
Ġsk ip
) "
Ġle ak
In it
Ġgalax ies
Ġcomb ining
Ġl ic
Ġse gments
Ġd ual
els on
Ġen emies
Ġrub ber
ĊĠĠĠĠĠĠĠĠĠĠĠĠĠĠĠĠ ĠĠ
P V
ĠInd ividual
Ġfall en
Ġdef ining
Ġallerg ic
Eng lish
ĠC zech
Ġy east
Ex pl
ra ises
Ġcust oms
ĠH u
D iff
h r
el le
set up
Ġconduct ing
Ġdoll ar
ĠH ind
Ġdist ract
Ġtal ks
Ġteac hes
Ġp iano
Ġk in
Ġra ces
W ell
Ñ Į
t ons
Ġsk ull
ĠRes earchers
Ġal ien
ĠD or
ĠL oad
Ġt ang
") ;
as al
: .
Ġmark ers
Ġpsych iat
tern oon
ard ed
Ġcap ability
Ġrefer ring
ĠS ac
ĠNor way
ĠBas ic
Ġflu or
Â ©
ĠUk raine
ĠH ans
Ġpestic ides
Ġbul k
Ġstri p
uten ant
Ġflu ct
itzer land
Ġch ains
Ġacc used
Ġres et
Ġp or
Ġphys icians
Ġel ig
Ġcampaign s
Ġper mitted
m ay
ad ium
Ġmil it
ĠB ody
j e
ĠAn imal
Ġrecept ors
ĠR ose
ð Ł
Ġinher ited
Ġra ises
v ia
^ {
ĠG P
Ġ18 00
Ġflu ids
down load
ĠVol ume
D I
ĠE val
ĠT ax
B oth
Ġsurpr ised
ĠL ower
r ide
Ġco inc
cl er
ra red
O pen
ĠBudd h
ac ies
Ġhaz ards
Ġcir cul
Ġsn ake
A cc
s ized
io let
u ce
FA ULT
h o
Ġsacr ifice
un ning
Ġcommand er
Ġpr one
Ġdu pl
ul ative
Ġhe al
Ġbe aring
Ġ-------- -----
Ġdom inated
â ĸ
Ġalle ged
Ġelectron ics
Ġsmall est
P ublic
Ġint ra
Ġtub es
T A
oth y
ott om
Ph oto
Ġexped ition
ĠArab ic
. ]
P DF
Ġmix ing
vel t
Ġin clusion
Ġg ang
çĶ ¨
L icense
s in
ĠĠĠĠĠĠĠĠĠĠĠĠĠĠĠĠĠĠĠĠĠĠĠĠ ĠĠĠĠĠ
Ġb ills
Ġcast le
ĠCh ap
Ġa ver
U E
Ġs au
g as
Ġattract ed
ĠG er
Ġh ang
ĠB and
Ġavoid ed
he nd
i ating
Ġf les
Ġir re
ena issance
Ġtravel ed
Ġpot assium
Ġint rig
view s
b id
Ġnam ely
p ad
Ġyield s
c rit
W he
Ġphilosoph ical
ĠL ink
Con clusion
Ġillust rated
Ġceremon y
Ġgen re
dom inal
Ġexcept ions
fe ed
Ġem ission
ĠSyd ney
ĠD ocument
Ġcomb inations
ant e
re pr
t ension
ĠMem orial
ĠObs erv
Ġgr ams
ĠN E
Ġfro zen
Ġpush ing
ĠP it
unc iation
Ġul tr
Ġcomp act
è ®
J an
Ġimmun ity
ĠD escription
Ġinject ion
inc ome
Ġdev oted
ar ians
f etch
ig s
Ġrepl acing
Ġde com
Ġtrain s
Ġth inks
D isc
å º
Ġfac ial
G roup
Ġtensor flow
Ġassoci ations
ĠNot es
ĠCD C
Ġb ark
ik es
Ġab road
ĠCon sequently
Cont ent
ĠT rack
Ġpro gression
Ġam id
ĠN ig
Ġcon vention
Ġshop ping
ĠAssess ment
i ors
S w
Ġcor al
Ġeconom ies
Ġphr ases
pos ed
ĠM P
Ġinher it
Ġcross ing
Ġben ch
Ġstay ing
Ġp ap
C ourse
ĠUn less
chem y
Ġinflu enza
Dat aset
em an
Ġprec ious
Ġnovel s
Ġrelig ions
Ġtrans p
ac re
Ġsub mitted
Ġser vers
Ġsust ained
Ġp est
ĠV ideo
ade qu
ĠB ah
p ix
Ġin ver
sum mary
Ġcont rary
Ġpresident ial
ĠC ru
Ġtrans plant
Ġnerv es
O M
Ġnurs ing
u uid
ĠSing apore
Ġd reams
Ġad mitted
Ġrele ases
Ġexpl os
ĠEth iop
ĠS leep
ator ies
Ġcalc ulation
Ġcas ual
In st
Ġinter rupt
ĠS imple
ĠCons erv
ĠEv olution
ĠGall ery
Ġad vers
ef its
ĠL iving
Ġflood ing
Ġmean ings
rel s
ĠPer iod
v o
Ġexp enses
ard o
ãĢ Ĥ
Ġpreserv ing
reat ment
ĠBe aut
Ġconsist ed
ĠGr ant
Ġver te
Ġsh ade
Ġtherap ies
ĠQ ur
M ark
e ared
Ġschedul ed
l am
t ol
ĊĠĠĠĠĠĠĠĠĠĠĠĠĠĠĠĠĠĠĠĠĠĠĠĠ Ġ
pro p
Ġneighb our
Ġdisapp ear
Ġdecl ined
Ġafford able
Ġpub lish
ock er
ĠÃ Ĺ
ose velt
Ġc ro
Ġb old
ĠMean while
ĠVis ual
ĠT alk
Ġentertain ment
Ġinsp ire
Ġex clusively
Ġlo ans
sc ores
B as
ropri ate
Ġshif ts
Ġfoot print
ĠCh ile
ĠF em
Ġelect rom
s chool
Ġreal istic
Ġdr um
Ä ±
il ty
Ġassum ption
Ġphys ic
Ġnewsp apers
Ġwealth y
Ġn u
Ġreserv es
ur ated
. -
m u
Ġindic ators
Ġcons ensus
i el
à ¦
12 8
Ġfir ms
Ġcarbohyd rates
ill ery
ĠM agn
Ġdef ects
Ġt elescope
ug g
Ġb rick
og g
Ġaf raid
L a
f illed
ĠB io
osy nt
Ġ ],
ra ge
Ġorgan ize
Ġjoin ing
ĠIndust rial
Ġsub str
Ġtok ens
ĠWork ing
Ġhard ly
Ġpay ments
Ġbrief ly
T V
Ġdeterm ines
Ġflo ating
ĠFred er
ĠS olution
ĠRes ource
ĠHT TP
ĠRel ations
ĠCir c
ĠC ass
ĠB ot
ĠC ab
ĠH unt
c p
ĠCho ose
) |
Ġmut ation
ĠTenn essee
l ob
Ġf est
oca ust
em ed
is ible
Ġtre mend
Ġacqu isition
Ġse arc
St atus
Ġse ats
ĠG DP
m ill
Ġstorm s
Ġpractition ers
ĠE lement
Ġansw ered
Ġtox ins
ĠR isk
ĠSpec ies
osc ow
ĠN ich
Ġ194 7
Ġkil omet
SI ZE
Ġpoor ly
Ġsatell ites
Ġsusp ected
is er
Ġsp elling
ilib rium
ĠM un
Ġgen etics
Ġapp le
roph ic
ĠIn put
ĠS ite
ber ries
ĠClin ical
Ġprov isions
l iter
Ġmarg in
ĠStand ards
ĠTurk ish
T op
ĠR on
Ġrep roduction
Ġcond em
ĠD rug
im eter
Ġover se
ĠM ission
cre ated
Ġt ale
Ġcomb ust
Ġ5 7
Ġch at
Ġinterpre ted
Ġsh adow
Ġadminist ered
s om
Ġker as
re ens
Ġrequest ed
Ġoccur rence
Ġrepeated ly
Ġcontract s
D oes
Ġto ile
Ġs ou
Ġpen al
Ġmod es
ĠDie go
Ġn a
Ġs orts
ĠPol y
HO UT
ĠRec ord
ĠBl ock
it o
Ġdoct rine
is l
Ġl unch
writ ing
inc ial
å Ĭ
Ġlandsc apes
is hers
ä¸ ª
us hes
Ġle ague
Ġimp ression
ang ers
art en
Ġinter vals
ĠM as
ĠC ert
Ġal gae
Ġent ers
Ġind oor
GB T
Ġbelong s
) }
Ġwire less
ĠSw itzerland
M D
Ġtun nel
Ġhand ler
ose x
Ġfollow ers
Ġf illing
ĠP ear
ĠCl ark
p k
Ġbr illi
ĠTreat y
Ġl ying
Ġfl ags
Ġgain ing
Å «
Ġdis comfort
Ġbo ards
ĠS i
av y
ĠBe gin
ĠI ce
ep ing
Ġacknow ledge
e u
ĠT yp
Ġlist ing
ĠF ive
Ġox id
nd array
Ġc her
t ick
ĠCol lection
Ġed ited
ĠSim on
ĠAr men
Ġsk illed
Ġdescript ions
M C
ed ges
Ġadolesc ents
an alysis
Ġfert ility
Ġph ases
vious ly
H ome
ĠBe ach
b ool
Ġprotocol s
Res ult
Ġapp et
c lear
Ġsw allow
Ġpack ages
ĠL ive
ann y
Ġcateg or
Ġ19 14
Ġdesign ers
Ġref rig
rest rial
Ġpass engers
Ġ% (
Se cond
Ġper ipher
G A
Ġur llib
Ġpul led
V ar
Ġcomp ression
Me an
Ġann iversary
Ġd ens
ĠOlymp ic
pect ive
Ġg land
Ġdead ly
ĠR enaissance
ĠM u
Ġincred ibly
Ġbl adder
Ġbu gs
Ġcomprehens ion
m akers
Ġnucle us
ĠC E
Ġdin ner
ĠQue ens
let ion
T ree
Ġmount ed
Ġenh ancing
ĠLiter ature
Ġmain stream
ĠAff airs
m ac
Ġautom atic
Bl ack
Ġwell being
g ate
Ġrem ed
p resent
ĠB ishop
ĠPhil ip
isp here
Ġ19 17
Ġmer ge
ĠAD HD
qu ire
lic ations
ast ing
+ "
Ġl ig
ex ception
F ollowing
ĠCh ris
ĠAll ah
ĠBudd hist
Ġcheck ed
ĠSt aff
Ġso ap
Ġlim iting
ĠProv ince
Ġwas hing
ĠJ upiter
Ù ħ
Ġsee ks
Ġconsider ations
Ġh ills
Ġpack aging
Ġp ests
ĠSy ria
Ġc ope
Ġpres um
Ġexplicit ly
ag u
D IT
Ġf ake
Ġlong est
Ġstrugg les
Ġs el
Ġpro c
ĠO d
met ry
Ġr ic
ĠAr k
Ġins u
c ross
S QL
sc ill
Hist ory
Ġspecim ens
ĠWh it
Ġcompet e
Ġunnecess ary
ĠF ox
Ġsens es
vari able
Ġp s
Ġb es
he res
ĠBe havior
sequ ence
ropol itan
(" --
ĠF le
Down load
col s
Ġsevere ly
Ġresc ue
Ġsp here
Ġpar ish
P ol
Ġre ven
Ġmac ro
ĠAnsw er
Ġcoordin ate
Ġcount ies
ĠHar ry
Ġhistor ically
ub le
con vert
Ġcor ruption
---------------- --------
D C
, âĢĻ
ĠP resent
c ustom
ĠF ROM
Ġh ind
Ġoper ates
qu ired
osa urs
Ġextra ction
P ass
Ġin clusive
Ġninet eenth
Rem ember
ĠS ports
cor rect
ĠHis pan
Ġpr ide
ĠH amilton
Ġrep ublic
Ġob sc
En c
ĠS ug
p ars
ĠBr ig
ent ral
En ter
h u
f rac
Ġhun ger
Ġge ographical
count ry
Ġst uck
form ing
Ġr ats
Ġt ired
Ġv apor
But ton
Ġwh ilst
og ene
Ġcook ed
Ġris es
Ġimag ery
st an
ĠE ric
h ops
Ġtele phone
Ġw eld
read er
Ġworld s
Ġ18 0
Ġder iv
Ġden ied
Ġobst acles
hem atic
at ar
Ġpresc ription
ĠBar b
Ġpreval ent
ather ine
H er
bl ue
f our
Ġin cl
ir ical
ut y
ĠO il
re du
ĠKh an
ĊĠĠĠĠĠĠĠĠĠĠĠĠĠĠĠĠ ĠĠĠĠĠĠ
ĠC lear
f a
Ġ ions
Ġemb ark
ĠDef ense
Ġdang ers
Ġ( (
Ġtravel s
Ġunem ployment
Ġs perm
ĠK y
Ġgraph ics
Ġrec overed
? )
ant ine
Ġbas ics
ĠP il
Ġmoment um
Ġk ings
G raph
add r
ĠE le
Ġflow ing
ĠLaw rence
ĠA th
ĠB AS
Ġrespond ed
Ġvari ant
ĠĠĠĠĠĠĠĠĠĠĠĠĠĠĠĠĠĠĠĠĠĠĠĠ ĠĠĠĠĠĠ
i ative
Ġex ert
Ġgen etically
æ Ĺ
G ER
w ill
Ġdiarr hea
Ġwh ites
Ġri val
b ian
Ġimp lant
Ġres idence
Ġbl o
ĠPsych ology
ĠGu id
Ġk it
ĠLouis iana
Th ough
Ġsl ide
gener ator
ĠStat istics
Ġsy ll
ĠB eng
: \
Ġaf ternoon
az a
H ead
Ġb or
w ich
ĠTor onto
ential ly
t ail
Ġinter mediate
abil itation
ipl inary
ĠF A
Ġcontroll er
Ġview ing
ar ity
Ġpot atoes
m k
ĠCom ment
ĠPers ian
ĠP ack
19 99
({ '
Ġch ips
Ġco ordination
ĠMark et
_ (
v ised
Ġload s
fix ture
Ġann ounce
Ġbo ats
Ġteach ings
ct x
Ġdiv or
Ġcollabor ative
Ġobserv ing
ourn als
ick ed
" ;
Ġpass ive
Ġchap ters
ĠCol lect
ĠCont act
ĠC L
n amed
Ġmechan ics
Ġ6 6
Ù Ĩ
ĠJ ordan
ĠAd ams
å ĩ
Ġrecept or
ethe less
ĠImper ial
Ġworks hop
Ġpath way
E lement
it ational
Ġelev ation
A Y
ĠDep ression
Ġalumin um
ĠM ember
Ġgovern ance
S ur
Ġte ch
igh ters
Ġm arch
Ġst iff
ĠDem ocr
in ced
CT ION
âĢĿ )
Ch ildren
T oken
ĠH ou
Ġy ard
min ute
Ġm ercury
Ġd t
ĠAl ab
ĠRo osevelt
P res
app ly
et ed
ĠTe achers
Ġwar nings
Ġ' )
ĠY ellow
Wh ich
ru p
Ġsympt om
Ġmembers hip
Ġg ym
time out
ĠIndian a
s ky
t z
Ġstrength s
Ġcons ol
Ġpal m
j amin
Ġsimilar ities
Ġexp ense
r ish
och ond
Ġcon sec
> <
ĠR ap
ĠAfghan istan
Ġdent ist
Ġend e
Ġmal aria
Ġtime out
Ġr ings
Ġadvoc ate
em ics
Ġharm ony
Ġpro sec
ĠMach ine
D id
Ġhead ed
ĠM oscow
reg ion
ĠE ns
ĠSe qu
ĠAm endment
ĠInd ependence
ĠD ur
Ġpress ures
ĠM ong
Com mon
Ġassess ed
Ġgu ided
ĠM ental
ĠP i
ĠU l
ĠMuh ammad
oc ate
t urn
ĠR ain
ĠWal ter
Ġinvestig ated
az y
ĠH un
Ġbe er
ĠAr ist
ĠH ug
ill er
ri ving
B L
ou lt
ĠMag azine
Ġglob ally
ro ach
Ġdepart ments
ĠS P
r l
t ics
un its
Ġpromot ion
Ġvot ers
or ious
Ġclos ing
com m
ĠM aking
Ġg amma
Ġgre y
Ġdist ur
ĠR oc
ra pper
Ġatt ending
Ġb ars
pie ce
ĠRep ly
ĠC hemical
ram id
cl uster
Ġequ ity
arr ing
Ġ5 8
Ġcount ing
Ġpublic ly
Ġnot ably
ĠA ges
ĠO t
Ġb ell
mem ory
Ġt ies
Ġinit iated
Ġselect ing
Ġmanufact ured
od s
in ely
ar ium
On ly
ĠE V
O ct
Ġbase ball
Ġsold ier
Ġc er
Ġartif acts
t ures
ĠĠĠĠĠĠĠĠĠĠĠĠĠĠĠĠĠĠĠĠĠĠĠĠ ĠĠĠĠĠĠĠ
ĠT ro
sh are
ĠW as
Ġfl ed
s ingle
rand int
Ar ray
Ġb ay
ev ents
Ġimport ed
Ġvom iting
Ġimp osed
Ġf ired
Ġintrodu cing
Ġlabel ed
Ġcompet ing
er k
Ġindic ator
â ĪĴ
doc ument
Ġsubstit ute
Ġingred ient
c op
Ġaccording ly
ĠH ad
call back
Ġsh ipping
Ġen act
Ġcat ast
Ġcrit ically
Ġinflamm atory
ĠA str
ĠP L
test ing
erm at
Ġsl ope
iz ational
Ġenthus i
ĠZ e
un ique
k ernel
Bl ock
Ð ²
fl ies
ĠDom in
ĠS ri
ĠC ro
Ġw ounded
ĠH art
b ral
at ivity
Ġth rown
er ness
Ġcount less
B en
Ġbeh alf
Ġher bs
ĠReg ular
art icle
in flamm
M ix
we g
ĠJ SON
W ar
do ors
Ġreb ell
ĠQuest ion
N C
p riv
Ġang ry
D irect
Ġ195 6
e ffic
ĠCommun ication
Ġintric ate
ĠPat rick
ĠN C
pl ates
Ġinter section
ch at
O per
Ġdrain age
Ġ ).
Ġwere n
t elling
Ġposit ively
Ġradio active
pp ers
Ġatt ain
h ave
ĠD er
ĠTib et
ag h
ol ia
Ġh o
Ġinterview s
P UT
Ġf ans
Ġextract ed
box es
R S
ps on
ĠGr ade
am ount
ĠWIT HOUT
am ation
Ġall ergy
Ġth umb
Ġl icensed
per iod
augh ters
Ġconsider ably
ĠS ex
ac cept
ĠMal ays
Ġn urse
ĠSte ve
Ġun pre
Ġcirc uits
ĠCons um
m ates
Ġcryst al
Ġperson ally
t ar
ĠL O
isc al
new s
Ġ194 6
ĠRail way
rit e
Ġb on
ep rint
Ġsil ent
ys ics
S l
ĠB os
ĠK IND
Ġr ug
Ġprolong ed
Ġshoot ing
Ġ195 9
Ġinstitution al
Ġneed le
Ġdat abases
Ġaccess ed
Ġastr onaut
Ġle ts
ac ular
ĠKent ucky
Ġstim ulate
Ġhe ated
ro d
ĊĠĠĠĠĠĠĠĠĠĠĠĠĠĠĠĠĠĠĠĠĠĠĠĠ ĠĠĠĠ
Ġo ct
Ġmach inery
Ġtrans parent
f ail
Ġ19 10
Ġo ught
E v
Ġdegrad ation
ed ed
Î ¹
Ġv iable
Ġlar vae
ĠAl bum
Implement ed
% (
ert o
Å Ĥ
B el
Ġprof its
Ġt ales
lic enses
as m
Ġbel t
ĠB an
rep resent
ation ally
Ġrec ipe
ĠSym ptoms
oll o
st ar
Ġimp rison
ĠM ike
Ġtrans f
ĠIntellig ence
Ġor n
Ġwar fare
ĠB ron
Ġj aw
ĠG ab
im edia
r idge
int egr
ĠD ark
Ġtim ber
Ġdis asters
ell ar
ĠAlab ama
t les
y aml
ser ies
Ġfl ies
Ġcomple ting
Ġhighlight ed
ĠPro duction
M T
Ġfar mer
mark et
Ġ' _
Ġnav al
Ġwin ner
Ġsn ap
or ie
Ġphys iological
Ġde hyd
Ġ5 9
ĠStr ateg
Ġg ay
con cat
Fact ory
IN T
Ġf its
Ġprotect s
T otal
ĠMet a
ĠCh annel
å ľ
Ġed iting
Ġachieve ments
Ġdet erior
fl ag
ĠSil ver
Ġ- =
ĠY outh
Ġnecess ity
Ġj et
Ġdist ress
Ġcompar able
sh ore
ig e
work ers
Ġge ographic
ĠA y
ĠW inter
Ġstress ed
P ort
ĠIsrael i
et on
Ġd y
Ġworkshe ets
n c
Ġlib erty
ox ide
Ġl ith
Ġfe as
ri ends
om in
Ġsatisf action
ĠAl ways
ĠSh are
ĠS in
ĠO w
ruct ive
AR S
Ġd rew
Ġh its
ĠN utrition
Ġaud iences
Ġepid emic
ĠS el
Ġm ud
str ong
Ġcontrovers y
aren cy
Ġsu pre
l ings
Ġc os
hem e
Ã© e
Ġind ices
C omm
ibli ography
ag us
Ġperform ances
Ġdam aging
Ġ -----
Ġstruct ured
Ġlingu istic
Ġf usion
and o
Ġexpl osion
ĠAdv anced
Pro v
he ld
writ ten
Ġ195 8
Ġwar mer
ĠL arge
Ġc ous
ens ively
th reshold
ĠReg ister
Ġb ats
Ġsurv iving
Ġfra ud
Ġemploy ers
Ġtri angle
m aker
Ġ[ [
Ġcreat ure
Ġpack et
Ġintegr ate
Ġpul se
Ġfurn iture
} ".
ĠC and
Se lect
Ġg ross
1 20
ĠW atch
Ġhazard ous
Ġsymb olic
T itle
V ol
Ġkey board
Ġ195 7
ke ley
ew ard
Ġlun ar
Ġgr asp
Ġchart s
Ġsimilar ly
HT TP
ĠPub lishing
b ird
ic ides
Ġfear s
Serial izer
Ġste ep
pro gram
ĠBro ther
grad uate
Ġp upp
Ġp orts
ĠC ut
Ġgener ates
ĠA venue
L ong
Ġwh ales
ĠF low
Ġdispos al
Serv ice
ĠAll en
Ġche aper
ul se
the ning
Ġtransl ate
Ġprecip itation
Ġaqu atic
emb ered
Ġc um
Ġvolcan ic
Ġkilomet res
Ġint ensive
Ġexp end
Ġdiv isions
il ateral
Ġpub lishing
ĠBang l
Ġorgan isations
Ġpip es
file path
Ġsix th
Ġform ats
Ġpeace ful
Ġse q
the ta
ĠA le
ÃŃ a
Ġhe x
Ġmot ivated
Scient ists
tt es
ĠF reedom
Ġpress ing
ĠTe aching
ĠA IDS
tes y
Ġ194 9
im b
Ġ6 3
am el
E urope
Ġloc ate
ĠEd ition
Ġfertil izer
################################ ################################
ĠW y
Ġarchae ological
bas ic
Ġc erv
Ġapp end
ĠRes ults
Ġgu ides
q dm
ĠL oss
Ġantibiot ic
S pe
ĠT a
own er
Ġ á
Ġcardi ac
ĠF lu
Ġemer gence
Ġbreat he
Ġfif ty
Ġrecogn izing
Ġep it
Pro ject
Ġdocument ary
Ġheart s
Ġca ffe
z ens
mon ary
Ġoptim izer
ext end
ĠIn v
Ġdraw ings
ĠP ra
Ġdepict ed
au nd
ot ive
Ġpart ition
Ġcolle ges
ĠMo ore
f lu
Ġtru ck
ric es
Ġc ater
Ġag reements
ĠD ak
th a
Ġabs ent
ang les
ER R
Ġc el
ĠReg ional
ĠCommun ist
ant ry
valid ate
oth s
Ġrad ar
Ġconclud e
Ġaff il
T ube
Ġin adequ
In tern
Ġh ate
Ġtack le
Ġg ently
Ġver bal
ĠP os
Ġdat asets
Ġcon ce
ol ith
ĠAl i
Ġpath ogens
uls es
ĠHawai i
Ġm ol
h ol
Ġbuild s
ĠAnd erson
Ġpract iced
l ie
Ġtrig gers
Ġd ign
Ġmusic ians
Ġ6 2
Ġpain ter
D ay
Ġs ends
Ġclass rooms
ĠT s
ĠY O
ig o
ĠC ustom
ĠK a
pack age
) ||
com b
spec ies
Ġchalleng ed
Ġas pir
output s
M ethod
Ġconv inced
ĠT ask
Ġhe pat
Ġposs ession
Ġm ines
ĠFr ame
Ġfe e
Ġnob le
ĠP eters
ĠQ uality
ĠNob el
ĠF ried
per cent
ĠExec utive
il on
ut able
sp an
Ġz inc
roph y
ĠUt ah
Ġdesign er
Ġdiscipl ines
Ġw el
Ġstay ed
clud e
Ġexc it
Ġoffs pring
ĠHow ard
fr ames
ĠDen mark
is en
Ã ¸
ĠChar acter
Under standing
ri ver
Ġbuck et
st age
ist a
ĠThe atre
ru le
Ġex clusive
Ġexpl ores
Ġsurve illance
D ig
G L
Ġdevast ating
u ana
ig uous
St r
Ġformer ly
ĠNew ton
Ġev olve
al ia
con sum
Ġa ids
ĠMe chan
Ġinterf erence
Ġfrag ments
c ourse
ov ie
Ġper sec
Ġrel ates
Ġcav ity
Ġhead aches
ut o
Ġgrad uated
ĠJ am
Ġcomp ress
Ġload ing
Ġdyn asty
Ġtra ged
S ch
Ġprom ised
we alth
Q t
Ġut er
ĠBr ad
ĠOtt oman
ĠPri or
Ġtra p
Load er
Ġem peror
R ES
Ġpass enger
Ġ_ ,
id el
ĠD ick
P N
Ġs q
ĠPr imary
id ays
Ex p
E lect
Ġanim ation
Ġinnov ations
ĠTer rit
m ass
ar on
ĠCont ent
build ing
Ġs or
ic ut
ĠN ort
Ġox ide
ĠA qu
ĠG ib
Ġassign ments
eful ly
l ang
ĠUn iverse
ĠB E
f amily
Ġful fill
å °
ur ally
Ġmiss ed
ĠL td
L abel
ĠI owa
n ull
ĠL icensed
op ter
ag og
Ġdiagn ose
F unction
Ġreform s
Ġget attr
ĠTai wan
own ers
Ġsynt hes
ĠDougl as
Ġalt itude
Ġcompens ation
g ender
ah oma
Ġ19 33
iff s
ĊĠĠĠĠĠĠĠĠĠĠĠĠĠĠĠĠĠĠĠĠĠĠĠĠ ĠĠ
ar an
Ġ12 8
ĠL GBT
Ġsurviv ors
Ġgast ro
ĠCh air
} '.
Ġad ul
Ġslow er
ĠUr ban
Ã© s
ord on
ĠCar bon
Ġfung i
ĠC art
ĠOr thodox
ĠCent ers
ĠCub a
Ġcar rier
ĠKnow ledge
od ge
Ġcent ered
(" -
G ood
Ġ1 10
ĠB at
ĠCom mer
ĠTh ings
Ġcorpor ations
st orage
exp and
={ '
ĠSqu are
ker as
ĠG as
ĠP ast
ĠDisc uss
________ ________
ĠU pper
Ġbrid ges
Ġr anks
ĠS aturday
ĠD al
Ġmem orial
Ġreflect ing
S N
ĠB att
Ġrecomm ends
Pro f
Ġident ities
Ġrecycl ed
Ġdis able
thon y
Ġhar ness
c ateg
n x
Ġun ited
except ions
Ġm elt
Ġgra ve
Ġh int
Ġmagn esium
or ative
Ġenterpr ise
Ġpresent ing
ole cular
C K
Ġprocess or
ĠP rem
Ġev ac
ar ange
ause a
Ġoccas ions
/ "
an ia
lay out
1 10
AS T
ĠP A
ill es
Ġpro be
as is
Ġrep ly
V E
Ġp iv
Ġge ography
it ical
f ood
Ġret ained
Ġext ending
ourn ament
rag on
Ġconj unction
f ive
ĠA BC
sm all
Ġdisc rimin
pe at
e ous
Ġ' {
ÂłÂłÂłÂłÂłÂłÂłÂł ÂłÂłÂłÂłÂłÂłÂłÂł
Ġemb race
Ġpoly mer
Ġnum b
M B
æ į
inter val
Ġ19 38
m ind
Ġrul er
Ġbeh ave
ĠIm ages
N on
ĠPl ot
ĠConfed erate
Ġro s
ãģ ®
im ated
B o
ĠC as
Ġab dominal
Ġkn ock
ob b
Ġpron ounced
ing e
p d
li ers
ĠCap ital
ĠPl us
ĠBudd ha
im ental
( \
S ession
S ER
ur u
Ġg lands
Ġobtain ing
F ree
Ġun re
Ġsacr ific
st able
pay load
un es
Ġ" %
U t
ĠDef ault
Ġt ender
h um
ĠB ird
ĠMon th
Ġgr ants
Ġindu ced
Ġc ov
Ġshut il
Ġpre jud
Ġcurrent s
d y
oc key
Ġlast ed
ĠM O
Ġdis abled
ĠK ings
ĠIm m
Ġ195 4
ast ed
Sc ript
cl i
Ġpref erence
Ġinc idents
L ife
se conds
Ġpurch asing
Ġthr one
rep o
Ġ19 19
Ġrem embered
Ġ6 8
Ġtalk ed
Ġ195 5
ĠJ os
) ])
Ġgu est
Ġtw entieth
V AL
Ġspeak s
Ġext inct
ĠHol ocaust
Ġdelay ed
A ction
ot on
Ġlaw yer
Ġm as
Ġalign ment
ĠSu ccess
Ġrel iability
kl ahoma
Ġar tery
é ĩ
Ġc ement
al in
Ġne arest
Ed it
vol ume
Ġroll ing
z h
Ġexplan ations
' \
E qu
Ġpoint ing
Ġdir t
2 50
ou ble
ĠS yn
del ta
Ġcost ly
col lection
ir ds
Ġb anned
ond er
Ġeval uating
Ġbow el
Ġh ub
ic iency
Ġf reed
Ġad mit
ĠĠĠĠĠĠĠĠĠĠĠĠĠĠĠĠĠĠĠĠĠĠĠĠĠĠĠĠĠĠĠĠĠĠĠĠĠĠĠĠĠĠĠĠĠĠĠĠĠĠĠĠĠĠĠĠĠĠĠĠĠĠĠĠĠĠĠĠĠĠĠĠĠĠĠĠĠĠĠĠĠĠĠĠĠĠĠĠĠĠĠĠĠĠĠĠĠĠĠĠĠĠĠĠĠĠĠĠĠĠĠĠĠĠĠĠĠĠĠĠĠĠĠĠĠĠĠĠĠĠĠĠĠĠĠĠĠĠĠĠĠĠĠĠĠĠĠĠĠĠĠĠĠĠĠĠĠĠĠĠĠĠĠĠĠĠĠĠĠĠĠĠĠĠĠĠĠĠĠĠĠĠĠĠĠĠĠĠĠĠĠĠĠĠĠĠĠĠĠĠĠĠĠĠĠĠĠĠĠĠĠĠĠĠĠĠĠĠĠĠĠĠĠĠĠĠĠĠĠĠĠĠĠĠĠĠĠĠĠĠĠĠĠĠĠĠĠĠĠĠĠĠĠĠĠĠ ĠĠĠĠĠĠĠĠĠĠĠĠĠĠĠĠĠĠĠĠĠĠĠĠĠĠĠĠĠĠĠĠĠĠĠĠĠĠĠĠĠĠĠĠĠĠĠĠĠĠĠĠĠĠĠĠĠĠĠĠĠĠĠĠĠĠĠĠĠĠĠĠĠĠĠĠĠĠĠĠĠĠĠĠĠĠĠĠĠĠĠĠĠĠĠĠĠĠĠĠĠĠĠĠĠĠĠĠĠĠĠĠĠĠĠĠĠĠĠĠĠĠĠĠĠĠĠĠĠĠĠĠĠĠĠĠĠĠĠĠĠĠĠĠĠĠĠĠĠĠĠĠĠĠĠĠĠĠĠĠĠĠĠĠĠĠĠĠĠĠĠĠĠĠĠĠĠĠĠĠĠĠĠĠĠĠĠĠĠĠĠĠĠĠĠĠĠĠĠĠĠĠĠĠĠĠĠĠĠĠĠĠĠĠĠĠĠĠĠĠĠĠĠĠĠĠĠĠĠĠĠĠĠĠĠĠĠĠĠĠĠĠĠĠĠĠĠĠĠĠĠĠĠĠĠĠ
ĠFed eration
am bo
ul ent
Ġbl ame
int erest
T ra
f req
Ġfor cing
Ġsurround ings
t ools
Ġgif ts
ar o
EX T
ĠI C
AC E
Ġrestaur ant
IM E
Ġ1 30
S W
Ġbe ef
Ġcol ours
Ġass ass
Ġcont est
bo ards
ot or
ĠNot Implemented
p al
Ġcomp elling
col ors
L L
ab stract
oc hemical
ĠF isher
ĠQu ant
Ġab d
ĠSw iss
ĠGree ks
B et
Ġ19 36
ĠVir t
Ġpur ple
in ner
Ġdeb ates
Ġproject ed
Ġaccord ance
L ICENSE
U RE
ĠR ow
Q ue
ĠO N
Ġdow nt
Ġhead ing
Ġfles h
Ġrec ru
Ġread ings
Ġaccommod ate
Ġwond ered
g iving
Ġ ï»¿
Ġelimin ated
Ġrel ies
R T
amil iar
ĠâĢ Ŀ
iz able
er ion
opath y
Ġm akers
role um
æ ł
ĠSer ver
Line ar
T EST
Ġarter ies
i Ã³n
n est
ache lor
ĠPop ulation
Ġset Up
Ġwat ched
us ive
ed elta
b eta
Ġdef ect
Sim ilar
Ġmyster ious
Ġvoc als
ĠRec ogn
Ġp seud
Ġign or
ĠY e
Ġ195 2
å ¼
Ġdel ight
e ur
Ġless er
Ġspecial ists
Ġsc reens
: ",
? ?
ĠP T
Ġeduc ate
Ġunc lear
D ATA
Ġhost ed
PI O
Ġ6 7
Ġlegisl ative
ĠC redit
Ġinf inite
fore st
Ñ ĩ
Ġbreak fast
Ġde ck
ĠA ra
ris k
al ion
Ġd ated
ĊĠĠĠĠĠĠĠĠĠĠĠĠĠĠĠĠĠĠĠĠĠĠĠĠĠĠĠĠĠĠĠĠ ĠĠĠ
A ccess
Ġpun ct
rat io
qu er
A I
em at
Ġen rich
Ġfact ories
gl ob
ĠCol omb
Ġmel ting
bour ne
ĠKen ya
Ġsepar ately
Ġ18 90
ap ache
im ity
ĠThe rapy
ĠB ud
Cont ext
th ood
Ġprov inces
Ġch ampions
Ġtrib al
ĠUnder stand
Ġreg ulated
Wid get
ĠP red
ĠF inal
Ġthread s
Ġbi ke
æĺ ¯
cur s
ol utions
def ined
Ġpro state
Ġplan es
Ġgu ilty
Ġregist ration
Ġactiv ated
Ġ ##
Ġev olving
ĠAlex and
Ġhar ass
ĠN ag
Ġcert ificate
Ġtrig gered
Ġdel icate
= {}
ut ing
Ġtransform s
Ġdes cent
n ut
ĠC ra
Ġres ident
sub ject
Ġeffic acy
Ġbill ions
Ġover weight
! ")
m ess
Ġcomp iled
Ġsystem ic
Ġappet ite
tain ing
ĠE u
Ġs ink
Ġrein force
Ġin k
Ġcat alog
command s
Ġarrange ments
Ġc ows
it ime
m ount
ĠIdent ify
D ist
Ġdark ness
Ġpix el
fe eding
ect ing
Ġequ ilibrium
Ġor th
ĠO ak
Ð¾Ð ²
ĠN ode
C RE
Ġbu g
in cess
Ġter rible
Ġdiscuss es
u pload
Ġbr ut
Ġst ating
ĠT rib
Ġtra ces
organ isms
Ġre wards
Ġdisput e
Ġl ighter
ĠCh i
Ġblock chain
ash ing
ĠGr ad
ur red
al g
cc a
Ġb eds
199 8
ad ron
12 3
l st
ĠST EM
Ġm esh
Ġemphas ize
ced ented
th ird
Lear ning
Ġ195 3
es ar
Ġf art
Ġw r
art icles
Ġcare ers
Ġinvestig ations
Ġautom ated
ĠAll iance
Ġadv ised
Ġpuzz le
Ġdigest ion
ĠInit ial
Ġrele vance
ĠDo ctor
ict ions
Ġbackground s
Ġdom ains
th y
Ġvolunt eer
om ed
ogn itive
J u
b inary
â Ĥ¬
ĠPh oto
Ġqu ot
C or
Ġworks hops
L P
Ġflu ores
Ġbasket ball
ĠG ive
G C
Ġhead quarters
aut o
ĠProf essional
ĠBuddh ism
Ġs our
Ġc ock
ĠL oc
[: -
th an
Ġcomb ines
ĠUs ually
quest ion
Î µ
m ia
ly wood
Ġde emed
erg arten
Ġ è
fol io
ĠBelg ium
are ttes
o vers
ĠAv ailable
t ri
Ġr um
Ġcross ed
Ġfor ty
av id
ĠCom par
(" %
ĠW right
ĠH appy
T w
Ġ19 37
Ġcl ip
b oth
ote chnology
Ġbreak down
ï¼ ļ
Ġconstit ute
Ġb ol
Ġhe ll
Ġsec ular
Ġp m
Ġmed al
Ġdo zen
com ment
Ġconnect s
Ġjournal ist
Ġtremend ous
ry st
Th ose
ĠH ell
ĠP ed
ĠArgent ina
Ġhot el
ĠB apt
he im
Ġe ager
en ium
Ġpl ural
Ġsc attered
ĠStan ford
ĠD h
ft ime
Ġfe es
nov ation
P P
Ã ł
Ġdecre asing
Ġsc ipy
Ġpol len
Ġrom antic
ĠP H
e ff
w ave
c ity
or ia
m ember
Ġter rain
Ġpla que
Ġactiv ists
s a
Ġrel ieve
Ġp ediatric
J apan
Ġch unk
le ans
ĠM aterials
Ġstat ue
] ])
Ġ[ ],
Ġ18 80
Ã ¦
Ġjud ges
ĠAnt i
Ġl uck
Ġ6 1
se min
Ġdescend ants
ab etic
ĠT un
Ġ7 00
eth yl
Ġconcept ual
O ff
v ars
Ġdemonstr ation
Ġfor b
b ig
ou stic
ĠL anc
Ġretire ment
Ġpat ience
Sy stem
ĠN at
Ġj ack
Ġfound ations
ĠExpl ain
au nt
ĠF ollow
Ġinval id
Ġl ux
ĠBen jamin
: ||
Ġwor ried
Ġblock ed
Ġy oga
Ġaccum ulation
ĠNig eria
Ġwas t
7 00
app ropriate
Ġele g
Ġpollut ants
Ġdeploy ed
Se qu
Ġmod ification
ĠE instein
em en
ĠB lu
p rom
Ġsoc ially
Ġbott les
Ġmag ical
Ġnurs es
Ġl apt
Ġpat ches
Ġenc rypt
Ġprim itive
z i
Ġatt r
o T
Ù Ī
ĠV ien
f at
ou b
Ġrecip es
Ġvari ants
Ġground water
Ġdu ct
Ġst ats
orient ed
tra ce
Ġthe atre
bre aking
Ġstrict ly
h ook
Ġint u
Ġneg atively
he art
Ġbo ot
m other
gg ed
ĠG PS
ĠProtest ant
Ġp our
Ġcommission ed
Ġdiss olved
ĠW HO
Ġharm on
arm s
as i
Ġt we
ĠC EO
Ġg ri
Ġform ally
Ġfr iction
Ġm ast
Ġd war
ĠV ery
Ġball s
Ear ly
Ġvibr ant
Ø ±
c ards
pl er
she et
url s
Ġint act
Ġw ires
Ġcitizens hip
Ġol ive
Ġo scill
cl oud
ad ays
Ġcompos er
pro of
Ë Ī
ĠO klahoma
Ġrecon struct
ĠFoot ball
ock ets
sc ription
Ġ10 1
ĠBangl adesh
Ġbron ze
old ing
ĠS outheast
Ġsyn chron
ĠDe ad
Ġgrad ient
iot ics
Ġreprodu ce
ac ial
ĠPart icip
/ {
Ġgenu ine
Ġsusp ended
Ġinsert ed
Ġpoison ing
ĠL am
Ġdel icious
Ġcert ified
Ġstr at
controll ed
ĠF ocus
Ġcook ies
F IG
ĠB ed
Ġstri kes
ĠSm art
g ly
ex c
Ġmicrob es
it ched
M R
cer y
Ġb ore
æĸ ĩ
ĠInd ependent
ĠThrough out
Ġinform al
Ġbank ing
Ġsol ved
Ġconsist ency
G reen
q a
Ġtest im
Ġprop he
Ġattach ment
Ġca ution
ĠOlymp ics
Ġcup s
] ["
Ġ ib
ĠArch ae
Ġinvent ory
igr ant
Ġtra ject
Ġstim ulation
Ġup set
Ġrece iver
Ġt k
ĠFreder ick
ly n
s pect
ĠS ky
Ġtri ps
I B
ob i
ĠAuthor ity
ol is
Ġsubstant ially
Ġchromos ome
arm ing
Ġext ensively
im ore
qu ant
ĠEx press
Ġn urt
æ ī
Th us
li ver
S everal
Ġt et
': '
Ġbiom ass
Ġm ant
Ġ19 35
Ġout doors
Ġbow l
ĠÂ °
R ad
re a
, [
Ġl act
Ġflu x
Ġcombust ion
Ġor che
Ġhigh way
Ġp yl
Ġp enc
Ã¼ r
c ook
ol ute
Ġlog s
Ġw ool
Ġfol ks
J une
ail and
D ev
Ġtim estamp
Ġadvoc ates
Ġplace ment
ĠAl ong
Com put
ĠL E
Ġsu ited
ph y
Ġinsu fficient
h is
inflamm atory
Ġpl ots
Ġv oy
b efore
Ġlack ing
Ġtem pt
ĠS D
Ġtra pped
ĠD ra
eng u
weg ian
M em
ĠDi abetes
Ġcf g
Wind ow
go vernment
Ġis ot
el if
Ġforg otten
Ġcall back
ĠNap ole
ĠT R
Ġgr at
ĠCom b
pro perties
AM E
Ġfoss ils
Ġfant astic
I X
dim s
sc ape
we ed
ĠS ave
m el
Ġper ceive
aud i
ĠMain e
Ġv ic
Ġt qdm
Ġafter wards
sk i
L ink
ĠF at
Ġsupp ress
Ġbas in
Ġm asks
Ġto mb
ab c
er ce
cel and
ĠProt ocol
Som etimes
Ù Ĭ
Ġkid neys
work ing
Ġaltern ate
Ġblack s
Ġal gebra
é Ģ
ang a
Ġreact or
verb ose
Ġe cho
ĠD B
Ġs word
Ġsc rew
Ġque en
Ġind ivid
ad ows
Ġsh o
Ġc raw
ĠDecl aration
G iven
Ġtransport ed
Ġto y
ach ment
Ġsynt ax
Ġunpre cedented
f requency
Ġsome how
Ġag enda
] *
Ġall ies
Ġo mega
ag g
Ġcou pled
pe ople
Ġdis p
oun ters
ict ional
ĠL ith
IN FO
Ġ9 7
Ġmethod ology
pow ered
Ġbl end
Ġres olved
Ġse as
Ñģ ÑĤ
Ġb iblical
Ġlegit imate
m ir
Ġpan ic
Ġst ir
Ġillust rations
Ġalt ogether
Ġgrav itational
Ġlater al
Ġspir its
Ġind ication
ĠPortug al
Ġsp ider
Ä į
Ġsub mar
Ġpig s
Ġnum erical
Ġsp ell
b ucket
P op
e ering
Ġw ax
top ic
ĠT uesday
Ġelectrom agnetic
Ġsettle ments
Ġdec imal
Ġbit ter
Ġsug ars
Ġcolor ful
ult ure
Ġcar cin
Ġprogram mes
Ġshell s
r ator
ĠRout e
" }
Ġcert ification
Ġ195 1
D T
Ġprot otype
w ick
ron es
ob serv
M arch
Ġimport s
In valid
Ġnegot iations
ocy tes
ĠR and
Ġ7 8
Ġcond ens
av g
ien cies
E st
ab is
Ã ª
Ġtr im
ins ic
Ġmer ged
h alf
Ġfund ament
est inal
av al
Ġre q
Ġrepresent ations
ĠAng lo
iv ic
bre aks
Ġmel an
ĠP un
_ ,
Ġind ent
ĠConnect icut
se a
Ġ io
ĠRober ts
re lease
ĠYou Tube
ĠChrist opher
Ġren amed
Ġfail ures
TY PE
ĠSt op
Ġf ut
Ġclub s
Ġin quiry
Ġappro ached
Ġimm ense
Ġw re
int o
ĠTh ursday
ound ing
Ġve ctors
ĠProp het
Ġtempor al
Ġod ds
parent s
Ġhand led
ig ious
Ġsure ly
ĠAd vent
Ġprosper ity
ĠC ertain
Ġt u
ĠTor ah
Ġar row
Ġr het
Ġrestaur ants
Ġl enses
Ġsp ont
Ġval ued
Ġal leg
Ġbirth day
P ool
th ree
Ġm ad
Ġdig its
Ġneighb oring
Ġd os
ĠW ednesday
ĠC hemistry
ĠR ol
st ory
P os
Ġprot ests
as ound
l ad
Ġpack ed
ĠEffect s
Ġpharm aceutical
Ġcomprom ise
Ġwhe els
Ġsing ular
ĠO ri
es pecially
ash i
ist ing
s d
Ġcont ra
sign al
A f
en o
ut er
ĠB art
Ġmod est
te ch
Ġprem ature
Ġfriend ship
te am
Ġl ining
Ġfil ed
Ġdes irable
st derr
Ġan est
Ġ19 29
ĠEduc ational
ĠD og
ul us
ĠR oy
ĠS S
Ġmus h
Ġm aternal
ĠBi ography
ĠNotImplemented Error
C I
B UG
Ġdisc ount
Ġhyper tension
Ġcounter parts
= ""
ĠAn na
â Ħ
Ġ19 12
Ġju venile
Ġvirt ue
Ġout standing
19 90
ĠHigh way
Ġy ards
ĠBer keley
ĠF eed
ĠCreat ive
ĠFl ask
fl ict
Ġ7 7
Ġdies el
ĠS pect
Ġwalk ed
ing ing
Ġ ë
Ġas p
ĠW ang
ĠAn thony
Ġpo le
ĠArch ives
ĠB ry
Am ong
ĠPu erto
N orm
ĠG round
doc s
ĠB rian
est ab
Ġstop ping
Ġfresh water
ĠVen us
Ġpix els
he rence
Ġmen stru
oult ry
A pril
Ġinvest ing
U I
Ġmain tains
Ġoff ensive
Through out
ĠJu an
) ?
act or
ĠThom pson
Ġsecret ary
Ġutil izing
Ġhier archy
og lob
ĠCl oud
199 7
Ġsan ct
Ġd aughters
ĠDet erm
ĠS H
Ġ( -
à¥ į
Ġart ic
ĠF acts
ĠSh ah
G od
Ġauthent ic
Ġs urn
ĠFin ancial
Ġcaffe ine
ĠPlan ning
Un it
ĠS ens
ig nt
vel ation
Ġpri ze
Ġfail ing
Ġen erg
Ġsc ored
Ġhead ache
Ġdemonstr ating
Ġqu it
Ġcar ing
Ġtact ics
ĠDat abase
Ġbul let
ĠS now
ĠB esides
F eb
Less on
ot ional
Ġpath lib
Ġexplo itation
ot te
param eter
Ġaut onomous
Ġman kind
ä ¹
T ypes
che ll
Ġst ocks
Ġpursu it
Ġvot ed
Se pt
ĠPro blem
Ġmon etary
Ġjuris diction
ro it
Ðµ Ð½
Ġconcent rate
Ġrev ision
et ri
p olicy
ay an
indu ced
Ġexcept ional
ä¸ Ń
Ġadvance ments
k it
Ġmod ifications
Ġelig ible
res ources
Ġimpact ed
OR S
Ġpri ests
fil ters
off s
on i
Ġritual s
Ġany way
Ġo zone
Ġj ournals
ĠCl a
Ï Ħ
P ER
Ġs ore
ĠHy per
Ġob l
Ġinv isible
accur acy
Ġbrilli ant
Ġsu cc
ĠO K
f name
Ġr if
Ġtrans cript
Ġb ip
Ġch ampion
Ġf etch
ĠHou ston
ĠÐ ¿
ĠW ol
ĠCON DIT
/ %
ĠTe acher
Ġdisapp oint
ĠParent s
Ġdisc ourse
Th ree
ch anged
cl ock
Ex per
Ġgod dess
Ġsu ns
ĠMem ory
Ġst oring
ĠEvent ually
all ing
Ġa wards
Ġ7 6
od a
Ġ19 16
ĠT ips
ĠPl ants
p her
Ï ģ
ĠQue bec
Sc ience
Ġcompat ible
war ning
W ord
Ġse am
P H
Ġthe ater
Ġdeliver ing
Ġident ifies
iv als
Ġsupp orters
p are
Ġsens ation
oc ene
Ġbas eline
Ġinterf ere
Ġr iding
Ġcort ex
ĠPr ice
ĠJ ay
W illi
Ġ ĊĠĠĠĠĠĠĠĠĠĠĠ
Ġdist ribute
ĠT ypes
Ġhop ed
Ġcryst als
ĠC amb
do i
ĠSat urn
j u
Ġw ounds
Ġcontin ually
in formation
ĠComp an
Ġs ne
Ġclaim ing
Ġsil icon
it oring
ph i
as ia
P Y
Ġ9 8
Ġglass es
mod ules
Sh are
Ġunder water
Ġc in
Ġaut umn
in ent
Ġdes per
Ġentreprene ur
ĠJ ob
Ġdraw s
ĠPM ID
iv o
Ġhe s
Ġf ier
Ġhas n
ĠCo al
Ġnot ing
Ġpal ace
Ġdisapp eared
imm une
L D
Ġsupport ive
O UT
Ġad ject
ĠO k
Ġtal ent
Ġ18 70
ĠChampions hips
Ġlength s
lin ks
w b
ol en
Ġconf ined
Ġstandard ized
Ġearthqu akes
ĠAl ber
ra ul
ĠV iol
Ġelab orate
ac erb
et ric
Ġphilos opher
Ġm ul
Ġair port
c over
comp at
Ġal igned
c ence
let al
ow ed
Ġtrans it
Ġmon aster
ĠFin land
ordin ates
Ġcon ve
S ocial
Ġdepend ence
ĠAir port
b ias
ĠC C
Ġcl ues
Ġins ulation
log s
Ġleg ally
ĠS M
ĠN elson
ĠNe v
Ġorgan izing
Ġbur ial
N OT
Ġschem es
Ġsm ok
Ġgener ic
H ar
ric ks
Ġax es
Ġ6 9
Ġf ool
ignt y
Ġg ums
Ġsh ots
i Äĩ
Ġd well
abs path
ĠS ay
__ ,
ĠTok yo
Ġact ed
Ġam ph
Ġvulner ability
anc ies
Ġtempor arily
Ġprom ises
ĠUp on
it ives
Ġref ined
ĠE li
Ġin ability
pos itive
ĠL ang
Ġwell s
ĊĠĠĠĠĠĠĠĠĠĠĠĠĠĠĠĠĠĠĠĠĠĠĠĠ ĠĠĠĠĠ
ĠAdd itional
Ġ ç
Ġan ts
Ġrev ised
Ġsn akes
ĠHealth y
ĠV in
ach ine
ĠL ar
Ġcivil ian
Ġpure ly
Ġmonit ored
Ġacknowled ged
r ant
Ġpres chool
M en
ĠCONDIT IONS
Ġneurolog ical
Ċ Âł
UT H
ij ing
Ġqu otes
ĠB CE
Ġthreat ening
å į
ĠTh ailand
Ġperm its
g el
Ġart work
id o
Ġsat urated
Ġrig id
Ġexpress ing
V A
Ġt uber
Th read
ĠReg iment
Ġel ite
Writ e
Ġm u
sh ould
aud io
ĠT ar
ĠW olf
h m
n as
Ġmon arch
Ġ8 8
ier ra
be at
ĠR ot
s imple
ed uc
om ial
ĠN ik
ĠCP U
Ġastronom ers
ĠMic hel
ĠAp ollo
Ġec ology
Ġapp l
Ġlik es
Ï Ĥ
Ġh ired
` .
ĠN ick
ĠR andom
d l
F ood
p ersonal
dri ven
Ġhoriz on
Ġde ce
op ing
ĠL ank
Ġ7 4
Ġse w
ĠC hen
ĠG and
ĠTe ch
ĠDep ending
er red
ĠHarr is
ĠAl an
cont act
P rodu
Ġfeather s
Ġve ins
Ġenvironment ally
ann ers
ĊĊ ĊĊĊ
Ġaccel er
best os
De velop
Ġst amp
ĠSy ndrome
ĠW ords
Ġelimin ating
ĠÂłĠÂł ĠÂłĠÂł
ĠMarg aret
Ġd amp
Ġwithdraw al
Ġhepat itis
Ġquant itative
re r
Ġto ll
ĠT ower
ĠBAS IS
ĠP erm
UL L
ĠE aster
is an
ul as
Ġwh ale
a verage
y label
str ftime
Ġvari ability
Ġdest ructive
ed ic
Ġ} )
in ters
cond ition
Ġhist ories
oles cent
Ġ19 15
Ġbu nd
ĠBr un
ij uana
Ġ18 60
IL ITY
ĠMan ager
Ġasync io
Ġun comfort
Ġindivid ually
Ġas ym
rate gy
Ġwitness ed
ĠH az
Fore ign
lim ited
Ġprof iles
Ġsimp ler
du e
Ġob ese
Ġ7 3
Ġ9 6
Ġun healthy
iz oph
ĠAct ivity
ig a
els h
ĠEar l
ĠLu ke
Ġsurge on
Ġb apt
med ia
Res ource
ĠEurope ans
iling ual
D ir
Ġcou ples
â Ķ
ol o
Ġorgan izational
å ¯
ro kes
Ġadjust ed
ĠLeg isl
ĠCurrent ly
Ġinadequ ate
Aug ust
A ng
Ġdeterm in
Ġel astic
199 6
Ġdys function
w al
Ġimp aired
Ġpenal ty
Ġconsid ers
run ning
. ",
Ġshif ting
Ġinvestig ating
Ġmob il
dat asets
ĠPalest ine
m ag
ĠN am
ĠAb d
pol y
ĠTh ank
urg ical
Ġsc rap
ĠSing h
Ġexclud ed
car bon
ĠDon ald
ĠÂ »
ĠS ustainable
ĠCrit ical
Ġnew born
Ġarch ive
ĠN uclear
Ġinev itable
al er
art z
Ġmet all
ĠBy z
Ġworkshe et
Ġrecogn ised
ĠBack ground
ĠN an
ĠGen erally
il ia
Ġv et
ĠRec ent
Ġland ed
Ġpass ages
Ġsh aft
---------------------------------------------------------------- ----------------------------------------------------------------
en vironment
ĠIndust ry
Ġb od
ĠMars hall
M c
ri ved
Ġperman ently
ĠTh or
ĠB ull
âĢ ī
P ORT
ab y
Ġex acerb
Ġwar ned
ĠOr leans
Ġstret ching
im show
or rh
Ġpe as
ĊĠĠĠĠĠĠĠĠĠĠĠĠĠĠĠĠĠĠĠĠĠĠĠĠ ĠĠĠĠĠĠ
L ab
Ġtrust ed
Ġprior it
Ġn ausea
ĠD a
ĠPer u
sh ift
F P
ĠP in
D NA
Ġmosquit o
Ġat e
Ġper ceptions
Ġ iv
ĠV o
ĠVictor ian
S erver
head s
Ġsatisf ied
o irs
ĠW H
Ġtransp arency
Ġf n
Ġdial og
cler osis
Ġtem ples
Ġmill enn
ĠD anish
Ġp ir
ĠV I
ie ge
) +
Ġy aml
on ed
ur ations
count s
ĠEconom ics
us ually
Ġsecre ts
Ġex ams
end or
Ġback up
Ġcru el
Ġcapt ain
ros ion
Ġundert aken
Ġre nown
Ġchem otherapy
am bers
Ġex empl
ĠRob inson
Ġ19 34
Ġdemand ing
Ġrend ered
se en
pl ing
Ġqu oted
Ġvolunt ary
Ġunw anted
ĠE rror
Ġgas oline
add ing
Ġmyth s
Ġsod a
] ).
ight ing
Ġj un
Ġpat ron
Ġhop ing
Ġles ions
ĠB urn
light en
Ġremain der
ox ic
ĠImp lement
itc oin
Ġgau ge
Ġcom ic
re view
ro b
* .
p ic
list dir
Ġsol o
à¤ ¾
M r
Ġ7 1
Ġpharm ac
Ġf p
ith m
d uration
izoph ren
Ġ18 50
ĠA round
ros is
Ġsh ops
Ġs lic
ene z
Ġassess ing
Ġcompr ised
Ġadapt ive
ĠIss ue
ĠE C
ĠSe ason
ĠRef erence
eral d
ĠMathemat ics
oy d
Pro t
ordin ate
oc ide
ĠG ordon
um ph
ew ater
ut t
ĠI l
ĠLa ure
op hers
Ġpra ise
epoch s
ĠQueens land
Ġs ake
ĠĠĠĠĠĠĠĠĠĠĠĠĠĠĠĠĠĠĠĠĠĠĠĠĠĠĠĠĠĠĠĠ Ġ
Ġbul bs
Conn ection
Ġcred entials
Ġbreak through
ĠPat ients
ad os
ĠM att
Ġinf rared
optim izer
Ġp ist
ĠI celand
Ġaut onomy
ĠTest ing
ĠQ t
ĠSt age
Ra ises
Ġappear ing
Ġb ureau
ĠR ange
B re
H uman
comp onents
vari ables
F i
ri k
Ġpars ed
Ġtour ists
u int
ot le
Ġfle e
us ions
tr ation
oler ance
ĠVien na
Ġsim ulations
Ġl augh
Ġt ent
Ġut ter
ĠS ources
Cont in
Ġdifferent ial
al chemy
ĠMc G
sc ribe
ĠT ob
Ġ[ (
OL D
Ã Ĺ
Ġencomp ass
b ind
Ġeconom ically
uc ks
ST R
Ġpron unciation
Ġp umps
Ġcare g
Ġillust ration
Ġapp les
ĠT el
Ġappro aching
ur rection
ĠA x
Ġres ort
Ġun ions
Ġbur st
e q
Ġreg ards
ĠU ntil
Ġaccess ibility
ĠNor wegian
Ġcontact s
ĠT B
Ġfit ted
aret te
Ġc argo
Id ent
Ġint im
ĠV eter
ĠFor ces
ĠUs ed
Ġpl astics
c i
ĠLe v
Ġ8 4
Ġintegr ating
Ġmit ochond
x label
Ġ19 13
ref erence
Ġaccel eration
ĠDak ota
Ġclar ity
Ġtre asure
Ġinstrument al
ĠPh ill
Ġep ic
ĠAr g
ĠFl ore
a uses
V ideo
ĠC ould
ĠApp lication
Ġemp irical
Ġ25 6
ĠPer formance
Ġpneum onia
Ġswitch ing
Ġ8 2
ĠBeaut iful
Ġst ays
Ġflow ering
ct ica
ob acter
ĠJoh ann
ĠCour se
ov ak
Ġinst inct
Ġtarget ing
Ġp ere
Ġexcit ement
int estinal
ĠI BM
ĠGe ography
Ġmat ched
N ormal
Ġemploy er
he ro
Ġsec ured
ĠO wn
Ð¸ Ð
WAR E
Ġneg lect
âĢ¦ .
ĠAb original
Ġsp ite
Ġparas ites
A ust
ĠM ort
ĠAlf red
Ġnetwork ing
ì Ŀ
Ġ 00
be y
Ġwork force
h or
Ġper t
ĠOut put
20 21
l it
Ġret ention
th reat
Ġaster oid
Ġar ises
Ġinterpret ations
Ġend less
ĠArab ia
ri ors
Ġdam ages
: ,
ĠK ind
ĠCon vers
Ġpar a
Ġpos es
ĠCon cept
Ġthread ing
Ġout lined
ob ia
ru bs
Ġarr ays
ĠSt ore
Ġcosm ic
ĠK az
ad ers
T T
ed a
ĠShe l
ĠR io
Ġchair man
Ġg el
ist le
Ġproblem atic
Ġstr and
H ello
Ġresp ected
Ġret reat
Ġdet ector
Ġintest inal
Ġcor rupt
Ġmaxim ize
ĠM anc
ĠH ait
ĠK u
Ġinsp ection
Ġt ire
Ġanaly tical
199 5
L ay
Ġtur tle
og rams
squ are
in valid
g i
Ġhas attr
ate ur
ĠMc K
ĠPen insula
Ġd iving
is y
Ġ19 11
M ock
Ġhung ry
Ġcon gress
Ġshif ted
bu ilt
k now
ro st
ĠPal ace
Ġby te
o qu
ĠOver view
agon al
er os
ĠUk rain
ĠL iver
Ġroot ed
Ġcharg ing
Ġw rap
ĠMed al
Ġstr ide
roll er
h n
Ġintest ine
Ġun common
ĠMor gan
sh a
Ġport rait
Ġmot iv
Ġgl ory
Fil ter
Ġcar n
Ġr ay
ĠF ern
Ġveter in
10 1
Ġcompre hend
year s
ĠSud an
Ġcult ivation
ax es
Ġillust rates
Ġe ps
voc ab
ĠGen esis
with out
Ġcan vas
ĠRem ove
s al
Pro gram
Ġoverl ap
Ġre pt
ĠCl inton
vis or
osynt hesis
Ġsil ence
res istant
Ġuncomfort able
d ependent
Mix in
B E
Ġenc ryption
ĠCont ext
ĠJud a
Ġrelax ation
op or
ans k
Un fortunately
contain er
ĠL ate
D D
Ġcompan ion
Ġd ub
12 7
Ġhighlight ing
ic us
Ġt ie
uc le
Ġrig orous
Ġa rom
ĠFin n
Ġrank ed
it ated
ĠC ov
Ġtr unk
Ġabd omen
Sh ow
ĠKar l
B rit
Ġseiz ures
Ġb aking
Ġtable ts
A uth
Ġtw in
Ġdecor ated
ik ipedia
æ Ŀ
ĠR at
ĠR ule
ag rams
app er
Ġrul ers
un iform
us c
Ġmit igate
Ġrel ie
Ġrandom ly
n one
Ġanch or
ĠE R
Ġpre lim
Ġpro xy
ĠArt icles
ric ular
Ġpr inter
Qu ery
ĠAt hens
(' %
stand ard
Ġreg ression
to o
Ġnort heast
= ["
ĠPhilos ophy
Ġsevent h
ab i
ĠP V
ĠEx cel
å ¾
ĠP O
ĠBel ow
ĠAl low
Ġbre eds
reg n
Ġ7 9
Ġer ad
ĠS alt
o ors
Ġ19 21
Ġwond ering
Ġemphas izes
assert Raises
Ġs its
S outh
Ġtra ced
ĠDi agn
ĠOper ation
ĠT uple
ĠWe ather
ĠPro b
Ġcoron avirus
Ġb ub
Ġelectro ly
Ġb esides
ĠF ellow
Ġb rows
ah n
ĠAnton io
ĠAl ice
ĠSe attle
Ġreb uild
es ian
Ġdef ensive
cont rib
Ġinstruct or
Ġsufficient ly
Ġtraged y
ĠRuss ell
Ġflood s
Ġsimilar ity
Ġtra g
Ġag gression
Ġut ilities
/ .
ra ise
Art icle
Ġs emic
Ġdial ect
m ont
eb ook
Ġvent ure
duct or
Ġemphas ized
h ouses
ĠS ide
Ġcon form
Ġr amp
ĠBalt imore
y ers
Ġalle v
IV E
Ġ19 32
Ġbul b
ver ages
ä¸ º
ĠEd itor
Ġthe or
Ġcor rection
Ġvis ually
Ġpot ato
aked irs
ogen esis
cess ion
Ġinter ven
Ġblock ing
Ġstraight forward
Ġappropri ately
ĠB Y
ĠApp lications
os ures
ĠTechn ical
Ġcyl inder
Ġrestr iction
Ju ly
det ails
Ġteen agers
Ġconf using
go ogle
Ġe co
Ġpre st
Ġrespond ing
Ġpredomin antly
b ank
Ġlect ures
ev in
Ġtrou bles
ĠCommon wealth
est eem
ĠSt ay
Ġtail ored
Ġpost ure
Ġoptim ize
resp ons
ĠPlan et
ĠSc i
. (
Ġdis pro
P ress
Ġoccas ional
ĠNorth west
cult ural
Ġgall ons
p ages
enc oder
Ġdo zens
Ġdecl aration
] ],
DE FAULT
Y et
Ġmic row
imp rove
valid ation
ĠUnivers al
ĠW ould
Ġhand ful
Ġmor ality
T ests
Ġperipher al
Ġlight ning
Ġlear ner
Ġo ak
ĠSt ra
ĠL yn
Ġfung us
Pub Med
Ġwh it
Ġc rick
Ġd ancing
Ġrecip ient
Ġdel iber
com a
Ġperiod ic
Ġcred its
ĠR ace
ĠSk ills
ĠD ream
Ġjew el
ĠCl ient
Ġmicrosc ope
ĠT her
Ġlif es
ĠCons ult
Ġtouch ing
ĠL aur
Ġadvert is
å ½
Ġauthent ication
cl amation
ic ism
ĠL I
Ġjud icial
) \
Ġco ating
Ġ$ \
Ġp i
unct ure
O ld
ĠV erm
Ġcoll ision
le ys
Ġwith d
Ġmis under
ibl ings
Ġb id
Ġmosquit oes
part y
ĠAccess ed
Ġassum ing
Ġanx ious
Ġpot ent
Ġe ternal
Ġtherap ist
âĦ ¢
Ġclim b
Ġevery body
Ġmat hematic
Ġhero es
ester day
Ġdem ol
Ġesc aped
C V
Ġam bit
Ġre construction
ĠE ye
Ġconstit utes
y our
ĠRail road
Ġd s
ĠS ah
li um
Ġcorrespond s
Ġtom orrow
m any
ĠColumb us
Ġmand atory
Ġlet ting
Ġdes ires
Ġantioxid ants
squ eeze
c ov
ab ited
Ġchar ity
Ġvent ilation
re ach
Ġh anging
pre hens
ERR OR
n b
Ġclean ed
Ġinf erior
Ġwor ms
Ġcl ot
Ġdis placement
Ġsubject ed
Ġsculpt ure
Ġo re
Ġcan on
ard less
Ġarm ies
Ġb icy
St ream
Ġreg en
Ġdr illing
Ġrele asing
ĠM essage
ĠBe ck
ĠP le
Ġreh abilitation
ĠC le
Ġ19 22
ĠRe quest
be gin
ne ath
Ġk ick
Ġdin osaurs
Ġl as
bir th
Ġcar p
ĠMalays ia
. ||
Ġjust ify
Ġcomp osite
Ġassemb led
Ġnorth west
ĠBet ter
Ġup coming
id ency
ĠM aj
ed e
ĠS audi
ug s
P rint
iss ue
Ġdiff ers
T ask
ne ver
ĠW i
- >
Ġb ishop
Ġn asal
in us
ĠMethod s
f p
ĠV ice
d one
AR Y
amil ies
ĠCh and
Ġconcept ion
Ġeleph ant
Ġw ishes
ne igh
if iable
Ġmanip ulation
Ġd olph
Ġfif teen
m issions
il age
ĠâĨ Ĵ
Ġdef ence
Ġle ather
Ġsk etch
Ġimp l
ĠBas in
Ġcompr ises
Ġin cons
Ġwet lands
neg ative
ĠH ud
ĠWalk er
Ġg low
Ġshel f
Ġl ion
Ġnum s
Comm un
ĠCom plex
Ġinstruction al
Ġtomat oes
Ġact ress
col lect
ĠAgricult ural
Ġg host
Ġpol ym
ĠBul gar
Ġprox imity
enc oding
re tt
S pace
() ]
Ġreve aling
or b
ĠLe ban
Ġ16 0
ĠHig her
Ġexam ines
f und
Ġal kal
rox imately
Ġdef icit
Ġmultip ly
ĠAust rian
ĠT ag
ĠGu inea
Ġauthor ized
Ġcl ause
Ġpropos als
Ġto dd
Ġtour ist
o i
ĠMem bers
d ed
ĠG len
ph ase
om at
Ġstory telling
Ġtr illion
Ġcorn ers
ĠL ength
Ġatt orney
C ross
ĠLab el
Ġfree zing
Ġl amp
Ġide ology
ĠUp date
Ġh iding
Ġsulf ur
k w
ĠG ate
Def inition
Ġdemand ed
ir ie
ix on
Ġ14 0
: ',
ĠHe at
Ġfin ite
Ġincent ives
le vant
ĠSen ior
ĠDise ases
"] :
ous ing
Ġtra it
Ġarbit rary
Ġprior ities
ĠL akes
back end
Ġdign ity
Ġsatisf y
int end
Ġle mon
h ind
Ġtoile t
Ġdr ill
Ġun iqu
Ã ´
Ġly rics
es ome
Ġsm ile
Ġwra pped
u er
Ġscholars hip
Ġy og
Cont act
') [
Ġsouth west
ĊĊĊĊ ĊĊĊĊ
Ġstimul us
ro v
TH ER
Ã© t
um at
Ġac et
B R
Ġtra umatic
ĠT rain
ĠCh ron
att ribute
c ases
ĠĠĠĠĠĠĠĠĠĠĠĠĠĠĠĠĠĠĠĠĠĠĠĠĠĠĠĠĠĠĠĠ ĠĠ
level and
æį ®
] /
Ġt ears
ĠÂ ±
ĠDis order
t asks
ĠE b
ov o
Ġgu ests
E CT
Ġin aug
" \
Ġp df
Ġaest hetic
pos ure
ĠJ oint
it ol
Ġreserv oir
Ġ" {
Ġerect ed
Ġmar ry
Un iversity
Ġbare ly
ĠAntar ctic
ĠS ent
ch t
Ġan a
Ġunt o
ĠPol l
× Ļ
Ġlim bs
el ong
Ġlit ter
ĠDef inition
Ġrec ruit
exist ing
j ar
Ġoblig ations
d irection
Ġde ployment
ĠK ath
le ading
Ġam mon
u ke
H aving
T F
Ġed itors
pre c
Ġopp onent
om orph
process or
ĠDel hi
Ġrel uct
f erence
Ġp ound
Ġsex ually
de ep
Ġgard ening
Ġ8 1
ĠSe ven
Ġmis con
Ġp ile
Ġpresent ations
ĠMult iple
ur ban
ĠK am
s igma
Ġ8 7
Ġstreng thening
Ġtreat s
Ġl ady
ĠW ard
Ġtur tles
k le
Ġse ism
Ġburn s
Ġrebell ion
Ġde put
ĠJ osh
Ġk ills
Ġtra ff
Ġsil k
Ġfavor able
ĠEx ercise
Ġcomput ational
t own
sk ip
ast ically
Ġor ch
Ġ19 28
Ġequ als
if ting
port ion
ast es
Ġinter faces
Ġweek end
ĠR ound
Ġcred ited
ĠEp isode
Ġdec ides
"] [
Ġsuff ix
ĠEthiop ia
Ġsovere ignty
Ġenc oded
Ġab st
Ġstd out
Ġprelim inary
ah o
Ġmicro bi
ĠNav al
Ġ8 6
ias is
Ġtr ash
Ġwarr ant
M AT
Ġmicrob ial
HER E
Ġre ass
Ġtransc ription
att ributes
ro ts
Ġrevers ed
oun s
Th anks
Ġp oultry
ut ri
ĠC rown
M ENT
ĠDown load
Ġcommun icating
id ated
Ġany more
Ġy e
ĠSt ress
Ġmot if
Ġcent res
s afe
Ġr ust
Ġrun ner
bir ds
å Į
Ġsub set
ĠBe ijing
ĠPark inson
ĠMot or
Ġ19 24
Ġappl iances
ĠA bs
ĠE uro
last name
d x
Ġatt raction
Ġappear ances
ĠTele vision
Ġlaw n
w t
Ġdec iding
Ġpark ing
MA X
Ġstrong est
Ġexhib its
Ġnew er
Ġperform s
T im
ĠAr n
Ġloc om
r ative
Ġgar lic
Ġsu ck
Qu estion
L ayer
Ġparticip ant
ĠMel bourne
Ġcult ivated
Ġu pt
Ġj azz
mess ages
on ut
and al
controll er
Ġoverse as
Ġall iance
N ET
ĠBrazil ian
Ġwe eds
ĠWe ight
Ġsh ame
Ġ19 31
Ġen velop
ĠH ills
ĠN ile
Ġ9 2
ĠComp et
Ġa ux
Ġmanip ulate
ĠInit iative
Ġbr ands
Ġrenown ed
ult an
ĠT u
Ġce iling
eng es
Ġrepl ied
Ġ9 3
Ġopp osing
En vironment
Ġf iscal
ri ans
Ġnull able
Ġswe at
Ġsign aling
Ġen force
ĠLab our
Ġth rust
Ġrem inder
Ġdecl are
FT WARE
ograph ics
ĠT ool
v ic
Ġconsult ation
G erman
Ġ20 30
Ġlink ing
Ġ19 25
In stance
ĠT ell
hes ia
ĠTyp ically
Ġcapital ism
Ġmuseum s
ĠUlt imately
ĠMe asure
Ġwaters hed
ri ages
Ġrecommend ation
ĠHung ary
Ġcar ved
ĠM RI
R ight
b ottom
ON E
Ġimpair ment
Ġu mb
Ġ9 78
Ch o
ĠTra vel
Ġbelong ed
ĠC ole
Ġchromos omes
W est
W H
ĠEnc ourage
Ġcub ic
pt ical
ĠF if
s ame
ĠBru ce
Ġambit ious
ĠCan al
ĠChall enge
un ing
am ond
Ġcool er
ĠIsa ac
18 0
Ġstimul i
ill o
Ġactiv ist
Ġsh ark
ĠSum mary
keep ing
Ġcomp ressed
ĠSt ructure
Ġadjust ments
12 34
ĠF ast
fl oor
Ġp ocket
ar in
Ar ch
ĠH amp
Ġindu ce
ĠCit iz
Ġsequ encing
op ard
ĠCommun ications
É Ļ
Ġx ml
Ġturb ine
Ġfert ile
Ġs outheast
Ġart illery
Ġfart her
ĠRelig ion
Ġcomm erce
ĠSt atus
ograp hers
S V
Ġprov incial
ore station
... ")
Ġgovern ed
is ol
Ġcondition ing
attr s
s orted
Ġ8 3
ĠL en
Ġsp o
ĠF un
Ġab ortion
ĠSt ories
mes h
d yn
Ġsafe guard
Sept ember
OR E
arg uments
Ġmembr anes
ĠM ix
S U
Ġcount ed
bre v
ĠResp ons
Ġintrodu ces
Ġstri ve
Ġrender ing
Ġinherit ance
Ġmunicip ality
Ġdis charg
Ġpull ing
ĠRog er
Ġg ig
Ġgl uten
olith ic
ir ts
Ġlim b
disc iplinary
az ines
Ġ âĢĻ
ĠZ one
Ġpost er
Ø§ ÙĦ
Ġco h
Ġ19 23
y cle
ans wer
Ġport able
Ġf ox
assert Is
ot y
Ġprint s
co ords
Ġrel ay
ĠN ormal
x path
ĠP ic
Ġr ated
qu is
Ġsc atter
Ġhol idays
Ġpe cul
ĠP as
ĠImpro ve
ĠFor um
Ke ep
lighten ment
ĠG un
Ġt ile
ĠF L
Ġmerch ant
Ġcur ves
ĠExt ension
Ġpartnership s
Ġcur r
D escription
icult ural
aut ions
oven ant
ĠK er
g rav
ĠC ow
Up date
rolog y
Ġsubstr ate
ag in
Ġbl ade
Ġpecul iar
izophren ia
f i
Ġf iring
ĠMar ie
Ġfl ights
.... ....
T HE
ĠT an
ĠAntar ctica
Ġap ost
Ġ> >
C ore
Ġmicro organisms
ĠBen efits
Ġv ivid
ere rs
ĠEst ab
ĠHispan ic
Ġdis semin
199 4
re v
Ġsc ans
Ġpet ition
ific ant
Ġterrit orial
Ġrest ing
Whe ther
Ġfr ight
Ġadvoc acy
ist ence
ĠVill age
ĠAnn ual
Ġc ant
p ill
ĠNorm an
ĠĠĠĠĠĠĠĠĠĠĠĠĠĠĠĠĠĠĠĠĠĠĠĠĠĠĠĠĠĠĠĠ ĠĠĠ
ĠMag ic
ĠMo z
ĠConst ruction
read ing
Ġmyth ology
ĠSo on
ĠG rowth
con struct
Ġmin istry
m akedirs
n ational
Ġman ually
ĠAmeric as
Ġtoxic ity
oc ur
ud ge
Ġdis cl
Ġout breaks
Ġnation wide
id en
ĠE ver
Ġapp ar
ĠAll ied
Ġgrad ual
ĠMor ris
Ġvalid ity
an aly
Ġob server
ĠM aur
W A
Ġment ions
Ġ19 27
Ġdisput es
Ġaccount ability
ĠOffic er
Ġball oon
åı ĸ
Ġresid ual
Ġrem edy
Ġround ed
sent ence
ir i
vel y
ĠAd apt
Ġhe ct
ad j
m g
bl ocks
Ġped est
ĠR u
Ġneighborhood s
Ġintrig uing
Ġpos ed
flow er
ĠH E
Ġpress ed
ĠM ock
g un
t ool
Ġch op
Ċĉ Ċ
Ġastr onomy
in ar
ĠBab ylon
Ġspecim en
opor osis
Ġab oard
Ġexhib ited
Ġexclud e
amb ling
Ġharvest ing
iz ard
Ġend point
Ġlast s
ĠDel ta
Ġopp onents
Ġback ward
Ġadul thood
Or der
Ġkey word
Ġwal ks
Ġwood s
Ġad hes
she ll
Ġ" _
ĠCol lab
The ir
ĠF ab
Ġproject ion
Ġb ust
40 4
ĠN ear
Ġsimpl est
Ġvers es
ĠD I
ĠS ax
Ġpre de
p it
bet ween
Ġg am
Ġur gent
Ġber ries
E duc
en ames
e an
Ġworth y
Ġr ash
Ġover head
Ġsh arks
Cre ated
ĠW elsh
} :
Ġ Ä
Ġra cing
b f
á »
Ġpursu ing
ab a
Ġprop ri
Ġaccept ing
Ġst ain
Ġhom eless
Ġhe lic
Ġv oid
Ġinsp iring
ĠUS DA
pl atform
ĠP ick
Oct ober
ĠC amer
Ġsupp ose
Ġ' {}
Ġgraph s
w elling
fl ags
ol ics
pp e
Ġpubl isher
Ġadv ancing
Ans wer
ĠS ad
Ġdir ty
raul ic
v iol
no ise
Ġle uk
Ġfro st
L ocation
Ġthe ology
Ġrep ository
Ġplanet ary
ĠEv idence
Ġd ots
ac lass
pl ots
ĠPh arm
Ġtext book
Ġsur render
Ġfast est
Ġembra cing
t aking
Ġcontin ental
process ed
Ġlower ing
Ġspec ially
Ġunder m
ri el
br ates
Ġp anc
Ġprohib ited
am y
ends with
Ġcul min
ĠR F
Ġspot ted
as ury
Ġinter connected
ĠH ttp
sc ient
A E
G P
ĠDet roit
c wd
Ġh ay
R andom
ĠH erm
Ġb rack
im eters
al ph
Ġbut tons
fe at
ĠM ol
Ġmark ing
or o
ter min
Ġlik ed
ĠX ML
Ġdestroy ing
Ġg y
Ġ190 8
Ġd orm
ĠB uck
Ġup ward
Ġsuccess or
in cre
ann ah
mp at
Ġsoc cer
Ġcommand ed
Ġretrie ve
Ġenjoy ing
etri ze
Ġter restrial
ĠAct ivities
od ia
ĠC ategory
Ġunt reated
Ġrat ios
Ġpul monary
ĠColon el
Ġstere otypes
mer ge
ĠAg reement
ment al
uis ine
Wh ite
Ġun conscious
ĠR O
Ġexp ose
US ER
ĠCa esar
Ġterm ed
Ġcou p
Ġabnormal ities
ĠL ocation
Ġc ues
V er
Ġcritic ized
Ġfather s
Ġm arc
ĠTo o
ĠPro gress
Ġcon sole
(' .
ĠAust in
Ġt ensions
ress ions
ĠK it
Ġdry ing
Ġaggreg ate
l ins
Gl obal
ĠTrad itional
Ġexp orts
Ġpl ag
æľ ī
n u
ĠPh oen
ĠW a
SE LECT
Ġcop ing
ĠIm mun
Ġw ins
ĠCar ter
for cing
Ġl ag
ĠD est
Ġultr asound
Ġa rose
Ġ Ñģ
Europe an
ord ered
o j
ĠGal ile
ĠDub lin
ĠBe yond
Ġs isters
ä ¿
Ġbo om
k t
ĠT aking
( ["
uss els
Ġpost erior
Ġpil gr
à ®
K now
Ġst icks
ias m
ĠArchitect ure
ĠT itan
Ġden y
ch y
Ġbus h
ĠJuda ism
ĠJon athan
Ġcon gest
Ġpol lin
ĠP ent
ĠR ud
Ġde alt
ĠD VD
ren cies
Ġsuggest ion
Ġwas hed
s ampl
Ġ19 26
ĠCr ime
bs ite
Ġsurprising ly
ĠNich olas
Ġf ictional
Ġo un
Ġtru cks
osex ual
r ase
pl ain
Ġclin ic
Ġmat urity
ĠB itcoin
Ġde af
Ġcapt uring
b es
Ġw are
Ġass im
Ġacid ic
ĠInf antry
Ġdivor ce
Ġl iber
Ġas leep
Ġsl ice
Ġclean er
ĠCamp bell
Ġdevelop er
Ġhon our
ĠSt yle
oth ic
Ġst y
men u
Ġshould ers
Ġme g
ment ion
ill ary
ĠCont emporary
ĠS N
not es
N orth
ĠB uff
includ e
tem perature
Ġclim bing
ĠK an
Ġref resh
B ig
B r
ĠE M
Ġadop ting
ro sc
Ġv ascular
Ġfil tered
cul osis
Ġwhere ver
Ġpick ing
s yn
ĠP and
ĠN urs
Ġgl ue
Ġsuper vision
ĠC leveland
Ġfirm ly
Ġlock ed
ĠAl t
param etrize
Ġassum es
ĠProv ide
s i
Ġsign ing
Ġnob ody
ĠS afe
ĠNev ada
Ġr and
T erm
s olving
Ġconven ience
Ġhum or
ĠF u
ht m
Ġw rest
Ġenc ounters
ĠNapole on
Ġd op
Ġes oph
pat ient
ĠH orn
ĠA er
ĠC ant
Ġt ide
am on
ĠT ony
row se
ext ra
ĠTra il
Ð ´
ial og
ren al
Ġrecre ational
head ed
res olution
in os
ĠPolit ics
ace ous
ĠS ize
Ġcerv ical
Ġportray ed
Ġsp okes
Ġmot ors
ĠN ar
Ġpol es
Ġbel oved
e gers
ĠL eft
Ġtow ers
H C
ĠI F
10 16
Ġwant ing
clip se
ĠPar ks
Ġwild erness
D avid
Ġev ap
less ness
Ġt une
at om
Ġw ard
ĠAn imals
Post ed
Ġconver ting
Ġprede cess
ĠB us
Ġancest or
um m
ĠTr uth
Ġfe eds
ox y
Ġselect ive
Ġnot ebook
Ġw olf
ĉĉ ĉĉ
ul u
uel a
Ġcru c
Ġin coming
Ġguarant eed
Ġunder neath
Ġ3 50
c am
over ing
Ġscript s
ul ous
leg end
ĠSol omon
F ull
Ġeleph ants
priv ate
agon ist
Ġk et
ele ments
e very
Ġcryst all
h ole
Ġcomment ary
Ġframe works
Im port
frame work
ro cess
Ġintern ationally
ĠBarb ara
p x
Ġan emia
Ġcha os
ĠI R
ĠVirt ual
Ġge ological
L ength
ĠEmer gency
Ġ: ,
Ġgra zing
Ġl oves
Ġimplic it
": "
Ġsal ary
AB ILITY
ĠManc hester
Ġmay or
({ "
Ġpolit ically
Ġs iblings
s ong
Ex ec
Ġher d
ĠPriv ate
Ġpet roleum
Ġm ate
ĠLe gal
ul er
ĠM ust
Ġtim ely
Ġ8 9
OR Y
ĠAdd ress
Foreign Key
ot ine
ĠSing le
ĠSus an
i w
comp onent
Ġch ord
is ive
pos itions
ĠEvery one
b ons
Ġdecl ining
Ġcr ude
Form atter
ĠSt ruct
Ġdiscover ing
ĠT ab
Ġrem n
Ġliv elihood
Jan uary
ĠHop kins
ĠRepresent atives
ĠB ou
ĠG ro
Ġj ury
own ed
ĠCl ay
Ġsp ill
m apping
ĠV enez
Ġbl oom
Ġsum m
ĠNep al
Ġpe an
Ġhur ricane
Ġre ception
d in
ĠD ry
Ġgro cery
Ġrese mble
Ġ< /
ĠM oney
b rain
ĠW oman
in burgh
ĠOther wise
hell o
Ġrecord ings
St and
: ])
deg ree
M icro
Ġve in
Ġprol if
Ġsubject ive
Ġremed ies
ĠMin or
het ics
ĠG ospel
Ġw and
Ġ[ -
N UM
en ate
Ġenh ances
Ġ190 5
Ġpast e
Ġsur f
ĠSO FTWARE
Ġantib ody
mit t
Ġdepos it
Ġpropag anda
Ġrel ied
ĠPe ak
Ġment ally
K ing
ĠD ays
ĠS ierra
y t
Ġdepth s
Ġantioxid ant
G reat
Ġend emic
Ġex otic
asc ii
il iary
ĠI ter
ĠY ang
ell ers
Ġkind ness
Ġsqu ares
ĠC row
ĠAb stract
Ġcontrad ict
Ġbad ly
he et
ĠR A
Ġinvest ed
* (
od o
su pp
ĠBar on
ĠA B
ĠU g
ĠDes ert
tern s
oub ted
Ġcounsel ing
P arent
Ġver bs
Ġfit ting
DE BUG
pub lished
ĠPro blems
Ġ3 60
ĊĠĠĠĠĠĠĠĠĠĠĠĠ ĊĠĠĠĠĠĠĠĠĠĠĠ
f unctions
ĠBr and
ffic iency
p end
Ġdep ressed
v s
se ason
ithm etic
m illion
Ġdwar f
ap olis
u ilt
res ize
Ġun icode
Ġgar bage
Don ald
Ġc ables
od us
ĠObserv atory
Su pp
pre v
ile psy
ĠAct ive
ac a
ign ant
Ġcab inet
Ġeth anol
Ġd ash
Ġsc roll
op sy
Ġdisc iples
ĠJ enn
amm ed
Ġshort age
uls ive
ĠG ray
Ġtrans ist
gr ay
c orn
f iction
W omen
S ym
Ġconver ts
plit ude
Ġcivil ians
ĠAcad emic
ç Ľ
Con st
Ġhand ed
Ġcoal ition
ĠD oc
ĠN AT
ĠÐ ²
Ġpop ulated
c n
Ġcommerc ially
Ġview ers
L U
local host
Ġturb ines
Ġcreat or
cell ular
Per haps
Ġviol ation
imin als
am o
Ġmist aken
ĠPre vent
Ġopen ly
ĠSpec ifically
ĠFl ight
1 30
ĠG on
list ed
Ġblood stream
Ġlat itude
Ġcompar ative
b ecause
Read er
K EN
Ġc itation
Ġfract ure
ĠO THER
Ġstress es
ĠColomb ia
ĠConn ection
Ġcraft s
Ġbe verages
ĠC hem
ĠM ercury
ĠAtlant a
Ġj e
Ġun success
Ġadministr ators
Ġh ollow
Ġlike wise
Ġmar ijuana
ĠV acc
ours es
Ġheav ier
Ġton nes
L Y
n ik
ĠBe at
A ir
qu et
spe aking
ĠLess on
Ear th
Ġ15 00
M IN
g age
Ġpere nn
J oin
Ġill umin
hist oric
col l
ĠS R
ĠE ating
Ġrep o
ĠM s
N T
S te
ass oci
ĠF el
det erm
os lav
Ġsh ower
b ach
Ġharvest ed
ĠD im
Ġfl aw
ambo o
ĠH arm
ĠEx change
Ġfree ze
Ġrot ate
Ġd ip
Ġeas iest
ion e
ES CO
O h
b led
ĠK id
Ġlay ing
Ġper me
Ġbra ve
Ġded ication
Ġanat omy
ĠT ools
Ġmon key
ĠTown ship
ell ation
ĠHol lywood
######## ####
De cember
ĠBeng al
ĠSt ev
Ġprompt ed
ĠArist otle
Ġind oors
b ors
arr ass
Ġdr ums
Ġastronaut s
Ġmagn ific
ĠMan ufact
Ġbo iling
re ward
Ġdivid ing
Ġscr atch
Ġopp ression
% ),
Ġp ear
v et
Ġ9 1
Ġke en
st ick
Ġoptim ization
Ġc emetery
RE D
ĠHud son
ob a
ĠCon clusion
erv es
Ġar che
Ġmetaph or
P G
Ġa cre
ĠN A
Ġflav ors
Ġp ic
Ġdispl aced
Ġtrag ic
it i
ĠTre nd
ii i
rav iolet
ĠDis covery
Ġd ye
Ġpract ically
Ġc ad
p ent
Ġ| |
Sh ort
Ġassist ed
E ffect
ant i
u art
Ġpass words
Ret urns
Ġprivile ge
product s
_ .
m ile
ul ph
ĠE ve
Ġover night
ĠElement ary
Ġs li
ĠLie utenant
Ġru ins
se ver
Ġoper a
Ġbelie ving
Ġm arsh
is o
Ġl r
c and
Ġanten na
ĠUkrain ian
199 3
Ġar sen
Ph one
ĠY ale
Ġfl ip
Ġm aj
RE E
ra wn
ĠR ic
ĠT am
F rench
Ġsuccess ion
Ġemotion ally
embed ding
Ġat he
Ġloyal ty
N ASA
se par
Ġphilos ophers
Ġtestim ony
Ġcour tesy
ĠOr ange
ob by
ĠCom plete
occ up
Ġminor ities
Ġcom edy
Ġback ing
w atch
se lection
Ġlim itation
Ġf ocal
Ġaccompany ing
Ġadvance ment
Ġdel im
gorith m
work er
Ġconst ants
Ġmusic ian
ĠDemocr ats
f its
en z
ĠPub l
Ġsan itation
Pub lished
n ie
Ġsc oring
æ ŀ
Ġsurn ame
Ġsn ack
Ġreef s
m iral
Ġre lying
'] ))
ĠInf lu
Ġobl igation
ceed ings
O p
S uch
om ics
ak y
Ġsp iral
Ġw olves
Ġd ough
Ð° Ð½
Ġill um
ĠM om
ĠP ale
ĠH yp
Ġintent ions
ĠPl ayer
Ġthrow ing
å Ĩ
Ġt ended
Ġur inary
ĠThe od
ass ador
æķ° æį®
Act ivity
Ġn ights
Ġlegisl ature
Ġmain land
ator ial
ĠR idge
ĠHot el
ĠL ay
Ġgu ilt
m icro
act ivation
exp ensive
ĠBern ard
L oss
p rior
Ġw edding
Ġcar riers
h ad
ĠAl ban
Ġath lete
on ce
vent ional
ĠRo om
Ġemit ted
pip eline
ĠF I
Ġhol istic
Ġparent al
ĠMan ual
struct ure
Ġexerc ising
ĠT ensor
r ise
Ġpro pose
D esc
Ġth ou
ĠB aker
Ġweaken ed
Ġveter ans
Ġinn ocent
Ġref use
g pu
ĠGuid elines
p ox
ĠCh anges
ĠArk ansas
Ġmag azines
ĠBir th
Ġens l
Ġex terior
ĠGir l
Or gan
Ġdon ated
M al
p b
Ġesc al
Ġw ore
B ER
ĠT ow
ĠM L
ĠSt alin
IT E
ĠIss ues
ol ver
apt ure
Ġconnect ivity
s ocial
Ġ9 4
Ġrout ines
im ination
Ġlaw su
ard ing
ĠB ert
J ew
L ocal
Ġop io
um ble
Ġfle w
Ġl os
ä» ¶
Ġproport ional
Ġsub mission
Ġac oustic
orig in
Ġbe aches
inter face
æ İ
ar us
og ly
ĠL ock
Ġlit eral
Ġ186 1
op a
Ġtri umph
iv ism
Ġ' ')
Ġexp on
Ġur anium
Ġre use
Ġsum mit
Ġan th
Ġsc arc
Ġscholar ly
ĠC ool
N G
an ic
ace ae
Ġredu ctions
Ġear ning
select ed
Ġpe aks
ä¸ į
Ġexplo it
Ġgall ery
E p
ey e
ĠC atherine
d ale
ĠAut o
Ġweakness es
Ġ190 6
() ),
Ġas bestos
ad ic
ĠP el
Ġb unch
Ġg ates
oubted ly
Ġic onic
è¡ Į
ĠC roat
ĠI g
Ġdem ographic
Ġmind fulness
Ġfeas ible
0 33
s ay
ĠF alls
end point
Ġm igrants
Ġhost ile
ĠCreat ing
Ġpe pper
Ġkn ife
Ġse p
ãĥ ¼
I AL
ĠP ad
Ġlearn s
ĠH ope
ĠLib eral
ĠDis ney
Ġb end
ĠS W
Ġde ar
c ss
Ġinf est
Ġident ifier
Ġqu iz
ab ad
ĠAl cohol
ad ies
ĠBapt ist
P red
Ġvolcan o
S chool
Ġco operative
ĠA ld
mod ern
B atch
M s
Ġvisual ization
ĠEns ure
c oin
l ists
ĠOver all
Ġref ere
gen cies
Ġbroad ly
L R
Cont rol
ĠPop ular
ar ound
Ġle x
l b
Ġapart ment
Ġende av
/ {}
ĠA pr
AS C
Ġcle ver
ĠCong o
Ġgastro intestinal
check point
Ġwra pper
ĠPit ts
Ġbi ography
Ġtri ple
Ġdark er
Ġdrag on
pick le
H y
th ink
ĠM ason
Ġback ed
Ġspect acular
J SON
Ã ¥
pl aces
Ġhous ed
ĠForm at
I E
cont ents
Ġext r
ĠPrinc eton
f uel
wid get
Ġenroll ed
ak u
ĠCat hedral
Ġpil ots
B est
Ġtransl ations
ĠF riends
Î »
Init ial
ign ore
it ably
Ġod or
Ġp ools
Ġra pe
Ġinteract ing
Ġn ests
Ġconclud es
ĠT amil
ĠM end
Ġt ense
Ġge ometric
alt ies
ev a
char acter
Ġrot ating
9 00
ĠCon v
. \
ĠJ oy
Ġun int
ec hes
MO DE
ĠLith uan
ĠSt ew
LO W
ĠVar ious
en um
Ġend uring
Ġin complete
Ġconsec utive
Ġst unning
Pro perty
m ul
i age
ĠM R
ert ools
Ġt ennis
Ġsh uffle
Ġscan ning
Ġhand y
ĠInstit ution
ĠIS O
Ġ190 7
Ġbl u
ĠClin ic
f alse
Ġav iation
ĠTransport ation
Ġfl ame
Ġn od
ĠWork ers
Ġflat ten
b ins
Ġwe ed
rad ius
Ġepid em
Ġse gregation
12 5
Ġdon or
elect ric
str ument
aff e
Ġro pe
199 2
Ġin con
Ġwhere by
Ġphosph orus
Ġpe pt
Ġnormal ize
) ')
ĠD ru
ows ki
Ġs ins
Ġunf ortunately
T ag
atter y
Ġd ams
Ġremov es
ĠSo il
ĠL as
Ġdepart ure
Ġcult ivate
Ġeru ption
ĠA lp
Ġquar ters
Ġpreced ing
M ac
Ġmedic inal
Ġpo ets
Ġcig arettes
Ġl ucky
Ġcollect ively
Ġimper ative
Ġprem ium
Ġsp rout
ge v
Ġpun ish
Fe ature
Ġle ver
Ġmon uments
0000 0000
al is
Ġt ournament
Ġref eren
Ġfinanc ing
le af
ank ton
Ġinj ust
Ġdipl omatic
mk dir
S eries
Ġmar row
Py thon
Ġcyl ind
pl ugin
Ġhit ting
Un ited
F in
Ġchar ter
ĠI L
Ġsw itches
ĠLank a
m atic
Ġt weet
Ġl ips
Ġloc als
at able
Ġan terior
OW N
g amma
Ġclim ates
ĠCamp aign
Ġinject ed
oglob in
Ġwast ewater
ĠBi ological
Ġ190 9
s ix
Ġo ven
ĠT ests
Ġenl arg
Ġconv ince
More over
Ġunder graduate
M ode
Ġth under
Ġ' <
pl anes
Ġb ubble
As k
So ft
em ption
Ġhe d
__ .
ĠPrinc iples
, )
ĊĊ ĠĠ
Ġautom ation
Ġs igma
Ġse af
Ġrenew ed
Ġout s
Ġarchitect s
Ġcle ared
us age
ĠK le
od ied
ĠAnd roid
ĠM B
ĠCo oper
Ġsau ce
Ġinst antly
AM P
Ġun stable
There fore
L ow
Ġcous in
Â »
ĠR yan
Ġph il
Ġconvent ions
Ġwor m
Ġu ph
Ġwater ing
ĠEd inburgh
ĠV el
Ġaccel erate
Ġadjust ment
b ling
se gment
Ġant iqu
ĠFood s
Ġspecific ation
ph an
hel ial
ĠMad ison
Ġhyp ot
ens on
Ġtight ly
Ġval ves
um en
Ġgrand father
ex amples
ĠRe lease
Ġbi ases
ĠV ision
ĠGreen land
ĠM obile
Ġamid st
Ġros py
l ia
ĠP osition
ĠL ore
ĠE ld
ĠDef ine
Ġdifferent iate
LE D
ĠLet ters
in itions
Ġex clusion
Ġfisher ies
ann on
ĠM ak
N ING
threat ening
ĠK evin
Ġfun gal
Ġoverlook ed
Ġfest ivals
ĠB eth
om nia
Ġcompar isons
Ġhuman itarian
cell s
angu ages
Ġattack ing
con stant
num s
Un like
Ġmurd ered
Ġa erial
Ġex agger
r ans
rec ords
i am
ĠSt rong
Ġsl opes
w iki
h oe
ĠBre ak
Ġfront ier
ab e
dig it
Ġuter us
he it
comput e
E mail
r type
N ovember
Ġr ush
ĠC ris
ĠR ural
ch unk
Ġspons ored
T rad
p aper
ĠMont ana
Ġcontamin ants
ĠK um
ĠK elly
Ġu b
s ets
up uncture
Ġp a
ony ms
Ġimm ers
D ue
Ġimp ly
ĠMay a
ĠU C
Ġyoung est
organ ic
ĠE at
Ġrepl ication
Ġ( $
ĠFa ith
ops is
inst all
ĠWar ren
Ġland mark
all as
Ġliqu ids
Ġl oses
Ï ĥ
ĠP oor
Ġant im
uk i
atur ated
Ġtermin ology
ĠAct s
I ter
ĠV ari
( ?
Ġrec urs
k ill
Ġbl ast
Ġcycl ing
Ġun e
ĠI oT
Ġm asters
ex port
Ġsqu ir
Ġel imination
Ġadmin ister
Ġbo il
il oc
Ġsql alchemy
Ġn aming
Ġpl ague
Ġele ven
D em
re verse
Ġn our
ĠA uth
Ġbod ily
Ġ' ',
ĠC ounter
ĠHar bor
Ġband width
Ġallev iate
ĠCath olics
ĠWat son
Ġcon quest
× ķ
log en
Y ear
redu ce
Ġd ermat
Ġadd ict
f ed
ĠL ud
Ġ18 65
il k
P aul
Ġ iod
anc he
Ġflo ors
Ġall ocation
Ġdev iation
ĠAgain st
ok u
Ġclos ure
([ [
Ġserv ants
Ch ange
al am
F our
Ġfin ishing
AG S
oc ese
Ġwith stand
b log
ĠArch ived
Ġthe ta
ĠPalest inian
P ack
ra cle
ĠR ico
hat tan
pred iction
Ġtick et
F low
ĠH ero
Ġbright ness
Ġlif ting
ĠF riend
Ġl oving
us k
ĠMont real
ĠL l
P lay
Ġelect oral
Ġtou ched
ĠType Error
ur as
Ġby pass
yl um
Ġpy ramid
iv an
New s
il is
Ġ é
Ġback end
Ġstick y
script ions
ĠJ ama
unt il
Ent ry
ĠCat al
Ġfract ures
mer ged
ĠCl ar
rack ing
Ġpolic ym
Ġref lex
R ob
ĠAn at
Ġunf air
Ġwell ness
ĠHon or
Ġob ey
ĠGo als
Ġharass ment
Ġj ail
drop out
ĠD rive
spec ial
I H
Ġqu eries
Willi am
ĠMult i
Ġdown stream
Ġspecific ations
on ics
Ġarg uing
ĠCh amber
Ġinflu encing
ic ator
ri pp
Ġimag ined
Ġarri ving
h icle
oc o
ĠD ance
O H
Ġgener ators
11 1
åŃ Ĺ
Ġfirst name
gen e
P ower
Ġcelebr ating
Ġparad igm
Ġenthus iasm
ĠDis orders
ĠDist ribution
ĠProduct s
Ġappe aling
ĠD ave
Ġpra ised
Ġb is
Ġreson ance
Ġprop het
Ġsens ing
Ġtrans itions
ĠH old
ĠProgram me
Ġport folio
Ġne at
Î ¼
Ġi P
D raw
Ġinst ability
Ġmiss ile
Ġinc ub
th irds
Ġcrit erion
requ ests
Ġmus cular
Ġrat ings
Ġcor pus
åħ ¥
Ġlim estone
Ġreg ulating
Ġter r
ĠProgram s
è ¾
E mb
return s
Ġdescript ive
Ġr outer
Ġult ra
Ġam endment
Ġst rokes
form er
ĠIn clud
ĠColl ins
ah a
av ar
Ġz o
Ġtechn ically
ĠDe an
Ġsovere ign
Ġts un
re gex
Ġstri ps
Ġjump ing
Ġdet er
Ġdro ve
Ġinfant ry
Ġparad ox
Ġprec autions
Ġinstall ing
Ġaccum ulated
L at
Ġg rief
ĠÃ ī
Ġsick ness
Ġdisc ord
Ġs aves
est ial
Ġemb ed
Rec ord
trans mit
if est
ĠK on
ĠMur ray
m ajor
Ġcomp ly
Add itional
s uff
Ġ12 5
i ang
Ġappar atus
els ius
ĠSh an
un ion
Ġm ating
Ġanticip ated
ĠAss istant
Ġemb arrass
å Ģ
Ġco efficient
out heastern
Ġdis ruption
Ġvari ance
Ġposition ed
Ġfol iage
ograph ies
Ġimm igrant
l ived
Ġactiv ate
Ġide als
Ġrun off
Ġorder ing
= %
al ar
Ġrecogn izes
Ġdom est
ub ric
Ġmim ic
ĠM ade
names e
lic ity
' },
ĠN ord
Ġauto immune
te es
Ġsubt ract
ĠR y
miss ing
Ġt rop
199 1
V ariable
Ġsun ny
pl ants
Date Time
ĠG raham
Ġsupp liers
ĠAl most
ĠEm ail
Ġpray ers
ĠL ost
br aska
Ġquestion na
Ġdesk top
Ġsome body
IM IT
f ake
um ing
' +
rec ogn
ĠVis it
ĠPl ato
f eld
Ġcivil izations
() ):
onom ic
mpat hetic
Ġn m
im et
Ġple asant
Ġpenc il
an Ã§
Ch ina
f ar
Ġc ens
Ġhier arch
Ġcann abis
ce phal
ĠEm ploy
ĠLim ited
Ġc ake
Ġreported ly
Ġt iles
Ġbutter fly
ĠAl b
ĠExper iment
Ġnest ing
Ġse aled
b ishop
ik o
Ġstress ful
Ġex cer
iz a
Ġa meric
Ġvis ibility
Ġconsequ ently
ĠTerrit ory
). [
ĠJud ge
ĠT arget
Cons ider
ĠDyn asty
ĠG ender
19 80
ount ain
id i
Ġinv ite
Ġaccum ulate
Ù ĩ
Ġsel enium
Ġe ch
ä ¼
ĠGir ls
Ġprem i
={ "
Ġ ])
Ġsim ulate
Ġdefin ite
ut c
Ġcorpor ation
at ra
Ġcav al
is ure
ĠT ol
S em
h l
og y
M art
Ġdetect ing
Ġfrag ile
Ġvisual ize
iber ia
st ones
Be ing
Ġvoy age
ĠPat ri
x iety
ĠM unicip
ĠGl ass
Ġdis crete
Feb ruary
ĠG M
ĠC emetery
Ġmig rate
ĠE ug
Ġp g
Ġdyn am
Ġcan cel
any on
Ġ" {}
Ġ{} ,
Ġco il
ĠO liver
Ġcur ved
Mean while
h ill
Ġc ivic
pr ise
Ġhand les
Ġb ites
Ġcor related
Ġclick ing
Ġox idation
ĠC el
Mus ic
hel per
) ',
Bas ic
ĠB ear
Ġcalcul ating
Ġun con
Ġpyl int
Ġ190 1
est ry
ĠA ch
hed ules
Ġinh abited
br and
ĠByz antine
Ġg aming
Ġrespond ents
B orn
pro xy
ĠP rec
ĠMod ule
Ġ186 2
hib ition
b ial
Ġfor um
cal c
Af ric
V ersion
ĠV oice
uss ia
Ex amples
Ġfrag ment
ĠMi ami
worm s
t oday
Ġmeth yl
ll a
c nt
C ould
In formation
, -
d ouble
Ġs ess
ĠEvery thing
ish ops
Ġrein forced
Ġvis itor
Ġfootball er
au er
ĠK os
Ġproport ions
ĠGre ater
ĠTechn iques
sim ilar
Ġsl ip
Ġjournal ists
Ġadequ ately
) ",
Ġspread s
Ġminim izing
Ġdef orestation
la very
ĠIll ust
Ġn aked
F ollow
S oup
d ose
IS E
ĠB log
Ġdisag ree
Ġkill er
pr ising
serv ices
ĠTechn ologies
m ut
Ġnever theless
Ġcap ita
del ay
Ġright eous
ĠHor se
Ġfe ast
bor ough
Ġb ent
Ġtraject ory
ĠHamp shire
ĠG y
Ġreg iment
Ġguid ing
Ġfract ions
Hel p
bas ename
Ġjson ify
ĠE sc
ĠAlbum s
ys ql
P al
ĠCre ation
ansk rit
Ġcons pir
Ġirrit ation
l arge
Ġthe ft
ĠE T
Ġoff shore
pro blem
Ġsh rubs
Ġe ighth
Ġcon e
Ġsal vation
Ġo t
ĠAut om
ĠFour th
ĠH end
itud inal
Ġcon ceived
Ġin ert
Ġnutrit ious
num bers
ĠÎ ¼
ed ience
Ġplug in
Ġmake up
ĠY ug
ĠP ul
Ġfluct uations
iss a
Ġtim eline
ĠE gg
ĠN GO
ĠMor oc
ĠB orn
l ag
Ġcomplement ary
L ight
ĠĠĠĠĠĠĠĠĠĠĠĠĠĠĠĠĠĠĠĠĠĠĠĠĠĠĠĠĠĠĠĠ ĠĠĠĠ
l m
ĠExpl oring
Ġpl um
Ġtrav elling
Ġre per
Ġdis contin
Ġhor ror
Ġoccup y
osa ic
iv ia
Ġcompl aints
Ġaff irm
Ġmicrosc opic
Ġsl ides
ĠPier re
e ach
ĠT ak
E ss
r gb
ty p
Ġsent iment
ĊĠĠĠĠĠĠĠĠĠĠĠĠĠĠĠĠĠĠĠĠĠĠĠĠĠĠĠĠĠĠĠĠ Ġ
Ġl am
ub a
se ctions
is file
Ġr am
Ġse ized
Ġcommun ist
det ail
Ġto es
Ġ: ]
alth ough
re pos
en abled
E G
trans pose
Ġtra ils
ĠGet ting
im o
ich i
Ġaccount ed
ell or
Ġdel ays
ĠN T
ĠGu y
Ġvacc inated
Ġemail s
Ġfro g
Ġorgan ised
cret ion
ĠP enn
Ġprevent ive
Add ress
ĠM C
Ġhe red
ĠR aw
ĠPublic ations
elt ic
S ET
ac o
Ġpion eer
Ġob struct
ĠAth let
Ġcor rosion
C ap
ĠNot ice
ath s
ĠG R
Ġmin us
ĊĊ ĉĉ
Ġsoon er
D ocument
id ad
Ġher bal
Ġutil ization
Ġman eu
ai ro
Ġan s
Ġdirect ors
Ġbal ancing
â ķ
ĠF al
pro c
Ġtim er
Ġhun ters
Form at
B i
N atural
av an
Ġviol ations
Ġprob able
gen eral
an im
Ġder ive
S imple
Ġrout inely
Ġ" +
pop ulation
g rowth
) ],
Ġ9 00
on ial
ĠBr anch
ke e
ĊĠĠĠĠĠĠĠĠĠĠĠĠĠĠĠĠĠĠĠĠĠĠĠĠĠĠĠĠĠĠĠĠ ĠĠĠĠĠĠĠ
ĠKey Error
ogene ous
Ġd ile
iz za
Class ifier
Ġadvent ures
Ġceremon ies
Ġreject ion
Ġresearch ing
ĠK ra
Ġwond ers
ns ic
Ġabol ition
Ġ= >
ĠB ond
c b
ĠGh ana
ĠHe aven
ĠPro ceedings
RE AD
Ġ186 3
Ġattend ance
Gen erator
Ġresil ient
Ġdisadvant ages
he at
] }
Ġserv ant
ĠOper ations
ĠA ware
Ġqual ify
ĠN ames
Ġfl ora
oster one
Ġsin us
ĠSen ator
ĠBab y
W R
f ires
ĠNaz is
Ġamph ib
Ġair plane
Ġt elesc
ĠR ick
aj a
R ich
gener ative
Ġa pt
Ġfe ared
Ġcent r
acter ial
Ġad mission
sc an
Ġmultipl ication
Ġcollabor ate
Ã «
ĠY an
Ġ0 1
ĠF ah
Ġlith ium
Ġok ay
Ġdepos ited
Ġconqu ered
ĠMit chell
ĠFact ors
Ġcol i
ĠCa uses
Ġlif elong
Ġbutter flies
M iss
Ġgra pe
exp ression
ĠPl ate
Ġcomprom ised
Ġest rogen
ĠH ost
Ġlaw yers
g ra
be it
Ġarch ives
S F
Ġp ays
ĠC her
Ġcoron ary
Ġd urable
me asure
an throp
Ġprejud ice
Ġtext books
Rep ort
k ov
Ġw ip
Ġintr insic
oun cing
Ġcle ans
Ġ Ã©
Ġear nings
ĠNot able
ĠLaw s
ĠK o
Ġconstruct ing
in h
Ġparas ite
Ġtable t
ribut ions
w ig
Ġex ile
r ules
R ober
Pl an
Ġinter pol
ĠIntern al
du p
Ġin expensive
Ġrecon cil
Ġdifferent iation
Ġ1 15
Ġtra ps
ex pr
Ġin appropriate
Ðµ ÑĢ
op oly
Ġjun ior
ĠUS B
! ')
ĠSt orm
ocr ine
Ġbom bs
Ġ 000
ĠApp ly
ĠAfric ans
rem ote
J ames
__ _
Res ults
Us ers
ĠGe ographic
Ġmerch ants
Ġnom inated
ĠPro du
Ġ ðŁ
Ġpersonal ized
ĠSte el
ache l
ĠCost a
read lines
Ġcab in
Ġhem isphere
ĠFl ash
ĠC M
Ġones elf
ĠĠĠĠĠĠĠĠĠĠĠĠĠĠĠĠĠĠĠĠĠĠĠĠĠĠĠĠĠĠĠĠ ĠĠĠĠĠ
Ġpot s
Ġrock y
Ġret ina
ĠSol utions
Ġcra cks
ĠSub ject
ĠS ession
mem bers
Ġfort une
Rec ent
add le
ĠRepublic ans
ent ries
rim inal
ĠMay or
Sc hema
v able
Ġeth n
Ġst olen
Ġ20 50
on ian
Def ault
ĠAlber ta
Ġtrain er
Ġen er
ĠD ental
Ġcelebr ations
ĠYO U
ming ham
ĠD R
Ġcalcul ator
ess ed
m ix
Ġhost ing
Ġj unction
Ġfl ush
ĠStrateg ies
Ġde leted
Ġstead ily
Ġgl oss
Ġ ###
ĠFl ag
Ġli ability
ĠCal cul
ĠL ag
Ġc ite
Ġkey words
Ġsch izophrenia
Ġf ence
Ġorb ital
ĠApp lied
Ch inese
Ġfaith ful
Ġb ounds
Ġrob otic
ĠOrig in
Ġfluor ide
å ¹
oot ing
ig ator
ĠA post
Ġveterin arian
Ġcommod ity
Ġdeliber ately
F E
N ames
y g
ou ver
ĠIran ian
or f
ĠE P
Ġad olescent
ĠSpe ech
an cer
ic he
Ġf ame
Net work
ĠK el
save fig
Ġme ats
ĠRevolution ary
Ġindirect ly
Ġout ward
Ġb ru
Ġhe ights
Ġdel ib
Mod ern
ys et
Ð ¼
Ph ot
ĠPsych iat
med i
Ġcere bral
Ġphysic ist
Ġdismiss ed
ĠOcc up
S al
te chn
Ġgrass es
Ø§ Ø
Ġclar ify
na issance
Ġaccel erated
n utrition
Ġ[ {
COL OR
ver ted
ĠLike wise
Ġlack s
Ġfun eral
rel ation
se ek
Ġaqu arium
ĠC over
ĠF ortunately
ĠL ane
ç ī
Ġjust ified
ĠLib erty
ri ad
ĠSt rategy
Ġpersec ution
ĠJun ior
len e
Ġrecogn ise
Ġdistribut ions
Ġb oss
Ġinv aded
] ;
Ġbr ig
Ġgot ten
Ġmonit ors
in as
Ġengine ered
Not Found
ĠFlore nce
ĠStew art
æ ³
cre ation
ric anes
az ed
Ġfant asy
Ġparagraph s
R GB
ĠM is
Ġpack ets
ĠEngine ers
ĠEconom y
ĠGand hi
ĠGr an
Ġwavelength s
o ise
Ġcasual ties
Ġall ocated
Ġout lines
cre as
Ġmit igation
oc hemistry
Ġgl oves
t ake
ĠB R
Ġar ist
Ġch unks
Ġemp ow
Ġsou ls
Ġ190 4
Ġfib re
Ġav en
Ġmar ble
Ġch imp
ĠC anyon
.. ."
Ġlapt op
ĠN othing
Ġadv ise
Ġd ressed
Ġnot ation
ag ic
Ġwar n
Ġener get
ok a
to x
Ġd ors
oton in
Ġembedd ing
an ical
Ġoccup ational
Ġin land
Ġhel per
Ġdehyd ration
ra its
k an
k ar
Ġtorn ado
N As
Ġgu y
Ġc uisine
ĠMon te
ĠM ack
ĠTurn er
Ġglac iers
Ġunder w
Ġd awn
anc ers
p ush
Ġp sy
ch ant
é Ĺ
In s
Ab stract
ad en
N ever
Ġsmooth ly
Ġpond s
flat ten
Inst ead
ĠR ivers
App lication
Ġcontin uity
ĠSal v
Ġgo ogle
Ġcig arette
Ġscar ce
ĠAr c
Ġser um
ĠFrame work
Ġlow ered
Ġsp iders
Ġdomin ance
Ġgen res
Ġspr ings
tol ist
Ġspin ning
Ġm s
Ġs iege
ic ion
ans hip
W ill
ow ing
Ġcomp iler
Ġl b
ĠDou ble
Ġ189 8
W E
Ġmon keys
Ġscr ut
B ill
ĠK ash
Ġmagnific ent
d c
ĠSy rian
ch art
Ġint egers
Ġaccident ally
: ")
ĠF itz
Ġt ut
Ġcomp ile
ĠSt re
Th ank
Ġcom et
Ġint imate
ĠR ing
Ġsw itched
ĠEv ans
ĠS ample
Ġethnic ity
M ich
Ġprinc ip
Ġterror ist
Ġdes erve
Ġcop ied
Ġcoordin ated
Ġdi abetic
Ã© n
en able
ap hy
Ġn ail
ĠK night
Ġcl ergy
G I
en cer
om o
Ġsmart phone
Ġreven ues
Ġ18 40
ĠPh ase
U ST
s ch
d ating
H R
c ott
asc ade
Ġannounce ment
Ġfun ny
mind ed
o ften
ot ics
ĠH D
n els
Ġmyster ies
Writ er
Ġdispar ities
Ġ18 64
Ġdro pping
Ġfrustr ation
Ġrelax ed
Ġhyd raulic
> </
B ot
Ġenact ed
Wind ows
ĠP IL
bo at
an ne
Ġh ire
w ere
ain ted
ĠBir ds
Ġemphas izing
ediat rics
ĠG ent
Ġcompan ions
Ġtransl ates
Ġembry o
Ġu uid
ĠE ight
and y
Al most
Japan ese
ĠIn sp
Ġunf amiliar
ĠHarr ison
Ġrec alled
Ġwarm th
J ump
C reating
col ored
ro ved
Ġdecor ative
Ġmicrow ave
Ġar ising
Ġun cle
Ġse als
Ġradical s
run ner
ĠLO G
ĠC ou
è¡ ¨
åĩ º
t ight
rel ations
ĠJ ere
ĠK ur
ĠPl aces
Ġarri ves
Ġtransform ing
Ġit eration
= \
ĠA part
Ġinitial ize
Ġun h
ĠEc ology
Ġcaval ry
Ġinter sect
Ġview er
ple asant
ant a
r f
( ',
Ġp ier
Ġsu ite
ail ure
act ual
abit at
ĠHung arian
ĠM ut
Ġch ambers
C ent
ĠN iger
des ign
le ased
config uration
11 11
Ġca ut
ĊĠĠĠĠĠĠĠĠĠĠĠĠĠĠĠĠĠĠĠĠĠĠĠĠĠĠĠĠĠĠĠĠ ĠĠ
D M
function al
Ġpossess ed
åľ ¨
Ġobser vers
ig ers
Lay out
ĠI gn
aur us
as se
Ġaffect ion
ĠC e
Ġgen ius
Ġnav igating
m und
t or
ĠS A
load ed
Ġrespond s
Ġ190 3
Ġcompet itors
sy m
Ġterror ism
c rop
Ġu m
aut hent
Sk ip
S ec
Ġrepet itive
/ (
R ange
ar bon
target s
Ġkn ees
Ġcont ag
ĠSk in
Ġpurs ued
Ġtraff icking
Ġpo inter
Ġcoll apsed
ĠOpp ortun
Ġtoler ate
m c
T ry
Ġm isc
Ġwitness es
ĠNeg ro
Ġt an
Ġch i
Ġgl imp
Ġpsych ologist
Ġignor ance
Ġmon ks
Ġquestion ed
Ġap nea
ĠSy nt
L im
Aust ral
G M
pl ess
ĠHol land
ĠPort land
ĠF C
Ġman ages
Ġproject ions
Ġshr ink
Ch ild
C ard
ĠT elescope
ig hed
ĠC ort
ain er
Ġkind ergarten
b earing
Ġm l
Ġfilter ing
ĠHel en
ĠDesc ribe
er able
Ġcompos itions
Ġst igma
Ġunderstand s
O pt
m ad
ĠStud io
Ġgroup ed
Ġdeput y
Ġbel ly
Ġroll ed
æĪ Ĳ
ĠPict ure
ĠC arm
icular ly
c reat
el er
Ġnotice able
Ġse ab
ie ce
IC T
j oint
ĠUN ESCO
Ġreason ably
ç ½
[ (
Ġmanuscript s
s at
ĠScript ure
pl ug
k n
s il
Ġrecre ation
b eth
Ġsocio economic
: "
P AR
ĠR ank
ĠGr iff
Ġ ï
Ġc ube
Ġhum id
Ġn ons
$ $
P rim
le en
Ġim balance
Ġund oubtedly
Ġnon profit
Ġlog o
5 12
Ġg i
gr ass
Ġconv inc
Ġfe ud
Ġlib eration
m ma
ĠRes ult
Ġlo os
m ol
Ġcult urally
Ġpr ince
Ġb ic
Ġtrad ers
Ġbar rel
Ġorient ed
Ġnational ism
Ġf ighter
Ġwid get
ĠProgram ming
D AT
Ġrefuge e
le e
ĠS port
Ġunder going
Val id
Ġencl osed
last ing
ĠImport ance
Ġeduc ator
Ġcast ing
ĠImport ant
Ġor bits
op ia
sur face
imp l
Ġunc overed
Ġbicy cle
Ġsw ift
Ġdownt own
ĠH at
rib es
hy thm
ra vel
Ġsimp licity
Ġaud itory
Ġu pl
Ġcook ie
pro gress
) **
ĠG N
ĠZ ion
h ours
Ġab ort
Intern ational
ĠTh ir
Ġfavour ite
b box
ĠCh a
vent h
Ġpar alle
Ġmar itime
Ġun lock
Ġske leton
= _
ĊĊ ĠĠĠĠ
l arg
ĠEv ents
sl ug
he umat
g z
Ġco hes
UN D
ĠR av
Ġsexual ity
ĊĊ ĠĠĠĠĠĠĠĠĠĠĠĠĠĠĠĠĠĠĠ
19 89
ĠG PIO
o ffic
ĠV ers
ext ension
ĠR untime
Ġconduct or
Ġjewel ry
Ġsearc hes
AS H
` ,
Ġbl ades
p aste
ĠNe braska
ĠT ru
Americ ans
Ġancest ry
P ers
AR D
ĠS ic
rib ing
Ġg olf
ty m
Ġrank ing
Ġan onymous
Ġsal iva
âĢĶ âĢĶ
16 0
Ġpsychiat ric
Ġweld ing
us p
by te
Ġmid st
Ġb ins
Ġsc aling
Ġgu ys
ĠF ine
Ġdr ift
g om
ĠR ice
Ġed ible
Ġa z
Ġred d
Ġdownload ed
f d
ĠMan hattan
ĠSur v
ĠSte ven
Ġl ap
Ġlifes pan
Ġdi agrams
St ar
ĠL A
Ġcoc onut
abstract method
ĠH PV
Ð ¿
im mer
ĠM aced
Ġtw ist
Ġresemb les
her ical
ĠFr ances
ĠViet namese
Ġext ensions
un i
Ġsusp ension
ĠSt ream
hy per
ch rom
ĠSpe ed
Ġenterpr ises
Ġur ged
our t
Ġchlor ide
Ġyour s
Ġcon current
Ġr ounds
Ġt icks
ĠAd miral
Ġquestion ing
Ġdown ward
Ġstrugg led
Ġeru pt
s ince
ĠG C
rim ental
Ġgu ards
ph p
ĠPark er
Int erest
Ġrab bit
Ġconf idential
ĠPitts burgh
Ġcol oring
ĠPar ad
Ġp rag
Ġst ub
ĠZ oo
Ġlabor atories
ĠS oph
Ġcorrespond ence
Ġcompr ising
op ause
Ġh ipp
Ġsemic on
az i
sc atter
Ġno qa
Ġrep orter
Ġsew age
igm oid
d st
ĠM olecular
Ġam end
Ġlo ops
op ts
Ġbus es
ol len
UN T
Bet ween
Ġd ur
Add itionally
Ġcomplex ities
Ġprocess ors
Ġdisturb ance
Value Error
c amera
à¤ °
ĠVol unt
Ġaccess ing
Ġprov es
Ġgre ens
ĠSer b
Ġbron ch
Ġru pt
âĸ Ī
ĠV as
Ġcart ilage
f ocus
Ġpestic ide
Ġgra pes
od ium
v m
cir c
Ġwe aker
ĠPub lished
gener ated
im en
in is
t ile
Ġimp art
ge on
vis ible
Ġad here
ĠClass ical
ĠGen e
Ġ ids
Ġcont em
ue z
ĠP ant
predict ions
Ġbub bles
Ġup right
rie ve
Ġce ased
Ġsubmar ine
Ġoste oporosis
Ġgen ocide
Ġcomput ed
Ġit ertools
ĠHur ricane
Ġtomat o
Ġang ular
lat est
CON FIG
Ġur ge
Ġstret ched
Ġmenstru al
Ġmarg ins
ĠStan ley
Ġform ulas
% ).
ĠCharl otte
ĠT ang
psy ch
ĠOrig inal
Ġbeet les
Ġult raviolet
u pt
ech o
B T
Ġanalog y
ĠP ages
Ġcollect or
Con f
p ine
Ġcomput ation
Ġbr ushing
ĠEm ily
Ġtal ents
T rain
Ġcal orie
Ġup grade
Ġeven ly
Ġ10 5
Ġchlor ine
ĠV ariable
Ġautom obile
Ġinvestig ators
K S
ĠH ep
Ġgr amm
ĠExpl ore
x s
Ġpolicym akers
f un
Ġ190 2
Ġac ne
Ġencomp asses
~~~~ ~~~~
Ġend urance
ĠSimp ly
j obs
Ġal i
Ġcrypt ocur
Ġemploy ing
ĠC er
Ġun ified
cut s
Ġdispro portion
ke eper
Ġmin ers
Ġm erc
Ġmart ial
ÃŃ n
av ian
Ġgr ate
Ġped agog
ars on
V M
Su per
Eng ine
Ġann oy
ĠCur riculum
es ters
arr ison
R IGHT
Ġdata frame
Ġsw ing
Ġdin osaur
C reat
In f
ĠV ict
ĠAb u
ĠLine ar
av ia
Ġcons on
Ġcomment ed
Ġenjoy able
Ġcor rid
ĠRel ated
be e
% %
me ans
Ġbe ams
osp ace
t ax
Ġin verse
Ġth irst
ĠIn side
Ġ18 30
ĠSug ar
HT ML
V ector
se p
ĠAd ult
Ġeditor ial
C ell
Ġf ancy
ĠTr inity
Ġmir rors
ĠCommand er
d ic
in fect
Ġsimpl ified
Ġsu ng
Ġun predict
ĠAnd re
Ġsp ices
Ġm int
Ġf name
Ġreact ors
ĠSc ore
ent ropy
Ġadministr ator
ĠG O
vis ory
Ġthere after
w ed
ĠVen ice
Ġren al
mention ed
Ġann ex
ra h
Ġun aware
ĠHe in
ĠBatt alion
U ID
ri o
train ed
Ġapprec iated
occ us
Ġmonaster y
Ġt iger
udd en
Ġgerm s
Ġtuber culosis
ĠB rief
Ġenc ode
p oll
ĠCir cle
Ġtr icks
Ġcogn ition
Ġus eless
ĠN om
Ġmin isters
ĠRep orts
ĠGreg ory
ĠAl pha
Ġexpect ancy
Ġce ase
en ers
Ġimpro per
ir th
anc ouver
Ġcons erve
Ġfast ing
Ġdesign ation
Ġm apped
Ġg ospel
sh ine
Ġsubsid ies
Sm all
ĠJoh ns
ĠBrig ade
const ants
Ġcatast rophic
St op
Ġrepet ition
ig raph
Ġy esterday
ĠGen eration
ĠR ate
ĠL un
ĠZ ero
ĠQu arter
Ġcand y
th ms
Ġadapt ations
Ġst up
Ġsupre me
ect ive
ĠMon itoring
E num
Ġh atch
f illing
Ġcontin ents
ĠRe ich
Ġcav ities
C rit
Ġb arg
G old
ĠBir mingham
ĠR ules
AD E
le tt
Des ign
Ġcarbohyd rate
ĠI Q
Ġbank rupt
b ath
Ġcr ater
Ġparliament ary
Ġdet rimental
the ir
ĠSh aw
ĠSal mon
Ġs ender
Ġphys iology
Ġcy t
sc he
Ġlux ury
ific ates
Ġinform ative
Ġgl ad
Ġsym metry
Ġl ang
r Ã©
ĠTrend s
ict ure
Ġmal icious
Ġgl ut
Ġcompens ate
ren heit
Ð° ÑĤ
Ġ" ",
ĠB enn
f em
Ġathlet ic
Ġcontribut ors
t u
Ġsp ike
gev ity
ĠS or
lic ense
Ġcompr ise
T reatment
í ķ
Ġ-------------------------------- --------
ĠInstit utes
Ġancest ral
link ed
c ro
Ġpath ogen
Ġc ents
ul atory
Ġneg lig
Ġman ure
d ied
t p
Ġv est
ĠYug oslav
Ġout let
Ġc aves
ĠEval uation
Ġmed i
Ġinter change
ĠExper ience
T ur
Ġneed ing
l ated
Ġl ord
Ġfro gs
ĠS ultan
ĠAt hen
Ġd st
ent e
Ġle ap
Ġpod cast
g ow
æ Ń
est on
Ġcross es
Ġw ives
Ġpl ains
ĠCarl os
Ġquad r
ĠJos Ã©
Ġam ateur
Ġcr iminals
Ġinter cept
ari us
iz ar
ĠSur gery
Ġpan creas
Ġneed les
out ing
Ġinstit ute
ĠO UT
ĠK il
d oms
ĠS id
ĠIn novation
Ġsocial ist
Ġpiv otal
rocess ing
it ating
Ġover th
Ġt ours
Ġacqu iring
k ers
ct ory
Ġres ign
Th ink
ĠRich mond
Ġprivile ges
Ġdoub led
ĠBl oom
Ġdefin itive
Ġplace bo
Ġrect angular
á ¸
Ġc ass
p ipe
ry s
Ġfo am
ĠC F
Ġbes ide
M AP
bl ob
Ġge ology
Ġbehavi ours
an us
ver ts
Ġt el
Ã¨ re
Ġreflect ive
cred entials
Ġyear ly
ĠEgypt ians
ĠN H
Ġmind set
ara oh
Ġimp ose
Ġinit iate
Ġp ins
Ġmar vel
Ġchick ens
Ġrec ession
Ġdec ode
Ġhect ares
ist ration
whe el
19 70
Ġblind ness
Ġannot ations
Ġf ighters
Ġdomin ate
Ġsupposed ly
ot ted
back ground
Ġg it
Ġcan cell
Ġsuccess ive
il ization
ĠTh read
Ġequ itable
son ian
sequ ences
ĠY u
Ġrisk y
D iv
Su pport
ĠC ycl
Sm ith
å ·
Ġdepend ency
b oy
ĠY ah
Ġdiff ering
Ġadjust ing
Ġt ones
ell ite
Ġsupp ression
ĠDe b
part ial
g rowing
ĠPr incess
ĠS old
Ġn ails
ĠNum bers
diction ary
Further more
Ġb box
ĠPT SD
B B
ster dam
ĠCompan ies
Ġenerg ies
Ġderiv ative
Param eter
ie u
ĠÂł Ċ
com mend
ĠMon itor
ĠJ ason
Ġsur plus
ĠI O
ort ium
reng th
Ġvig il
Ġmas cul
it ations
ĠG ary
St ill
ĠB L
Ġanim ated
âĢĿ ).
ĠB omb
Ġgr inding
Ġlob by
ĠL inks
Ġpot tery
. ',
oc ard
Ġun pleasant
ri ber
ĠW es
S ample
With in
Ġbomb ing
ew able
anc el
Ġpig ment
ĠW ing
ĠD ragon
opath ic
ĠH alf
ĠD NS
ĠElect ronic
vent ory
ĠRelig ious
ĠS it
ĠOrgan ic
Ġd ug
ĠP ip
sub process
on str
ĠLeban on
og an
ĠB P
ĠBrook lyn
b g
Ġthreat en
ĠAn throp
Ġdece ased
am as
99 99
Ġqual itative
Ġcondem ned
Ġw rist
Ġst ance
âĶ Ģ
ĠTh inking
ĠV II
Ġexpect ation
ĠGen etic
Ġtrav elled
ĠIndividual s
ĠC elsius
Ġill usion
ĠĠĠĠĠĠĠĠĠĠĠĠĠĠĠĠĠĠĠĠĠĠĠĠĠĠĠĠĠĠĠĠĠĠĠĠĠĠĠĠĠĠĠĠĠĠĠĠĠĠĠĠĠĠĠĠĠĠĠĠĠĠĠĠĠĠĠĠĠĠĠĠĠĠĠĠĠĠĠĠĠĠĠĠĠĠĠĠĠĠĠĠĠĠĠĠĠĠĠĠĠĠĠĠĠĠĠĠĠĠĠĠĠĠĠĠĠĠĠĠĠĠĠĠĠĠĠĠ ĠĠĠĠĠĠĠĠĠĠĠĠĠĠĠĠĠĠĠĠĠĠĠĠĠĠĠĠĠĠĠĠĠĠĠĠĠĠĠĠĠĠĠĠĠĠĠĠĠĠĠĠĠĠĠĠĠĠĠĠĠĠĠĠ
Ġep ilepsy
Ġnarr ator
Ġc age
co res
T arget
ant o
Ġdepict ing
Christ ian
row ning
ĠBrother s
' })
ij i
ed es
N R
Ġl ubric
Ġris en
" },
Ġtort ure
ĠF uk
Ġcolon ists
Ġcr ises
Ġinn ate
Ġag rees
G s
EN CE
ĠK rish
ĠInt rodu
Ġvers atile
ĠCr us
Ġa il
ĠFin ance
m or
Cl imate
ĠGuard ian
Ġfemin ist
Produ ct
Ġconv icted
ĠN ash
ĠComp are
press ure
ĠSc ale
ploy ed
Ġoffer ings
Ġenlarg ed
ract or
Ġtrick y
Ġepoch s
1 12
M ET
Ġred ist
ĠI van
est im
Ġcont ing
Ġincorpor ates
ĠR AM
Ġdis cre
Ġprof itable
Bel ow
Ġinf lict
m iddle
ĠÐ ½
Fl oat
ĠBron ze
ĠE ra
Ġvol atile
ĠB ibliography
æĹ ¶
Ġansw ering
Ġproceed ings
O bs
ĠLat ino
ect ar
Ġb s
Ġrel iance
Ġen cyclopedia
ĠM ine
ĠPro perty
pl ications
Ġt astes
Ġtrad ed
Ġrepe ating
20 22
Get ting
ĠCh ronic
ĠInt el
ĠT anz
ident ifier
Ġcl an
ĠCon c
ad ians
Ġtheore m
ĠV ent
oid al
Ġincent ive
Ġdisturb ances
Ġco res
W atch
Ġprison er
> '
g re
ĠL if
opt ional
Ġwar riors
ver ter
ĠBo ys
Ġdepict s
build er
Ġmand ate
'] ),
sub plot
EN S
c od
coh olic
a ire
ĠF ra
Ġnan op
ĠSt uart
in ctions
sc ar
ul ence
other mal
ĠR ou
Ġr idge
du ino
Ġnumb ered
ĠMet ropolitan
Ġdimin ished
l ibrary
Ġcont empl
Ġtim edelta
Ġcareg ivers
ĠUg anda
Ġver ification
s pl
Ġt in
åĪ Ĩ
è ¦
Ġn ov
Âł ĊĊ
in ement
L ondon
Ġafter math
ĠCl ose
Ġphot osynthesis
Ġto ss
ĠG ay
Ġcapital ist
read line
ĠR T
Ġground ed
Ġant igen
Ġ189 6
ĠPan el
bl ood
Ġdisplay ing
ud ed
Ġforb idden
ĠP E
Sym ptoms
Ġcl ust
16 8
ĠSc and
add ed
aps es
Ġes p
Ġalbum s
ĠAL L
Ġel ong
L and
G ame
Ġoverwhel med
Ġanaly tics
H en
+ =
a ffect
Ġpr icing
ĠRe form
Ġsn acks
Ġgra pp
Brit ish
Ġevent ual
Ġsc ra
d og
tain ment
Ġneg lected
Ġres igned
Ġlab s
In cre
fil m
p airs
x i
ĠB ald
Ġcr us
Ġpassion ate
Ġexch anges
a an
Ġpanc reat
m eter
] (
Ġeld er
Ġspr ink
Ġlif ted
Ġpresum ably
Ġtelesc opes
Ġden om
ir med
ĠLet ter
ĠCon struct
ren ces
Ġre active
ĠW or
ĠV III
ĠW aste
Ġfet al
Ġf og
ĠZh ang
ĠBeautiful Soup
Ġd iction
ĠS anskrit
Ġsurvey ed
âĢ¦ âĢ¦
d ensity
ĠCh an
Ġpul p
ert ation
Ġgovernment al
Ġdr one
Ġmetall ic
Ġclear ing
Ġamb ient
ĠE L
Ġmer it
Ġcheck point
ron ics
Ċĉĉĉĉ ĉ
hel m
Ġpuzz les
ĠAware ness
á ½
Ġcra zy
ĠB iblical
Ġfertil izers
fall s
U K
Ġin duction
ĠM orm
irt ual
t is
Ġdefault dict
14 0
n ative
us a
Ġprev ailing
ĠT es
Ġrem ot
Ġembra ced
Ġgra vel
ĠJ oin
ĠM ig
ĠAt mosp
ac l
Ġday light
Ġcr ushed
Ġast on
ĠIncre ased
r ational
Ġcaps ule
Ġdisadvant age
Ġseiz ure
ĠSqu adron
Ġd ock
Ġen ric
Ġdiff usion
l ive
Ġdr astically
worth y
Ã Ĥ
ud es
Ġcont raction
Ġprem ises
M aking
op us
Ġj ar
Ġrain s
ĠSpr ings
Ġg em
Ġl ava
Ġbe ats
ah u
ĠLe o
kl ore
ĠB our
ch anging
Pres ident
ĠR alph
us ible
Ġ" <
Ġs ab
ĠGe ological
Ġvert ex
Ġpsych ologists
effic ients
Â ²
ĠPract ices
g one
F amily
um i
ac ious
Ġdef ending
conf idence
Ġwork flow
Ġcorrect ed
Ġstim ulating
op l
ĠSecond ary
Bl ue
U rl
Ã± o
Ġgrat itude
Ġm ars
roll ing
Ġdig ging
Ġcompet ed
Ġpurch ases
Ġpup il
Ġret rieved
Ġsp ur
suff ix
Ġfundament ally
Ġv ibration
Ġple ased
Ġsuccess es
ĠGl as
ĠCal culate
Ġsp are
Ġcel estial
Ġs ailed
Ġin duct
Ġhar bor
ĠDel aware
Ġdistur bed
Ġt ribute
ha us
Ġgl ance
C ustom
Ġcor ps
ĠCy ber
Ġrhet oric
A gent
he ter
U ntil
Ġvic inity
Ġm ph
x ia
comp et
gom ery
} ",
br anch
S un
st ad
Ð¾Ð »
ces ter
Ġeng ra
Ġsc hedules
ĠFinn ish
Ġp aired
ĠL it
Ġid i
ĠIdent ity
ĠNov a
het ical
Ġparent ing
Ġunc over
Ġbreast feeding
IL L
J ECT
R est
ĠY am
ĠRoman ia
ĠLead ership
b rowser
Ġconf erences
Ġrest oring
ĠVe get
ĠCub an
Ġout lets
ah l
Ġprofess ors
Ġreb uilt
ĠHand book
Ġcer amic
ĠVerm ont
Ġz oom
over ty
Ġfav ored
ĠB rist
Ġret ro
Ġh ull
ill as
L anguage
Ġbuild er
Ġste al
Ġmer cy
ĠHait i
Ġyog urt
ĠR uth
Ġinhib it
Ġsqu ad
oper ator
el ia
Ġpro to
ist ered
ĠDi amond
Ġub iqu
er acy
Ġline age
t hem
Par ams
ero ids
Ġexpend iture
}/ {
bl ank
Ġshr imp
ĠCharl ie
com ed
Ġn b
Ġrep airs
Ġgener ous
Ġtransf ers
Ġd ull
Ġneuro transmit
Ġprolif eration
ĠC hes
ĠIn g
Ġspect ral
ĠFac ulty
Ġwhere in
Ġsent enced
Ġimp ressed
ĠDiv ine
I ts
ĠWall ace
================================ ================================
set ter
Ġseaf ood
Ġbas al
reed ing
ert ility
ĠCon flict
Ġcatch ing
Ġsim ulated
ĠM ul
ĠC ognitive
ĠFl ood
Ġb amboo
pr imary
ĠC eltic
Ġphot ons
ĠApp roach
Ġref lux
tr ig
ĠContin ental
N F
ĠPre par
cur rency
Ġsu its
Ġord in
Ġvine gar
'] ]
TO KEN
Ġham mer
Ġh ockey
m ant
Ġfun ct
A pi
ĠF iction
br ush
Ġnic otine
ĠG rey
Ġl amps
Ġtr an
oph il
ody n
eval uate
ĠTe ach
inal g
ir k
======== ====
ĠÎ ±
Ġto e
ĠH ubble
Ġl id
Ġinf erence
Ġwilling ness
Ġstret ches
Ġcommun al
Ġfl ank
ch lor
lect ric
Ġsur pass
Ġcolon ization
support ed
ĠJ en
Ġcapt ivating
Ġvow el
Ġar ithmetic
Ġpredict ing
d al
ĠHar per
et c
Ġrept iles
A IDS
ress es
Spec ial
in ical
ĠD in
Ġback wards
With out
Ġdop amine
Ġp ave
Ġacc ent
Ġinev itably
ĠV ik
ĠL LC
A lex
=[ ]
rell a
Prof essor
ĠP S
Ġhop efully
art a
19 88
Ġ ))
Ġperf ection
B ASE
ess ive
Ġleg ends
ung le
ĠCon cer
Ġsuper natural
ĠĠĠĠĠĠĠĠĠĠĠĠĠĠĠĠĠĠĠĠĠĠĠĠĠĠĠĠĠĠĠĠ ĠĠĠĠĠĠ
ĠHug hes
i ably
Ġgr am
ĠM E
ĠM t
Ġex empt
y ellow
Ġdemonstr ations
ĠS hip
Ġcart oon
eld om
Ġinterpre ting
mult i
Ġchap el
Ġelectro des
Ġass ured
Ġconfig ure
/ ',
Ġtr ump
ĠMe eting
ĠF ly
g mail
ill in
Ġcult iv
ipp er
ĠO ptions
at ility
Ġab brev
Ġ18 95
att ice
ĠC auc
Ġhorm onal
D el
ĠH app
Ġmarginal ized
ĠAnsw ers
Ġvoc ab
t ailed
cont ains
Ġmal ware
Ġprospect s
Ġmuc us
ĠT as
ĠR osen
Ġout look
on na
Ġhe ir
Ġfluores cent
Ġ< <
ath a
Ġremind ed
b rown
Re al
Ġle isure
ered Dict
ow l
i per
ĠVal ent
ol in
Ġlib ert
Ġborrow ed
E r
ĠPear l
B ody
ç İ
ĠArt ificial
Ġprospect ive
P rior
ĠA CT
w ers
requ ire
ĠW HERE
ĠChurch ill
Ġins omnia
Ġentreprene urs
RE CT
Ġc iting
Build ing
Ġgrad uates
G G
Ġwh oles
ĠL ex
ĊĠĠĠĠĠĠĠĠĠĠĠĠĠĠĠĠĠĠĠĠĠĠĠĠĠĠĠĠĠĠĠĠ ĠĠĠĠ
ĠD ogs
ĠM aterial
Ġres ume
ĠGe or
Ġcompet ence
Ġsed iments
ĠA chie
ING S
R ussian
Equ als
P rop
ĠI an
ies el
_ %
ĠV ancouver
Mat rix
en os
Ġd rones
ST AT
ophy ll
Ġbl ur
h s
f ollow
Ġan omal
Ġg t
Ġwe ird
ĠCorn ell
Ġt idal
Ġver ified
ograph s
ĠProcess ing
S an
Ġrac ist
Ġphot ographer
as array
is ers
it ous
Ġ\ |
F acebook
St at
c odes
Ġpres idency
ĠCom prehens
ĠSte in
Ġs ized
atin um
Ġremind s
Ġbrut al
Ġbirth s
yp ical
Ġbip olar
comput er
d p
t ically
ĠBra h
ĠPro per
class ifier
Ġd uck
Ġdisc ern
Ġspe eches
pro duction
set ting
Ä ĥ
est y
osc opy
Ġexplos ive
odyn amic
i our
ãĤ Ĵ
ĠL ion
Ġimpl ants
Ġk iss
Ġapprox imate
Ġinvent or
ĠG ot
Ġpur ity
initial izer
exper iment
Ġsh rub
å ¸
ĠEffect ive
ĠE asy
riv ation
Ñ ħ
ĠPr adesh
ĠM all
rom b
up dated
Ref erence
Ġl ined
b ai
Ġconsult ant
Ġmod er
co ord
lins pace
Ġlength y
Ġad s
ath ing
Ġsc ary
at ical
is ch
ĠD allas
Ġg rip
Ġ" [
Ġp agan
ins p
Ġdisc oura
ĠCirc uit
iv ores
ĠĠĠĠĠĠĠĠĠĠĠĠĠĠĠĠĠĠĠĠĠĠĠĠĠĠĠĠĠĠĠĠ ĠĠĠĠĠĠĠ
Ġenc oder
ĠSy mbol
Ġammon ia
ĠColon ial
sc hedul
ĠArmen ian
ĠV ert
D oc
ĠS ure
Ġrem em
Ġ_ {
Ġsy rup
ia e
Ġ3 000
Ġthink ers
ĠInit ially
Ġform ations
ĠEn h
R oman
Ġsol ids
ĠRec overy
udd y
Ġschool ing
Ġcountry side
ĠL isa
Ġtw ins
Ġprov ing
C ir
op ot
Ġsuper f
Ġam ple
au coma
Ġvers a
Ġun related
Ġhun ter
ĠGen eva
th alm
h ref
c ool
requ ently
Ġsec uring
Ġche ss
ĠOrig inally
Ġf al
Ġco herent
ĠLGBT Q
Ġimprison ed
() ;
str ings
Ġmen ing
ĠS uff
ri en
Ġp ulses
Ġharm less
Ġtruth s
ĠAtt ribute
Ġfet us
Ġam plitude
Ġw ished
Ġreal ities
Ġval leys
ĠFe ature
ĠFl at
Ġth riving
ĠM ale
Ġind ef
h arm
Ġt ribut
Ġhem orrh
dig est
Ġinhib itors
g old
Ġcontribut or
ge ometry
Ġiter ations
engu in
ç ¬
id ian
Ġnation ally
ĠHor iz
Ġconfirm ation
end ors
ib les
li ance
ver bs
uk a
ach t
ĠNon etheless
op al
Ġalt ar
ag ogue
Ġdep osition
Ġ__ ____
os hi
Ġnames pace
Ġo mn
ĠIn j
Ġex ceeds
AT CH
ĠId aho
ĠO ral
Ġj elly
En ergy
Current ly
ĠH us
Ġplant ations
Ġsol uble
ĠQu ick
Ġdefic iencies
/ <
Ġn atives
Ġcommem or
Ġg ad
ĠC oun
Ġfer mentation
Ġsle e
pl oys
ĠAm sterdam
Ġul cers
ass y
ĠIn n
Ġb other
ens en
categ ories
Ġcon gen
Ġdesc ended
Ġneut r
Ġcum ulative
F M
F ailed
Ġquick er
Ð¾ ÑĢ
ĠFil ip
ĠD rop
Ġincl ined
Ġl ime
Ġl uc
ĠB it
look ing
ogen ous
Ġenl arge
b ands
Ġ18 99
Ġsix ty
Writ ing
E val
Ġp ant
ĠLiter acy
Ġunsuccess ful
ĠP ont
Ġsl aughter
win ning
Ã§ Ã£o
ĠIns urance
Ġpre dis
Ġsepar ating
ĠV oc
Ġcertain ty
ĠK in
Ġconfig urations
Ġwre ck
Ġtransform ations
S at
Ġpro st
ĠW ag
Ġaw esome
Ġtang ible
ĠPos itive
Ġveter inary
ĠS ed
ass o
( ""
ide press
Ġad renal
Ġclass mates
n ick
Ġh ref
ĠGr id
ãĢ ģ
Ġl ions
ch air
ĠCl are
ĠEb ola
Ġha w
he rapy
re z
Ġl av
Ġperiod ically
Ġopt imum
Enc oder
om i
et erm
ĠAre as
Ġven om
Ġen vision
D s
p adding
et ta
fl ight
Ġlegend ary
or p
Ġle v
Ġsp acing
P resent
Ġbond ing
ĠSt ars
prot ocol
c hen
Ġt ires
Ġgrow ers
Ġfore most
Ġrein forcement
Ġre velation
c ale
Ġ Ø§ÙĦ
Ġwh is
Ġle verage
ath on
ST M
Ġinherent ly
Ġm ould
Ġfl ock
co al
Ġviol in
m achine
10 5
ĠRuss ians
AG ES
Ġcataly st
Sh ould
ĠPan ama
ir l
ap le
cc oli
con duct
ĠVin cent
Ġ189 3
ç §
Ġdi ary
CL A
ill ation
ĠInd o
develop ed
pix el
Ġp print
Ġthir teen
ĠPress ure
Ġtravel ers
ĠSequ ence
Ġnow here
ĠSl av
On line
Ġc ath
ok er
ortun ate
Ġrout ing
il ated
ĠN ad
ĠL ect
> "
Ġsp aw
Ġseism ic
Ġtem plates
Ġsal ts
ĠSt adium
000 1
Ġ1 11
ĠC ities
od ic
Ġgra phe
Ġvac ation
Ġw itch
assert False
U V
ĠPC B
Ġstream ing
) ")
ĠB urg
Ġmult if
Ġbelie vers
Ġbi opsy
Re quired
ĠLaur a
ĠC osm
Ġ10 4
Ġt a
ig g
Ġhair s
Ġeleg ant
Ġfunct ools
Ġup stream
Ġ-------- ---
EE E
y y
Ġrhy thms
S ty
Re view
Ġs ailing
at um
Ġperenn ial
Ġenerget ic
im ir
Ġben ign
vis ual
Ġbench mark
ĠG ust
Ġeight eenth
um ed
Ġvalid ated
u ator
Ġheight ened
ĠPsych ological
Ġpat rol
Ġeconom ists
se g
ĠFah renheit
Ġrab bits
Ġstr ides
ling ton
Ġpump ing
Ġdet ox
ĠMed ieval
enn ial
Ġâ ī
ĠNAT O
Ġbet ray
man agement
w rap
Ù Ĳ
ĠChall enges
Th omas
Ġtemp file
âĢ ł
Ġmy riad
gg ing
ĠMy th
estab lished
ĠS oci
Ġcon gregation
Ġbl ues
ĠArch ive
Read ing
Ġmon ster
Ĥ ¹
Ġlight weight
ĠDep uty
Diff erent
Ġconv iction
i em
Ñ Ĩ
ĠP ere
å® ļ
ĠB arc
com ments
ĠCh ick
ck er
i pt
cur r
Ġbi ologists
ĠFem ale
Ġrec omb
Ġser otonin
W ORD
ĠP om
Ġintern ally
Ġobst acle
ear th
M er
Ġphosph ate
Ġbr ighter
ĠClass room
Ġcongest ion
orn s
Ġglobal ization
Ġhat red
{} '.
Ġnoun s
- ,
I Z
ĠE ither
ag les
Ġastronom ical
Ġide ological
Ġgraphe ne
ĠG em
ĠM alt
Ġcolle ague
ä¸Ģ ä¸ª
ĠLeg acy
qu ote
Ġwork out
Ġwa ist
ĠM atter
ab we
ĠW id
Ġrec k
(' ./
ĠC u
Ġgene alog
Ġneur on
Ġmon archy
Ph il
ĠE pid
Ġsh ipped
Ġposition ing
ãĤ ĭ
ĠHer bert
it ism
Ġfort un
op las
urn al
Ġaccept s
Ġ189 7
cl osed
Ġimag inary
Ġun m
orth y
Ġconqu er
ph oto
ĠNo ah
Ġtsun ami
st ed
ss on
Ġencrypt ed
å ±
ari at
Ġbless ed
ĠB MI
ben ch
c hemical
Ġsp arse
Ġreb els
ĠHum ans
ĠRes erved
' "
mean ing
ĠUS E
c itation
Ġtrad em
ĠG othic
Ġm aker
Ġrec ount
ĠCommission er
Ġcommod ities
Ġcater pill
Ġsh oe
comm ended
ĠStart ing
Ġend orse
Look ing
Ġan kle
Ġprotect ions
Ġredu nd
Ġwel comed
Ġang el
ĠContin ue
ĠS end
Ġgen ital
Ġg ambling
ĠEx cell
pher d
P osition
ĠÃ ł
ody nam
Ġed itions
ĠJosh ua
d epend
Ġs aint
Ġgrand mother
ERS ION
ĠCall able
Ġex h
Ġsmok ers
Ġdecl ines
Ġstat ues
ĠH R
ind ust
Ġle thal
ĠEd ge
Ġe clipse
ovak ia
ĠVenez uela
g ia
ĠAssoci ated
ĠIndones ian
P olicy
ĠArn old
ĠA TP
" ?
S il
ĠP apers
Ġair borne
ĠDevelop ing
Ġacad emics
Ġinstruct ed
w av
ĠMad rid
ĠPhoen ix
ĠT oken
ĠAra bs
ĠC ome
.. .,
ĠAl ger
Ġaccount able
h ou
19 2
Ġapp rent
pr im
us able
ĠE lements
Ġen amel
Ġunder way
Ġten ure
ĠImport Error
D rop
Ġp ause
Ġhum ble
s ensor
ond a
Ï Ģ
Ġadvoc ated
ĠChe roke
ĠM ey
á ĥ
ĠS ikh
Ġal oud
arm ed
('/ ')
Ġbi ologist
eal ous
Ġcapac ities
ĠDis play
Ġde eds
Ġres ide
Ġplant ation
Ġpro claimed
ĠV R
app le
ĠL ot
Ġste pped
Ġsusp icious
Ġre gex
Ġconst ipation
s ig
ĠL ayer
Ge orge
Ġh ug
in qu
ĠÐ ¸
M eta
cept ive
Ġinf il
Ġsk i
abs olute
Ġo y
Ġmush rooms
Ġdefault s
Ġiod ine
d ense
Ġbe ating
F IL
Ġs eldom
im read
log its
Ġtransc end
att ack
ĠMean ing
L ead
HO ST
re ason
Ġ0 2
ĠForm ation
prot ected
Ġintention ally
Ġcircul ating
u ced
Ġb achelor
Ġmind ful
IG N
ĠC rypt
Ġ' #
ĠHun ter
ĠD ent
Ġo wing
Ġcomp ares
Ġdis g
Ġmo ons
ĠE dd
Ġimag in
Ġprepar ations
in ja
Ġh alt
Ġsuff ers
ex ual
Ġrepl icate
ĠSocial ist
ĠRob in
Start ing
C ategory
Ġaw a
Ġcoun c
ĠCris is
l ater
Ġche wing
ĠBr id
roc od
Ġdipl om
ĠBut ter
Ġcrit ique
Ġsl ot
ĠConsum er
Ġâ Ī
cast ing
Ġt enth
Ġpast ure
method s
Ġbath room
ĠW et
ĠAr gument
ĠV a
ĠNe ither
he ets
ĠN y
Ġdev otion
Ġmult itude
ĠMil ky
d ark
ĠP ir
Ġdiamond s
J ob
Ġremember ing
ĠScient ist
ĠB ened
author ized
åĪ °
Ġnot ions
ĠU T
Ġsp ores
ĠP ole
ag ar
Ġimm ort
B D
Ġcul inary
Ġcrowd ed
Ġin scription
ĠP D
on line
Ġres in
19 86
ĠD ow
Ġ" ")
n at
ĠB ak
ast ical
Ġpenet rate
Ġdon ation
Ġreal izing
Ġwid ow
bal anced
P RE
Ġclin ics
ru nt
Ġgo ats
Ġstat istically
Ġske letal
ĠF M
Ġcompet ent
Que ue
ĠT oy
Ġreview ing
Ġ-------- -
Su ccess
l ishes
ic idal
os ke
a ic
e ered
ĠV lad
ĠC ad
ic iary
Ġm d
Ġwas tes
ĠM ail
ĠT E
yr us
Ġclass ify
Ġnucle i
Ġins isted
ĠRog ers
ĠPl ains
ĠPun j
f olk
ed ay
ĠInter ior
S ave
Ġspec ulation
1 18
dir s
Ġinjust ice
ĠSt orage
ax y
Ġexplore rs
ac s
ĠCom ments
Ġe g
Ġbr ass
ĠCh oice
Ġlaunch ing
] -
st en
Pl ace
C at
p kl
Ġbe ads
Ġacc red
Ġmemor able
Ġen forced
Ġpoison ous
ĠWy oming
ĠHe avy
Ġcommit ments
Ġdil ig
ĠG H
Ġpredict able
l inalg
ĠB oe
Ġexp osures
ĠSouth west
Ġsculpt ures
ast ro
ĠChap el
ed ar
som ething
Ġhypothes es
Ġhe ap
open h
Ġisol ate
Ġatt rs
Ġdec entral
ĠR w
ĠJ a
ĠG arc
ov irus
Ġbe an
Ġsolid arity
Ġp ills
Ġ18 89
19 87
Ġlon gevity
hol m
ĠH imal
Ġ4 50
rop he
Ġfinanc ially
G rid
ĠS V
int s
sec ure
ac ulture
Ġfl oss
ĠCont ents
fl ush
åĲ į
Ġj unk
Ġfacilit ating
ĠCommer cial
f mt
Ġpred ator
ĠGard ens
our neys
h p
J es
ĠLook ing
idation Error
Ġblo oms
Ġ2 40
Ġsort ing
it les
ch ars
eb ra
M uch
Ġl azy
Ġinf er
def inition
Ġlack ed
M ass
Ġte asp
Ġconvinc ing
Ġ1 12
Ġ10 2
Ġm ills
Ġcompet itions
ĠAltern atively
ĠPart nership
re pl
can cer
Ġspont aneous
Ġimp ulse
Ġun ve
ov ol
Ġarchae ologists
Ġfinger print
Ġobsc ure
ĠHen ri
U SE
é Ļ
Ġaim ing
n py
Ġimp ed
com plex
pro f
B ra
{} ".
ou x
ĠCon vert
w oman
ĠRef uge
Ġsand y
Ġe ject
ov al
ĠC inc
ĠEd wards
ĠF resh
Ġuns afe
Ã¶ r
Ġp t
F iles
ro e
Ġmis leading
Ġswe pt
An n
ĠBul let
t alk
ĠK l
Ġpre historic
ĠA ffect
ĠRe agan
ĠCov id
Ġs ulph
ĠE t
10 4
ull ivan
W ash
Ġw art
ĠN ixon
ĠTh reat
Ġb il
Ġ18 48
Ġcaus al
ĠAt las
US A
Ġsmart phones
Ġweigh ing
Ġreg istry
Ġpractition er
am orph
__ ))
ĠUs ers
ĠPl atform
tr uth
qu in
ĠOr che
Ġconfig ured
B ad
f ills
Ġ10 24
Ġn ost
Ġaff air
Ġn ectar
Ġexperiment ation
Ġseed lings
Ġl ing
acter ia
app rox
cent ral
ĠAc id
Ġuniqu ely
P ut
Ġcy an
Ġfr anch
Ġhom eland
Ġadvoc ating
Ġfol lic
ĠD aw
ach i
Ġbu il
... ')
g ard
m om
b c
ut ral
ĠG race
Ġco ined
l ining
Ġjournal ism
m ph
Ġn ets
we ather
names pace
Ġb ricks
Sum mary
Ġth rew
hand ed
Ġev apor
Ġre organ
icens ing
ĠL ibr
Ġ12 3
ĠMont gomery
ĠPo etry
Ġpol yn
Ġensl aved
Ġg a
Ġd ome
ĠEnter tainment
Ġlisten er
Ġphy logen
ĠLi u
ae us
Ġown s
D ele
Ġs ap
ĠS weet
ĠAssoci ate
Ġgrad uation
w ra
ĠEth ics
Ġdelib erate
ĠF oster
Ġmot ions
å ī
Ġdefic its
ĠCra ig
cles i
n m
Ġm ites
Ġev id
sc ribed
Ġlo vely
Ġcompl aint
id ering
ĠTre asury
Ġsystem atically
Ġsnap shot
def ine
Te chn
Ġexceed ed
ĠV ic
ĠB erg
ĠF ew
amp ed
reg istry
Ġsh ades
ĠK or
al one
Ġinter personal
Ġdev ised
Ġconsult ing
ĠSh ar
Ġlabel ing
Ġdon ors
G T
Ġ1 17
com mer
s r
ĠT rees
Ġdec ent
ĠE agle
Ġper c
Ġsubsc ription
Ġrecru ited
ĠL is
Ã ¯
Ġin effective
Ġ2 20
Ġbar rels
Ġreward ing
Ġthe at
Ġw iring
ĠTop ics
ĠBelg ian
ĠArm strong
ĠBrist ol
pe g
ĠRe ason
Ġinstruct ors
Ġdolph ins
Ind ia
Ġst arch
Ġlegit im
ĠConserv ative
Ġstrengthen ed
Ġpropag ation
m ate
ind a
Ġcontract ed
sens itive
ĠE D
Ġthe e
normal ize
Ġcre ations
en h
Ġl ent
Ġfoot age
Ġjud ged
sw itch
bu f
anc ellor
ut a
Ġadapt ing
S ingle
ash a
Ġrod ents
inc hes
dec or
ĠTibet an
ĠLl oyd
== '
ĠBill board
Ġund es
ur ia
Ġdec isive
. âĢĶ
Ġvert ices
Ġfam ine
ĠH ub
compat ible
Ġ0 8
ĠB right
Ġsem ester
ĠSh i
ĠA aron
Ġport raits
Ġpen insula
E V
Ġprof iciency
Ġexplo ited
ĠE ston
Ġst derr
Ġdetect ors
Ġb aked
concat enate
v id
ĠH il
OC K
s elling
Ġup wards
ĠRef lect
ĠCan adians
Ob j
Ġcontag ious
ag ne
Ġmiss iles
w rapper
ĠĠĠĠĠĠĠĠĠĠĠĠĠĠĠĠĠĠĠĠĠĠĠĠĠĠĠĠĠĠĠĠ ĠĠĠĠĠĠĠĠ
ĠF R
Ġcol der
Ġlight ly
ĠL ux
Ġp ork
Ġthe ological
opot am
Ġar rows
our ge
Ġ10 3
ĠPre pare
Ġstation ary
Å Ł
19 85
ic ient
ĠScand in
Ġdrop lets
Ġco oper
c z
Ġup grad
Ġupt ake
ĠÂ «
10 24
Ġav g
imb abwe
Ġdef ended
ĠJ ess
ul ators
è ½
Ã± a
Ġaddition ally
Ġund erest
Ġexp osing
ĠDat aset
Ġformat ting
Ġtemper ate
Ġbless ing
ĠEss ays
ryst al
Ġhered itary
) '
Ġfa una
h im
Ġcomp uls
Ġconsc ience
10 2
Ġhur ricanes
p ared
ĠN it
s izes
Ġneut ron
Ġshut tle
D ense
g reat
look up
[ @
ĠG it
Ġant iv
Ġ18 85
ĠGu ate
co ordinates
n ered
Ġe agle
Ġel bow
Ġp ockets
Ġhe el
Ġroll s
Ġblog s
ish a
Ġmet avar
Ġent ails
ĠRab bi
ĠChair man
r ators
ert s
Ġ5 000
ĠBar ry
Ġundert ake
Ġang els
prov ider
in p
Ġcoll isions
br ate
Ġmunicipal ities
ĠWh atever
Acc ount
ĠExpl oration
Ġden ial
ĠS ARS
ĠA my
Ġrecip ients
F ire
Ø ¯
Ġin comes
Ġ1 13
Ġbattle field
á º
ĠCal c
Ġfair ness
Rober t
Ġlog ged
Ġdisc arded
Ġnews letter
Ġst ool
Ġreven ge
s olution
red is
Ġul cer
ĠS ut
ĠFe atures
a us
am ph
ĠH ash
Ġtreat ies
Ġ5 12
Ġsupplement ation
Ġgest ures
P riv
Ġwor s
ä¸ ĭ
f ac
R ow
} -
Ġpro ceeds
Ġi i
Ġban ana
ĠConstant in
ĠâĢ ł
IC AL
Ä ĵ
Ġaccommod ation
l iness
Ġvolcan oes
Ġa ph
Ġrec ycle
Tw itter
ĠB iol
ĠPr im
Ġsacrific es
Ġe ats
ĠAut ism
Ġalter ing
Ġab rupt
per t
Al tern
Ġpredict ive
uc ing
Ġpresc ribe
Ġshort ages
Are a
Ġch ol
RE G
Ġtrack ed
pend icular
ĠH ugh
load ing
You ng
requ is
l iving
ĠC raft
loc ations
Over all
Ġper v
u ador
Ġbl oss
ĠCitiz ens
Ġemer ges
aw i
be ck
ĠSong s
Ġinter disciplinary
Ġpost ing
Ġmeant ime
amm y
Ġadject ive
Ġrecur rent
ĠPro ced
S am
dri ve
is dir
Ġin accur
ĠA id
ĠH i
izz iness
ĠP s
bi ology
ĠProject s
ia o
ne e
b is
ĠMay o
Ġroof s
ĠA A
ĠOper a
Ġ18 12
Ġestim ation
S ah
ĠS ak
Ġtext ile
Ġnegot iate
ĠAltern ative
il ian
Ġaer os
Ġ0 9
ĠAr ray
Ġb oring
Ġdrop out
amp us
ann i
Ġannot ation
Ġtor que
Ġpersist ence
Ġshe er
ĠP od
], [
æ Ģ
Ġbo iler
ĠWay ne
Ġve gg
Conn ecting
associ ated
al most
ĠT CP
ĠL ack
ĠV it
ĠShe et
Ġnurs ery
Ġbre ach
Ġcat ar
Ġtun nels
Ġprompt ly
ĠA G
Ġref ract
ĠRes istance
Ġpersonal ities
mus ic
`` `
> .
Ġcoc aine
Ġbuil dup
PI PE
Ġsw ollen
Ġcapt ures
Ġs outheastern
Ġmet ropolitan
Ġgate way
Ġrespons ive
Ġclim atic
Ġfrustr ated
Ġtend on
ĠPot ential
Ġmaster y
Ġexhaust ed
Ġint end
Stud ies
ĠBuff alo
atern ity
t imer
Ġtax ation
ĠB illy
ĠK ay
ĠIde as
w ild
Ġfor k
pr on
Ġscient ifically
ĠP ret
Ġman g
Ġh ast
ĠIn fect
Ġbacter ium
dec ay
Ġembry os
Ġvulner abilities
Ġl bs
ract ice
B er
_ )
ver ify
ĠPre vious
ĠL iv
Ġsh ores
Ġsh adows
roid ism
ĠGlas gow
id y
ä» ¥
ĠG IS
el iness
icul ous
n ell
ĠHawai ian
ic able
ĠRed uce
ĠChar ter
ĠFle et
Ġcomp ilation
Ġenjoy ment
P o
zer bai
ill us
Ġcur s
ple ted
Ġp unch
ĠÐ º
AR E
Ġg raft
r ights
ĠHar old
Ġrev ival
Ġsal ad
ĠS aints
ĠSpec ific
ĠN ancy
Ġra v
ĠK rist
Ġem pt
Ġp ains
Ġrev olt
Ġ189 2
ĠW u
al ities
ĠMil an
Ġprot agonist
osc ope
Ġrecur ring
host name
ĠMet al
Ġcul p
Ġabol ished
Ġunf ortunate
Ġnow adays
Ġdeb ts
Ġsampl ed
ĠHttp Response
get cwd
ĠState ment
ĠTrans fer
Stud y
post s
B UT
ĊĊ Âł
Ġent ropy
Ġle aks
Ġenvelop e
Ġblood y
Ġlocal ized
>> >
Ġv ault
Ġmight y
Ġanest hesia
ĠC arr
ane ously
Ġsail ors
ĠRuntime Error
ĠUS SR
Ġphysic ists
ĠS L
Ġt il
ĠMun ich
æĸĩ ä»¶
Ġ0 3
ĠGen etics
m aps
Ðµ ÑĤ
ĠDen ver
j et
is factory
if ted
Ġnick el
l ar
Ġinstall ations
uzz y
A ud
w en
Re LU
ul i
Ġserial izer
Ċ ĠĠĠĠĠĠĠĠĠĠĠĠĠĠĠĠĠĠĠĠĠĠĠĠĠĠĠĠĠĠĠĠĠĠĠĠĠĠĠĠĠĠĠĠĠĠĠĠĠĠĠĠĠĠĠĠĠĠĠĠĠĠĠĠ
default s
ro aches
ĠInst ruction
Ġjust ification
ç ±
Ġk its
Ġelectro de
Ġdep rivation
C F
ans om
Ġbur nt
Ġrect angle
Ġinver te
Ġdesper ate
Ġback yard
×Ļ ×
Ġsign atures
AR CH
Ġunpredict able
l isher
Ġcell ul
ĠM ann
F ont
Ġch im
Ġslow ing
Ġsp ends
ĠT ong
ĠTem perature
Ġwin ners
ĠA verage
Ġbas ement
Ġtherap ists
Ġ à
ĠWood s
C s
ĠR ES
sub mit
C are
Ġrif le
assert Equals
Ġrandom ized
up us
Ġvag inal
Ġcl ocks
Ġder ives
ĠC SS
Ġunderw ent
ag ents
Ġsh ake
ĠSer ge
Ġvol t
Ġde ity
âĢ Ĳ
Ġpo orer
Ġ189 4
**************** ****************
em p
(" [
Ġbu zz
por ter
Ġevap oration
i ologist
Ġdel ivers
Ġabs urd
ĠĠĠĠĠĠĠĠĠĠĠĠĠĠĠĠĠĠĠĠĠĠĠĠĠĠĠĠĠĠĠĠ ĠĠĠĠĠĠĠĠĠĠ
Ġcapt ivity
ĠCond itions
ĠB M
ĠCy cle
ĠD iversity
Ġsp ans
soft max
Ġorb iting
chie f
ĠSerb ia
ĠF ace
ĠG A
Ġtal ented
Ġcrick et
Ġrem arks
Ġsearc hed
Ġaltern ating
P oly
Ġn args
ĠDe al
ĠPhill ips
r ising
ĠP ine
Ġdev ote
Ġdelim iter
Ġreal ization
Ġred is
trans action
Ġrain forest
Ġcompat ibility
claim er
ĠPer ry
Ġbud s
++ ++
ĠNO AA
Ġconspir acy
en ic
? **
CL UD
ch r
Ġdon ations
unt ing
Ġsh y
AN G
arg max
Ġmeas les
Ã¡ s
ĠCru z
Ġde generation
ĠTh ai
Ġdupl icate
T alk
Ġair way
per ture
19 84
Ġlip id
umb ing
ĠC od
Ġresid ue
Ġgrate ful
Ġesoph agus
ut ers
he id
get env
ĠAss y
T urn
Ġl umin
Pr ice
ing ham
Ġlear nt
Ġprogram med
ĠFre ud
s ync
an mar
DE F
Ad am
Ġaer obic
Ġweight ed
Ġkin etic
Ġf ishes
Ġste ering
ĠTem plate
Ġchampions hip
b order
ĠB uch
ĠSt ri
icro bial
ĠTest Case
gr and
P an
Tem plate
L eft
Ġh obby
ch in
ĠH ER
ĠE isen
Ġinv ari
oc om
un ches
Ġrel ativity
requ ires
som etimes
ĠRe ception
Ġd ummy
Ġher pes
ight ed
Ġb ilingual
Ġh iring
set Level
ĠInterest ingly
if ts
Ġcool ed
el in
Be gin
Ġacknowled ging
j ah
ĠDec ision
H ost
Ġcere al
Ġautom otive
Ġru in
s ug
Ġover ly
Ġvir gin
Ġhold er
ĠSet ting
ĠG ill
Ġmar riages
ĠAlexand ria
Î º
ĠP ars
est yles
ab olic
Ġcollect ors
ĠB UT
Ġstr ands
ĠAb bey
Ġexpect s
G D
a que
ĠJ ar
app a
Ġintent ional
ĠN ak
Ġcr an
go al
Ph ysical
è §
ure r
Ġinvent ions
Ġb ored
ĠA gg
Ġem ploys
Ġ' +
ĠE sp
Ġimp lements
Ġp ads
ĠA V
Ġbra ke
Ġadolesc ence
on ge
Ġfor age
ph thalm
Ġindex es
iz ards
Ġst arring
Pl ot
Ġbon us
in ternal
Ġl amb
Ġfire f
F eed
Ġloc ality
Ġmort gage
Ġsuscept ibility
Ġbeet le
ic ans
Ġemer gencies
ĠR oot
Ġatt ained
ĠLu is
ĠW aters
Ġsom etime
ĠC elebr
cl usters
Ġexcell ence
Ġse aw
Ġ18 88
Ġmount ing
et us
Ġactiv ism
Ġfier ce
ĠM W
cent ered
Ġorche stra
Ġload er
est ones
Ġaw aken
Ġaccomplish ments
V itamin
Ġm oss
find all
Ġgif ted
ĠRon ald
Ġpossess es
os ome
n uts
ĠS cre
Ġover t
Ġreluct ant
ĠC ord
Ġey el
inn ati
c ology
Ġ17 00
Ġpost ers
Ġw it
Ġres urrection
Ġinc ap
for ces
ĠF amilies
Ġres h
Ġper taining
ĠSe ek
Ġsuns creen
Ġs i
Ġhel met
Ġpersu asive
Ġwas ted
ĠDem ocracy
ĠL an
Ġreg imes
Ġrobot ics
Ġret aining
A K
Ġd read
ell es
Ġform ulation
Ġaut obi
Ġsens ations
ĠHar vey
Ġsc rub
Com ments
Ġcred ibility
g iven
Ġ189 1
Ġcle arer
Qu est
stud ent
Ġful filled
Ġtun ed
Ġregen eration
D ATE
Ġun even
Ġun limited
S elf
Ġcan opy
Ġquiet ly
oc ular
Ġsy mpathetic
ĠElect rical
Ġland fill
im ming
and ra
Ġacc us
sh uffle
Ġplay ground
Dig ital
Ġco aches
ĠB ach
Ġfra gr
ĠQuant um
tle ment
Û Į
ĠĠĠĠĠĠĠĠĠĠĠĠĠĠĠĠĠĠĠĠĠĠĠĠĠĠĠĠĠĠĠĠ ĠĠĠĠĠĠĠĠĠ
Ġstimul ates
t n
ĠB alk
T om
ĠA w
gh ai
Ġeng lish
St ore
Ġinterview ed
L INE
crit ical
h it
Ġa pe
ĠC ells
Ġvig orous
åı ¯
ĠJul ian
Ġst eward
Dev ice
ĠMoroc co
Ġsc aled
ĠC NN
der ived
Ġconfront ed
Ġmorph ology
ĠLiver pool
ĠW ere
per formance
Ġconstruct ive
Ġsub species
o ft
Ġexp ands
contain ing
government al
ĠWrit er
Ġcert ificates
help ers
C ost
ur ities
Ġra p
Ġpo etic
Ġ( #
Ġform ulated
In stit
Ġalter ations
Ġbund le
red irect
Ġtransform er
o que
u ably
L ater
æ Ķ
Ġl ane
Ġsp y
Ġfin est
r ina
ĠM erc
Ġal mond
Ġstri pes
Ġveget arian
Ġc ovenant
Ġind ul
Ġam p
oura ble
C ond
L ib
ly cer
} ',
ĠB ag
L ittle
W OR
ĠF inding
inn amon
ĠUp dated
Ġdem o
Ġdes erves
Ġdep rec
B P
Ġdub bed
Ġing en
ass et
AC C
cor pus
Ġsl ug
Ġthe r
ĠR oll
Â ´
é ¡
Ġwh olly
Ġsing les
ĠÎ ²
ap a
ad just
Ġintest ines
ĠTanz ania
sl ice
ĠWell s
å¤ §
ĠS ales
Ġen jo
Ġguarant ees
ĠHealth care
ĠIsrael ites
Ġst air
Ġ0 4
Ġconst ellation
Ġfacilit ates
int eger
Ġall oy
asc ar
Ġprogress es
Ġvit ro
Ġche er
ĠPrem ier
ĠComput ing
Ġw oven
ĠV ector
ĠSmith sonian
v ial
ic i
ĠH O
Ġcan als
Att ribute
ĠB ent
os it
ĠKe ith
Ġalkal ine
P ot
ĠP CR
Ġne on
Ġresearc hed
IN TER
Ġst ip
Ġg room
k u
] =
rec v
ĠLead er
B esides
P erm
ĠH ousing
Ġtou ches
le v
ro ots
w y
Ġ186 7
Ġcat hedral
ĠEd it
sn ap
Ġon ions
ĠDeterm ine
Ġgen omes
Ġintu itive
P lant
Ġty r
Ġsharp ly
." .
Ġ16 00
out ube
Ġt x
ĠJim my
Ġmission ary
ĠT utorial
Ġv endors
Ġhad n
Ġ18 86
S n
Ġc aste
produ cing
ĠH amm
Ġground breaking
ĠP ray
Ġmet ast
anc ipation
Ġremn ants
Ġc uc
Ġpsych o
Ġbl amed
id ates
å¯ ¹
M aster
ĠNe il
lu ent
Ġcapt ive
Ġfort ified
ĠConstitution al
en berg
Ġnav y
Ġrom ance
Ġm oth
ĠCommun ities
so lete
RO OT
A rab
Ġe uro
F ar
Ġpossess ions
Ġintrodu ctory
Ġpion eering
sc ene
Ġpriv ately
ĠOd ys
ĠEm ma
e a
Ġexpress es
Ġov arian
odynam ics
Ġdirect ories
urch ase
Ġconver ter
Ġb rit
pack ages
Ġmission aries
ĊĊ ĊĠĠĠĠĠĠĠ
af ety
ic ine
Ġh urd
ĠCB D
ark er
m il
ĠH iro
Ġnav ig
ĠI sh
M o
Ġport al
w right
Cont roller
ĠSac r
Ġfound ers
Com ment
Ġnucle ot
Ġall ied
Ġdis gu
ĠPol ar
w ear
M ad
Ġ1 18
ĠB anks
ĠRec ently
ĠDO I
ĠB od
ĠÐ ¾
Ġeld ers
com pl
met rical
N H
ĠKir k
Ġdeleg ates
arch ive
ĠWIT H
y stem
uzz le
Ġpro se
is co
Ġl ac
Ġbuy ers
ĠCauc as
on ies
ĠY oga
Ġhot els
Ġconflict ing
ĠD J
ident ity
cont ract
Ġcoll agen
Ġregul ators
ĠD ol
ĠL ak
Ġremark ably
Ġsimpl ify
ĠW ald
Ġsymbol ism
transform s
Col lection
ĠKnow ing
ĠAuth ors
ĠZ imbabwe
E ast
ĠG ates
Ġre un
Hel per
Ġfound ational
ĠGil bert
ĠF ul
ĠC I
Ġregul ates
ĠCh ang
oph ys
ĠDev ice
Ġshow case
Ġint ro
ĠPro tein
Mich ael
ĠPl ans
Ġign oring
ĠE z
ĠSt rait
atic an
Ġdistur bing
C HE
ĠAd ults
col m
Ġvirt ues
o ic
Ġclass ifier
Ġge o
Cho ose
Ġ( )
or ations
Ġimprison ment
L AB
CD C
en es
commun ications
ĠB un
b p
Ġd ess
Pre vious
ĠOpt im
Ġcit rus
ĠSign s
Î ·
ĠC in
ĠPoint s
ar ations
Ġbar ley
prec ision
O ptions
s aving
ĠG I
B U
ĠBe hind
ĠSur face
ĠAnd y
ĊĠĠĠĠĠĠĠĠĠĠĠĠĠĠĠĠĠĠĠĠĠĠĠĠĠĠĠĠĠĠĠĠ ĠĠĠĠĠ
ãģ Ħ
ĠCommer ce
') ]
Ġeduc ating
ĠTerm s
C a
} $
can vas
Ġunus ually
Ġaccident al
A ge
Ġcar rots
Ġsad ness
t ables
ament o
Ġr ou
Ġpop ul
ĠOrig ins
Ġnom inal
á Ģ
un icode
Ġcol s
åĪ Ĺ
Ġd ic
Ġexc el
sh ared
ĠCount ries
ĠW on
rep ly
Ġdial ects
Ġdispers ed
sm ith
Ġcar pet
Ġglimp se
Ġsol itary
Ġ* =
ĠWrit ten
Ġremot ely
Ġtre asures
ustain ability
Ġassass ination
Ġhack ers
Ġ18 71
ro bot
Ġ17 0
C entral
Ġnick name
Ġ18 81
ĠExpl orer
ĠRub y
g res
at itis
iter ation
ï¼ ī
Ġpat ents
Ġal beit
Ġveter an
u cc
Ġparam ount
Ġlat ent
RA IN
Ġsy nd
ĠFried rich
Ġoun ces
ĠT ropical
Ġour s
Ġsupp lier
ĠSh op
oll ar
ĠL ily
ĠMon ument
Ġpro gn
d n
me al
Ġc ott
Ġsp heres
Ġgra ves
> ',
ĠAng lic
ĠF ib
Ġf ights
Ġtrans gender
ĠArg uments
b ounds
ĠRe yn
Ġ1 14
uck er
ĠThe ore
Ġhon ored
ĠL ands
all close
ĠThe ater
Ġ-------- ------
ĠEx tra
develop ment
Jew ish
Ġsql ite
c um
Ġtra cing
Ġdors al
ĠTas man
Ġcol oured
Ġsom eday
Ġm p
ĠStep s
E W
Ġexam inations
ĠT odd
Ġspe ar
ĠCar n
ĠQur an
ĠConvers ely
st roke
Ġsc aff
ĠGr ass
gr ades
Ġz oo
Ġs aints
ĠH ack
ĠPl uto
Ġha ul
Ġopt s
tr ad
Ġtur key
Ġc ured
Ġp end
end ix
Ġbur d
Ġlisten ers
Ġexp elled
ĠGen er
ĠThanks giving
Ġcomment ing
g ated
Ġl od
ah an
ĠEx am
ĠW onder
ĠSp ot
Ġfin ances
struct ions
av ier
ĠReg ardless
Ġfacilit ated
P layer
Ġdest inations
Ġo val
et ches
ĠTh an
cho ices
ĠFil ter
Ġde form
Ġsyn c
ĠK ant
Ex ternal
r strip
Ġad herence
ush ima
Ġhon ors
H yd
Ġto ps
ĠF ill
Ġspecial ty
Ġt ails
Ġbe verage
i u
ĠK un
ĠBase ball
ĠD M
ĠV oy
Ġl adder
Ġmon oxide
por a
Ġsen iors
mod ified
P ay
ib ia
Ġle ase
Ġmult id
Ġspark ed
S ol
ĠGab riel
op erate
let ters
M iddle
ĠN early
dest roy
ver bal
Ġresid ues
Ġvot er
Ġflood ed
Ġmilit ia
do ctor
Ġopp ose
Ġover flow
Ġadd itives
\ '
Ġestab lishes
ĠAtt orney
Ġt at
Ġsc ared
Pro file
Ġprem ise
Ġrespect s
di agn
ĠMong ol
mun ition
Ġco efficients
Ġp uls
Ġover ride
Ġmant le
Ġag gress
ĠDet ails
min ster
ĠZ o
Ġcr ashes
t m
sub plots
ou st
Ġmath s
ĠBegin ning
M il
Ġ18 76
Ġr ud
Ġwor sh
Ġco aching
al oad
ĠClass ification
Ġbeat en
Ġtw isted
Ġexhib itions
ĠK ol
Ġrefere nd
C y
Ġreg isters
Ġint olerance
ab ol
Ġorche str
Ġn d
ĠBrit ann
e lection
en ario
ĠViol ence
" +
r il
Ġfig ur
ĠAud io
Ġprompt s
Ġopt ic
Ġ1 16
by ter
Ġstiff ness
> \
Ġtest osterone
Ġback s
bt n
ĠRe ed
Sp anish
ĠEc uador
Ġmathematic ian
ĠSch olars
ĠKash mir
[...]
