{"[PAD]":0,"[UNK]":1,"[BOS]":2,"[EOS]":3,"<|system|>":4,"<|user|>":5,"<|assistant|>":6,"!":7,"\"":8,"#":9,"$":10,"%":11,"&":12,"'":13,"(":14,")":15,"*":16,"+":17,",":18,"-":19,".":20,"/":21,"0":22,"1":23,"2":24,"3":25,"4":26,"5":27,"6":28,"7":29,"8":30,"9":31,":":32,";":33,"<":34,"=":35,">":36,"?":37,"@":38,"A":39,"B":40,"C":41,"D":42,"E":43,"F":44,"G":45,"H":46,"I":47,"J":48,"K":49,"L":50,"M":51,"N":52,"O":53,"P":54,"Q":55,"R":56,"S":57,"T":58,"U":59,"V":60,"W":61,"X":62,"Y":63,"Z":64,"[":65,"\\":66,"]":67,"^":68,"_":69,"`":70,"a":71,"b":72,"c":73,"d":74,"e":75,"f":76,"g":77,"h":78,"i":79,"j":80,"k":81,"l":82,"m":83,"n":84,"o":85,"p":86,"q":87,"r":88,"s":89,"t":90,"u":91,"v":92,"w":93,"x":94,"y":95,"z":96,"{":97,"|":98,"}":99,"~":100,"¡":101,"¢":102,"£":103,"¤":104,"¥":105,"¦":106,"§":107,"¨":108,"©":109,"ª":110,"«":111,"¬":112,"®":113,"¯":114,"°":115,"±":116,"²":117,"³":118,"´":119,"µ":120,"¶":121,"·":122,"¸":123,"¹":124,"º":125,"»":126,"¼":127,"½":128,"¾":129,"¿":130,"À":131,"Á":132,"Â":133,"Ã":134,"Ä":135,"Å":136,"Æ":137,"Ç":138,"È":139,"É":140,"Ê":141,"Ë":142,"Ì":143,"Í":144,"Î":145,"Ï":146,"Ð":147,"Ñ":148,"Ò":149,"Ó":150,"Ô":151,"Õ":152,"Ö":153,"×":154,"Ø":155,"Ù":156,"Ú":157,"Û":158,"Ü":159,"Ý":160,"Þ":161,"ß":162,"à":163,"á":164,"â":165,"ã":166,"ä":167,"å":168,"æ":169,"ç":170,"è":171,"é":172,"ê":173,"ë":174,"ì":175,"í":176,"î":177,"ï":178,"ð":179,"ñ":180,"ò":181,"ó":182,"ô":183,"õ":184,"ö":185,"÷":186,"ø":187,"ù":188,"ú":189,"û":190,"ü":191,"ý":192,"þ":193,"ÿ":194,"Ā":195,"ā":196,"Ă":197,"ă":198,"Ą":199,"ą":200,"Ć":201,"ć":202,"Ĉ":203,"ĉ":204,"Ċ":205,"ċ":206,"Č":207,"č":208,"Ď":209,"ď":210,"Đ":211,"đ":212,"Ē":213,"ē":214,"Ĕ":215,"ĕ":216,"Ė":217,"ė":218,"Ę":219,"ę":220,"Ě":221,"ě":222,"Ĝ":223,"ĝ":224,"Ğ":225,"ğ":226,"Ġ":227,"ġ":228,"Ģ":229,"ģ":230,"Ĥ":231,"ĥ":232,"Ħ":233,"ħ":234,"Ĩ":235,"ĩ":236,"Ī":237,"ī":238,"Ĭ":239,"ĭ":240,"Į":241,"į":242,"İ":243,"ı":244,"Ĳ":245,"ĳ":246,"Ĵ":247,"ĵ":248,"Ķ":249,"ķ":250,"ĸ":251,"Ĺ":252,"ĺ":253,"Ļ":254,"ļ":255,"Ľ":256,"ľ":257,"Ŀ":258,"ŀ":259,"Ł":260,"ł":261,"Ń":262,"ĠĠ":263,"Ġt":264,"Ġa":265,"in":266,"he":267,"re":268,"on":269,"ĠĠĠĠ":270,"er":271,"Ġthe":272,"at":273,"Ġs":274,"Ġo":275,"en":276,"Ġc":277,"es":278,"or":279,"is":280,"an":281,"Ġw":282,"it":283,"al":284,"Ġp":285,"Ġf":286,"ed":287,"Ġan":288,"Ġb":289,"ing":290,"ar":291,"Ġof":292,"Ġin":293,"ou":294,"Ġm":295,"ic":296,"Ġd":297,"ion":298,"Ġand":299,"Ġto":300,"le":301,"ro":302,"as":303,"el":304,"ent":305,"Ġh":306,"ĠĠĠ":307,"ĠĠĠĠĠĠĠĠ":308,"ct":309,"Ġth":310,"Ġre":311,"il":312,"st":313,"Ġe":314,"om":315,"Ġl":316,"Ġn":317,"et":318,"im":319,"ol":320,"ĠT":321,"Ġis":322,"ur":323,"am":324,"id":325,"ve":326,"ut":327,"se":328,"Ġg":329,"ation":330,"ot":331,"âĢ":332,"ce":333,"ch":334,"ly":335,"ig":336,"ĠA":337,"ĠS":338,"ow":339,"Ġbe":340,"Ġfor":341,"ad":342,"Ġu":343,"ĠC":344,"Ġst":345,"ver":346,"ir":347,"Ġon":348,"ul":349,"ay":350,"ĠI":351,"Ġthat":352,"--":353,"if":354,"Ġy":355,"Ġas":356,"ra":357,"od":358,"ĠĠĠĠĠĠĠ":359,"ith":360,"Ġ1":361,"Ġ(":362,"Ġcon":363,"her":364,"ĊĠĠĠ":365,"Ġ=":366,"ter":367,"Ġpro":368,"ĠM":369,"Ġwith":370,"ge":371,"um":372,"Ġde":373,"ist":374,"ĊĠĠĠĠĠĠĠ":375,"ĠP":376,"nd":377,"Ġit":378,"Ġare":379,"Ġwh":380,"ort":381,"Ġal":382,"Ġor":383,"est":384,"ate":385,"Ġyou":386,"ab":387,"op":388,"ĠThe":389,"ĠB":390,"ers":391,"us":392,"ess":393,"rom":394,"res":395,"ri":396,"and":397,"Ġex":398,"th":399,"em":400,"ect":401,"ac":402,"qu":403,"Ġv":404,"Ġhe":405,"ment":406,"os":407,"Ġcom":408,"ĠH":409,"ill":410,"ĠĠĠĠĠĠĠĠĠĠĠĠĠĠĠĠ":411,"ity":412,"ore":413,"pp":414,"nt":415,"ere":416,"ies":417,"Ġ2":418,"oc":419,"ĠD":420,"ke":421,"ain":422,"Ġsu":423,"ĠW":424,"ĠR":425,"Ġr":426,"iv":427,"Ġby":428,"ĠF":429,"ld":430,"igh":431,"elf":432,"ĠE":433,"Ġwas":434,"ant":435,"un":436,"Ġat":437,"ĠN":438,"Ġ\"":439,"imp":440,"ive":441,"Ġfrom":442,"pe":443,"Ġch":444,"ud":445,"ĠL":446,"âĢĻ":447,"og":448,"Ġne":449,"Ġse":450,"art":451,"Ġha":452,"ĠG":453,"ure":454,"pt":455,"Ġcan":456,"ial":457,"----":458,"ĊĠĠĠĠĠĠĠĠ":459,"Ġnot":460,"00":461,"end":462,"ĠâĢ":463,"Ġle":464,"ical":465,"all":466,"pl":467,"ag":468,"ame":469,"ight":470,"Ġsh":471,"ions":472,"out":473,"age":474,"iz":475,"rou":476,"ine":477,"Ġhave":478,"our":479,"per":480,"Ġthis":481,"ost":482,"cl":483,"ard":484,"ich":485,"ĠO":486,"Ġ|":487,"Ġwe":488,"ass":489,"ell":490,"ru":491,"Ġab":492,"ated":493,"gh":494,"ult":495,"Ġpl":496,"Ġus":497,"act":498,"Ġwor":499,"ome":500,"Ġimp":501,"Ġint":502,"ould":503,"Ġen":504,"The":505,"ans":506,"ĠJ":507,"ff":508,"ther":509,"ust":510,"ast":511,"orm":512,"are":513,"ak":514,"ĠU":515,"):":516,"Ġk":517,"Ġtheir":518,"'s":519,"##":520,"Ġres":521,"ĊĠĠĠĠĠĠĠĠĠĠĠ":522,"ip":523,"ear":524,"ib":525,"Ġcont":526,"Ġwhe":527,"ap":528,"ous":529,"ide":530,"du":531,"Ġself":532,"ie":533,"ile":534,"ĊĊ":535,"Ġad":536,"cc":537,"ong":538,"Ġwhich":539,"one":540,"ĠIn":541,"Ġcomp":542,"ary":543,"Ġthey":544,"Ġ'":545,"ia":546,"int":547,"Ġall":548,"ations":549,"able":550,"Ġ19":551,"ind":552,"ep":553,"ire":554,"Ġyour":555,"ime":556,"ry":557,"Ġcl":558,"ex":559,"Ġdis":560,"ood":561,"ue":562,"Ġif":563,"ance":564,"ack":565,"vel":566,"urn":567,"ok":568,"Ġhas":569,"ĠTh":570,"Ġwill":571,"ual":572,"so":573,"Ġmore":574,"Ġdo":575,"ber":576,"ction":577,"ents":578,"Âł":579,"con":580,"ord":581,"ence":582,"ase":583,"Ġar":584,"ater":585,"Ġj":586,"ign":587,"ath":588,"self":589,"av":590,").":591,"ild":592,"ice":593,"Ġother":594,"Ġbut":595,"ach":596,"ens":597,"Ġman":598,"ress":599,"Ġwere":600,"ub":601,"ory":602,"form":603,"ount":604,"Ġun":605,"rit":606,"Ġout":607,"ĠK":608,"Ġper":609,"),":610,"ace":611,"ose":612,"Ġme":613,"ĠSt":614,"ata":615,"Ġone":616,"ang":617,"âĢĿ":618,"ake":619,"Ġdef":620,"Ġalso":621,"Ġsp":622,"Ġapp":623,"ĊĊĠĠĠ":624,"au":625,"Ġpre":626,"ition":627,"Ġ20":628,"ces":629,"ely":630,"__":631,"ish":632,"Ġev":633,"ors":634,"Ġhis":635,"Ġsc":636,"ks":637,"Ġso":638,"ef":639,"ict":640,"Ġ-":641,"Ġpart":642,"Ġimport":643,"--------":644,"ound":645,"Ġsy":646,"reat":647,"very":648,"Ġabout":649,"Ġret":650,"Ġte":651,"ph":652,"Ġcomm":653,"Ġtr":654,"Ġ3":655,"ail":656,"own":657,"ian":658,"ew":659,"()":660,"Ġwho":661,"Ġpe":662,"ĠV":663,"ĠCh":664,"ĠĠĠĠĠĠĠĠĠĠĠĠĠĠĠĠĠĠĠĠĠĠĠĠĠĠĠĠĠĠĠĠ":665,"ob":666,"ĠâĢľ":667,"nder":668,"Ġup":669,"Ġqu":670,"Ġthem":671,"ĠIt":672,"Ġbec":673,"pec":674,"ings":675,"ree":676,"ject":677,"ook":678,"iff":679,"vers":680,"ert":681,"Ġstud":682,"ates":683,"Ġro":684,"get":685,"Ġpr":686,"Ġli":687,"ays":688,"olog":689,"Ġtime":690,"mer":691,"low":692,"Ġinto":693,"\"\"":694,"ite":695,"erv":696,"Ġcol":697,"Ġits":698,"we":699,"Ġwhen":700,"Ġind":701,"Ġsome":702,"Ġ#":703,"cre":704,"Ġthan":705,"ople":706,"Ġreturn":707,"ove":708,"Ġmay":709,"Ġag":710,"Ġkn":711,"lect":712,"Ġthere":713,"Ġgo":714,"ough":715,"Ġyear":716,"irst":717,"Ġrec":718,"tern":719,"ys":720,"',":721,"ĠThis":722,"ific":723,"rough":724,"ĠY":725,"amp":726,"Ġbeen":727,"Ġover":728,"red":729,"Ġwork":730,"ient":731,"cess":732,"Ġdiff":733,"Ġthese":734,"ren":735,"clud":736,"Ġbet":737,"Ġhow":738,"row":739,"Ġact":740,"ally":741,"Ġunder":742,"Ġhad":743,"rain":744,"Ġnew":745,"ons":746,"ck":747,"Ġdes":748,"Ġcons":749,"Ġpeople":750,"ov":751,"te":752,"Ġuse":753,"ities":754,"Ġacc":755,"ious":756,"ause":757,"Ġass":758,"ll":759,"lic":760,"erm":761,"Ġbl":762,"ric":763,"Ġtw":764,"ool":765,"les":766,"ange":767,"Ġwould":768,"stem":769,"rib":770,"Ġgen":771,"hed":772,"eth":773,"Ġrel":774,"lp":775,"Ġ[":776,"ating":777,"arg":778,"Ġour":779,"Ġsa":780,"old":781,"Ġsuch":782,"Ġ201":783,"Ġmost":784,"ark":785,"In":786,"Ġmod":787,"ade":788,"ning":789,"ĠUn":790,"Ġinclud":791,"ize":792,"ise":793,"ced":794,"gr":795,"Ġfirst":796,"Ġ4":797,"ext":798,"ational":799,"oss":800,"ular":801,"Ġfe":802,"velop":803,"Ġneed":804,"ne":805,"ments":806,"Ġhelp":807,"als":808,"fter":809,"ffect":810,"Ġob":811,"round":812,"Ġem":813,"Ġspec":814,"ics":815,"alth":816,"Ġany":817,"Ġget":818,"Ġph":819,"Ġexp":820,"uring":821,"Ġno":822,"Ġoff":823,"Ġwhat":824,"Ġused":825,"Ġnum":826,"Ġrep":827,"ty":828,"iss":829,"from":830,"cept":831,"Ġonly":832,"Ġthrough":833,"Ġam":834,"\",":835,"Ġprodu":836,"Ġim":837,"Ġlike":838,"Ġform":839,"ied":840,"ink":841,"Ġreg":842,"Ġtwo":843,"ures":844,"ft":845,"Ġfl":846,"('":847,"ĠHe":848,"ick":849,"put":850,"Ġprov":851,"Ġ5":852,"ract":853,"ng":854,"oth":855,"==":856,"ful":857,"Ġ0":858,"Ġadd":859,"Ġstr":860,"Ġatt":861,"oint":862,"Ġdiffere":863,"name":864,"ative":865,"ĊĠĠĠĠĠĠĠĠĠĠĠĠĠĠĠ":866,"Ġ200":867,"Ġmany":868,"ased":869,"))":870,"hen":871,"ars":872,"ĠâĢĵ":873,"arch":874,"Ġsub":875,"ax":876,"Ġsystem":877,"..":878,"Ġchild":879,"iet":880,"Ġdevelop":881,"Ġra":882,"ility":883,"com":884,"aw":885,"ween":886,"ower":887,"Ġrem":888,"its":889,"ible":890,"Ġinf":891,"ss":892,"Ġdata":893,"str":894,"Ġbu":895,"Ġac":896,"Ġco":897,"ife":898,"ution":899,"Ġty":900,"Ġval":901,"ock":902,"ten":903,"Ġinv":904,"Ġpol":905,"Ġ+":906,"eld":907,"Ġbetween":908,"Ġtrans":909,"Ġher":910,"ond":911,"ec":912,"hes":913,"Ġwhere":914,"Ġsur":915,"ism":916,"gan":917,"cy":918,"ines":919,"ble":920,"Ġtest":921,"ered":922,"Ġsupp":923,"ode":924,"up":925,"Ġsm":926,"')":927,"(\"":928,"ont":929,"Ġinter":930,"####":931,"Ġshould":932,"ident":933,"def":934,"wn":935,"Ġke":936,"Ġset":937,"io":938,"ily":939,"ues":940,"Ġcould":941,"ix":942,"Ġwell":943,"ists":944,"ited":945,"Ġyears":946,"ĊĠĠĠĠĠĠĠĠĠĠĠĠĠĠĠĠ":947,"els":948,"ever":949,"Ġpres":950,"ature":951,"Ġresult":952,"fore":953,"import":954,"Ġresp":955,"Ġ18":956,"Ġrequ":957,"land":958,"val":959,"**":960,"Ġwater":961,"Ġhigh":962,"ĊĠ":963,"ps":964,"iew":965,"ural":966,"meric":967,"Ġpers":968,"ield":969,"Ġel":970,"uc":971,"chn":972,"oy":973,"Ġmake":974,"read":975,"uch":976,"ants":977,"ually":978,"hat":979,"20":980,"ward":981,"ology":982,"Ġafter":983,"Ġinst":984,"Ġcall":985,"ample":986,"Ġvar":987,"ages":988,"19":989,"ts":990,"Ġfound":991,"par":992,"ience":993,"ork":994,"vent":995,"chool":996,"ting":997,"Ġdifferent":998,"pr":999,"Ġthen":1000,"Ġhealth":1001,"Ġear":1002,"ins":1003,"ĠRe":1004,"Ġsign":1005,"Ġknow":1006,"ĊĊĠĠĠĠĠĠĠ":1007,"Ġcre":1008,"Ġcount":1009,"path":1010,"Ġcent":1011,"Ġgener":1012,"other":1013,"Ġ6":1014,"app":1015,"ness":1016,"ices":1017,"Ġref":1018,"Ġjust":1019,"ollow":1020,"arm":1021,"Ġbecause":1022,"sh":1023,"Ġdist":1024,"ivers":1025,"gy":1026,"Ġlong":1027,"ruct":1028,"Ġworld":1029,"Ġexper":1030,"Ġdet":1031,"ĠAmeric":1032,"\")":1033,"']":1034,"Ġlear":1035,"aking":1036,"Ġincre":1037,"Ġeven":1038,"Ġloc":1039,"Ġ\"\"\"":1040,"ically":1041,"Ġend":1042,"Ġrese":1043,"Ġed":1044,"Ġext":1045,"ĠAl":1046,"Ġmed":1047,"Ġcur":1048,"rue":1049,"Ġent":1050,"Ġgr":1051,"ĠAr":1052,"Ġshe":1053,"Ġtra":1054,"Ġ{":1055,"Ġdisc":1056,"ĠPro":1057,"Ġeach":1058,"sc":1059,"Ġhum":1060,"ĠCom":1061,"Ġeffect":1062,"Ġbel":1063,"Ġprocess":1064,"Ġway":1065,"ody":1066,"formation":1067,"ives":1068,"----------------":1069,"uth":1070,"Ġevery":1071,"Ġsee":1072,"ized":1073,"Ġvery":1074,"ved":1075,"Ġpub":1076,"pro":1077,"Ġbeing":1078,"Ġsoc":1079,"ection":1080,"eng":1081,"Ġdec":1082,"Ġduring":1083,"Ġart":1084,"iron":1085,"inal":1086,"Ġpat":1087,"Ġcar":1088,"ale":1089,"Ġca":1090,"imes":1091,"oad":1092,"Ġthose":1093,"cer":1094,"Ġ==":1095,"any":1096,"orn":1097,"tle":1098,"ather":1099,"ug":1100,"led":1101,"ĠAn":1102,"Ġread":1103,"ases":1104,"Ġwrit":1105,"Ġwhile":1106,"Ġfact":1107,"Ġfun":1108,"Ġfollow":1109,"raph":1110,"irect":1111,"âĢĵ":1112,"Ġdep":1113,"Ġmin":1114,"Th":1115,"li":1116,"Ġlife":1117,"Ġconf":1118,"['":1119,"Ġback":1120,"hem":1121,"Ġmain":1122,"Ġfam":1123,"Ġtechn":1124,"gram":1125,"to":1126,"cent":1127,"stand":1128,"Ġexpl":1129,"Ġcommun":1130,"ave":1131,"Ġpartic":1132,"data":1133,"ms":1134,"Ġdoes":1135,"Ġsk":1136,"Ġlead":1137,"000":1138,"Ġop":1139,"ĠSe":1140,"Ġown":1141,"Ġright":1142,"Ġsame":1143,"vern":1144,"rent":1145,"Ġmon":1146,"ds":1147,"Ġclass":1148,"Ġmy":1149,"Ġprint":1150,"ĠAs":1151,"ute":1152,"10":1153,"ĠWe":1154,"Ġ10":1155,"Ġins":1156,"Ġhist":1157,"ential":1158,"ĠThey":1159,"Ġmuch":1160,"Ġmade":1161,"the":1162,"Ġusing":1163,"Ġsaid":1164,"Ġgrou":1165,"Ġfind":1166,"Ġbr":1167,"Ġcomple":1168,"':":1169,"Ġboth":1170,"Ġstart":1171,"ĠFor":1172,"der":1173,"ption":1174,"Ġpop":1175,"atch":1176,"Ġmem":1177,"Ġperson":1178,"Ġ7":1179,"Ġgl":1180,"Ġnumber":1181,"Ġshow":1182,"ĠIf":1183,"nce":1184,"ince":1185,"ethod":1186,"ĠHow":1187,"Ġlevel":1188,"ving":1189,"air":1190,"Ġimportant":1191,"Ġbefore":1192,"rop":1193,"viron":1194,"Ġagain":1195,"und":1196,"ted":1197,"ivid":1198,"Ġserv":1199,"Ġstate":1200,"Ġser":1201,"ality":1202,"uss":1203,"oh":1204,"Ġinformation":1205,"Ġchildren":1206,"Ġdi":1207,"Ġav":1208,"tt":1209,"gg":1210,"Ġsol":1211,"Ġgrow":1212,"Ġ8":1213,"ished":1214,"Ġfood":1215,"hip":1216,"ĠNew":1217,"Ġproble":1218,"Ġsmall":1219,"Ġpar":1220,"ĠĠĠĠĠ":1221,"son":1222,"ves":1223,"class":1224,"'t":1225,"ĠInd":1226,"ann":1227,"Ġplay":1228,"iversity":1229,"ven":1230,"ien":1231,"ash":1232,"py":1233,"file":1234,"ah":1235,"arge":1236,"ense":1237,"ets":1238,"Ġstudents":1239,"ters":1240,"Ġgood":1241,"ired":1242,"gen":1243,"Ġschool":1244,"ral":1245,"Ġlook":1246,"ull":1247,"ror":1248,"Ġpoint":1249,"rol":1250,"akes":1251,"ger":1252,"Ġoften":1253,"St":1254,"Ġpower":1255,"ision":1256,"Ġhim":1257,"Ġname":1258,"Ġdown":1259,"Ġstudy":1260,"ulation":1261,"Ġhand":1262,"Ġpass":1263,"ator":1264,"ames":1265,"ergy":1266,"Ġposs":1267,"Ġmet":1268,"ĠDe":1269,"aj":1270,"ank":1271,"Ġnow":1272,"ĠSc":1273,"omen":1274,"Ġcontin":1275,"ĠĠĠĠĠĠĠĠĠĠĠĠĠĠĠĠĠĠĠĠĠĠĠĠĠĠĠĠĠĠĠĠĠĠĠĠĠĠĠĠĠĠĠĠĠĠĠĠĠĠĠĠĠĠĠĠĠĠĠĠĠĠĠĠ":1276,"Ġprot":1277,"Ġaround":1278,"Ġactiv":1279,"Ġlit":1280,"ury":1281,".âĢĿ":1282,"Ġexample":1283,"Ġless":1284,"Ġfil":1285,"Ġlist":1286,".\"":1287,"ource":1288,"Ġday":1289,"Ġdesign":1290,"itions":1291,"Ġocc":1292,"ides":1293,"Ġelect":1294,"orth":1295,"Ġorgan":1296,"ross":1297,"Ġcell":1298,"ains":1299,"anc":1300,"Ġbody":1301,"iqu":1302,"ital":1303,"ument":1304,"ected":1305,"ier":1306,"Ġtake":1307,"Ġcor":1308,"ĠEx":1309,"ined":1310,"Ġthree":1311,"ouse":1312,"Ġprogram":1313,"day":1314,"ional":1315,"ape":1316,"Ċĉ":1317,"Ġ9":1318,"Ġsupport":1319,"way":1320,"Ġ199":1321,"Ġcalled":1322,"cond":1323,"Ġbuild":1324,"Ġx":1325,"oun":1326,"Ġbre":1327,"vironment":1328,".,":1329,"ared":1330,"Ġconst":1331,"acter":1332,"Ġallow":1333,"outh":1334,"Ġ:":1335,"Ġest":1336,"ox":1337,"],":1338,"Ġunderstand":1339,"iety":1340,"Ġdid":1341,"Ġmust":1342,"Ġhuman":1343,"Ġequ":1344,"Ġsom":1345,"Ġconsid":1346,"ium":1347,"ization":1348,"min":1349,"set":1350,"Ġtem":1351,"Ġcommon":1352,"ÂłÂł":1353,"Ġtreat":1354,"port":1355,"ton":1356,"Ġpos":1357,"lear":1358,"Ġgovern":1359,"line":1360,"Ġknown":1361,"Ġcond":1362,"angu":1363,"test":1364,"âĢĶ":1365,"Ġopen":1366,"Ġredu":1367,"Ġgu":1368,"ĠCon":1369,"Ġcare":1370,"====":1371,"Ġincluding":1372,"Ġresearch":1373,"\":":1374,"ids":1375,"Ġris":1376,"az":1377,"ĠYou":1378,"ify":1379,"pos":1380,"Ġmat":1381,"Ġtyp":1382,"ron":1383,"Ġland":1384,"man":1385,"mod":1386,"ern":1387,"bers":1388,"ĠBut":1389,"add":1390,"Ġthough":1391,"ĠSh":1392,"ries":1393,"Ġdirect":1394,"Ġdise":1395,"Ġwithin":1396,"ering":1397,"de":1398,"mon":1399,"ason":1400,"lish":1401,"ask":1402,"This":1403,"ividual":1404,"Ġadv":1405,"work":1406,"ĠWh":1407,"ĠNone":1408,"Ġ*":1409,"Ġmight":1410,"Ġelse":1411,"ĠAd":1412,"lement":1413,"conom":1414,"Ġarg":1415,"Ġchar":1416,"ĠAnd":1417,"Ġbeh":1418,"Ġvis":1419,"Ġtype":1420,"Ġquest":1421,"ately":1422,"ially":1423,"uro":1424,"ner":1425,"hers":1426,"Ġpo":1427,"Ġpract":1428,"Ġthink":1429,"ĠEng":1430,"oci":1431,"ĠThere":1432,"Ġterm":1433,"iven":1434,"])":1435,"atic":1436,"Ġstill":1437,"Ġcour":1438,"iod":1439,"ams":1440,"ĠIs":1441,"Ġeng":1442,"ĠâĢ¢":1443,"='":1444,"ources":1445,"ĠLe":1446,"arent":1447,"Ġgreat":1448,"ĠThese":1449,"ccess":1450,"ats":1451,"Ġdesc":1452,"Ġpublic":1453,"ior":1454,"ĠQ":1455,"Ġplace":1456,"Ġchang":1457,"arr":1458,"ĠAmerican":1459,"Ġ__":1460,"Ġspe":1461,"12":1462,"Ġmethod":1463,"ples":1464,"aterial":1465,"me":1466,"Ġreport":1467,"Ġide":1468,"Ġappro":1469,"Ġplan":1470,"Ġindividual":1471,"._":1472,"Ġmus":1473,"Ġgre":1474,"erest":1475,"bs":1476,"iving":1477,"ination":1478,"Ġwant":1479,"view":1480,"Ġbook":1481,"Ġrun":1482,"Ġi":1483,"Ġsimp":1484,"Ġsl":1485,"Ġche":1486,"ffic":1487,"Ġident":1488,"Ġlog":1489,"Ġeas":1490,"xt":1491,"Ġchange":1492,"inc":1493,"Ġwithout":1494,"eral":1495,"Ġstand":1496,"Ġcult":1497,"Ġcap":1498,"alk":1499,"lu":1500,"itive":1501,"ified":1502,"requ":1503,"less":1504,"Ġ&":1505,"oms":1506,"Ġeduc":1507,"ĠCl":1508,"Ġenergy":1509,"pect":1510,"Ġair":1511,"Ġiss":1512,"ording":1513,"ively":1514,"Ġcurrent":1515,"Ġlight":1516,"ertain":1517,"Ġoper":1518,"Ġcaus":1519,"ER":1520,"mb":1521,"Ġline":1522,"ote":1523,"Ġpur":1524,"Ġpot":1525,"Ġanother":1526,"Ġdon":1527,"by":1528,"ability":1529,"dict":1530,"Ġpresent":1531,"Ġlarge":1532,"ik":1533,"Ġproject":1534,"ĠUniversity":1535,"args":1536,"Ġenvironment":1537,"Ġvalue":1538,"br":1539,"Ġobject":1540,"agn":1541,"ery":1542,"iness":1543,"Ġfew":1544,"ĠCol":1545,"Ġsim":1546,"be":1547,"Ġphys":1548,"ware":1549,"ived":1550,"Ġnp":1551,"Ġconn":1552,"for":1553,"ĠRes":1554,"Ġlab":1555,"Ġproduct":1556,"Ġlearn":1557,"uthor":1558,"Ġinc":1559,"########":1560,"Ġrange":1561,"Ġarea":1562,"onse":1563,"ories":1564,"tain":1565,"yn":1566,"here":1567,"Ġhead":1568,"Ġmark":1569,"ĠZ":1570,"Ġmodel":1571,"ajor":1572,"alse":1573,"Ġgroup":1574,"Ġlaw":1575,"ead":1576,"Ġlangu":1577,"ians":1578,"ĠPh":1579,"Ġimm":1580,"50":1581,"Ġprof":1582,"It":1583,"Ġinclude":1584,"18":1585,"Ġbelie":1586,"ole":1587,"Ġperform":1588,"Ġlast":1589,"Ġsever":1590,"Ġagainst":1591,"Ġorig":1592,"Ġdel":1593,"Ġmaterial":1594,"Ġanal":1595,"Ġkey":1596,"Ġsocial":1597,"Ġtry":1598,"Ġreal":1599,"ograph":1600,"gin":1601,"Ġsit":1602,"Ġmove":1603,"Ġ.":1604,"Ġfr":1605,"Ġtop":1606,"Ġ/":1607,"ret":1608,"arc":1609,"Ġimpro":1610,"Ġdevelopment":1611,"Ġbest":1612,"list":1613,"Ġhy":1614,"Ġold":1615,"ission":1616,"Ġfile":1617,"ĠHowever":1618,"illion":1619,"Ġopp":1620,"Ġproper":1621,"Ġdev":1622,"Ġben":1623,"ently":1624,"ĠUnited":1625,"ĠPl":1626,"lished":1627,"Ġhome":1628,"Ġfin":1629,"Ġmeas":1630,"ina":1631,"Ġmean":1632,"of":1633,",âĢĿ":1634,"rodu":1635,"ological":1636,"Ġtrain":1637,"Ġunt":1638,"ways":1639,"Ġinterest":1640,"erc":1641,"ĠSp":1642,"ental":1643,"Ġpri":1644,"Ġleg":1645,"Ġanim":1646,"ns":1647,"init":1648,"Ġhistory":1649,"Ġbecome":1650,"ane":1651,"Ġfamily":1652,"type":1653,"Ġorder":1654,"por":1655,"ĠâĢĺ":1656,"ĠĠĠĠĠĠ":1657,"Ġfunction":1658,"Ġbo":1659,"Ġearly":1660,"ots":1661,"tr":1662,"Ġbetter":1663,"Ġinvol":1664,"Ġmil":1665,"Ġcontrol":1666,"imate":1667,"rist":1668,"Ġbas":1669,"Ġtext":1670,"ances":1671,"ĊĠĠĠĠĠĠĠĠĠĠĠĠĠĠĠĠĠĠĠ":1672,"ault":1673,"Ġfield":1674,"ems":1675,"over":1676,"Ġgovernment":1677,"Ġant":1678,"Ġwar":1679,"Ġsecond":1680,"ilar":1681,"fe":1682,"\".":1683,"Ġseveral":1684,"Ġcreate":1685,"cur":1686,"atural":1687,"Ġ12":1688,"Ġwomen":1689,"\"\"\"":1690,"Ġpain":1691,"Ġeconom":1692,"Ġes":1693,"resent":1694,"Ġblood":1695,"icle":1696,"ention":1697,"Ġkeep":1698,"Ġve":1699,"Ġcal":1700,"IN":1701,"ĠFr":1702,"olution":1703,"Ġer":1704,"Ġet":1705,"Ġtoo":1706,"itional":1707,"Ġhere":1708,"Ġmeans":1709,"mit":1710,"Ġsignific":1711,"ling":1712,"Ġlim":1713,"Ġ17":1714,"raw":1715,"11":1716,"Ġbased":1717,"Ġlow":1718,"Ġcr":1719,"Ġfollowing":1720,"ember":1721,"ills":1722,"ised":1723,"Ġnear":1724,"ribut":1725,"Ġsince":1726,"osed":1727,"ĠWhen":1728,"ogn":1729,"Ġfore":1730,"//":1731,"une":1732,"fig":1733,"oid":1734,"ends":1735,"Ġess":1736,"Ġhapp":1737,"Ġnon":1738,"Ġmajor":1739,"load":1740,"Ġperiod":1741,"Ġoccur":1742,"Ġdisease":1743,"cle":1744,"Ġ%":1745,"Ġtre":1746,"ule":1747,"Ġ15":1748,"ailable":1749,"Ġparticular":1750,"Ġcreat":1751,",\"":1752,"not":1753,"ON":1754,"Ġrele":1755,"Ġpost":1756,"Ġmult":1757,"Ġbus":1758,"use":1759,"Ġsing":1760,"cing":1761,"Ġz":1762,"Ġprovid":1763,"Ġlet":1764,"Ġspecies":1765,"Ġsay":1766,"Ġlater":1767,"Ġstruct":1768,"ards":1769,"ients":1770,"âĢľ":1771,"...":1772,"ateg":1773,"Ġdr":1774,"log":1775,"Ġpossible":1776,"Ġturn":1777,"Ġprovide":1778,"ĠStates":1779,"lection":1780,"AT":1781,"Ġrisk":1782,"ression":1783,"ĠBe":1784,"sw":1785,"ES":1786,"face":1787,"Ġlearning":1788,"ended":1789,"Ġfac":1790,"sy":1791,"idd":1792,"Ġbro":1793,"Ġ_":1794,"Ġenc":1795,"arget":1796,"Ġfour":1797,"hy":1798,"What":1799,"Ġ198":1800,"Ġthings":1801,"Ġothers":1802,"Ġos":1803,"key":1804,"ĠAt":1805,"ĠOr":1806,"Ġsuccess":1807,"Ġ16":1808,"orld":1809,"ĠCan":1810,"Ġamong":1811,"Ġbi":1812,"Ġ$":1813,"Ġcase":1814,"Ġtrad":1815,"Ġdue":1816,"time":1817,"Ġcause":1818,"Ġfeel":1819,"Ġhig":1820,"Ġlocal":1821,"col":1822,"Ġuntil":1823,"Ġmen":1824,"ging":1825,"oin":1826,"Ġrece":1827,"ek":1828,"ones":1829,"ocus":1830,"Ġtimes":1831,"uture":1832,"ething":1833,"=\"":1834,"idence":1835,"urther":1836,"Ġview":1837,"Ġgiven":1838,"Ġcost":1839,"Ġpath":1840,"size":1841,"aster":1842,"Ġprom":1843,"amm":1844,"iver":1845,"ration":1846,"Ġscient":1847,"Ġaccess":1848,"Ġpolit":1849,"osp":1850,"urope":1851,"Ġable":1852,"ĠTo":1853,"Ġ)":1854,"eter":1855,"oot":1856,"let":1857,"ploy":1858,"Ġaffect":1859,"Ġlik":1860,"lab":1861,"though":1862,"Ġcountry":1863,"Ġlarg":1864,"Ġopt":1865,"mp":1866,"ĠEn":1867,"Ġrecord":1868,"ope":1869,"Ġlanguage":1870,"ler":1871,"[\"":1872,"Ġassert":1873,"ique":1874,"Ġbenef":1875,"ength":1876,"atures":1877,"16":1878,"Ġur":1879,"ĠâĢĶ":1880,"aper":1881,"Ġaut":1882,"Ġcertain":1883,"Ġalong":1884,"cont":1885,"Ġrest":1886,"ably":1887,"Ġcomput":1888,"Ġtri":1889,"word":1890,"Ġintern":1891,"Ġcho":1892,"cul":1893,"Ġhard":1894,"Ġmar":1895,"ither":1896,"Ġsignificant":1897,"Ġmov":1898,"ww":1899,"Ġpress":1900,"Ġexam":1901,"Ġrad":1902,"fl":1903,"mand":1904,"Ġage":1905,"Ġavailable":1906,"ohn":1907,"Ġsomething":1908,"||":1909,"Ch":1910,"ird":1911,"Ġareas":1912,"Ġvol":1913,"AS":1914,"ĠOn":1915,"Ġvarious":1916,"ĠTe":1917,"://":1918,"obal":1919,"Ġshort":1920,"():":1921,"Ġproblem":1922,"ser":1923,"ĠAf":1924,"True":1925,"num":1926,"Ġmaking":1927,"15":1928,"reg":1929,"ained":1930,"ĠEurope":1931,"Ġcome":1932,"Ġspecific":1933,"Ġassoci":1934,"ĠSo":1935,"ĠAll":1936,"Ġnext":1937,"Ġplant":1938,"ĠUS":1939,"ĠWhat":1940,"Ġexist":1941,"ending":1942,"Ġput":1943,"Ġresults":1944,"As":1945,"Ġmonth":1946,"We":1947,"Ġsays":1948,"Ġdri":1949,"ication":1950,"acy":1951,"ĠNational":1952,"aps":1953,"Ġcrit":1954,"ils":1955,"Ġcir":1956,"vious":1957,"atus":1958,"ured":1959,"Ġcomb":1960,"ĠCent":1961,"__(":1962,"Ġcharacter":1963,"Ġamount":1964,"ators":1965,"Ġpercent":1966,"dir":1967,"sel":1968,"ored":1969,"Ġfocus":1970,"co":1971,"Ġleft":1972,"30":1973,"opy":1974,"Ġpotential":1975,"Ġprevent":1976,"Ġcells":1977,"ym":1978,"duct":1979,"AR":1980,"Ġnatural":1981,"ring":1982,"serv":1983,"mber":1984,"Ġimpact":1985,"ĠChrist":1986,"Ġnet":1987,"Ġflow":1988,"ĠBl":1989,"Ġappear":1990,"Ġsimilar":1991,"essage":1992,"Ġspace":1993,"ĠX":1994,"ee":1995,"ests":1996,"Ġdat":1997,"ĠBrit":1998,"Ġsystems":1999,"Ġinit":2000,"fil":2001,"Ġyoung":2002,"Ġbecame":2003,"Ġevent":2004,"Ġbrain":2005,"gether":2006,"Ġtogether":2007,"Ġlittle":2008,"Ġsw":2009,"ormal":2010,"icult":2011,"Ġ197":2012,"Ġfree":2013,"Ġinvest":2014,"200":2015,"ales":2016,"Ġapplic":2017,"ĠBy":2018,"iation":2019,"stit":2020,"aces":2021,"Ġdeterm":2022,"Ġwords":2023,"date":2024,"ĠEar":2025,"Ġwhy":2026,"Ġbehav":2027,"play":2028,"ush":2029,"ortun":2030,"ables":2031,"my":2032,"14":2033,"Ã©":2034,"ights":2035,"Ġsugg":2036,"Ġindust":2037,"Ġstep":2038,"etic":2039,"wards":2040,"ple":2041,"ĠGod":2042,"Ġvir":2043,"ley":2044,"ledge":2045,"Ġproblems":2046,"Ġlevels":2047,"ours":2048,"icro":2049,"append":2050,"Ġsum":2051,"ged":2052,"Ġtreatment":2053,"Ġcentury":2054,"17":2055,"Ġworks":2056,"Ġauthor":2057,"Ġdescrib":2058,"atory":2059,"Ġalways":2060,"ĠWar":2061,"Ġexcept":2062,"agement":2063,"format":2064,"ession":2065,"Ġrepresent":2066,"Ġdeath":2067,"ĠShe":2068,"If":2069,"apt":2070,"sp":2071,"Ġspecial":2072,"aken":2073,"ĠTr":2074,"ĠGerm":2075,"Ġele":2076,"Ġdays":2077,"side":2078,"Ġpopulation":2079,"Ġacross":2080,"yl":2081,"Ġrole":2082,"Ġ<":2083,"print":2084,"ison":2085,"Ġsuper":2086,"ID":2087,"Ġsym":2088,"ilities":2089,"version":2090,"13":2091,"\"]":2092,"ae":2093,"Ġusually":2094,"Ġsize":2095,"oring":2096,"Ġparent":2097,"asing":2098,"oman":2099,"Ġtemper":2100,"Ġpast":2101,"ĊĊĠ":2102,"Ġside":2103,"Ġcommunity":2104,"Ġcourse":2105,"Ġclear":2106,"ĠWorld":2107,"Ġtechnology":2108,"How":2109,"ency":2110,"Ġheart":2111,"ruction":2112,"ilt":2113,"25":2114,"ĠAfric":2115,"Ġtoday":2116,"ĠJohn":2117,"erence":2118,"Ġimage":2119,"now":2120,"Ġestab":2121,"gs":2122,"rror":2123,"rect":2124,"An":2125,"Ġfuture":2126,"iting":2127,"ott":2128,"Ġ14":2129,"Ġdiscuss":2130,"Ġuser":2131,"hern":2132,"Ġword":2133,"Ġprim":2134,"Ġstrong":2135,"ysis":2136,"Ġlikely":2137,"Ġut":2138,"Ġver":2139,"ification":2140,"ript":2141,"Ġill":2142,"Ġconditions":2143,"Ġbusiness":2144,"Ġconsum":2145,"OR":2146,"ĠMed":2147,"Ġeducation":2148,"ires":2149,"att":2150,"Ġfar":2151,"Ġrelations":2152,"Ġchall":2153,"orts":2154,"Ġmot":2155,"oney":2156,"Ġchanges":2157,"Ġbegin":2158,"istic":2159,"ued":2160,"Ġabove":2161,"aves":2162,"most":2163,"Ġsingle":2164,"Ġrespons":2165,"yle":2166,"Ġinflu":2167,"Ġens":2168,"place":2169,"Ġresponse":2170,"aut":2171,"Ġey":2172,"Ġask":2173,"Ġtool":2174,"thing":2175,"Ġnecess":2176,"back":2177,"Ġ196":2178,"fer":2179,"aim":2180,"ĠGen":2181,"Ġfull":2182,"EN":2183,"Ġgive":2184,"Ġdifficult":2185,"ray":2186,"ober":2187,"Ġincrease":2188,"Ġmillion":2189,"iple":2190,"Ġcity":2191,"unt":2192,"pecially":2193,"Ġtot":2194,"Ġworking":2195,"action":2196,"Ġsens":2197,"Ġkind":2198,"###":2199,"ĠIm":2200,"len":2201,"Ġloss":2202,"bo":2203,"Ġexperience":2204,"ĠMay":2205,"Ġhaving":2206,"There":2207,"reen":2208,"ai":2209,"itle":2210,"ream":2211,"Ġ30":2212,"Ġhigher":2213,"Error":2214,"Ġtypes":2215,"roll":2216,"Ġneeds":2217,"Ġnever":2218,"selves":2219,"inter":2220,"ges":2221,"fo":2222,"Ġhowever":2223,"Ġaway":2224,"assert":2225,"Ġcountries":2226,"Ġenough":2227,"alf":2228,"leep":2229,"ĠGe":2230,"Ġ>":2231,"user":2232,"arser":2233,"ĠCar":2234,"Ġfri":2235,"af":2236,"Ġlay":2237,"Ġdoc":2238,"ze":2239,"Ġsource":2240,"andom":2241,"Ġcontain":2242,"ipp":2243,"--------------------------------":2244,"Ġleast":2245,"ready":2246,"Ġways":2247,"Ġconsider":2248,"ĠOne":2249,"omes":2250,"''":2251,"iction":2252,"ublic":2253,"Ġteam":2254,"Ġwind":2255,"verage":2256,"Ġaccount":2257,"Ġhouse":2258,"ĠThat":2259,"ĠGo":2260,"augh":2261,"Ġ100":2262,"Ġrequire":2263,"Ġgeneral":2264,"ĠEnglish":2265,"NA":2266,"Ġgoing":2267,"Ġsent":2268,"ype":2269,"Ġ13":2270,"].":2271,"Ġquestion":2272,"Ġteac":2273,"che":2274,"Ġ**":2275,"Ġstory":2276,"pre":2277,"ĠMar":2278,"ĠWith":2279,"value":2280,"ĠPr":2281,"Ġcollect":2282,"ourn":2283,"Ġbig":2284,"rel":2285,"aring":2286,"Ġdig":2287,"ister":2288,"chie":2289,"ising":2290,"amed":2291,"ĠSome":2292,"esc":2293,"Ġmakes":2294,"urch":2295,"Ġfurther":2296,"Ġdam":2297,"text":2298,"ump":2299,"Ġcy":2300,"Ġpolic":2301,"Ġwhether":2302,"For":2303,"eb":2304,"Ġchem":2305,"Ġsubject":2306,"Ġabs":2307,"Ġcancer":2308,"raft":2309,"ips":2310,"Ġport":2311,"Ġcheck":2312,"Ġcomplex":2313,"clus":2314,"Ġeither":2315,"Ġlower":2316,"Ġrequired":2317,"ivity":2318,"ĠSouth":2319,"etimes":2320,"Ġimprove":2321,"Ġansw":2322,"Ġoffic":2323,"Ġann":2324,"Ġtarget":2325,"Ġred":2326,"Ġground":2327,"Ġdest":2328,"Ġaddress":2329,"uation":2330,"plit":2331,"acc":2332,"ma":2333,"med":2334,"ites":2335,"Ġlen":2336,"Ġcreated":2337,"ptoms":2338,"sequ":2339,"IT":2340,"Ġcle":2341,"Ġeffects":2342,"To":2343,"Ġplants":2344,"ibility":2345,"ST":2346,"ands":2347,"Ċĉĉ":2348,"Ġinput":2349,"Ex":2350,"Ġphot":2351,"Ġespecially":2352,"Ġbuilding":2353,"ĠPol":2354,"atter":2355,"ĠAust":2356,"gress":2357,"Ġprob":2358,"Ġproduction":2359,"Ġgroups":2360,"Ġhistor":2361,"ibr":2362,"Ġconcept":2363,"ises":2364,"Ġreason":2365,"Ġaction":2366,"ĠCal":2367,"eds":2368,"Ġ194":2369,"head":2370,"Ġ@":2371,"aching":2372,"Ġalready":2373,"Ġfail":2374,"========":2375,"Ġbir":2376,"iol":2377,"Ġphysical":2378,"Ġoutput":2379,"Ġmass":2380,"ĠPar":2381,"Ġresearc":2382,"bon":2383,"model":2384,"Ġcases":2385,"Ġrecogn":2386,"bl":2387,"isc":2388,"Ġmind":2389,"Ġneg":2390,"Ġscience":2391,"Ġknowledge":2392,"Ġunderstanding":2393,"ĠNorth":2394,"Ġprotect":2395,"ĠNe":2396,"epend":2397,"22":2398,"Ġpy":2399,"oura":2400,"Ġdom":2401,"ari":2402,"fact":2403,"Ġconcer":2404,"Ġ25":2405,"ctor":2406,"ney":2407,"Ġsound":2408,"Ġrather":2409,"ĠRep":2410,"Ġseen":2411,"ĠMan":2412,"ription":2413,"ĠAb":2414,"enc":2415,"Ġdone":2416,"Ġfund":2417,"overed":2418,"Ġreally":2419,"ey":2420,"go":2421,"Ġeff":2422,"Ġmembers":2423,"ores":2424,"Ġvari":2425,"Ġsure":2426,"Ġmax":2427,"config":2428,"illed":2429,"ches":2430,"ĠSy":2431,"Ġindic":2432,"Ġgrowth":2433,"Ġglobal":2434,"url":2435,"oon":2436,"ĠIntern":2437,"Ġstudies":2438,"hold":2439,"Ġemploy":2440,"Ġengine":2441,"right":2442,"ttp":2443,"izing":2444,"ĠAss":2445,"ivil":2446,"enn":2447,"Ġresources":2448,"Ġpay":2449,"ung":2450,"Ġtotal":2451,"Ġblack":2452,"Ġfall":2453,"wh":2454,"empt":2455,"ules":2456,"oph":2457,"Ġbreak":2458,"Ġobserv":2459,"Ġhold":2460,"Ġcolor":2461,"ĠCont":2462,"ĠGu":2463,"Ġnational":2464,"Ġattack":2465,"aging":2466,"ĠTrue":2467,"org":2468,"Ġdetail":2469,"sych":2470,"Con":2471,"ences":2472,"ades":2473,"Ġpolitical":2474,"ude":2475,"elling":2476,"Ġmodern":2477,"Ġsurface":2478,"Ġrate":2479,"Ġissues":2480,"Ġep":2481,"Ġonce":2482,"order":2483,"Ġpaper":2484,"dom":2485,"rem":2486,"Ġrelig":2487,"Ġlot":2488,"Ġachie":2489,"amb":2490,"earch":2491,"Ġ11":2492,"part":2493,"Ġfrequ":2494,"writ":2495,"Ġrelationship":2496,"Ġparticip":2497,"aced":2498,"Ġupon":2499,"Ġlive":2500,"24":2501,"ĠHist":2502,"Ġfive":2503,"Ġsimple":2504,"uments":2505,"Ġsoft":2506,"Ġmusic":2507,"Ġintrodu":2508,"Al":2509,"ried":2510,"AN":2511,"Ġbegan":2512,"iter":2513,"inary":2514,"Ġbelow":2515,"Re":2516,"ĠĠĠĠĠĠĠĠĠĠĠĠĠĠĠĠĠĠĠĠĠĠĠĠ":2517,"fficient":2518,"Ġdeveloped":2519,"Ġpatients":2520,"Ġcame":2521,"Ġ--":2522,"opt":2523,"Ġexperien":2524,"Ġsite":2525,"omm":2526,"Ġassociated":2527,"ĠAmerica":2528,"ume":2529,"Ġconsidered":2530,"Ġflu":2531,"ĠFl":2532,"egr":2533,"Ġactivity":2534,"Ġactivities":2535,"resp":2536,"ĠGr":2537,"uel":2538,"Ġsymptoms":2539,"Ġliving":2540,"Ġcontent":2541,"Ġquestions":2542,"Ġarch":2543,"Ġcirc":2544,"Ġfig":2545,"itary":2546,"ening":2547,"Ġexc":2548,"Ġaccording":2549,"ĠAm":2550,"Ġactually":2551,"Ġwhite":2552,"ene":2553,"None":2554,"Ġpattern":2555,"Ġgra":2556,"Ġaddition":2557,"Ġcut":2558,"asc":2559,"ining":2560,"oat":2561,"ival":2562,"iment":2563,"Ġstates":2564,"ese":2565,"ĠYork":2566,"chan":2567,"Ġneeded":2568,"alt":2569,"Ġarticle":2570,"21":2571,"Ġessential":2572,"Ġge":2573,"apan":2574,"Ġnut":2575,"rec":2576,"ened":2577,"Ġ[]":2578,"Ġla":2579,"When":2580,"ĠAfter":2581,"Ġnature":2582,"Ġjob":2583,"Ġanimals":2584,"Ġparts":2585,"Ġmeet":2586,"ctions":2587,"Ġquality":2588,"Ġvalues":2589,"eters":2590,"ideo":2591,"Ġstop":2592,"Ġposition":2593,"Ġevidence":2594,"Ġskills":2595,"lex":2596,"Ġtook":2597,"Ġproducts":2598,"Ġwid":2599,"Ġpressure":2600,"ĠNo":2601,"Ġthemselves":2602,"Ġri":2603,"ĠBritish":2604,"Ġthought":2605,"Ġtaken":2606,"Ġentire":2607,"mission":2608,"osis":2609,"Ġprofess":2610,"Ġsuggest":2611,"Ġmarket":2612,"iddle":2613,"lying":2614,"param":2615,"ception":2616,"ĠStud":2617,"Ġpublished":2618,"Ġreduce":2619,"df":2620,"ĠHis":2621,"aged":2622,"utions":2623,"Ġcompany":2624,"Ġever":2625,"ml":2626,"Ġwhole":2627,"ster":2628,"nces":2629,"train":2630,"Ġcannot":2631,"Ġter":2632,"reed":2633,"point":2634,"Ġwriting":2635,"ĠEarth":2636,"max":2637,"ĠSoc":2638,"23":2639,"eration":2640,"Ġclimate":2641,"input":2642,"Ġidea":2643,"ections":2644,"Ġlink":2645,"new":2646,"Ġfarm":2647,"Ġcat":2648,"Ġcomes":2649,"Ġmedical":2650,"ults":2651,"thon":2652,"Ġdru":2653,"Ġweight":2654,"Ġbuilt":2655,"Ġrights":2656,"Ġquick":2657,"stance":2658,"amin":2659,"like":2660,"dat":2661,"Ġliter":2662,"Ġrelated":2663,".)":2664,"ĠDr":2665,"Ġpopular":2666,"Ġindividuals":2667,"Ġmaintain":2668,"Ġdeb":2669,"ender":2670,"Ġsepar":2671,"hib":2672,"verse":2673,"Ġopportun":2674,"Ġfamil":2675,"ĠState":2676,"Ġitself":2677,"Ġservice":2678,"Ġprevious":2679,"rown":2680,"Ġemb":2681,"ĠMe":2682,"ournal":2683,"Ġpractice":2684,"itor":2685,"RE":2686,"ĠPe":2687,"Ġmoney":2688,"Ġincreased":2689,"Ġregion":2690,"pose":2691,"dd":2692,"ustom":2693,"uff":2694,"Ġdiet":2695,"ched":2696,"Ġthroughout":2697,"uck":2698,"Ġsix":2699,"ĠSchool":2700,"Pro":2701,"ĠAct":2702,"ĊĠĠĠĠĠĠĠĠĠĠĠĠĠĠĠĠĠĠĠĠĠĠĠĠ":2703,"index":2704,"ait":2705,"ming":2706,"istance":2707,"Ġpriv":2708,"Ġ{}":2709,"ada":2710,"Ġcontinue":2711,"Ġmicro":2712,"Ġ50":2713,"You":2714,"Ġmodels":2715,"Ġeconomic":2716,"Ġfactors":2717,"IC":2718,"Ġanc":2719,"ĠĠĠĠĠĠĠĠĠĠĠĠĠĠĠĠĠĠĠĠĠĠĠĠĠĠĠĠĠĠĠĠĠĠĠĠĠĠĠĠĠĠĠĠĠĠĠĠĠĠĠĠĠĠĠĠĠĠĠĠĠĠĠĠĠĠĠĠĠĠĠĠĠĠĠĠĠĠĠĠĠĠĠĠĠĠĠĠĠĠĠĠĠĠĠĠĠĠĠĠĠĠĠĠĠĠĠĠĠĠĠĠĠĠĠĠĠĠĠĠĠĠĠĠĠĠĠĠ":2720,"Ġresearchers":2721,"ĠHealth":2722,"estern":2723,"ĠBr":2724,"ĠCo":2725,"Ġpersonal":2726,"anced":2727,"Ġability":2728,"Ġraise":2729,"Ġprote":2730,"Ġmethods":2731,"qual":2732,"Ġsun":2733,"Ġprinc":2734,"Ġseries":2735,"Ġdeg":2736,"Ġmaterials":2737,"odes":2738,"ĠDo":2739,"Ġoriginal":2740,"roup":2741,"ĠJan":2742,"ows":2743,"vert":2744,"AL":2745,"Ġhalf":2746,"umn":2747,"join":2748,"Ġcode":2749,"rench":2750,"Ġtraining":2751,"Ġemer":2752,"Ġmeasure":2753,"Ġcomputer":2754,"Ġstructure":2755,"Ġweek":2756,"ta":2757,"Ġcamp":2758,"Ġstress":2759,"Ġmor":2760,"Ġanalysis":2761,"Ġclaim":2762,"ĠII":2763,"ift":2764,"Ġconfig":2765,"ety":2766,"atives":2767,"utes":2768,"Ġ\\":2769,"Ġbar":2770,"lege":2771,"Ġskin":2772,"iate":2773,"Ġeffective":2774,"Ġsociety":2775,"Wh":2776,"Ġavoid":2777,"ography":2778,"Ġservices":2779,"met":2780,"ÂłÂłÂłÂł":2781,"ĠJapan":2782,"Ġnecessary":2783,"ground":2784,"Ġprovides":2785,"Ġgas":2786,"Ġpie":2787,"pper":2788,"Ġalmost":2789,"Ġevents":2790,"orch":2791,"olic":2792,"aries":2793,"Ġsuff":2794,"ĠEd":2795,"ĠDep":2796,"ĊĠĠĠĠ":2797,"ls":2798,"Ġyet":2799,"40":2800,"Ġrecomm":2801,"Ġproduce":2802,"Ġmach":2803,"rap":2804,"ĠQu":2805,"Ġregard":2806,"Ġrev":2807,"Ġtell":2808,"ĠSu":2809,"ĠJu":2810,"([":2811,"ension":2812,"Ġlo":2813,"icles":2814,"Ġstudent":2815,"state":2816,"itation":2817,"Ġled":2818,"Ġtrue":2819,"erous":2820,"ache":2821,"On":2822,"ĠÂ":2823,"Ġfish":2824,"ĠKing":2825,"LE":2826,"Ġmeaning":2827,"Ġterms":2828,"Ġoil":2829,"Ġdeep":2830,"Ġchalleng":2831,"Ġcontext":2832,"ops":2833,"################":2834,"Ġ+=":2835,"Ġgame":2836,"Ġfeed":2837,"Ġdecl":2838,"ĠMin":2839,"based":2840,"na":2841,"illi":2842,"Ġcondition":2843,"emic":2844,"vere":2845,"ana":2846,"Ġclean":2847,"ensive":2848,"ĠApp":2849,"Ġapproach":2850,"Ġcompet":2851,"Ġload":2852,"aff":2853,"ĠAug":2854,"erate":2855,"ament":2856,"Ġfem":2857,"Ġremain":2858,"Ġmanagement":2859,"Ġfru":2860,"ĠCount":2861,"fr":2862,"Ġshows":2863,"su":2864,"Ġtalk":2865,"Ġfire":2866,"Ġorigin":2867,"ele":2868,"32":2869,"Ġselect":2870,"Ġmonths":2871,"IS":2872,"Ġsense":2873,"ĠWhile":2874,"ĠPer":2875,"Ġsat":2876,"Ġtemperature":2877,"hood":2878,"erson":2879,"artment":2880,"ĠAustral":2881,"aving":2882,"Ġgreen":2883,"ĠFalse":2884,"Ġsleep":2885,"Ġincreasing":2886,"Ġexerc":2887,"Ġhealthy":2888,"Ġdefault":2889,"ĠJew":2890,"Ġwritten":2891,"ike":2892,"Ġclose":2893,"info":2894,"Ġclos":2895,"ccording":2896,"But":2897,"Ġtaking":2898,"Ġfat":2899,"uary":2900,"Cl":2901,"istics":2902,"Ġste":2903,"field":2904,"Ġprovided":2905,"imately":2906,"ached":2907,"Ġ->":2908,"etime":2909,"ĠInt":2910,"Ġpage":2911,"Ġconduct":2912,"Ġnormal":2913,"AC":2914,"Ġcompon":2915,"het":2916,"rs":2917,"Ġbase":2918,"Ġaccept":2919,"with":2920,"sub":2921,"rict":2922,"âĢ¦":2923,"lt":2924,"Ġsurv":2925,"reng":2926,"Ġsex":2927,"Ġbehavior":2928,"rust":2929,"Ġnetwork":2930,"oor":2931,"minist":2932,"Ġsometimes":2933,"Ġmatter":2934,"oll":2935,"cret":2936,"Ġunique":2937,"light":2938,"astic":2939,"Ġparents":2940,"abit":2941,"Ġchemical":2942,"())":2943,"Ġpredict":2944,"Ġlives":2945,"False":2946,"Ġsqu":2947,"Ġgrad":2948,"lands":2949,"ĠNot":2950,"Ġpoints":2951,"fully":2952,"aling":2953,"ename":2954,"Ġlonger":2955,"image":2956,"Ġheav":2957,"Ġheat":2958,"ĠVal":2959,"Ġinstead":2960,"ĊĠĠĠĠĠ":2961,"Ġcompl":2962,"Ġregular":2963,"Ġculture":2964,"ulations":2965,"Ġmedic":2966,"Ġdiv":2967,"idge":2968,"Ġdog":2969,"Ġreading":2970,"Ġcommand":2971,"Ġsaf":2972,"imum":2973,"Ġaverage":2974,"Ġdraw":2975,"Ġforms":2976,"ino":2977,"Com":2978,"ĠPart":2979,"aly":2980,"Ġ}":2981,"Ġseem":2982,"ev":2983,"ounter":2984,"amples":2985,"issions":2986,"umb":2987,"Ġuses":2988,"mun":2989,"Ġrequest":2990,"Ġlength":2991,"Ġhost":2992,"object":2993,"Ġthing":2994,"Ġdesigned":2995,"Ġexpress":2996,"Ġetc":2997,"ribute":2998,"().":2999,"Ġmechan":3000,"ĠOct":3001,"Ġstandard":3002,"Ġcapt":3003,"array":3004,"izer":3005,"Ġcaused":3006,"aily":3007,"orks":3008,"Ġimplement":3009,"Ġcorrect":3010,"ribution":3011,"Ġface":3012,"ha":3013,"Ġunit":3014,"pril":3015,"lease":3016,"Ġmix":3017,"Ġforce":3018,"Ġrespect":3019,"Ġhours":3020,"urs":3021,"tings":3022,"Ġonline":3023,"'.":3024,"resh":3025,"80":3026,"ama":3027,"Ġrecent":3028,"count":3029,"ius":3030,"ET":3031,"Ġbal":3032,"off":3033,"][":3034,"rapy":3035,"Ġnumbers":3036,"Ġspread":3037,"ĠPres":3038,"'re":3039,"Ġtown":3040,"ĠRet":3041,"ĠArt":3042,"Ġlate":3043,"start":3044,"arily":3045,"comp":3046,"ĠMarch":3047,"json":3048,"ED":3049,"ĠRuss":3050,"Ġsomeone":3051,"Ġassess":3052,"rag":3053,"Ġattempt":3054,"unction":3055,"Ġindustry":3056,"60":3057,"Ġ24":3058,"lim":3059,"ille":3060,"Ġdoesn":3061,"Ġpack":3062,"Ġmovement":3063,"ties":3064,"ĊĠĠĠĠĠĠĠĠĠĠĠĠĠĠĠĠĠĠĠĠĠĠĠ":3065,"Ġsimply":3066,"Ġslow":3067,"uild":3068,"Ġemot":3069,"output":3070,"Ġinvolved":3071,"aset":3072,"Ġenvironmental":3073,"book":3074,"Ġsoil":3075,"Ġensure":3076,"Ġcauses":3077,"Ġbring":3078,"Ġstarted":3079,"Ġhelps":3080,"Ġviol":3081,"uk":3082,"ĠFrench":3083,"ban":3084,"gar":3085,"loc":3086,"ided":3087,"Ġintegr":3088,"ĠComp":3089,"Ġincluded":3090,"ief":3091,"Ġpict":3092,"Ġincludes":3093,"Ġinj":3094,"main":3095,"Ġmultiple":3096,"Ġcontact":3097,"ederal":3098,"Ġissue":3099,"He":3100,"aches":3101,"Ġfeatures":3102,"itch":3103,"Ġwrite":3104,"rate":3105,"rial":3106,"Ġproduced":3107,"oration":3108,"lied":3109,"where":3110,"Ġconsist":3111,"Ġremov":3112,"Ġdemon":3113,"vey":3114,"lin":3115,"Ġcarbon":3116,"apter":3117,"ĠIndia":3118,"Ġoutside":3119,"Ġgreater":3120,"Ġsources":3121,"Ġdoing":3122,"Ġreview":3123,"Ġshare":3124,"ĠSept":3125,"Ar":3126,"ropri":3127,"Ġtax":3128,"Ġanswer":3129,"Ġfoot":3130,"Ġearth":3131,"Ġtravel":3132,"oken":3133,"ellow":3134,"Ġfilm":3135,"ĠAugust":3136,"ĠJune":3137,"Ġax":3138,"Ġtable":3139,"sv":3140,"Res":3141,"pes":3142,".[":3143,"Ġdocument":3144,"Ġpositive":3145,"och":3146,"Ġeasy":3147,"Ġsearch":3148,"erve":3149,"ement":3150,"Ġbenefits":3151,"rought":3152,"Ġstreng":3153,"Ġrefer":3154,"Ġharm":3155,"ufact":3156,"Ġtheory":3157,"Ġcompan":3158,"Ġshown":3159,"Ġ,":3160,"shape":3161,"Ġpsych":3162,"Ġtowards":3163,"que":3164,"Ġschools":3165,"cks":3166,"Ġversion":3167,"icense":3168,"ager":3169,"Ġdemand":3170,"Ġ40":3171,"Ġlack":3172,"Ġbelieve":3173,"Ġelectric":3174,"Ġnamed":3175,"Ġallows":3176,"Ġheld":3177,"Ġaff":3178,"Ġstri":3179,"Ġprec":3180,"np":3181,"mat":3182,"Ġthreat":3183,"Ġtree":3184,"Ġwild":3185,"Ġscientists":3186,"Ġencoura":3187,"Ġparticularly":3188,"ned":3189,"Ġidentify":3190,"Ġtakes":3191,"xy":3192,"ĠReg":3193,"Ġlove":3194,"ronic":3195,"Ġlines":3196,"wargs":3197,"Ġinstance":3198,"Ġperformance":3199,"ball":3200,"imal":3201,"Ġeval":3202,"Ġmessage":3203,"Ġtraditional":3204,"ĠMus":3205,"Ġbasic":3206,"Ġseason":3207,"curity":3208,"Ġdiagn":3209,"ĠCO":3210,"Ġelements":3211,"iques":3212,"Ġbacter":3213,"Ġblock":3214,"ounds":3215,"Ġrout":3216,"ricult":3217,"Ġmagn":3218,"ership":3219,"isions":3220,"Ġcomplete":3221,"ĠInstit":3222,"Ġattention":3223,"ĠChina":3224,"Ġ195":3225,"tes":3226,"Ġsold":3227,"Ġindepend":3228,"rast":3229,"ĊĠĠĠĠĠĠĠĠĠĠĠĠĠĠĠĠĠĠĠĠĠĠĠĠĠĠĠĠĠĠĠĠ":3230,"ero":3231,"ĠApril":3232,"Ġprograms":3233,"ĠJuly":3234,"Ġdemonstr":3235,"Ġmedia":3236,"Ġcross":3237,"ĠResearch":3238,"Ġexpected":3239,"Ġargs":3240,"rew":3241,"duc":3242,"Ġdou":3243,"ony":3244,"Ġaud":3245,"Ġprimary":3246,"Ġcommit":3247,"mbol":3248,"ĠCons":3249,"nown":3250,"attle":3251,"Ġaspect":3252,"pite":3253,"trans":3254,"ĠWest":3255,"itude":3256,"bit":3257,"Ġinside":3258,"ĠGerman":3259,"Ġdamage":3260,"Ġvideo":3261,"Ġ2010":3262,"atively":3263,"fect":3264,"year":3265,"Ġbroad":3266,"Ġgenerally":3267,"Ġeat":3268,"ĠSw":3269,"plot":3270,"abet":3271,"Ġexec":3272,"Ġfav":3273,"run":3274,"db":3275,"64":3276,"Ġaccom":3277,"Ġfinal":3278,"Ġrepl":3279,"Ġsafe":3280,"Ġadded":3281,"ĠYour":3282,"pid":3283,"nov":3284,"split":3285,"ĠMore":3286,"Ġmother":3287,"ĠEuropean":3288,"One":3289,"ĠChar":3290,"cember":3291,"Ġreported":3292,"Ġnight":3293,"Ġthird":3294,"Ġ2012":3295,"Ġshape":3296,"Ġdate":3297,"bor":3298,"ĠIS":3299,"actions":3300,"ington":3301,"Ġestablished":3302,"99":3303,"Ġmilitary":3304,"Ġsust":3305,"ram":3306,"Ġtools":3307,"Â°":3308,"Ġcivil":3309,"Ġeth":3310,"ĠSeptember":3311,"Ġpolicy":3312,"Ġvariety":3313,"ĠSch":3314,"Ġborn":3315,"room":3316,"Ġprobably":3317,"uge":3318,"Ġhyd":3319,"33":3320,"rie":3321,"ken":3322,"Ġimages":3323,"Ġsoftware":3324,"Ġsea":3325,"code":3326,"Ġlocated":3327,"ovember":3328,"Ġfront":3329,"Ġir":3330,"Ġreflect":3331,"Ġdifference":3332,"Ġforest":3333,"cial":3334,"anks":3335,"Ġinternational":3336,"____":3337,"Ġreceived":3338,"Ġwebs":3339,"Ġcommunities":3340,"By":3341,"Ġsil":3342,"100":3343,"ervation":3344,"Ġanimal":3345,"Ġwon":3346,"ĠAg":3347,"Ġec":3348,"Ġelif":3349,"ĠSm":3350,"oding":3351,"ributed":3352,"cles":3353,"irit":3354,"ĠHistory":3355,"ĠJanuary":3356,"ĠScience":3357,"oes":3358,"Ġwarm":3359,"Ġbit":3360,"Ġextra":3361,"Ġleading":3362,"Ġprogress":3363,"ĠOctober":3364,"ĠAdd":3365,"Ġcustom":3366,"RO":3367,"asons":3368,"UT":3369,"Ġstatus":3370,"Ġearli":3371,"ĠBar":3372,"Ġhumans":3373,"come":3374,"Ġbehind":3375,"Ġideas":3376,"lay":3377,"Ġfinanc":3378,"Ġ2011":3379,"Ġpoor":3380,"Ġgrowing":3381,"Ġwent":3382,"Ġfeet":3383,"Ġaltern":3384,"Ġid":3385,"Ġwall":3386,"Ġgetting":3387,"ĠMy":3388,"ĠMany":3389,"Ġlarger":3390,"mark":3391,"ĠGl":3392,"imin":3393,"Ġwood":3394,"oles":3395,"Sc":3396,"Ġindex":3397,"Ġhor":3398,"oud":3399,"ĠEm":3400,"Ġcritical":3401,"Ġdeveloping":3402,"Ġthus":3403,"Ġaccur":3404,"ĠMon":3405,".__":3406,"Ġreve":3407,"odel":3408,"Ġdevice":3409,"used":3410,"AP":3411,"Ġrandom":3412,"Ġanaly":3413,"ttps":3414,"Ġmanufact":3415,"Ġparam":3416,"conn":3417,"iles":3418,"ĠDes":3419,"Ġinvestig":3420,"icated":3421,"Ġago":3422,"ĠHar":3423,"Ġquant":3424,"Ġbooks":3425,"www":3426,"return":3427,"Ġang":3428,"ĠIndian":3429,"Ġvalid":3430,"Ġactive":3431,"ceed":3432,"ĠEl":3433,"Ġsequ":3434,"Ġvisit":3435,"ĠAc":3436,"Ġmember":3437,"inks":3438,"Ġspeed":3439,"Ġaware":3440,"uration":3441,"Ġcover":3442,"ĊĊĠĠĠĠĠĠĠĠĠĠĠ":3443,"iforn":3444,"ecause":3445,"AM":3446,"Ġfoods":3447,"So":3448,"exp":3449,"Ġlooking":3450,"useum":3451,"ĠPre":3452,"Ġoffer":3453,"Ġmom":3454,"Ġvirus":3455,"Ġbur":3456,"ION":3457,"wise":3458,"Ġcit":3459,"Ġroad":3460,"Ġprep":3461,"Ġ2013":3462,"ech":3463,"Im":3464,"haps":3465,"ĠFeb":3466,"write":3467,"ĠMc":3468,"Ġ21":3469,"Ġstat":3470,"Ġformer":3471,"Ġquite":3472,"Ġful":3473,"ulate":3474,"onom":3475,"90":3476,"erg":3477,"orpor":3478,"Ġframe":3479,"joy":3480,"Ġjson":3481,"Ġserious":3482,"net":3483,"ĠAnt":3484,"wo":3485,"Ġobtain":3486,"istry":3487,"dis":3488,"process":3489,"Ġmemory":3490,"Ġeasily":3491,"ica":3492,"Ġrow":3493,"Ġcontains":3494,"Ġadditional":3495,"Ġquickly":3496,"Un":3497,"Ġord":3498,"izes":3499,"Ġexact":3500,"inct":3501,"Ġpatient":3502,"Ġsafety":3503,"Ġcred":3504,"iency":3505,"Ġmental":3506,"cean":3507,"hing":3508,"Ġlif":3509,"Ġâ":3510,"Ġsection":3511,"Ġvacc":3512,"Ġdaily":3513,"Ġnorth":3514,"ĠHer":3515,"Ġinstit":3516,"ĠUs":3517,"Ġsal":3518,"ĠOther":3519,"SE":3520,"Ġdirectly":3521,"Ġscientific":3522,"Ġcompared":3523,"27":3524,"ĠDecember":3525,"iers":3526,"Ġaim":3527,"Ġcultural":3528,"Ġtorch":3529,"aul":3530,"ifornia":3531,"Ġbad":3532,"ibrary":3533,"board":3534,"ĠTest":3535,"vant":3536,"Ġconnect":3537,"elt":3538,"Ġachieve":3539,"ider":3540,"Ġdetermine":3541,"Equal":3542,"Ġconcent":3543,"Ġspeak":3544,"Ġdem":3545,"Ġsn":3546,"Ġestim":3547,"ags":3548,"alled":3549,"Ġstrateg":3550,"Ġcompanies":3551,"Ġnames":3552,"ancy":3553,"isms":3554,"Ġ`":3555,"term":3556,"ĊĊĊ":3557,"ĠMost":3558,"ĠDav":3559,"ensor":3560,"ĠCity":3561,"Ġimag":3562,"Ġdied":3563,"CO":3564,"ĠAfrica":3565,"Ġappropri":3566,"Ġcreating":3567,"Ġalthough":3568,"Data":3569,"ĠFirst":3570,"Ġcentral":3571,"Ġstay":3572,"Ġthous":3573,"amer":3574,"Ġobjects":3575,"Ġofficial":3576,"Ġcopy":3577,"ĠGree":3578,"ĠNovember":3579,"rote":3580,"ĠInternational":3581,"outhern":3582,"AD":3583,"lict":3584,"ĠÐ":3585,"Ġones":3586,"Ġnuc":3587,"Ġcalcul":3588,"[:":3589,"Ġtherefore":3590,"Ġexpect":3591,"Ġsurround":3592,"cil":3593,"Ġ2014":3594,"Ġfeature":3595,"ilos":3596,"itect":3597,"Ġtransport":3598,"edi":3599,"da":3600,"Ġpropos":3601,"ht":3602,"ara":3603,"ĠWilli":3604,"parse":3605,"vention":3606,"Ġprior":3607,"lation":3608,"Ġroot":3609,"Ġapplication":3610,"Ġfather":3611,"Ġtend":3612,"Ġdescribed":3613,"clusion":3614,"ĠCenter":3615,"Ġdang":3616,"ĠChe":3617,"ĠRec":3618,"Ġtechniques":3619,"orthern":3620,"eed":3621,"Ġsus":3622,"Ġdecre":3623,"inese":3624,"Ġlost":3625,"Ġfit":3626,"irection":3627,"ruary":3628,"Ġadapt":3629,"Ġveget":3630,"Ġsecurity":3631,"Ġgot":3632,"olar":3633,"Ġsong":3634,"Ġcru":3635,"II":3636,"oke":3637,"rack":3638,"ĠFrom":3639,"yond":3640,"Ġsoon":3641,"Step":3642,"irm":3643,"Ġeye":3644,"ĠAfrican":3645,"Ġbirth":3646,"Ġancient":3647,"Ġfast":3648,"28":3649,"Ġrequires":3650,"Ġder":3651,"ĠRiver":3652,"Ġnation":3653,"Ġwalk":3654,"ipl":3655,"Ġprop":3656,"Ġsouth":3657,"ondon":3658,"Ġson":3659,"Ġhot":3660,"Ġbab":3661,"oe":3662,"Ġmount":3663,"Ġlocation":3664,"Ġcard":3665,"Ġfight":3666,"Ġtrack":3667,"rest":3668,"Ġreleased":3669,"Ġinfluence":3670,"35":3671,"CT":3672,"ĠCalifornia":3673,"roy":3674,"Ġtests":3675,"Ġhttp":3676,"Ġfamilies":3677,"oice":3678,"Ġwhose":3679,"Ġkids":3680,"{}":3681,"Ġlabel":3682,"osition":3683,"Ġ2009":3684,"label":3685,"bed":3686,"gl":3687,"Ġtiss":3688,"gn":3689,"icate":3690,"Ġsave":3691,"Ġfriend":3692,"osing":3693,"airs":3694,"ĠDis":3695,"Ġbecomes":3696,"Ġstring":3697,"ham":3698,"omet":3699,"Ġcapital":3700,"izations":3701,"ĠEngland":3702,"uman":3703,"Ġsys":3704,"Ġ2008":3705,"And":3706,"Se":3707,"IV":3708,"Ġfiles":3709,"ĠTrans":3710,"uous":3711,"range":3712,"Ġacid":3713,"uate":3714,"rong":3715,"HE":3716,"Ġtim":3717,"ford":3718,"Ġseems":3719,"ologies":3720,"Ġbeginning":3721,"Ġgraph":3722,"Ġhighly":3723,"Ġcomplet":3724,"known":3725,"Ġdefin":3726,"Ġproperty":3727,"34":3728,"reet":3729,"anch":3730,"26":3731,"just":3732,"Ã¡":3733,"undred":3734,"Ġparser":3735,"Ġtrees":3736,"Ġhistorical":3737,"abase":3738,"ĠĠĠĠĠĠĠĠĠĠĠ":3739,"Ġcenter":3740,"ĠEduc":3741,"Ġmole":3742,"Ġprocesses":3743,"Ġcateg":3744,"Ġlimited":3745,"At":3746,"Ġimportance":3747,"Ġsolution":3748,"no":3749,"à¤":3750,"illing":3751,"rad":3752,"ĠHigh":3753,"ula":3754,"active":3755,"uries":3756,"Ġstru":3757,"Ġinsp":3758,"Ġweb":3759,"Ġdecision":3760,"odies":3761,"ĠInstitute":3762,"Ġ2015":3763,"map":3764,"Ġthinking":3765,"Ġteachers":3766,"ĠPark":3767,"Ġdark":3768,"Ġprivate":3769,"Ġsolar":3770,"Ġlimit":3771,"Ġenjoy":3772,"hens":3773,"down":3774,"Test":3775,"Ġadminist":3776,"Ġuseful":3777,"Ġdiseases":3778,"70":3779,"Ġeveryone":3780,"Ġminutes":3781,"Ġcolon":3782,"aur":3783,"urg":3784,"rig":3785,"hand":3786,"ocks":3787,"Ġappe":3788,"ãģ":3789,"eks":3790,"Ġexplore":3791,"iot":3792,"ĠChristian":3793,"Ġcommunication":3794,"Ġsituation":3795,"Ġnews":3796,"Ġmid":3797,"Ġremains":3798,"Ġvill":3799,"Ġtask":3800,"annel":3801,"igr":3802,"Ġvit":3803,"Ġinitial":3804,"Ġsupply":3805,"rab":3806,"Ġsustain":3807,"amic":3808,"ĠCounty":3809,"Ġgoal":3810,"Ġsevere":3811,"can":3812,"Ġcool":3813,"(),":3814,"tem":3815,"ico":3816,"Ġdisplay":3817,"Sh":3818,"Ġpurpose":3819,"Ġdry":3820,"Ġjud":3821,"Ġnegative":3822,"cast":3823,"Ġreligious":3824,"overy":3825,"Ġproced":3826,"ogle":3827,"Ġfinancial":3828,"fort":3829,"Ġwide":3830,"Ġforces":3831,"Ġlabor":3832,"men":3833,"Ġvia":3834,"ĠHol":3835,"Ġhar":3836,"rix":3837,"method":3838,"unch":3839,"Ġmention":3840,"ĠAlthough":3841,"anish":3842,"Ġlargest":3843,"orage":3844,"ocr":3845,"omb":3846,"ĠRed":3847,"ector":3848,"Ġfunctions":3849,"sum":3850,"Ġprotein":3851,"Ġund":3852,"Ġscale":3853,"Ġveh":3854,"Ġarri":3855,"vision":3856,"Ġtypically":3857,"ĉĉ":3858,"Ġdevices":3859,"ĠPresident":3860,"ĠDepartment":3861,"oday":3862,"((":3863,"ĠJes":3864,"Ġcapac":3865,"gency":3866,"Ġexercise":3867,");":3868,"elebr":3869,"ĠServ":3870,"Ġrock":3871,"Ġpan":3872,"assertEqual":3873,"ĠIr":3874,"rogen":3875,"Ġstage":3876,"Ġvict":3877,"ĠFebruary":3878,"Ġdrink":3879,"ship":3880,"Ġhands":3881,"pred":3882,"Ġestablish":3883,"Ġ2016":3884,"Ġdoctor":3885,"Ġautom":3886,"Ġpractices":3887,"36":3888,"Ġcarry":3889,"Ġexamples":3890,"Ġbrought":3891,"Ġelement":3892,"78":3893,"Ġcou":3894,"porary":3895,"Ġefforts":3896,"ellig":3897,"lib":3898,"Ġbeaut":3899,"pass":3900,"instance":3901,"ensity":3902,"29":3903,"ĠBo":3904,"aid":3905,"ĠUnder":3906,"change":3907,"Ġtransform":3908,"Ġwrote":3909,"Ġenh":3910,"Ġoptions":3911,"valid":3912,"ternal":3913,"ĠLondon":3914,"ky":3915,"Ġplaces":3916,"Ġball":3917,"ros":3918,"ĠChurch":3919,"Ġhimself":3920,"Ġroom":3921,"request":3922,"ĠUnion":3923,"orders":3924,"Ġstories":3925,"kwargs":3926,"Ġoverall":3927,"ĠCanada":3928,"Ġworkers":3929,"osure":3930,"Ġice":3931,"lor":3932,"Ġrob":3933,"Ġeverything":3934,"craft":3935,"Ġdict":3936,"Ġten":3937,"Ġerror":3938,"box":3939,"ĠAssoci":3940,"Ġgard":3941,"ought":3942,"Ġsort":3943,"oming":3944,"ĊĠĠĠĠĊĠĠĠ":3945,"Ġapplications":3946,"Ġvisual":3947,"Ġpoll":3948,"OT":3949,"Cont":3950,"Ġreach":3951,"asks":3952,"Ġbox":3953,"Ġconflict":3954,"argument":3955,"ulated":3956,"Ġpromot":3957,"Ġsteps":3958,"Ġfriends":3959,"Ġneigh":3960,"Ġhabit":3961,"ĠChinese":3962,"****":3963,"Ġ2007":3964,"ords":3965,"Ġmatch":3966,"level":3967,"Ġwin":3968,"hel":3969,"DE":3970,"Ġrates":3971,"Ġsymbol":3972,"Ġbeyond":3973,"plate":3974,"Ġrules":3975,"mar":3976,"Ġ60":3977,"ani":3978,"Ġgain":3979,"ĠEast":3980,"Ġusers":3981,"Ġsaw":3982,"Ġscreen":3983,"Ġ]":3984,"ä¸":3985,"Ġcontroll":3986,"more":3987,"Ġ23":3988,"Ġtele":3989,"Ġmill":3990,"Ġ...":3991,"rees":3992,"zer":3993,"idents":3994,"Ġcontinued":3995,"Ġtrade":3996,"aught":3997,"api":3998,"ipment":3999,"ocol":4000,"Ġdigital":4001,"string":4002,"abetes":4003,"Ġformat":4004,"Ġchallenges":4005,"ĠGreat":4006,"Ġinfection":4007,"Ġresponsible":4008,"ague":4009,"Ġtitle":4010,"Ġtesting":4011,"Ġcosts":4012,"ĠRoman":4013,"Ġmis":4014,"Ġburn":4015,"iar":4016,"Ġstyle":4017,"Ġpick":4018,"With":4019,"ĠLab":4020,"unc":4021,"Ġ!":4022,"Ġhous":4023,"Ġseek":4024,"ĠWash":4025,"Ġrain":4026,"Ġallowed":4027,"Ġfollowed":4028,"ste":4029,"Ġmap":4030,"udd":4031,"itable":4032,"Ġhundred":4033,"Ġprofessional":4034,"mosp":4035,"Ġsmaller":4036,"Ġconstruction":4037,"ying":4038,"Ġconstruct":4039,"ĠDuring":4040,"Ġanything":4041,"arian":4042,"atform":4043,"Ġisn":4044,"iples":4045,"Ġyourself":4046,"Ġrapid":4047,"Ġexplain":4048,"atur":4049,"Ġsuccessful":4050,"Ġfuel":4051,"aled":4052,"ĠGovern":4053,"Ġmiddle":4054,"Ġeyes":4055,"Ġ22":4056,"flow":4057,"Ġfields":4058,"Ġdistance":4059,"coh":4060,"dim":4061,"edia":4062,"Ġ28":4063,"Ġitem":4064,"ĠBlack":4065,"see":4066,"ouncil":4067,"Ġ2017":4068,"ĠSystem":4069,"otal":4070,"Ġlogging":4071,"vest":4072,"orge":4073,"enge":4074,"pped":4075,"Ġleaves":4076,"Ġcitiz":4077,"Ġcoll":4078,"Ġtrying":4079,"ĠTechn":4080,"Ġegg":4081,"Ġprojects":4082,"Ġlegal":4083,"Ġmiss":4084,"Ġdepend":4085,"ildren":4086,"Ġrespond":4087,"IM":4088,"ĠHere":4089,"Ġinform":4090,"Ġworked":4091,"Ġadvant":4092,"Ġbound":4093,"Ġsample":4094,"Ġoption":4095,"Ġclin":4096,"ĠHouse":4097,"Ġnearly":4098,"Ġmiles":4099,"Ġcollection":4100,"Ġplayed":4101,"Ġbott":4102,"38":4103,"sect":4104,"Ġfix":4105,"Ġcook":4106,"Ġconstant":4107,"works":4108,"Ġgives":4109,"orial":4110,"Ġteaching":4111,"Ġhon":4112,"Ġforward":4113,"Ġtold":4114,"ĠFin":4115,"Ġmer":4116,"ĠAng":4117,"Ġinstr":4118,"stant":4119,"Is":4120,"Ġweeks":4121,"iber":4122,"ĠJust":4123,"Ġrule":4124,"Ġapprox":4125,"Ġmag":4126,"Ġappropriate":4127,"Ġformed":4128,"water":4129,"199":4130,"Ġdead":4131,"life":4132,"Ġbacteria":4133,"Ġrare":4134,"Ġhyp":4135,"Ġconstit":4136,"âĢ¢":4137,"Ġremember":4138,"ordin":4139,"rael":4140,"ING":4141,"'],":4142,"Ġrunning":4143,"ingu":4144,"UR":4145,"Ġacqu":4146,"Ġproviding":4147,"Ġagricult":4148,"ĠAmericans":4149,"Field":4150,"ĠDay":4151,"37":4152,"Ġtf":4153,"Ġpatterns":4154,"Ġnothing":4155,"Ġexperiences":4156,"emy":4157,"Ġking":4158,"reme":4159,"Ġprotection":4160,"Ð°":4161,"Ġden":4162,"ĠCong":4163,"ias":4164,"ĠCommun":4165,"Ġcoast":4166,"ĠSan":4167,"ĠAir":4168,"grad":4169,"Ġnovel":4170,"Ġcelebr":4171,"Ġshall":4172,"Ð¾":4173,"Ġ26":4174,"igned":4175,"ald":4176,"Ġaw":4177,"Ġwaste":4178,"Ġsch":4179,"ref":4180,"Ġvers":4181,"atin":4182,"ĠFrance":4183,"Ġap":4184,"usion":4185,"hemat":4186,"Ġasked":4187,"Ġdegree":4188,"Ġwond":4189,"Ġ2000":4190,"env":4191,"Ġcurrently":4192,"Ġpowerful":4193,"bre":4194,"Ġproperties":4195,"Ġitems":4196,"lies":4197,"iring":4198,"Ġmachine":4199,"ĠPat":4200,"Ġbul":4201,"Ġspirit":4202,"Ġearlier":4203,"Ġbehavi":4204,"ĠPress":4205,"Ġnumpy":4206,"icip":4207,"Ġsec":4208,"Ġplanet":4209,"Ġgoes":4210,"Ġactions":4211,"zz":4212,"Ġcold":4213,"Ġwoman":4214,"Col":4215,"Ġserved":4216,"itis":4217,"Ġanti":4218,"Ġdifferences":4219,"Ġdyn":4220,"ĠCour":4221,"Ġchoose":4222,"39":4223,"Ġguid":4224,"Ġwebsite":4225,"Ġelectr":4226,"Ġ27":4227,"Ġdeal":4228,"bin":4229,"Ġchanged":4230,"ĠCor":4231,"'])":4232,"message":4233,"Ġbasis":4234,"Ġdiscovered":4235,"Ġlaws":4236,"ĠList":4237,"Ġconnection":4238,"Ġgold":4239,"ĠGermany":4240,"Ġcontribut":4241,"Ġreasons":4242,"client":4243,"img":4244,"Ġadults":4245,"Ġsummer":4246,"ube":4247,"ĠAustralia":4248,"Ġsites":4249,"ĠNow":4250,"phas":4251,"Ġstrength":4252,"Ġexpand":4253,"US":4254,"ĠLicense":4255,"lo":4256,"Ġolder":4257,"Ġconsequ":4258,"hest":4259,"Ġvirt":4260,"ĠMex":4261,"Ġ2006":4262,"Ġboard":4263,"Ġdim":4264,"Ġoccurs":4265,"Ġstation":4266,"semb":4267,"ĠĠĠĠĠĠĠĠĠĠ":4268,"standing":4269,"equ":4270,"Ġplt":4271,"Ġorganization":4272,"Ġrat":4273,"Ġarchitect":4274,"ospital":4275,"ĠLet":4276,"iful":4277,"top":4278,"45":4279,"Ġlayer":4280,"Type":4281,"Ġlat":4282,"ĠVir":4283,"ĠAccording":4284,"error":4285,"stances":4286,"rupt":4287,"Ġcomponents":4288,"Ġchurch":4289,"Ġpow":4290,"Ġeconomy":4291,"Ġ2018":4292,"Ġbelief":4293,"encies":4294,"ĠJesus":4295,"ĠWashington":4296,"Ġcareer":4297,"ees":4298,"Ġcop":4299,"Ġcontract":4300,"Ġweather":4301,"Ġmut":4302,"acters":4303,"Ġteacher":4304,"Ġtur":4305,"Ġfear":4306,"ĠBi":4307,"born":4308,"Ġ2020":4309,"ĠRead":4310,"Ġpassed":4311,"vis":4312,"Ġult":4313,"Ġsugar":4314,"Ġ190":4315,"ĠDef":4316,"Ġrot":4317,"result":4318,"ux":4319,"ĠDevelop":4320,"ĠThen":4321,"ĠLaw":4322,"All":4323,"wide":4324,"ĠPhil":4325,"Ġrepe":4326,"Ġdirection":4327,"ĠĠĠĠĠĠĠĠĠ":4328,"Ġrich":4329,"iny":4330,"ĠEven":4331,"ĠĠĠĠĠĠĠĠĠĠĠĠ":4332,"Ġreceive":4333,"Ġequal":4334,"Ġessay":4335,"bum":4336,"------":4337,"ĠInter":4338,"ĠGeneral":4339,"Ġprice":4340,"Ġnorm":4341,"Ġaffected":4342,"Ġplaced":4343,"Ġdidn":4344,"ĠDNA":4345,"Ġeating":4346,"wid":4347,"Ġcompletely":4348,"Ġphilos":4349,"Ġfemale":4350,"igen":4351,"Ġstar":4352,"Ġdrug":4353,"Ġrise":4354,"oses":4355,"Ġmoved":4356,"These":4357,"unk":4358,"âĢĿ.":4359,"Ġfair":4360,"ii":4361,".\"\"\"":4362,"estic":4363,"mitted":4364,"Ġinteresting":4365,"Ġequipment":4366,"Ġinnov":4367,"fix":4368,"length":4369,"Ġleave":4370,"Ġalone":4371,"Ġenter":4372,"Ġrecently":4373,"cohol":4374,"Ġmath":4375,"eline":4376,"Ġfa":4377,"ications":4378,"pret":4379,"idden":4380,"html":4381,"ĠWilliam":4382,"Ġperfect":4383,"Ġyield":4384,"omas":4385,"Ġpurch":4386,"aign":4387,"road":4388,"ĠUse":4389,"Ġevolution":4390,"Ġshap":4391,"Ġswe":4392,"ibly":4393,"ĠOver":4394,"Ġmoment":4395,"Ġoccup":4396,"ĠDon":4397,"Ġremove":4398,"Ġbenefit":4399,"Ġbeg":4400,"Ġcollab":4401,"Ġrelease":4402,"Ġatmosp":4403,"ĠSer":4404,"Ġcand":4405,"Ġcry":4406,"item":4407,"Ġstore":4408,"Ġcommonly":4409,"Ġextrem":4410,"Ġtransfer":4411,"ĠLear":4412,"Ġgave":4413,"lete":4414,"Ġdetails":4415,"IL":4416,"Ġmoving":4417,"ĠKe":4418,"Ġauth":4419,"Ġactual":4420,"Ġexisting":4421,"force":4422,"Ġdefined":4423,"Ġgenetic":4424,"Ġstrugg":4425,"ĠIsrael":4426,"status":4427,"lant":4428,"struct":4429,"ĠArch":4430,"While":4431,"Ġfederal":4432,"Ġgir":4433,"ĠCollege":4434,"Int":4435,"ares":4436,"ĠNet":4437,"Ġcorn":4438,"After":4439,"Ġreduced":4440,"Ġchoice":4441,"Ġemail":4442,"create":4443,"gor":4444,"Ġeight":4445,"Ġtoward":4446,"ĠMich":4447,"Ġsitu":4448,"ij":4449,"Ġpiece":4450,"rip":4451,"ĠSince":4452,"Ġcommerc":4453,"ĠEducation":4454,"================":4455,"AB":4456,"Ðµ":4457,"75":4458,"Ġtherapy":4459,"house":4460,"Ġacad":4461,"ĠMor":4462,"Ġapplied":4463,"Ġpicture":4464,"Ġ!=":4465,"Ġeventually":4466,"lines":4467,"ios":4468,"Ġign":4469,"Ġassum":4470,"pan":4471,"Ġfactor":4472,"Ġutil":4473,"Ġpet":4474,"Ġdestroy":4475,"Ġmeasures":4476,"Ġnav":4477,"host":4478,"ĠPal":4479,"gu":4480,"Ġbalance":4481,"Ġeffort":4482,"ĠSur":4483,"Ġtou":4484,"ĠSim":4485,"Ġpresident":4486,"Ġefficient":4487,"step":4488,"ifically":4489,"Ġoffers":4490,"ĠOf":4491,"Ġillust":4492,"'ll":4493,"ĠCur":4494,"Ġheight":4495,"ners":4496,"Ġcompar":4497,"Now":4498,"ĠAre":4499,"gal":4500,"ĠLa":4501,"rep":4502,"Ġopportunities":4503,"Ġbirds":4504,"alle":4505,"Ġparty":4506,"Ġbillion":4507,"dev":4508,"ĠJames":4509,"Ġstrategies":4510,"ĠUK":4511,"node":4512,"aker":4513,"Ġfigure":4514,"Ġgames":4515,"rome":4516,"Ġnote":4517,"ĠDist":4518,"ĠPeople":4519,"Ġwrong":4520,"reedom":4521,"Ġfavor":4522,"Ġstructures":4523,"En":4524,"Ġexposure":4525,"Ġdf":4526,"ĠAN":4527,"ris":4528,"ĠTheir":4529,"Ġjoint":4530,"osy":4531,"Some":4532,"Ġ--------":4533,"Ġdistrict":4534,"Ġ2005":4535,"ĠOur":4536,"Ġconv":4537,"ĠEach":4538,"Ph":4539,"ĠBook":4540,"Ġmob":4541,"Ġcapacity":4542,"Ġopportunity":4543,"Ġmajority":4544,"Ġband":4545,"efore":4546,"ĠDem":4547,"ĠSociety":4548,"Ġpresence":4549,"PI":4550,"pat":4551,"csv":4552,"Ġcoming":4553,"Ġing":4554,"ĠRepublic":4555,"Ġcities":4556,"iding":4557,"Ġnode":4558,"abilities":4559,"rief":4560,"iences":4561,"raction":4562,"spec":4563,"ĠDavid":4564,"ously":4565,"pen":4566,"Ġwinter":4567,"Ġcharacters":4568,"Ġforeign":4569,"aste":4570,"ogen":4571,"Ġassist":4572,"ĠAlso":4573,"ĠWestern":4574,"Name":4575,"ĠÃ":4576,"ync":4577,"Ġperspect":4578,"post":4579,"erences":4580,"do":4581,"Ġpen":4582,"Ġfully":4583,"Ġround":4584,"care":4585,"Ġresource":4586,"Ġoffice":4587,"EM":4588,"ĠBra":4589,"rim":4590,"ĠPy":4591,"enty":4592,"Ġapply":4593,"Ġstandards":4594,"base":4595,"aters":4596,"Ġdrugs":4597,"Ġappears":4598,"Ġperhaps":4599,"ĠMet":4600,"Ġspect":4601,"Ġqual":4602,"title":4603,"float":4604,"values":4605,"open":4606,"Ġpeace":4607,"Ġcounter":4608,"Ġ2019":4609,"ĠRem":4610,"Ġdistribution":4611,"Ġregions":4612,"Ġblue":4613,"ĠÂł":4614,"PS":4615,"Ġexhib":4616,"ĠSpec":4617,"iance":4618,"Ġclient":4619,"ĠJewish":4620,"Ġimmune":4621,"Ġaspects":4622,"gypt":4623,"Ġsignificantly":4624,"Ġidentified":4625,"Ġteeth":4626,"rors":4627,"find":4628,"Ġgene":4629,"Ġseparate":4630,"uit":4631,"ĠData":4632,"Ġbelieved":4633,"Ġhope":4634,"ping":4635,"iated":4636,"Ġrecommend":4637,"IG":4638,"'),":4639,"01":4640,"ĠAssociation":4641,"group":4642,"ida":4643,"Ġdivid":4644,"List":4645,"ĠJapanese":4646,"Ġcomment":4647,"Ġcore":4648,"filename":4649,"Ġriver":4650,"aint":4651,"ĠRober":4652,"Le":4653,"Ġwatch":4654,"Ġworth":4655,"ĠGreen":4656,"Ġpregn":4657,"asion":4658,"Ġ'''":4659,"ĠJournal":4660,"ĠPaul":4661,"Ġexperiment":4662,"Ġserve":4663,"ÃŃ":4664,"Ġvoc":4665,"itionally":4666,"frame":4667,"Ġ29":4668,"Ġdb":4669,"Ġteach":4670,"eding":4671,"From":4672,"Ġemphas":4673,"ĠOb":4674,"Ġwa":4675,"Ġdiabetes":4676,"token":4677,"last":4678,"Ġoperations":4679,"bal":4680,"Ġincreases":4681,"Ġreference":4682,"nn":4683,"sk":4684,"Ġgiving":4685,"Ġbackground":4686,"Ġfresh":4687,"Ġlived":4688,"Ġrelatively":4689,"65":4690,"related":4691,"Ġvot":4692,"oyal":4693,"respond":4694,"names":4695,"Ġmission":4696,"Ġhair":4697,"body":4698,"Ġeffic":4699,"ĠBel":4700,"md":4701,"Ġshowed":4702,"default":4703,"ped":4704,"No":4705,"ya":4706,"ĠBecause":4707,"Ġjournal":4708,"HO":4709,"yd":4710,"oo":4711,"Ġmale":4712,"rops":4713,"gment":4714,"ĠPort":4715,"xygen":4716,"oma":4717,"Ġstim":4718,"Ġunc":4719,"Ġplatform":4720,"ĠInst":4721,"Ġlearned":4722,"Ġbank":4723,"PA":4724,"params":4725,"Ġesc":4726,"Ġscen":4727,"Ġrecords":4728,"Ġincome":4729,"*-":4730,"war":4731,"ĠGeorge":4732,"Ġnumerous":4733,"Ġbreath":4734,"Ġinvolves":4735,"Ġhom":4736,"48":4737,"Ġabsor":4738,"rics":4739,"Ġperformed":4740,"Ġincorpor":4741,"Ġresistance":4742,"utils":4743,"Ġmouth":4744,"Ġclasses":4745,"check":4746,"ĠIN":4747,"leg":4748,"Ġsigns":4749,"win":4750,"ĠMat":4751,"Ġfruit":4752,"olved":4753,"ĠMod":4754,"uls":4755,"Ġtopic":4756,"umber":4757,"response":4758,"gorith":4759,"Ġphen":4760,"ails":4761,"Ġexperim":4762,"Ġcitizens":4763,"LO":4764,"ounced":4765,"31":4766,"ĊĊĊĊ":4767,"ï¼":4768,"ĠMary":4769,"Ġstarting":4770,"Ġradio":4771,"rick":4772,"Ġrestr":4773,"Not":4774,"rc":4775,"older":4776,"ĠProgram":4777,"keys":4778,"Ġintellig":4779,"Ġliterature":4780,"save":4781,"Ġmess":4782,"models":4783,"Ġtransl":4784,"Ġiron":4785,"Ġfamous":4786,"Ġillness":4787,"Ġbecoming":4788,"Ġexactly":4789,"ĠWater":4790,"Ġinstruct":4791,"la":4792,"]:":4793,"Ġwanted":4794,"Ġthousands":4795,"Ġreplace":4796,"ĠProf":4797,"Ġhappen":4798,"inated":4799,"Ġconnected":4800,"Ġsetting":4801,"Ġunits":4802,"dec":4803,"Ġnative":4804,"Ġobserved":4805,"Ġtox":4806,"Ġguide":4807,"Ġgoals":4808,"sec":4809,"Ġsignal":4810,"ĠPublic":4811,"Ġcourt":4812,"Ġ(\"":4813,"ambda":4814,"Ġgets":4815,"ĠSub":4816,"Ġlib":4817,"Ġded":4818,"Ġanx":4819,"Ġgeneration":4820,"mary":4821,"Ġtissue":4822,"Ġrelationships":4823,"Ġletter":4824,"ĠRev":4825,"Ġorganizations":4826,"Ġintroduced":4827,"Ġcommercial":4828,"'ve":4829,"nes":4830,"ĠMark":4831,"Ġreality":4832,"Ġtru":4833,"Ġdistinct":4834,"ga":4835,"Ġdetect":4836,"Ġbodies":4837,"Ġattract":4838,"ĠRich":4839,"Ġ-*-":4840,"Ġliqu":4841,"Ġconver":4842,"Ġnutri":4843,"Ġemissions":4844,"Ġplayer":4845,"quest":4846,"Ġexpression":4847,"gery":4848,"Ġkilled":4849,"Ġheavy":4850,"uable":4851,"ado":4852,"erved":4853,"Ġgenerate":4854,"stream":4855,"bar":4856,"ĠSee":4857,"Ġrace":4858,"ĠMal":4859,"aughter":4860,"Ġbatter":4861,"Ġnuclear":4862,"Ġcycle":4863,"Ġreturned":4864,"Ġ80":4865,"ĠVol":4866,"ĠRel":4867,"Ġcast":4868,"Ġinfl":4869,"uses":4870,"Ġarray":4871,"Ġserver":4872,"Ġbaby":4873,"Ġsav":4874,"ophy":4875,"Ġseven":4876,"Ġfloat":4877,"cell":4878,"ĠEgypt":4879,"Ġtrust":4880,"Ġapproximately":4881,"Ġconsumption":4882,"Ġ2004":4883,"iable":4884,"Ġchallenge":4885,"tical":4886,"CC":4887,"iverse":4888,"ago":4889,"Ġimmedi":4890,"Ġcompre":4891,"File":4892,"rm":4893,"Ġalcohol":4894,"ĠGreek":4895,"Ġsuggests":4896,"Fr":4897,"ĠSpanish":4898,"55":4899,"target":4900,"Ġsurpr":4901,"icks":4902,"ipe":4903,"ĠCongress":4904,"weight":4905,"Ġmetal":4906,"Ġantib":4907,"Ġresulting":4908,"Ġspeech":4909,"ctors":4910,"Ġglass":4911,"ologist":4912,"ĠTur":4913,"Ġleaders":4914,"fit":4915,"'))":4916,"Ġtechnologies":4917,"isation":4918,"Ġeasier":4919,"Ġ['":4920,"ocket":4921,"za":4922,"Ġhop":4923,"Ġshared":4924,"othes":4925,"Ġsend":4926,"inger":4927,"Ġslight":4928,"Ġstorage":4929,"ician":4930,"Ġlanguages":4931,"ifier":4932,"Gen":4933,"Ð¸":4934,"Ġhighest":4935,"Ġstaff":4936,"ĠFound":4937,"Ġimmediately":4938,"Ġhousehold":4939,"tee":4940,"Ġalt":4941,"ĠCouncil":4942,"cular":4943,"random":4944,"Ġfindings":4945,"Ġinternal":4946,"Ġplanning":4947,"ĠConf":4948,"Ġexecut":4949,"Ġsexual":4950,"Ġcrucial":4951,"ĠDi":4952,"AG":4953,"Ġhappens":4954,"Ġinstall":4955,"Ġcontrast":4956,"Ã³":4957,"Ġsquare":4958,"hist":4959,"width":4960,"Ġcampaign":4961,"ools":4962,"ographic":4963,"Ġoxygen":4964,"ĠHen":4965,"Ġsecret":4966,"Ġtrig":4967,"Ġcausing":4968,"ĠJe":4969,"Ġmuscle":4970,"roduction":4971,"Ġplans":4972,"root":4973,"ĠIts":4974,"},":4975,"onic":4976,"Ġsem":4977,"enth":4978,"Ġdescription":4979,"Ġappoint":4980,"oper":4981,"Ġexcess":4982,"Ġdecided":4983,"update":4984,"ava":4985,"Ġvary":4986,"Ġsac":4987,"ĠQue":4988,"Ġtruth":4989,"Ind":4990,"Ġalternative":4991,"Ġnutrit":4992,"Ġupper":4993,"oto":4994,"umns":4995,"ĠAv":4996,"Ġdecisions":4997,"Ġchance":4998,"ael":4999,"ĠSun":5000,"Ġpresented":5001,"44":5002,"Ġemp":5003,"ressed":5004,"normal":5005,"Ġindependent":5006,"Ġhol":5007,"Ġbuildings":5008,"apping":5009,"attr":5010,"Ġcreation":5011,"Ġoptim":5012,"Ġprinciples":5013,"Ġtour":5014,"emporary":5015,"ĠBer":5016,"ĠThus":5017,"ENT":5018,"Ġoperation":5019,"rows":5020,"Ġhuge":5021,"ĠWeb":5022,"acing":5023,"Ġvision":5024,"Ġeducational":5025,"Ġcarried":5026,"close":5027,"obj":5028,"Ġurban":5029,"roph":5030,"Ġmonit":5031,"Ġbuy":5032,"Ġminor":5033,"ĊĠĠ":5034,"Ġbottom":5035,"BC":5036,"perty":5037,"apers":5038,"Ġterrit":5039,"igure":5040,"Ġstatement":5041,"ĠGet":5042,"Ġbone":5043,"Ġmilk":5044,"ÂłĊ":5045,"Ġchanging":5046,"ifying":5047,"ĠMart":5048,"Ġregarding":5049,"wood":5050,"Ġindustrial":5051,"ĠCre":5052,"Ġcorrespond":5053,"pha":5054,"CH":5055,"Ġreports":5056,"Ġpd":5057,"Ġsolutions":5058,"Ġbrother":5059,"Ġbelong":5060,"ĠCath":5061,"ribe":5062,"ql":5063,"Ġdatabase":5064,"Ġidentity":5065,"ĠWhy":5066,"Ġpopulations":5067,"Ġsynt":5068,"Ġdecades":5069,"Ġelectricity":5070,"edd":5071,"OS":5072,"Ġextremely":5073,"Ġmo":5074,"Ġbattle":5075,"Ġnotes":5076,"ilit":5077,"loss":5078,"ĠClass":5079,"ria":5080,"Ġgender":5081,"current":5082,"Model":5083,"escription":5084,"ructure":5085,"elines":5086,"Ġpoly":5087,"Ġinsect":5088,"ĠFore":5089,"Ġarm":5090,"Ġurl":5091,"ĠOut":5092,"ander":5093,"Ġmaster":5094,"ĠMuseum":5095,"Ġturned":5096,"Ġpolicies":5097,"Ġmal":5098,"doc":5099,"ĠEv":5100,"Ġadjust":5101,"88":5102,"Ġrequirements":5103,"function":5104,"Ġjoin":5105,"Ġcollege":5106,"Ġship":5107,"Ġdrive":5108,"They":5109,"ĠYear":5110,"Ġallowing":5111,"Ġrul":5112,"ĠTra":5113,"Ġmode":5114,"words":5115,"rum":5116,"Ġmedicine":5117,"ĠMount":5118,"Val":5119,"Ġremoved":5120,"ango":5121,"anging":5122,"IR":5123,"Ġdatetime":5124,"Ġopin":5125,"anned":5126,"enses":5127,"Ġdisorder":5128,"batch":5129,"Ġweak":5130,"atically":5131,"anguage":5132,"iox":5133,"Ġmostly":5134,"parser":5135,"Ġfrequently":5136,"ãĤ":5137,"Ġvolume":5138,"DA":5139,"Ġreb":5140,"items":5141,"berg":5142,"Ġ2003":5143,"urt":5144,"Ġhit":5145,"ĠEnvironment":5146,"page":5147,"Ġocean":5148,"ĠWork":5149,"Ġinvolve":5150,"Ad":5151,"Ġmathemat":5152,"ourney":5153,"Ġ^":5154,"Ġplaying":5155,"Ġunivers":5156,"idx":5157,"Ġplot":5158,"ĠSocial":5159,"Ġhelped":5160,"Ġpp":5161,"Ġdiscover":5162,"Ġcv":5163,"table":5164,"http":5165,"ensus":5166,"command":5167,"Ġpreviously":5168,"Ġdrop":5169,"ulf":5170,"Ġheard":5171,"Ġmentioned":5172,"Ġlandsc":5173,"ĠIsland":5174,"Ġpred":5175,"})":5176,"Ġwidely":5177,"Ġcharacteristics":5178,"sl":5179,"conds":5180,"Ġtreated":5181,"ensions":5182,"urns":5183,"ĠUp":5184,"Ġtemperatures":5185,"Ġsolid":5186,"Ġauthors":5187,"Ġpal":5188,"ãĥ":5189,"rian":5190,"New":5191,"Ġreferred":5192,"Ġcontribute":5193,"Ġtrend":5194,"ĠPri":5195,"Ġfaith":5196,"Ġgarden":5197,"comes":5198,"Ġcombination":5199,"Ġ1990":5200,"ĠWrit":5201,"Ġfert":5202,"ĠLou":5203,"Ġreducing":5204,"stract":5205,"Ġlegis":5206,"Ġstream":5207,"band":5208,"Ġwest":5209,"Ġanyone":5210,"Ġeffectively":5211,"Ġadvanced":5212,"Why":5213,"Ġsupported":5214,"ĠMac":5215,"ĠOnce":5216,"Ġprocessing":5217,"content":5218,"ĠOff":5219,"astern":5220,"ĠSam":5221,"tra":5222,"ĠHel":5223,"Ġspring":5224,"Ġcamer":5225,"Ġrecorded":5226,"Ġprefer":5227,"ĠCourt":5228,"ka":5229,"Ġdefinition":5230,"Ġgenes":5231,"Ġnarr":5232,"Key":5233,"hetic":5234,"hi":5235,"Ġseed":5236,"Ġtechnique":5237,"uing":5238,"Ġfinding":5239,"Ġstra":5240,"ategy":5241,"Ġcompleted":5242,"Ġbond":5243,"Ġcharg":5244,"UN":5245,"ĠCentral":5246,"color":5247,"Ġfailure":5248,"Ġvillage":5249,"ictionary":5250,"well":5251,"query":5252,"Ġconcepts":5253,"ĠMars":5254,"Ġdepression":5255,"Ġrisks":5256,"ancing":5257,"Ġinterpret":5258,"Ġfinally":5259,"ologists":5260,"call":5261,"Äģ":5262,"Ġkid":5263,"BN":5264,"Ġast":5265,"Ġsession":5266,"ĠUN":5267,"Ġplastic":5268,"ASA":5269,"Ġdoub":5270,"Ġsyn":5271,")))":5272,"Ġnoted":5273,"Ġready":5274,"Ġ90":5275,"Ġargument":5276,"Ġvaluable":5277,"Ġpromote":5278,"Ġreligion":5279,"Ġextract":5280,"ĠThrough":5281,"Ġconcerns":5282,"mean":5283,"Ã¼":5284,"igration":5285,"Ġconducted":5286,"Ġsurrounding":5287,"Ġsaying":5288,"urance":5289,"Ġwhom":5290,"ĠSal":5291,"amental":5292,"ĠThomas":5293,"adian":5294,"ĠPlan":5295,"Ġsamples":5296,"ĠMil":5297,"Ġvess":5298,"number":5299,"Ġsurvey":5300,"ieties":5301,"ĠWhite":5302,"ishing":5303,"icial":5304,"iveness":5305,"Ġwife":5306,"gest":5307,"Ġisinstance":5308,"riage":5309,"ĠBen":5310,"Ġcovered":5311,"oul":5312,"but":5313,"iling":5314,"bi":5315,"However":5316,"ycl":5317,"which":5318,"Ġadult":5319,"Ġdepending":5320,"Ġjo":5321,"Ġreaction":5322,"ĠInternet":5323,"Ġinh":5324,"ĠLord":5325,"Ġcalc":5326,"ME":5327,"Ġisland":5328,"PE":5329,"Ġdegrees":5330,"Ġcharge":5331,"Ġfrequency":5332,"ĠOF":5333,"abs":5334,"ville":5335,"Ġradiation":5336,"Ġhttps":5337,"Ġfeeling":5338,"parent":5339,"ĠIsl":5340,"Ġfol":5341,"Ġspent":5342,"ario":5343,"Ġsettings":5344,"Ġ('":5345,"ĠDel":5346,"ĠAcad":5347,"enced":5348,"Ġple":5349,"ĠMiss":5350,"Ġscript":5351,"Ġreached":5352,"Ġq":5353,"Ġnotice":5354,"ĠBas":5355,"uster":5356,"bert":5357,"Ġthick":5358,"Ġ{'":5359,"Ġrelevant":5360,"ML":5361,"Ġdial":5362,"Ġrestrict":5363,"Ġestimated":5364,"Ġleads":5365,"Ġmeeting":5366,"95":5367,"Ġ2001":5368,"ĠArmy":5369,"Ġcontaining":5370,"Ġmel":5371,"ĠStep":5372,"ĠProject":5373,"Ġtasks":5374,"olve":5375,"anted":5376,"pack":5377,"66":5378,"long":5379,"Ġclick":5380,"Ġpieces":5381,"ĠTex":5382,"Ġdescribe":5383,"anges":5384,"Ġrelative":5385,"position":5386,"Ġisol":5387,"files":5388,"Ġhomes":5389,"Ġcolumn":5390,"Ġdiscussion":5391,"Ġemotional":5392,"ĠAlex":5393,"Ġeast":5394,"Ġrail":5395,"Ġgod":5396,"Ġsand":5397,"âĢĿ,":5398,"ooth":5399,"Ġkill":5400,"Ġdiss":5401,"Ġpret":5402,"Ġrefers":5403,"Ġfreedom":5404,"ĠDevelopment":5405,"ca":5406,"ĠAny":5407,"Ġflood":5408,"Ġbreast":5409,"Ġpand":5410,"zy":5411,"Ġatmosphere":5412,"Ġviolence":5413,"Ġdu":5414,"rieved":5415,"Ġphase":5416,"Ġhear":5417,"Ġbeautiful":5418,"Ġprepar":5419,"inn":5420,"ĠFranc":5421,"Ġmeant":5422,"Ġsouthern":5423,"iced":5424,"Ġmotor":5425,"Ġcogn":5426,"ĠHuman":5427,"Ġapprec":5428,"Ġbed":5429,"isher":5430,"Here":5431,"Ġdie":5432,"stitution":5433,"greg":5434,"Ġclinical":5435,"Ġwindow":5436,"ĠLife":5437,"zing":5438,"ĠST":5439,"Id":5440,"CE":5441,"Ġspot":5442,"\"),":5443,"Ġacademic":5444,"Ġmist":5445,"=[":5446,"Ġremained":5447,"Ġclearly":5448,"ĠĠĠĠĠĠĠĠĠĠĠĠĠĠ":5449,"Ġalbum":5450,"ĠSte":5451,"Ġcircum":5452,"Ġconsc":5453,"De":5454,"Ġ2002":5455,"Ġ70":5456,"ĠService":5457,"ĠSet":5458,"ĠSom":5459,"Ġnorthern":5460,"txt":5461,"Ġdisorders":5462,"sm":5463,"Ġinvent":5464,"Ġprimarily":5465,"rich":5466,"ĠNav":5467,"igation":5468,"ture":5469,"ĠTherefore":5470,"Ġconvers":5471,"Ġlinked":5472,"Ġvul":5473,"----------------------------------------------------------------":5474,"acts":5475,"ayer":5476,"ĠSk":5477,"osen":5478,"Ġwealth":5479,"Ġbatch":5480,"Ġprofession":5481,"Ġclassroom":5482,"Ġdiverse":5483,"ĠAtt":5484,"500":5485,"Ġdirector":5486,"arp":5487,"47":5488,"ĠPen":5489,"ĠRobert":5490,"ĠAsia":5491,"Ġdepth":5492,"Us":5493,"rated":5494,"ulum":5495,"Ġdespite":5496,"According":5497,"ĠPost":5498,"ĠFurther":5499,"MS":5500,"asure":5501,"ĠSecond":5502,"Ġengineering":5503,"west":5504,"Ġschem":5505,"ini":5506,"Ġunf":5507,"Ġmanage":5508,"Ġspecifically":5509,"reement":5510,"ĠDirect":5511,"Ġvariable":5512,"Ġimg":5513,"ĠPhys":5514,"uple":5515,"Ġ----------------":5516,"Ġexperienced":5517,"ĠOrgan":5518,"iform":5519,"ĠÎ":5520,"ĠGovernment":5521,"Ġorganic":5522,"05":5523,"oviet":5524,"ĠMexico":5525,"85":5526,"eal":5527,"Ġsequence":5528,"Ġhour":5529,"going":5530,"UL":5531,"Ġadvantage":5532,"ĠAD":5533,"ĠNor":5534,"ĠSen":5535,"Ġentry":5536,"ĠRussian":5537,"Ġraw":5538,"ĠKore":5539,"ny":5540,"Ġcomprehens":5541,"Ġcontinues":5542,"ÑĤ":5543,"Qu":5544,"rence":5545,"Ġdetermined":5546,"resents":5547,"IP":5548,"Ġleader":5549,"osystem":5550,"Be":5551,"Ġsubsequ":5552,"style":5553,"van":5554,"Ġvictim":5555,"dated":5556,"ĠJer":5557,"poses":5558,"Ab":5559,"ĠToday":5560,"Get":5561,"ĠArab":5562,"Ġdouble":5563,"Ġfilter":5564,"Ġalgorith":5565,"Ġrecommended":5566,"det":5567,"ĠBritain":5568,"crete":5569,"cat":5570,"Ġstrategy":5571,"ĠĠĠĠĠĠĠĠĠĠĠĠĠ":5572,"Ġcere":5573,"Ġprofessor":5574,"nel":5575,"wer":5576,"Ġroll":5577,"Ġstars":5578,"Ġannual":5579,"ĠOld":5580,"Ġhelping":5581,"Ġcomponent":5582,"Pl":5583,"Bl":5584,"Ġscore":5585,"Ġformation":5586,"Ġdangerous":5587,"Ġgrand":5588,"Ġcoal":5589,"Ġpun":5590,"otic":5591,"Ġtum":5592,"cal":5593,"Ġsusp":5594,"ortunately":5595,"Ġpages":5596,"nic":5597,"Ġhorm":5598,"alian":5599,"Ġchapter":5600,"','":5601,"Ġmaximum":5602,"That":5603,"Ġonto":5604,"rd":5605,"dataset":5606,"ĠDiv":5607,"Ġelimin":5608,"Ġcolors":5609,"Ġraised":5610,"source":5611,"Ġadvance":5612,"cher":5613,"rier":5614,"Ġproperly":5615,"Ġ35":5616,"icit":5617,"Ġpark":5618,"Ġkept":5619,"Ġselected":5620,"Ġcomfort":5621,"iant":5622,"acific":5623,"Ġdogs":5624,"Ġjourney":5625,"rains":5626,"ĠWell":5627,"Ġpolice":5628,"Ġanxiety":5629,"Ġfasc":5630,"Ġinjury":5631,"Ġarmy":5632,"Ġamounts":5633,"Ġexpert":5634,"Ġwriter":5635,")[":5636,"Ġdistributed":5637,"ĠJews":5638,"pace":5639,"TP":5640,"Ġforced":5641,"igenous":5642,"ĠLatin":5643,"akers":5644,"arrow":5645,"icians":5646,"Ġdownload":5647,"Many":5648,"ĠOR":5649,"Ġglob":5650,"Ġcandid":5651,"Read":5652,"Ġimproved":5653,"opyright":5654,"eper":5655,"Ġencourage":5656,"77":5657,"Ġmeat":5658,"Ġvitamin":5659,"ĠRef":5660,"Ġchronic":5661,"Ġparticipants":5662,"Ġsituations":5663,"Ġnor":5664,"jango":5665,"ĠTexas":5666,"osa":5667,"ĠMr":5668,"graph":5669,"Ġadop":5670,"Ġmainly":5671,"Ġefficiency":5672,"ĠElect":5673,"Ġlooks":5674,"Ġplays":5675,"EL":5676,"lick":5677,"erial":5678,"Ġlogger":5679,"Ġcombined":5680,"Ġcredit":5681,"Ġphenomen":5682,"Ġ31":5683,"DF":5684,"Ġpython":5685,")]":5686,"Ġappeared":5687,"Ġeggs":5688,"annels":5689,"Ġmanufacture":5690,"PO":5691,"Ġsurgery":5692,"Ġaid":5693,"Ġfine":5694,"Ġproposed":5695,"Ġfelt":5696,"mm":5697,"Ġinterested":5698,"Ġarticles":5699,"Ġparticles":5700,"olars":5701,"Ġrequests":5702,"Ġabsol":5703,"Ġinflamm":5704,"ĠFood":5705,"ĠBay":5706,"hent":5707,"ossible":5708,"roid":5709,"Ġsounds":5710,"49":5711,"Ġstre":5712,"ivation":5713,"cel":5714,"oved":5715,"ĠBro":5716,"Ġexternal":5717,"oking":5718,"essor":5719,"Ġapart":5720,"Ġoperating":5721,"Ġrevolution":5722,"Ġstraight":5723,"Ġtouch":5724,"yp":5725,"amil":5726,"ĠEvery":5727,"sor":5728,"Add":5729,"ĠWind":5730,"ĠTwo":5731,"Ġbegins":5732,"Ġcoding":5733,".;":5734,"ĠSl":5735,"ĠBoth":5736,"Ġcolle":5737,"ĠExpl":5738,"angle":5739,"Ġhandle":5740,"Ġotherwise":5741,"scale":5742,"ĠGroup":5743,"Ġinstitutions":5744,"Ġkil":5745,"Ġexperts":5746,"Ġawareness":5747,"Ġfaster":5748,"Ġseeds":5749,"Ġassessment":5750,"ishes":5751,"ĠSoviet":5752,"ĠCharles":5753,"Ġcenturies":5754,"filter":5755,"SS":5756,"ĠVirgin":5757,"OD":5758,"89":5759,"ĠChildren":5760,"isf":5761,"ĠSum":5762,"Ġpul":5763,"ĠMedic":5764,"Ġtrou":5765,"46":5766,"ĠCivil":5767,"roke":5768,"Ġ2021":5769,"iled":5770,"Ġrepresents":5771,"ĠCare":5772,"Ġobvious":5773,"Ġfocused":5774,"Ġexposed":5775,"Ġvoice":5776,"Ġassign":5777,"umps":5778,"ĠNews":5779,"HT":5780,"Ġintended":5781,"Ġopened":5782,"Ġflat":5783,"Ġupdate":5784,"Ġliquid":5785,"Ġgrass":5786,"ĠProt":5787,"Ġmotion":5788,"ndrome":5789,"ĠStreet":5790,"Ġvital":5791,"Ġletters":5792,"alysis":5793,"0000":5794,"amily":5795,"Ġsustainable":5796,"Ġbrief":5797,"Ð½":5798,"Ġjobs":5799,"Ġfort":5800,"Ġstorm":5801,"Ã¶":5802,"ĠAp":5803,"ĠTime":5804,"ocratic":5805,"osite":5806,"ĠRussia":5807,"Ġoccurred":5808,"Americ":5809,"what":5810,"Ġvast":5811,"ston":5812,"ĠCompany":5813,"ĠParty":5814,"Ġtro":5815,"Ġexcell":5816,"Ġhospital":5817,"anged":5818,"aud":5819,"Ġexistence":5820,"Ġbud":5821,"Ġyellow":5822,"################################":5823,"ĠMuslim":5824,"show":5825,"Ġwonder":5826,"Ġinfections":5827,"Ġedge":5828,"Ġ1980":5829,"while":5830,"Go":5831,"osc":5832,"Ġgun":5833,"ĠMem":5834,"Ġmodule":5835,"86":5836,"Ġsettle":5837,"Ġpractical":5838,"Ġsett":5839,"Ġepis":5840,"ĠEmp":5841,"aph":5842,"Ġvolunt":5843,"Ġsets":5844,"ÑĢ":5845,"umin":5846,"bug":5847,"Ġbra":5848,"Ġconclud":5849,"Ġflex":5850,"76":5851,"inding":5852,"Ġconservation":5853,"urd":5854,"aks":5855,"Ġmarried":5856,"Ġprepared":5857,"Ġexists":5858,"eria":5859,"Ġquar":5860,"CL":5861,"[:,":5862,"Ġpoet":5863,"ingly":5864,"Ġparameters":5865,"Ġelectrical":5866,"ĠMiddle":5867,"oster":5868,"Ġpollution":5869,"Ġwave":5870,"Ġimplic":5871,"Ġpurposes":5872,"sg":5873,"sembly":5874,"left":5875,"Ġthoughts":5876,"ĠMont":5877,"Ġtopics":5878,"Ġshowing":5879,"cers":5880,"ĠSpace":5881,"itage":5882,"istan":5883,"ipped":5884,"Ġstone":5885,"ses":5886,"ĠMass":5887,"Ġaren":5888,"Ġstudied":5889,"Ġque":5890,"ĠJose":5891,"Ġconsequences":5892,"first":5893,"Ġhappened":5894,"Ġleaving":5895,"56":5896,"Ġweap":5897,"faces":5898,"ĠTem":5899,"Ġfollows":5900,"anes":5901,"ampl":5902,"session":5903,"Ġoffered":5904,"ĠGold":5905,"Ġfailed":5906,"Ġlibrary":5907,"Ġbright":5908,"Ġaxis":5909,"ĠMag":5910,"Ġchain":5911,"build":5912,"Ġhyper":5913,"ĠISBN":5914,"ĠHenry":5915,"ano":5916,"ĠWomen":5917,"Ġvulner":5918,"Ġplease":5919,"Ġcert":5920,"ĠId":5921,"ota":5922,"ĠHistor":5923,"ĠSmith":5924,"Ġfoss":5925,"Ġiniti":5926,"Ġneut":5927,"Ġincreasingly":5928,"ola":5929,"inations":5930,"Ġattacks":5931,"ĠĠĠĠĠĠĠĠĠĠĠĠĠĠĠ":5932,"Ġlinks":5933,"Ġthread":5934,"pport":5935,"gent":5936,"ĠWil":5937,"Ġconsult":5938,"Set":5939,"Ġclosed":5940,"othing":5941,"Ġadding":5942,"ocal":5943,"ĠKh":5944,"Ġsplit":5945,"ĠDec":5946,"Ġauthority":5947,"ĠRad":5948,"ĠCatholic":5949,"Ġsalt":5950,"Ġlargely":5951,"https":5952,"Ġfib":5953,"var":5954,"icon":5955,"Ġjoined":5956,"Ġtaught":5957,"author":5958,"Time":5959,"ĠSing":5960,"Ġproteins":5961,"icy":5962,"Ġrenew":5963,"Ġcoordin":5964,"Ġindicate":5965,"Ġkeeping":5966,"Ġvent":5967,"Ġastr":5968,"Ġbird":5969,"burg":5970,"Ġ1999":5971,"Ġfarmers":5972,"ĠFil":5973,"Log":5974,"Ġshut":5975,"Ġneuro":5976,"Ġconcern":5977,"Up":5978,"Ġcris":5979,"elled":5980,"imer":5981,"Ġhearing":5982,"Ġyouth":5983,"Ġpush":5984,"Ġslightly":5985,"-----":5986,"Ġsen":5987,"Ġconsists":5988,"Ġgrade":5989,"ĠJack":5990,"car":5991,"Ġexplan":5992,"42":5993,"ĠRo":5994,"Ġbot":5995,"ĠForm":5996,"ĠTHE":5997,"abled":5998,"itness":5999,"ificial":6000,"Ġinstrument":6001,"Ġsentence":6002,"Ġfeelings":6003,"ĠFe":6004,"Ġdomin":6005,"Ġcritic":6006,"omy":6007,"Ġgenerated":6008,"Ġprison":6009,"ĠGoogle":6010,"ĠMain":6011,"Ġmanner":6012,"cons":6013,"Although":6014,"Ġpros":6015,"Ġvaccine":6016,"Ġchart":6017,"Tr":6018,"ĠCD":6019,"Ġappearance":6020,"Ġcontinuous":6021,"pping":6022,"Ġarr":6023,"Ġstock":6024,"Ġviews":6025,"Ġaccurate":6026,"ona":6027,"pop":6028,"Ġstated":6029,"ĠProv":6030,"Ġreduction":6031,"ĠMake":6032,"ypes":6033,"ĠInstead":6034,"More":6035,"ĠMo":6036,"ala":6037,"Ġchoices":6038,"Ġprocedure":6039,"Ġfif":6040,"Ġdivided":6041,"Ġvegetables":6042,"orter":6043,"Ġshell":6044,"ĠCarol":6045,"Ġgoods":6046,"Ġoriginally":6047,"ĠFlor":6048,"Ġfluid":6049,"strip":6050,"Ġwestern":6051,"ĠUsing":6052,"Ġfle":6053,"Ġdataset":6054,"Ġblog":6055,"Ġkinds":6056,"Ġ189":6057,"Ġideal":6058,"Ġreact":6059,"Ġfundamental":6060,"Ġfacts":6061,"Ġox":6062,"Ġfamiliar":6063,"Ġpassword":6064,"ĠNASA":6065,"Ġvehicle":6066,"Ġ32":6067,"Ġconnections":6068,"Ġexplained":6069,"inet":6070,"Ġadvoc":6071,"Another":6072,"Ġ1970":6073,"Ġclim":6074,"ao":6075,"Ġextreme":6076,"iday":6077,"ĠPacific":6078,"that":6079,"Ġtried":6080,"Ġchemicals":6081,"Ġdiam":6082,"'''":6083,"Ġperspective":6084,"Form":6085,"SA":6086,"km":6087,"Ġfilled":6088,"ĠLand":6089,"oughly":6090,"Ġecosystem":6091,"Ġinterests":6092,"Ġlesson":6093,"Ġphone":6094,"Ġprem":6095,"Ġneighb":6096,"Ġelev":6097,"Ġperman":6098,"ato":6099,"Ġresist":6100,"Ġperiods":6101,"Ġsufficient":6102,"Ġsubjects":6103,"ĠâĢ¦":6104,"Most":6105,"Ġclosely":6106,"ĠDistrict":6107,"etch":6108,"Ġmuscles":6109,"Ġmere":6110,"den":6111,"Ġexchange":6112,"event":6113,"çļ":6114,"liament":6115,"Ġmorning":6116,"Ġnations":6117,"urity":6118,"Ġbill":6119,"ĠLake":6120,"Ġapproaches":6121,"MA":6122,"ĠLouis":6123,"ĠBet":6124,"ĠHall":6125,"ĠRetrieved":6126,"My":6127,"eger":6128,"Ġminim":6129,"ĠCommission":6130,"TH":6131,"ĠĠĠĠĠĠĠĠĠĠĠĠĠĠĠĠĠ":6132,"rates":6133,"Ġtooth":6134,"Ġbusinesses":6135,"cor":6136,"lers":6137,"msg":6138,"Ġconvent":6139,"ĠFrank":6140,"points":6141,"ĠStand":6142,"Ġmovements":6143,"Ġpresc":6144,"Ġdisapp":6145,"search":6146,"Ġtechnical":6147,"pty":6148,"ella":6149,"Ġdoll":6150,"Case":6151,"Ġjustice":6152,"ĠAustralian":6153,"eli":6154,"ĠTechnology":6155,"property":6156,"Ġpotentially":6157,"Ġbow":6158,"Ġmort":6159,"Ġfigures":6160,"ĠSea":6161,"Ġuniverse":6162,"Ġminimum":6163,"Ġsuggested":6164,"ĠEnergy":6165,"itter":6166,"=(":6167,"çļĦ":6168,"....":6169,"={":6170,"Ġtrial":6171,"Ġprices":6172,"ĠEngine":6173,"Ġspend":6174,"Ġcontemporary":6175,"Ġwaters":6176,"Ñģ":6177,"Ġdigest":6178,"'):":6179,"ena":6180,"ĠĠĠĠĠĠĠĠĠĠĠĠĠĠĠĠĠĠĠĠĠĠĠĠĠĠĠĠĠĠĠĠĠĠĠĠĠĠĠĠĠĠĠĠĠĠĠĠĠĠĠĠĠĠĠĠĠĠĠĠĠĠĠĠĠĠĠĠĠĠĠĠĠĠĠĠĠĠĠĠĠĠĠĠĠĠĠĠĠĠĠĠĠĠĠĠĠĠĠĠĠĠĠĠĠĠĠĠĠĠĠĠĠĠĠĠĠĠĠĠĠĠĠĠĠĠĠĠĠĠĠĠĠĠĠĠĠĠĠĠĠĠĠĠĠĠĠĠĠĠĠĠĠĠĠĠĠĠĠĠĠĠĠĠĠĠĠĠĠĠĠĠĠĠĠĠĠĠĠĠĠĠĠĠĠĠĠĠĠĠĠĠĠĠĠĠĠĠĠĠĠĠĠĠĠĠĠĠĠĠĠĠĠĠĠĠĠĠĠĠĠĠĠĠĠĠĠĠĠĠĠĠĠĠĠĠĠĠĠĠĠĠĠĠĠĠĠĠĠĠĠĠĠĠĠĠ":6181,"Ġcertainly":6182,"ĠHIV":6183,"Ġsubstant":6184,"uzz":6185,"Ġsides":6186,"Ġcollected":6187,"ĠDet":6188,"dri":6189,"Ġtypical":6190,"gener":6191,"ĠParis":6192,"Ġtit":6193,"Our":6194,"server":6195,"Let":6196,"aturally":6197,"Ġcalls":6198,"Ġdepends":6199,"display":6200,"asp":6201,"Ġfloor":6202,"Ġfill":6203,"Ġsmart":6204,"olf":6205,"Ġimpacts":6206,"aked":6207,"Ġresponsibility":6208,"ĠPeter":6209,"ĠStudents":6210,"fall":6211,"Ġthin":6212,"Ġfounded":6213,"Ġelection":6214,"During":6215,"Ġlayers":6216,"ĠAnother":6217,"Ġaircraft":6218,"Ġ45":6219,"Ġcontrolled":6220,"79":6221,"02":6222,"Ġextent":6223,"agon":6224,"Ġingred":6225,"Ġmeasured":6226,"free":6227,"ĠInc":6228,"Ġchannel":6229,"Ġenhance":6230,"look":6231,"organ":6232,"ĠMad":6233,"Ġnerv":6234,"rot":6235,"ĠSol":6236,"ictor":6237,"Ġintelligence":6238,"ĠTV":6239,"Ġchief":6240,"Ġtradition":6241,"Ġlabels":6242,"ĠAut":6243,"Ġpil":6244,"SD":6245,"Ġtail":6246,"Ġstored":6247,"Ġvariables":6248,"VID":6249,"Ġinterview":6250,"replace":6251,"Ġrecognized":6252,"Ġhealthcare":6253,"Ġdaughter":6254,"ogue":6255,"riculum":6256,"Ġsoldiers":6257,"ĠFoundation":6258,"Ġenviron":6259,"Ġselection":6260,"ĠBudd":6261,"sys":6262,"edy":6263,"Ġbiological":6264,"Ġcapable":6265,"Ġverb":6266,"Ġaward":6267,"Ġannounced":6268,"ĠInf":6269,"Ġdro":6270,"Ġdrinking":6271,"ĠTw":6272,"Ġwet":6273,"Ġnetworks":6274,"Ġaffects":6275,"Ġsnow":6276,"ÂłÂłÂłÂłÂłÂłÂłÂł":6277,"ĊĠĠĠĠĠĠĠĠĠĠĠĠĠĠĠĠĠĠĠĠĠĠĠĠĠĠĠ":6278,"itud":6279,"Ġera":6280,"ita":6281,"nam":6282,"Ġsports":6283,"Ġlooked":6284,"cules":6285,"ĠEarly":6286,"Ġfirm":6287,"ĠRob":6288,"Ġdetailed":6289,"Ġrender":6290,"ĠMicro":6291,"Ġwalls":6292,"ĊĠĠĠĠĠĠĠĠĊĠĠĠĠĠĠĠ":6293,"Ġfro":6294,"Ġapparent":6295,"Ġdefe":6296,"Ġpair":6297,"App":6298,"Ġstarts":6299,"stood":6300,"Ġju":6301,"ĠRichard":6302,"logger":6303,"Ġclaims":6304,"allel":6305,"Ġ1998":6306,"ĠLu":6307,"Ġ500":6308,"ĠAtlant":6309,"eless":6310,"she":6311,"Ġdiversity":6312,"usr":6313,"ĠPower":6314,"Ġroots":6315,"Ġtreatments":6316,"ributes":6317,"ĠLike":6318,"Ġlose":6319,"PL":6320,"Ġoutcomes":6321,"RI":6322,"lets":6323,"bing":6324,"Ð¾Ð":6325,"Ġdiagnosis":6326,"Ġsector":6327,"Ġphr":6328,"Ġreform":6329,"Ġquery":6330,"ernel":6331,"Ġnutrients":6332,"Ġdiscovery":6333,"Ġremaining":6334,"Ġamb":6335,"Ġvisible":6336,"Ġmetab":6337,"ye":6338,"Ġsin":6339,"Ġcars":6340,"Ġgovernments":6341,"lower":6342,"ĠValue":6343,"Ġdram":6344,"Ġcomputers":6345,"Ġtoxic":6346,"exec":6347,"rat":6348,"Ġspiritual":6349,"Ġkm":6350,"Ġdir":6351,"Ġzero":6352,"Ġancest":6353,"Ġrein":6354,"ĠKey":6355,"ĠEconom":6356,"Ġdra":6357,"Ġmit":6358,"inating":6359,"objects":6360,"ĠCanadian":6361,"Ġinfrast":6362,"Ġflowers":6363,"dep":6364,"Ġtal":6365,"ĠRoyal":6366,"87":6367,"Ġreaders":6368,"Ġsatell":6369,"ansion":6370,"ua":6371,"racy":6372,"Ġclub":6373,"Ġlessons":6374,"Ġrecognize":6375,"Ġsell":6376,"abil":6377,"ibilities":6378,"rav":6379,"atever":6380,"Ġnit":6381,"ifies":6382,"rout":6383,"Ġrapidly":6384,"Ġconscious":6385,"oder":6386,"ĠJud":6387,"score":6388,"under":6389,"Ġgar":6390,"Ġopening":6391,"Ġsecure":6392,"Par":6393,"adata":6394,">>":6395,"Ġreplaced":6396,"Ġarguments":6397,"Ġdistingu":6398,"Ġpretty":6399,"Ġ1960":6400,"Ġrural":6401,"ĠMedical":6402,"Ġgather":6403,"Ġconclusion":6404,"ĠTreat":6405,"Ġwidth":6406,"Ġcreates":6407,"Ġinvestment":6408,"verty":6409,"Do":6410,"Ġmarg":6411,"Ġtun":6412,"Ġfacilities":6413,"'m":6414,"Ġmedium":6415,"Ġknew":6416,"Ġmir":6417,"Ġlisted":6418,"Ġexplains":6419,"Ġpossess":6420,"gers":6421,"Ġparties":6422,"ĠâĨ":6423,"Ġflag":6424,"link":6425,"Ġplayers":6426,"Ġmyth":6427,"Ġtoken":6428,"ĠBre":6429,"43":6430,"Ġpoverty":6431,"Ġtherm":6432,"Ġproport":6433,"labels":6434,"coming":6435,"Ġunknown":6436,"Ġagreed":6437,"\"],":6438,"ki":6439,"Ġworldwide":6440,"Ġ186":6441,"Ġcultures":6442,"Ġfre":6443,"CD":6444,"ĠMichael":6445,"ĠDisc":6446,"RA":6447,"Ġhelpful":6448,"Ġmonitoring":6449,"rand":6450,"conf":6451,"Ġtalking":6452,"Ġinstruction":6453,"Ġgrav":6454,"Ġdivision":6455,"Ġdut":6456,"ums":6457,"Ġrank":6458,"[-":6459,"Ġaccepted":6460,"Ġfacilit":6461,"ĠĠĠĠĠĠĠĠĠĠĠĠĠĠĠĠĠĠĠ":6462,"Ġsolve":6463,"ellect":6464,"Ġliver":6465,"ĠFrancis":6466,"Ġengage":6467,"Ġdocuments":6468,"Ġcognitive":6469,"]]":6470,"Ġobtained":6471,"Ġlatest":6472,"itors":6473,"ora":6474,"Ġmoon":6475,"Ġemergency":6476,"ĠConn":6477,"tage":6478,"agine":6479,"ĠReview":6480,"Ġcouple":6481,"Ġinternet":6482,"mes":6483,"func":6484,"mas":6485,"Ġagricultural":6486,"Ġcrisis":6487,"real":6488,"Ġprinciple":6489,"Ġnn":6490,"Ġperm":6491,"uated":6492,"Ġartists":6493,"Ġstem":6494,"Ġhunt":6495,"spe":6496,"Ġcorpor":6497,"Ġstudying":6498,"itt":6499,"Ġhorse":6500,"Ġflight":6501,"Ġofficials":6502,"tenance":6503,"Ġpaid":6504,"Ġdjango":6505,"Ġportion":6506,"Ġswitch":6507,"Base":6508,"ailed":6509,"Me":6510,"59":6511,"stein":6512,"aser":6513,"Ċĉĉĉ":6514,"wind":6515,"core":6516,"Ġ'__":6517,"Ġsuc":6518,"Ġpip":6519,"Ġcrops":6520,"Ġwaves":6521,"auth":6522,"Ġgreatest":6523,"othe":6524,"Ġsan":6525,"Ġhundreds":6526,"ourse":6527,"Ġtested":6528,"Ġadvice":6529,"Path":6530,"context":6531,"ceived":6532,"Ġdeliver":6533,"Ġresidents":6534,"ĠSuch":6535,"Ġrepresented":6536,"Ġdensity":6537,"Ġcreative":6538,"game":6539,"ĠGood":6540,"ĠType":6541,"Ġaccompl":6542,"Ġtraffic":6543,"reland":6544,"osm":6545,"Ġfruits":6546,"zen":6547,"uted":6548,"Ġpig":6549,"41":6550,"ĠTor":6551,"Ġmillions":6552,"Ġregional":6553,"being":6554,"ĠCult":6555,"Ġexcellent":6556,"Ġmask":6557,"Ġratio":6558,"Ġreprodu":6559,"Ġscholars":6560,"ulating":6561,"erent":6562,"Ġleadership":6563,"phone":6564,"Ġdriving":6565,"Ob":6566,"Ġstick":6567,"orig":6568,"pi":6569,"ĠLearning":6570,"reshold":6571,"ĠBible":6572,"Ġequival":6573,"ĠInformation":6574,"Ġenvironments":6575,"Ġregularly":6576,"EST":6577,"Ġcup":6578,"ampions":6579,"Ġentirely":6580,"Ġenable":6581,"ponse":6582,"Ġcollabor":6583,"Ġlun":6584,"dist":6585,"ifications":6586,"ady":6587,"dden":6588,"Ġconcentration":6589,"ĠAnn":6590,"using":6591,"ĠCommon":6592,"Ġstret":6593,"inder":6594,"Ġgirls":6595,"std":6596,"Ġsed":6597,"Ġcamera":6598,"estyle":6599,"ads":6600,"rint":6601,"anda":6602,"ĠItaly":6603,"Ġsuccessfully":6604,"Ġgal":6605,"iration":6606,"ĠItalian":6607,"Ġnoise":6608,"Ġprev":6609,"pol":6610,"Ġmoist":6611,"Ġsecondary":6612,"ĊĠĠĠĠĠĠĠĠĠ":6613,"direct":6614,"Ġvote":6615,"plt":6616,"Ġgrown":6617,"Ġmassive":6618,"kes":6619,"åı":6620,")):":6621,"Ġproducing":6622,"mail":6623,"Ġmoral":6624,"Ġfixed":6625,"rypt":6626,"Ġlocations":6627,"Ġreader":6628,"osh":6629,"Ġintroduction":6630,"Ġreturns":6631,"pers":6632,"inity":6633,"ican":6634,"Ġacts":6635,"Ġprogramming":6636,"Ġvehicles":6637,"Ġruns":6638,"Ġfilename":6639,"rolog":6640,"Ġwear":6641,"Ġlandscape":6642,"const":6643,"zil":6644,"OL":6645,"ĠIP":6646,"Ġtells":6647,"Ġsatisf":6648,"Ġgrid":6649,"Ġwire":6650,"Ġinfrastructure":6651,"tf":6652,"Ġimmun":6653,"Ġnarrow":6654,"chers":6655,"Ġtiny":6656,"rations":6657,"ĠBur":6658,"Ġhabitat":6659,"Ġprotected":6660,"Can":6661,"03":6662,"Ġtrib":6663,"Ġcategory":6664,"called":6665,"Ġhouses":6666,"ĠHome":6667,"Ġdecrease":6668,"Ġultimately":6669,"Ġpersons":6670,"ĠMedicine":6671,"ĠLong":6672,"Ġprepare":6673,"ĠDise":6674,"Ġemployees":6675,"uh":6676,"Ġartist":6677,"Ġmessages":6678,"Man":6679,"Ġroles":6680,"Ġsudden":6681,"Ġhighlight":6682,"ĠWild":6683,"AA":6684,"ĠLeague":6685,"Ġextended":6686,"orrow":6687,"Ġhaz":6688,"Ġflav":6689,"Ġmountain":6690,"draw":6691,"Ġ1997":6692,"sey":6693,"ette":6694,"yles":6695,"Ġscene":6696,"Ġmulti":6697,"Ġpure":6698,"Ġanswers":6699,"ocation":6700,"Ġdefine":6701,"Or":6702,"Ġexploring":6703,"ĠVirginia":6704,"send":6705,"Ġlatter":6706,"Ġderived":6707,"ĠCamp":6708,"Ġstages":6709,"Ġinner":6710,"Ġtelevision":6711,"Ġcloud":6712,"Ġexpensive":6713,"azine":6714,"kin":6715,"Ġcatch":6716,"CR":6717,"Ġvs":6718,"Ġtag":6719,"utch":6720,"rid":6721,"Class":6722,"Ġshift":6723,"ĠEmpire":6724,"Ġcomments":6725,"Ġmarriage":6726,"omic":6727,"Ġ300":6728,"CS":6729,"Ġsignals":6730,"Ġenum":6731,"Ġseconds":6732,"({":6733,"sample":6734,"password":6735,"Ġabuse":6736,"lements":6737,"PR":6738,"Ġrub":6739,"ĠLog":6740,"ĠCr":6741,"Ġmac":6742,"Ġsharing":6743,"Ġrevealed":6744,"Ġbrown":6745,"Ġdomestic":6746,"inf":6747,"ĠPers":6748,"#!":6749,"Ġmolecules":6750,"ĠRights":6751,"Ġpromin":6752,"</":6753,"Ġsick":6754,"Ġconcerned":6755,"Ġdiscussed":6756,"ĠTop":6757,"View":6758,"ĠScott":6759,"Ġsuffering":6760,"ĠBuild":6761,"ctic":6762,"dule":6763,"throp":6764,"lig":6765,"device":6766,"Ġroute":6767,"ĠIreland":6768,"Ġaudience":6769,"aming":6770,"Ġ{\"":6771,"Ġemotions":6772,"Ġdescribes":6773,"ĠCommit":6774,"Ġnaturally":6775,"option":6776,"Ġ1996":6777,"Text":6778,"Ġexperiments":6779,"ĠSouthern":6780,"ĠStudies":6781,"Ġgall":6782,"illa":6783,"ĠFlorida":6784,"Ġpull":6785,"Ġdirectory":6786,"Ġoral":6787,"Ġpossibly":6788,"Ġcart":6789,"ĠCast":6790,"84":6791,"Ġformal":6792,"pring":6793,"ĠCam":6794,"rac":6795,"Ġwait":6796,"Ġaccel":6797,"``":6798,"Des":6799,"mask":6800,"Ġhus":6801,"ĠFederal":6802,"ĠReturns":6803,"ĠJoseph":6804,"ffee":6805,"ĠColumb":6806,"ĠChic":6807,"oral":6808,"Ġmanaged":6809,"Ġimagine":6810,"Ġlies":6811,"Ġimplementation":6812,"ĠRome":6813,"ĠRoad":6814,"agers":6815,"axis":6816,"Ġimpossible":6817,"cript":6818,"Ġ[\"":6819,"ashion":6820,"ĠIll":6821,"bot":6822,"Ġshel":6823,"Image":6824,"Ġalle":6825,"email":6826,"Ġnewsp":6827,"Ġchosen":6828,"unched":6829,"ĠPath":6830,"Ġparams":6831,"Ġdomain":6832,"elcome":6833,"debug":6834,"ĠLibrary":6835,"ĠCheck":6836,"Ġmixed":6837,"FA":6838,"ĠImp":6839,"Ġpump":6840,"next":6841,"First":6842,"iology":6843,"Ġsmooth":6844,"Ġadopted":6845,"Ġplate":6846,"Ġborder":6847,"Ġsensitive":6848,"__':":6849,"Ġmuseum":6850,"predict":6851,"cknow":6852,"Ġmaintaining":6853,"Ġhero":6854,"Ġagree":6855,"ker":6856,"otes":6857,"includ":6858,"Ġreject":6859,"Other":6860,"ĠPop":6861,"Ġawait":6862,"04":6863,"Ġhidden":6864,"itz":6865,"ĠScient":6866,"Ġcraft":6867,"Ġopinion":6868,"Ġmobile":6869,"duction":6870,"Mod":6871,"ĠEnd":6872,"Of":6873,"Ġneighbor":6874,"Ġnormally":6875,"Rec":6876,"?\"":6877,"Ġprocedures":6878,"ĠAcademy":6879,"rey":6880,"layer":6881,"Ġrepeated":6882,"math":6883,"Ġinteract":6884,"Ġaccounts":6885,"Ġpictures":6886,"Ġpositions":6887,"ĠSec":6888,"________":6889,"section":6890,"Ġdedicated":6891,"ĠManagement":6892,"Ġspeaking":6893,"osph":6894,"Ġbudget":6895,"Ġwants":6896,"Ġcompetition":6897,"ĠOpen":6898,"See":6899,"ropical":6900,"ĠNorthern":6901,"ami":6902,"}}":6903,"Ġtips":6904,"ba":6905,"aria":6906,"Ġsyndrome":6907,"ĠAcc":6908,"block":6909,"Ġsigned":6910,"ĠSpain":6911,"Ġagreement":6912,"Ġconvert":6913,"ĠControl":6914,"Ġphoto":6915,"Ġwarming":6916,"Ġmarked":6917,"ether":6918,"Ġadministration":6919,"Ġbeliefs":6920,"umes":6921,"ĠImage":6922,"ĠCat":6923,"ĠVis":6924,"Ġelected":6925,"Ġtwice":6926,"Ġachieved":6927,"ulin":6928,"********":6929,"Ġprotocol":6930,"Ġarms":6931,"Ġlisten":6932,"Ġresponses":6933,"Ġunderstood":6934,"ĠAbout":6935,"rency":6936,"Ġmedications":6937,"Ġdeaths":6938,"Ġsuitable":6939,"Ġshot":6940,"Ġgenerations":6941,"ĠKingdom":6942,"Ġopposite":6943,"ĠPsych":6944,"cls":6945,"ĠMer":6946,"ĠOnly":6947,"Ġtroops":6948,"Ġinject":6949,"06":6950,"Ġrecovery":6951,"project":6952,"Ġprompt":6953,"Ġerrors":6954,"inally":6955,"ĠAI":6956,"nings":6957,"Ġpolitics":6958,"ett":6959,"ih":6960,"char":6961,"yr":6962,"Ġconsistent":6963,"ĠAdditionally":6964,"aped":6965,"race":6966,"expected":6967,"Ġfrag":6968,"Ġcloser":6969,"Ġdefic":6970,"azing":6971,"Ġfoundation":6972,"Ġcrop":6973,"Ġsurvive":6974,"Ġagriculture":6975,"heast":6976,"57":6977,"uma":6978,"ĠĠĠĠĠĠĠĠĠĠĠĠĠĠĠĠĠĠ":6979,"Ġpregnancy":6980,"Ġinsert":6981,"Ġfunding":6982,"Ġbattery":6983,"Ġdeeper":6984,"Ġhoriz":6985,"ĠHaw":6986,"09":6987,"Sp":6988,"Ġimproving":6989,"ested":6990,"Ġsurvival":6991,"press":6992,"Ġmissing":6993,"Ġsubstance":6994,"abul":6995,"ĠSil":6996,"ascular":6997,"ĠCap":6998,"Ġsignificance":6999,"Ed":7000,"king":7001,"Ġsky":7002,"Ġpron":7003,"cut":7004,"ĠException":7005,"Ġsupporting":7006,"ĠMa":7007,"ĠHT":7008,"Ġsteel":7009,"Ġangle":7010,"Ġprofessionals":7011,"Ġstruggle":7012,"Ġremote":7013,"ĠTom":7014,"grid":7015,"Ġtemp":7016,"ĠEp":7017,"example":7018,"ĠGal":7019,"asive":7020,"wing":7021,"ĠDesign":7022,"iat":7023,"Ġmamm":7024,"clusive":7025,"Ġdecide":7026,"Ġnearby":7027,"Ġmagnetic":7028,"Ġfly":7029,"Ġbranch":7030,"agues":7031,"cycl":7032,"soft":7033,"kins":7034,"ĠRevolution":7035,"ĠSant":7036,"Ġfalse":7037,"Ġbehaviour":7038,"Ġcapture":7039,"Ġusage":7040,"bas":7041,"Te":7042,"icing":7043,"Ġcardi":7044,"ipal":7045,"Ġpref":7046,"Ġends":7047,"Ġtruly":7048,"ĠNature":7049,"ittle":7050,"ĠWhe":7051,"oded":7052,"results":7053,"Ġble":7054,"del":7055,"ĠConstitution":7056,"ĠUser":7057,"Sub":7058,"hemical":7059,"Ġinfected":7060,"unit":7061,"isters":7062,"Ġelectron":7063,"Ġarchitecture":7064,"tag":7065,"ĠBank":7066,"Ġbones":7067,"Ġexpressed":7068,"Ġ36":7069,"Ġelectronic":7070,"Ġdrawing":7071,"Ġtransition":7072,"itan":7073,"Ġintellect":7074,"Ġmachines":7075,"Ġorganized":7076,"Ġcircuit":7077,"ĠComput":7078,"Ġbroken":7079,"ester":7080,"Ġspaces":7081,"hedule":7082,"Ġaf":7083,"Ġcarefully":7084,"stone":7085,"Ġleaf":7086,"Ġconfir":7087,"ocracy":7088,"ĠBill":7089,"connect":7090,"Ġvirtual":7091,"riend":7092,"GB":7093,"Ġconc":7094,"Ġmock":7095,"58":7096,"ĠPub":7097,"Ġdiscipl":7098,"utf":7099,"static":7100,"onomy":7101,"raint":7102,"Ġcomposition":7103,"omach":7104,"Ġknows":7105,"Ġ1995":7106,"pet":7107,"Ġobj":7108,"ĠVictor":7109,"Ġguidelines":7110,"Ġthor":7111,"ĠLabor":7112,"Ġpossibility":7113,"eer":7114,"abits":7115,"Ġdoor":7116,"Ġmechanism":7117,"Ġgrew":7118,"Ġuniversity":7119,"ading":7120,"ĠModel":7121,"Ġcircumstances":7122,"Ġregist":7123,"types":7124,"Ġtoler":7125,"]))":7126,"Ġchrom":7127,"des":7128,"Ġ2022":7129,"arant":7130,"ĠScot":7131,"SI":7132,"Ġproduces":7133,"erals":7134,"-------":7135,"Ġempty":7136,"Ġinches":7137,"Config":7138,"_{":7139,"Ġinteraction":7140,"Ġdoctors":7141,"Ġseeing":7142,"Ġblocks":7143,"Your":7144,"Ġhappy":7145,"ĠExper":7146,"Ġforests":7147,"lambda":7148,"Ġages":7149,"then":7150,"Ġunless":7151,"Ġinflammation":7152,"Ġphilosophy":7153,"ĊĠĠĠĠĠĠĠĠĠĠĠĠ":7154,"local":7155,"ĠWood":7156,"Ġmanufacturing":7157,"Ġarrived":7158,"Ġmarine":7159,"ĠLeg":7160,"Ġslowly":7161,"Ġextensive":7162,"ĠProfessor":7163,"Su":7164,"Ġexception":7165,"American":7166,"Ġrecycl":7167,"Ġpersist":7168,"Ġsucceed":7169,"Ġinfo":7170,"Ġlots":7171,"Ġskill":7172,"Ġmonitor":7173,"~~":7174,"Ġharmful":7175,"Ġadequ":7176,"claim":7177,"ĠVer":7178,"itc":7179,"ĠWik":7180,"Ġchallenging":7181,"ĠUSA":7182,"Ġfighting":7183,"ĠDu":7184,"Ġdepos":7185,"ran":7186,"Since":7187,"usiness":7188,"ĠOffice":7189,"ĠPan":7190,"'].":7191,"Ġharvest":7192,"Ġfootball":7193,"Ġunderlying":7194,"ESS":7195,"Ġended":7196,"vol":7197,"tim":7198,"#!/":7199,"ĠOh":7200,"rovers":7201,"ĠCa":7202,"ĠAngel":7203,"total":7204,"?âĢĿ":7205,"bridge":7206,"hav":7207,"ali":7208,"ĠTimes":7209,"08":7210,"Ġath":7211,"ĠMel":7212,"ĠCreate":7213,"Ġtransmission":7214,"Hand":7215,"ĠTer":7216,"Ġrecognition":7217,"Ġdecline":7218,"ĊĊĊĠĠĠ":7219,"Ġmaintenance":7220,"Ġremark":7221,"Ġcoun":7222,"venue":7223,"Trans":7224,"ĠSuper":7225,"Ġlaunch":7226,"Ġdelay":7227,"Ġelectro":7228,"Ġtexts":7229,"Ġethnic":7230,"antly":7231,"Ġcomprehensive":7232,"Ġindicates":7233,"ĠKar":7234,"Ġinvolving":7235,"Ġturns":7236,"Ġaccuracy":7237,"template":7238,"Ġacknow":7239,"oted":7240,"Ġmsg":7241,"Ġallerg":7242,"ports":7243,"ĠLib":7244,"Out":7245,"fn":7246,"Ġdestroyed":7247,"div":7248,"71":7249,"Ġadministr":7250,"ĠMill":7251,"54":7252,"icious":7253,"Ġships":7254,"UM":7255,"ĠBig":7256,"unicip":7257,"ĠMusic":7258,"Ġworse":7259,"ĠBrazil":7260,"åĪ":7261,"Ġdin":7262,"Ġsuffer":7263,"Ġshop":7264,"53":7265,"TO":7266,"description":7267,"ĠCommittee":7268,"ersonal":7269,"estival":7270,"ĠChicago":7271,"Ġframework":7272,"Ġdust":7273,"Ġdecade":7274,"ighter":7275,"inction":7276,"ura":7277,"Ġrhy":7278,"She":7279,"Ġexamine":7280,"ollowing":7281,"Ġaccum":7282,"ĠColor":7283,"Med":7284,"pu":7285,"store":7286,"mode":7287,"ipping":7288,"Ġindeed":7289,"Ġorganisms":7290,"irs":7291,"ĠOcean":7292,"kl":7293,"Ġscores":7294,"String":7295,"Ġagent":7296,"ĠGlobal":7297,"Ġcurriculum":7298,"Ġsweet":7299,"Ġwildlife":7300,"ĠGrand":7301,"Ġwitness":7302,"Ġfossil":7303,"83":7304,"ĠIrish":7305,"Char":7306,"ĠOx":7307,"Ġequivalent":7308,"Ġnine":7309,"onym":7310,"indu":7311,"Ret":7312,"Ġdepict":7313,"uid":7314,"Ġourselves":7315,"Ġmatrix":7316,"ymph":7317,"Ġdriver":7318,"oves":7319,"andon":7320,"Dr":7321,"ĠBase":7322,"Ġresolution":7323,"Ã¤":7324,"Ġabund":7325,"Frame":7326,"Ġcolour":7327,"72":7328,"Ġcrime":7329,"ĠOper":7330,"how":7331,"Ġafford":7332,"Figure":7333,"Ġassistance":7334,"oom":7335,"icide":7336,"Ġauthorities":7337,"copy":7338,"ï¼Į":7339,"Ġattend":7340,"Ġongoing":7341,"Ġshif":7342,"features":7343,"ourage":7344,"Ġunable":7345,"ras":7346,"Ġpowers":7347,"73":7348,"Ġwasn":7349,"Ġban":7350,"fill":7351,"Per":7352,"Ġlimits":7353,"eries":7354,"ioxide":7355,".'":7356,"Ġlaunched":7357,"Ġsupports":7358,"Ġappointed":7359,"orted":7360,"Ġdebate":7361,"('/":7362,"Ġaqu":7363,"ĠTim":7364,"Ġattached":7365,"address":7366,"Ġwalking":7367,"ĠEastern":7368,"ersion":7369,"âĢĻ.":7370,"Ġphysics":7371,"Ġeastern":7372,"Ġzone":7373,"SC":7374,"52":7375,"va":7376,"Ġment":7377,"hips":7378,"orph":7379,"ometry":7380,"ĠNations":7381,"Ġ1994":7382,"Ġfeedback":7383,"Ġinstructions":7384,"Ġcompare":7385,"ptions":7386,"lat":7387,"FI":7388,"Ġnan":7389,"Ġvessels":7390,"Ġantibiot":7391,"ĠGeorg":7392,"Ġyounger":7393,"Ġholds":7394,"Ġnutrition":7395,"riers":7396,"onent":7397,"Ġadvent":7398,"Ġfinished":7399,"izers":7400,"Ġdirected":7401,"ĠThose":7402,"lock":7403,"ĠJul":7404,"Ġintake":7405,"Ġcommunicate":7406,"argv":7407,"ears":7408,"Ġconventional":7409,"Ġwhereas":7410,"Ġcomparison":7411,"username":7412,"Ġhypothes":7413,"case":7414,"itory":7415,"Ġahead":7416,"Ġconstitution":7417,"Ġteams":7418,"alog":7419,"Ġterritory":7420,"ĠLanguage":7421,"Ġorg":7422,"ĠZeal":7423,"74":7424,"ĠFurthermore":7425,"Ġspecified":7426,"Ġparse":7427,"Ne":7428,"Ġbehaviors":7429,"Ġpainting":7430,"ĠMinister":7431,"ontal":7432,"Ġhydro":7433,"Ġmechanisms":7434,"Ġchildhood":7435,"Ġsubs":7436,"ĠHave":7437,"ĠSwed":7438,"Ġuns":7439,"ĠEth":7440,"itudes":7441,"Ġfavorite":7442,"Ġrepresentation":7443,"orous":7444,"ãĢ":7445,"Ġhydrogen":7446,"Ġstands":7447,"ĠEss":7448,"ĠBrown":7449,"select":7450,"mem":7451,"Ġaccident":7452,"ĠFort":7453,"ĠKeep":7454,"igate":7455,"ĠKnow":7456,"ĠCON":7457,"Ġinteractions":7458,"51":7459,"Ġcategories":7460,"Ġfertil":7461,"ĠBack":7462,"Ġinstitution":7463,"ĠID":7464,"Ġhousing":7465,"Ġentered":7466,"Ġcompr":7467,".\")":7468,"hesis":7469,"Ġmanif":7470,"rt":7471,"transform":7472,"Ġfaced":7473,"amics":7474,"Ġloop":7475,"Ġcollections":7476,"lication":7477,"Ġutf":7478,"hered":7479,"urb":7480,"fish":7481,"Ġreactions":7482,"ĠEnvironmental":7483,"such":7484,"Pe":7485,"has":7486,"ĠWill":7487,"Ġtall":7488,"Ġstable":7489,"Ġmaybe":7490,"ediate":7491,"Ġbridge":7492,"81":7493,"esity":7494,"ĠMartin":7495,"Ġnom":7496,"Ġfab":7497,"Ġgreatly":7498,"Ġbio":7499,"Ġartificial":7500,"Ġprevention":7501,"Ġbear":7502,"Ġcutting":7503,"\").":7504,"ĠValley":7505,"Ġserves":7506,"reek":7507,"Ġexpansion":7508,"Ġstanding":7509,"Ġcomposed":7510,"ribed":7511,"ĠMoreover":7512,"Ġobservations":7513,"Ġpermanent":7514,"Ġreward":7515,"Ġcourses":7516,"Ġ1950":7517,"Ġbeneficial":7518,"Ġsod":7519,"\"))":7520,"ployment":7521,"Ġpool":7522,"Ġfell":7523,"Ġboost":7524,"Ġconfidence":7525,"Stud":7526,"ĠZealand":7527,"except":7528,"ima":7529,"Exception":7530,"pload":7531,"orses":7532,"CA":7533,"sign":7534,"Ġcrow":7535,"82":7536,"ĠUnderstanding":7537,"Ġtrained":7538,"obs":7539,"Ġarrange":7540,"Ġinsects":7541,"Ġmedication":7542,"ĠBoard":7543,"Ġseeking":7544,"Ġeld":7545,"Ġinitially":7546,"ATE":7547,"icens":7548,"estamp":7549,"making":7550,"true":7551,"Ġsupplement":7552,"vals":7553,"ĠPract":7554,"Ġstomach":7555,"datetime":7556,"Che":7557,"ĠDiff":7558,"Ġrecip":7559,"raining":7560,"Ġimmediate":7561,"Ġinstruments":7562,"vari":7563,"ĠPython":7564,"ĠMax":7565,"Ġunus":7566,"isk":7567,"Ġacids":7568,"nership":7569,"Ġtheore":7570,"sts":7571,"inking":7572,"Ġincred":7573,"ĠNative":7574,"User":7575,"erior":7576,"Ġinjuries":7577,"Ġreverse":7578,"Ġgone":7579,"ĠHill":7580,"teen":7581,"ĠMen":7582,"Ġconsumers":7583,"Don":7584,"Ġdifficulty":7585,"olester":7586,"Ġorient":7587,"eta":7588,"\"])":7589,"imple":7590,"oup":7591,"operation":7592,"Ġregulations":7593,"Ġrecept":7594,"module":7595,"QL":7596,"Ġdecor":7597,"Ġroof":7598,"Over":7599,"Ġdesired":7600,"Ġinsights":7601,"Ġcentre":7602,"FT":7603,"Ġobser":7604,"herent":7605,"allow":7606,"Ġcoffee":7607,"ĠYet":7608,"onia":7609,"Ġcontained":7610,"alls":7611,"Ġvoltage":7612,"Ġrelax":7613,"ching":7614,"cf":7615,"ĠBest":7616,"ĠCarolina":7617,"igrants":7618,"images":7619,"ĠTre":7620,"ĠIII":7621,"Ġ150":7622,"Ġreserv":7623,"bur":7624,"Ġstreet":7625,"Ġrid":7626,"ĠBC":7627,"Ġowner":7628,"Cre":7629,"antic":7630,"Ġindependence":7631,"ĠDen":7632,"ivery":7633,"Ġdepartment":7634,"di":7635,"(__":7636,"ĠDev":7637,"Ġtransportation":7638,"Ġoccasion":7639,"bra":7640,"olving":7641,"Ġnecessarily":7642,"Section":7643,"ĠWho":7644,"ĠGard":7645,"onents":7646,"Ġmovie":7647,"ĠCOVID":7648,"96":7649,"Ġwish":7650,"Ġinterface":7651,"Ġresulted":7652,"ĠDig":7653,"ĠDivision":7654,"Ġregul":7655,"Ġnone":7656,"Ġdioxide":7657,"Ġfunctional":7658,"Ġinstalled":7659,"Ġserving":7660,"Ġoffering":7661,"Ġpra":7662,"Ġmanip":7663,"ented":7664,"ĠSpe":7665,"Ġagencies":7666,"exists":7667,"Ġintervention":7668,"zed":7669,"ĠBab":7670,"hema":7671,"common":7672,"Once":7673,"Ġnucle":7674,"Ġbiggest":7675,"Ġtaste":7676,"ĠMult":7677,"Ġfewer":7678,"ĠSimilar":7679,"').":7680,"Ġhusband":7681,"height":7682,"igma":7683,"Ġthousand":7684,"ĠSir":7685,"**:":7686,"anches":7687,"Ġdoubt":7688,"ptional":7689,"Def":7690,"asters":7691,"Ġrig":7692,"iana":7693,"Ġcm":7694,"Ġcollaboration":7695,"Ġce":7696,"Parser":7697,"ogether":7698,"Ġmembr":7699,"task":7700,"Ġparallel":7701,"ĠStudy":7702,"Ġpercentage":7703,"world":7704,"ĠRom":7705,"Ġ400":7706,"Ġswim":7707,"Ġevaluation":7708,"Ġsole":7709,"tery":7710,"Ġargparse":7711,"Ġbreathing":7712,"python":7713,"olesterol":7714,"07":7715,"ĠNote":7716,"Ġtraditions":7717,"ĠCreat":7718,"Ġneur":7719,"Ġfascinating":7720,"Ġconstructed":7721,"lymp":7722,"OC":7723,"Ġexplo":7724,"ĠYoung":7725,"Ġinhib":7726,"ipedia":7727,"ĠDou":7728,"ivated":7729,"rine":7730,"Ġgained":7731,"ocy":7732,"Ġadj":7733,"fortunately":7734,"Ġvel":7735,"rimination":7736,"ĠHy":7737,"Ġarrest":7738,"Ġpurchase":7739,"---":7740,"itar":7741,"Ġevaluate":7742,"ĠFree":7743,"Ġtyping":7744,"Ġauthent":7745,"eval":7746,"Ġsupposed":7747,"Ġcustomers":7748,"Ġdesire":7749,"Ġlifestyle":7750,"Ġlands":7751,"Ġworry":7752,"riv":7753,"creen":7754,"Ġsheet":7755,"irus":7756,"EX":7757,"ĠAdminist":7758,"MP":7759,"Ġpapers":7760,"conv":7761,"Ġagency":7762,"Ġensuring":7763,"Ġfourth":7764,"Ġsharp":7765,"Ġsight":7766,"ĠDespite":7767,"arsh":7768,"matrix":7769,"Ġnerve":7770,"asty":7771,"Ġcryst":7772,"ĠPo":7773,"Ġpsychological":7774,"ĠBir":7775,"Ġasync":7776,"BS":7777,"pread":7778,"Ġemployed":7779,"Ġholding":7780,"outs":7781,"Ġconsumer":7782,"ugh":7783,"ANT":7784,"ĠPass":7785,"Ġconcrete":7786,"click":7787,"Ġprove":7788,"cs":7789,"Ġwhatever":7790,"Ġ<=":7791,":**":7792,"ilation":7793,"Ġmatters":7794,"']['":7795,"(*":7796,"Ġcontrovers":7797,"itivity":7798,"ĠSar":7799,"Ġcompounds":7800,"ushed":7801,"Ġoperate":7802,"Ġboy":7803,"Ġdepart":7804,"Ġbread":7805,"Ġeditor":7806,"Ġcards":7807,"Ġrelation":7808,"Ġmoves":7809,"Ġenv":7810,"Ġdebt":7811,"Ġphotograph":7812,"emia":7813,"Ġ1000":7814,"ĠNatural":7815,"ĠInit":7816,"ishop":7817,"Ġmarkets":7818,",'":7819,"ĠAsian":7820,"Ġcolumns":7821,"Ġnurs":7822,"tree":7823,"ĠNaz":7824,"::":7825,"Ġmusical":7826,"ategory":7827,"Ġ1992":7828,"Ġhabits":7829,"idespread":7830,"Ġtheme":7831,"Ġ'.":7832,"Ġtwenty":7833,"Ġexplanation":7834,"ui":7835,"Ġtargets":7836,"Ġsongs":7837,"Conn":7838,"Ġissued":7839,"Lear":7840,"iary":7841,"Ġnob":7842,"mi":7843,"Ġparticipate":7844,"Ġmanager":7845,"Ġmaps":7846,"ĠRock":7847,"agraph":7848,"Ġvac":7849,"ĠExt":7850,"options":7851,"ĠQuest":7852,"ĠCopyright":7853,"Ġalter":7854,"ĠNon":7855,"ĠValueError":7856,"utorial":7857,"lean":7858,"TestCase":7859,"Ġmeters":7860,"Ġske":7861,"Ġsections":7862,"CP":7863,"igan":7864,"Ġlegs":7865,"folder":7866,"afe":7867,"Ġdemonstrated":7868,"ideos":7869,"isp":7870,"usal":7871,"stop":7872,"Chapter":7873,"Ġmand":7874,"abulary":7875,"Ġinher":7876,"(-":7877,"ĠDar":7878,"Ġring":7879,"Ġinsurance":7880,"Ġfiber":7881,"Ġlimitations":7882,"ocity":7883,"Ref":7884,"Ġdemonstrate":7885,"Ġneck":7886,"opes":7887,"Ġwis":7888,"Ġtrip":7889,"Ġnegot":7890,"asy":7891,"ĠSecret":7892,"Ġstrict":7893,"Ġcircle":7894,"Rel":7895,"Ġimprovement":7896,"Ġdeclared":7897,"Ġhonor":7898,"Ġrising":7899,"ĠĠĠĠĠĠĠĠĠĠĠĠĠĠĠĠĠĠĠĠ":7900,"ĠGuide":7901,"Ġtheories":7902,"rained":7903,"Ġfunds":7904,"Ġweapons":7905,"ĠSat":7906,"âĢ²":7907,"ctive":7908,"Ġmeth":7909,"edge":7910,"Reg":7911,"agram":7912,"pathy":7913,"Ġ1993":7914,"Ġmales":7915,"Ġcaptured":7916,"peror":7917,"Ġsupplies":7918,"zone":7919,"err":7920,"Ġhole":7921,"Ġdictionary":7922,"Ġ>=":7923,"miss":7924,"Ġabsolute":7925,"product":7926,"DP":7927,"ĠCy":7928,"Ġobjective":7929,"match":7930,"ĠReport":7931,"Ġrefuge":7932,"drop":7933,"ĠStar":7934,"Ġfellow":7935,"Ġinfluenced":7936,"oven":7937,"Ġshapes":7938,"Ġcounty":7939,"ĠAtlantic":7940,"Ġfemales":7941,"Ġcareful":7942,"Ġlaboratory":7943,"Ġbool":7944,"cies":7945,"Ġescape":7946,"Ġkeys":7947,"Writ":7948,"ĠLine":7949,"Ġasking":7950,"Ġjump":7951,"ften":7952,"Ġ1991":7953,"apse":7954,"ĠOlymp":7955,"Ġingredients":7956,"ĠBefore":7957,"Ġ..":7958,"fields":7959,"Ġassociation":7960,"Ġpup":7961,"Ġfract":7962,"\\\\":7963,"ĠAge":7964,"Ġdesigns":7965,"Ġcrew":7966,"non":7967,"system":7968,"Part":7969,"Ġstroke":7970,"ĠViet":7971,"Ġdental":7972,"69":7973,"Ġadvert":7974,"Ġgluc":7975,"Ġsales":7976,"Ġvulnerable":7977,"cm":7978,"hedul":7979,"Ġcommission":7980,"RL":7981,"Ġå":7982,"Ġdrawn":7983,"Ġsmoking":7984,"Ġlock":7985,"Ġclaimed":7986,"Ġbuff":7987,"everal":7988,"delete":7989,"ĠSign":7990,"Ġcalcium":7991,"ressive":7992,"ibl":7993,"Ġguarant":7994,"Ġlect":7995,"ĠAuthor":7996,"osion":7997,"EP":7998,"apes":7999,"Ġcolleagues":8000,"ĠAward":8001,"DS":8002,"Ġwilling":8003,"ji":8004,"Ġforget":8005,"Ġpartner":8006,"Ġenumerate":8007,"Ġmild":8008,"Ġmodified":8009,"Ġfashion":8010,"Ġtank":8011,"ĠNetwork":8012,"plete":8013,"idity":8014,"Ġteen":8015,"iral":8016,"Ġdoi":8017,"Ġeveryday":8018,"Ġgap":8019,"Ġedition":8020,"ĠWhere":8021,"Value":8022,"%.":8023,"Ġarts":8024,"Ġpassing":8025,"Ġattempts":8026,"('--":8027,"ERS":8028,"Ġfer":8029,"Ġprominent":8030,"Ġserial":8031,"norm":8032,"Ġwidespread":8033,"Ġimplemented":8034,"Ġlinear":8035,"ĠSpecial":8036,"iratory":8037,"ĠÂłĠÂł":8038,"ĠSciences":8039,"FF":8040,"EC":8041,"ishment":8042,"ĠStart":8043,"ĠChange":8044,"Ġsubsequent":8045,"ograp":8046,"ĠIdent":8047,"Ġabandon":8048,"Ġspending":8049,"Ġpackage":8050,"ĠAdv":8051,"Ġsought":8052,"Ġru":8053,"æķ":8054,"Ġsubstances":8055,"ĠPM":8056,"Ġ75":8057,"ĠField":8058,"Ġengaging":8059,"night":8060,"erman":8061,"ĠPet":8062,"Ġsummary":8063,"Ġhistoric":8064,"inson":8065,"ĠPoint":8066,"earchers":8067,"ounded":8068,"Ġinspired":8069,"Ġ'/":8070,"atern":8071,"emb":8072,"Ġspin":8073,"oston":8074,"Ġcats":8075,"ĠÂ·":8076,"essions":8077,"Ġdelivery":8078,"Ġrect":8079,"Ġpassage":8080,"Ġ\"__":8081,"%)":8082,"Am":8083,"Ġsilver":8084,"Ġveter":8085,"ĠTake":8086,"ĠSup":8087,"ĠTown":8088,"ĠDisease":8089,"layers":8090,"ĠBattle":8091,"Ġplane":8092,"eenth":8093,"elesc":8094,"Ġowners":8095,"ells":8096,"Ġinterf":8097,"!!":8098,"Ġinterpre":8099,"Ġintellectual":8100,"quit":8101,"Ġloved":8102,"Ġturning":8103,"ĠAND":8104,"Ġpresentation":8105,"Ġpreval":8106,"amps":8107,"Ġfacing":8108,"Ġalgorithm":8109,"Ġul":8110,"ĠCommand":8111,"Ġflo":8112,"rowser":8113,"abeth":8114,"aniel":8115,"Ġgalax":8116,"Ġgreenhouse":8117,"ureau":8118,"Ġbeauty":8119,"ĠSometimes":8120,"Ġdetection":8121,"Ġordered":8122,"ĠAccess":8123,"uda":8124,"Ġinformed":8125,"Ġrespectively":8126,"ĠJac":8127,"Ġtrials":8128,"Ġassigned":8129,"âĢĻ,":8130,"Ġstronger":8131,"ĠIran":8132,"Ġmeasurement":8133,"Ġcomplicated":8134,"lishing":8135,"roat":8136,"Ġenemy":8137,"effect":8138,"this":8139,"Ġmechanical":8140,"Ġ65":8141,"Ġreceiving":8142,"elihood":8143,"Ø§":8144,"temp":8145,"best":8146,"Ġputting":8147,"Ġbutton":8148,"Ġ?":8149,"ultane":8150,"Ġpit":8151,"amine":8152,"Ġdynamic":8153,"Ġcrim":8154,"Ġpin":8155,"Ġhem":8156,"Ġpytest":8157,"Ġstatistics":8158,"Ġindustries":8159,"Ġbrings":8160,"Ġfeeding":8161,"acebook":8162,"idential":8163,"Ġbutter":8164,"ä»":8165,"erator":8166,"Ġpeak":8167,"cho":8168,"SP":8169,"earing":8170,"uan":8171,"Ġformula":8172,"sim":8173,"Ġsacr":8174,"Ġguess":8175,"ĠCurrent":8176,"aws":8177,"'d":8178,"fast":8179,"Ġemployment":8180,"Ġimplications":8181,"uten":8182,"ĠVen":8183,"Ġnodes":8184,"Ġstuff":8185,"Ġrely":8186,"ja":8187,"ĠĠĠĠĠĠĠĠĠĠĠĠĠĠĠĠĠĠĠĠĠĠ":8188,"Ġdtype":8189,"ĠChild":8190,"Ċĉĉĉĉ":8191,"ĠFamily":8192,"Ġaccessible":8193,"Ġille":8194,"Ġrecon":8195,"lik":8196,"idation":8197,"edit":8198,"acher":8199,"Ġliv":8200,"cyclop":8201,"esis":8202,"Ġcontrols":8203,"dig":8204,"Ġmining":8205,"Pre":8206,"Ġestimate":8207,"Date":8208,"zeros":8209,"sis":8210,"Ġbanks":8211,"ĠWorks":8212,"Ġupdated":8213,"æľ":8214,"ĠEst":8215,"oples":8216,"Ġcalculate":8217,"Ġextension":8218,"oln":8219,"Ġtherap":8220,"Ġmeasurements":8221,"weet":8222,"Ġmeal":8223,"ĠUt":8224,"Ġpromoting":8225,"ATION":8226,"Ġtea":8227,"Ġchick":8228,"hop":8229,"ATH":8230,"ipher":8231,"Ġwriters":8232,"ĠIslam":8233,"Ġcovers":8234,"Ġvector":8235,"Ġagents":8236,"ylvan":8237,"ĠJohnson":8238,"settings":8239,"Ġliterary":8240,"uels":8241,"ĠEc":8242,"rive":8243,"67":8244,"help":8245,"Rep":8246,"itative":8247,"Ġcav":8248,"Ġcooking":8249,"har":8250,"Ġuncertain":8251,"Ġpoison":8252,"Ġversions":8253,"Ġ1930":8254,"Ġknowing":8255,"IA":8256,"Ġcommitted":8257,"ĠPak":8258,"Ġconsidering":8259,"Ġtight":8260,"Ġrice":8261,"ĠSaf":8262,"Ġstimul":8263,"Ġdamaged":8264,"Ġstations":8265,"break":8266,"Ġnewly":8267,"oving":8268,"ĠSqu":8269,"Ġrivers":8270,"diff":8271,"Ġassume":8272,"ĠWall":8273,"ĠClub":8274,"ĠClin":8275,"Ã§":8276,"Ġdance":8277,"Ġrocks":8278,"Ġmos":8279,"Ġreduces":8280,"aining":8281,"ĠDom":8282,"Ġtissues":8283,"Ġcholesterol":8284,"Ġcontamin":8285,"Ġguidance":8286,"Net":8287,"perm":8288,"Ġthir":8289,"Ġepid":8290,"ĠArticle":8291,"atial":8292,"Ġmur":8293,"Ġorgans":8294,"Ġacquired":8295,"disc":8296,"ĠPlay":8297,"ĠMethod":8298,"Ġpoem":8299,"stack":8300,"Ġcombat":8301,"Ġ33":8302,"opic":8303,"Ġcenters":8304,"Ġconfiguration":8305,"Ġlegisl":8306,"Ġtrouble":8307,"ĠĊ":8308,"ĠâĨĳ":8309,"Ġabstract":8310,"ĠAmong":8311,"Ġforth":8312,"mond":8313,"Ġconven":8314,"Ġsmoke":8315,"Ġparticipation":8316,"ĠIns":8317,"âĢĺ":8318,"Ġproof":8319,"Ġvan":8320,"Ġopposed":8321,"ĠNov":8322,"Ġreliable":8323,"entry":8324,"ounce":8325,"ĠRail":8326,"State":8327,"Ġdates":8328,"Ġcycl":8329,"Ġcharacterized":8330,"Inter":8331,"Ġbrand":8332,"Ġengaged":8333,"Ġstack":8334,"script":8335,"ĠEr":8336,"Ġfever":8337,"Ġouter":8338,"after":8339,"__\":":8340,"Ġprofile":8341,"oly":8342,"ĠForce":8343,"Ġsomewhat":8344,"aired":8345,")),":8346,"ĠSand":8347,"Ġconversation":8348,"Ġtube":8349,"Ġrelief":8350,"Ġped":8351,"ĪĴ":8352,"Ġexamination":8353,"rary":8354,"Ġlie":8355,"Ġalign":8356,"equal":8357,"rog":8358,"Ġfurn":8359,"Ġexercises":8360,"ĠIndust":8361,"Ġtract":8362,"Ġmm":8363,"Ġtick":8364,"rape":8365,"Ġroutine":8366,"Ġfrequent":8367,"Ġaudio":8368,"ĠHand":8369,"Ġsatellite":8370,"OW":8371,"Ġmathematics":8372,"etics":8373,"amma":8374,"Ġarchae":8375,"Ġresil":8376,"grade":8377,"ĠDoes":8378,"chain":8379,"Ġdestruction":8380,"Ġbeings":8381,"Ġjudge":8382,"rooms":8383,"Ġdefense":8384,"Ġcriminal":8385,"Ġadvantages":8386,"Ġstrongly":8387,"Ġplus":8388,"à¸":8389,"KE":8390,"ĠMoon":8391,"Ġtranslation":8392,"ĠDown":8393,"Ġ2023":8394,"ĠChampions":8395,"Ġcarb":8396,"Ġvolcan":8397,"Ġofficers":8398,"Ġinnovation":8399,"Co":8400,"Ġdanger":8401,"Ġtons":8402,"ĠLee":8403,"Ġstores":8404,"Ġgranted":8405,"ĠMah":8406,"ĠCancer":8407,"Ġdiagnosed":8408,"Ġfacility":8409,"Ġamazing":8410,"Ġracial":8411,"Ġthanks":8412,"ĠLook":8413,"ĠWindows":8414,"Ġblind":8415,"hma":8416,"power":8417,"Ġapproved":8418,"Ġowned":8419,"Ġvictims":8420,"Ġtrigger":8421,"Ġobservation":8422,"ĠThough":8423,"Ġnose":8424,"Ġinputs":8425,"Ġplanned":8426,"encing":8427,"Ġseemed":8428,"Ð»":8429,".âĢĻ":8430,"Node":8431,"Ġsenior":8432,"\"):":8433,"Ġheavily":8434,"Ġevolved":8435,"Ġneither":8436,"pub":8437,"raham":8438,"ĠDirector":8439,"Ġclar":8440,"Ġod":8441,"ĠLos":8442,"hyd":8443,"tic":8444,"Ġhel":8445,"Ġtub":8446,"access":8447,"Ġquantum":8448,"Ġearthqu":8449,"Ġgradually":8450,"Ġtemplate":8451,"Ġcontainer":8452,"Ġneighborhood":8453,"68":8454,"enger":8455,"CON":8456,"uts":8457,"MO":8458,"à¥":8459,"amber":8460,"Source":8461,"rene":8462,"Ġ1940":8463,"ĠAR":8464,"ĠPC":8465,"Ġofficer":8466,"Ġburning":8467,"Ġrepair":8468,"Ġconstantly":8469,"sleep":8470,"iler":8471,"service":8472,"Ġinvestigation":8473,"Ġsurfaces":8474,"ĠText":8475,"Ġestimates":8476,"ĠSecurity":8477,"FL":8478,"ĠStat":8479,"ĠNOT":8480,"ĠCommunity":8481,"cache":8482,"Ġfont":8483,"eers":8484,"ĠModern":8485,"otype":8486,"Ġpublication":8487,"Ġunion":8488,"ĠCross":8489,"Ġindigenous":8490,"Ġmood":8491,"Ġdispl":8492,"forcement":8493,"Ġunittest":8494,"Ġphenomenon":8495,"pg":8496,"Ġthemes":8497,"Ġconfirmed":8498,".')":8499,"Ġcls":8500,"Ġcorner":8501,"Ġorbit":8502,"ĠImport":8503,"Ġfold":8504,"Ġmice":8505,"ruption":8506,"ĠOrig":8507,"Ġgirl":8508,"Ġhun":8509,"Ġnull":8510,"Ġran":8511,"initely":8512,"Ġtrace":8513,"Ġ''":8514,"ĠWal":8515,"Ġcorrectly":8516,"wa":8517,"Ġessentially":8518,"ĠWord":8519,"thm":8520,"Ġintegrated":8521,"Ġprincipal":8522,"ĠKorea":8523,"Ġtrends":8524,"ĠOxford":8525,"Under":8526,"ĠJeff":8527,"ĠĠĠĠĠĠĠĠĠĠĠĠĠĠĠĠĠĠĠĠĠ":8528,"Ġcalling":8529,"Ġlegislation":8530,"ĠDutch":8531,"Ġsubstantial":8532,"Ġcorrel":8533,"Ġboys":8534,"Ġrobot":8535,"Car":8536,"squ":8537,"Ġturb":8538,"Ġdesert":8539,"Ġ64":8540,"ĠWay":8541,"acent":8542,"Ġinterpretation":8543,"ailability":8544,"ylvania":8545,"plotlib":8546,"Ġcarrying":8547,"Rem":8548,"]),":8549,"Ġaimed":8550,"png":8551,"ĠLight":8552,"Ġoutcome":8553,"Ġpadd":8554,"ĠEffect":8555,"Ġautomatically":8556,"health":8557,"location":8558,"Ġsla":8559,"ĠForest":8560,"ects":8561,"bles":8562,"Ġequation":8563,"Ġshock":8564,"utation":8565,"Ġcorresponding":8566,"Ġcompos":8567,"Ġsaved":8568,"Ġlung":8569,"Ġmolecular":8570,"Ġuniform":8571,"NS":8572,"learn":8573,"ĠGall":8574,"Ġguard":8575,"wan":8576,"ador":8577,"ĠPolit":8578,"Ġobst":8579,"Â·":8580,"ĠMot":8581,"Ġminerals":8582,"pool":8583,"ĠHoly":8584,"Ġviruses":8585,"izabeth":8586,"Ġminute":8587,"Ġfinds":8588,"rh":8589,"Ġ1989":8590,"Ġthrow":8591,"yal":8592,"Ġindu":8593,"Ġintent":8594,"Ġinnovative":8595,"era":8596,"Ġclothing":8597,"Ã¨":8598,"Ġforg":8599,"Ġmerely":8600,"ĠOptional":8601,"Ġcriteria":8602,"ĠThree":8603,"ependent":8604,"ulpt":8605,"Ġfairly":8606,"Ġsensor":8607,"Ġdream":8608,"Ġthr":8609,"heric":8610,"Ġpartners":8611,"Ġtables":8612,"Ġbiology":8613,"Ġuniversal":8614,"charge":8615,"ĠCall":8616,"ĠName":8617,"Ġsport":8618,"archy":8619,"Ġhorses":8620,"Ġshoot":8621,"Ġcab":8622,"Ġboundaries":8623,"Table":8624,"Ġstatements":8625,"Ġnervous":8626,"Ġembedd":8627,"ĠPrinc":8628,"Ġthy":8629,"Ġepisode":8630,"ements":8631,"ila":8632,"Ġroughly":8633,"tx":8634,"Ġnest":8635,"ĠUnit":8636,"Ġfocuses":8637,"eric":8638,"Eng":8639,"ĠChristmas":8640,"Ġobesity":8641,"Ġpreventing":8642,"Ġseat":8643,"Ġabilities":8644,"Ġscan":8645,"aka":8646,"aska":8647,"ĠCir":8648,"ema":8649,"incoln":8650,"epoch":8651,"esh":8652,"ĠFind":8653,"Ġbranches":8654,"aren":8655,"uy":8656,"ĠBul":8657,"Ġdealing":8658,"ĠRh":8659,"Ġdollars":8660,"Ġtensor":8661,"ĠQueen":8662,"ĠAgricult":8663,"Ġprocessed":8664,"OP":8665,"Ġsurve":8666,"ĠFour":8667,"home":8668,"Ġslavery":8669,"only":8670,"Ġexploration":8671,"Ġbatt":8672,"Post":8673,"vard":8674,"Ġbomb":8675,"arks":8676,"Ġ//":8677,"Last":8678,"una":8679,"ĠSaint":8680,"Ġbigger":8681,"aya":8682,"63":8683,"airy":8684,"Ġdent":8685,"ĠEdward":8686,"las":8687,"Dict":8688,"Ġpermission":8689,"bits":8690,"seed":8691,"Ġcoastal":8692,"Ġhappening":8693,"Ġislands":8694,"ĠScotland":8695,"Ġadequate":8696,"Ġfabric":8697,"ĠAPI":8698,"ĠClimate":8699,"mult":8700,"ieval":8701,"Ġproceed":8702,"ĠBoston":8703,"\",\"":8704,"Note":8705,"Ġspectrum":8706,"ĠKen":8707,"ĠFinally":8708,"exit":8709,"Even":8710,"gence":8711,"Ġvisited":8712,"ĠSund":8713,"classes":8714,"Ġtemple":8715,"Ġalongside":8716,"Ġmaintained":8717,"ĠCentre":8718,"ĠĠĠĠĠĠĠĠĠĠĠĠĠĠĠĠĠĠĠĠĠĠĠ":8719,"anger":8720,"Ġrealize":8721,"Ġdependent":8722,"Ġheritage":8723,"ĠHor":8724,"Ġlists":8725,"oids":8726,"blem":8727,"ĠCoast":8728,"Ġbath":8729,"ĠProcess":8730,"Ġdiscrimination":8731,"Ġchair":8732,"ĠBal":8733,"roc":8734,"ĠPot":8735,"Ġrepresenting":8736,"oz":8737,"rous":8738,"Ġundert":8739,"hash":8740,"Ġdemands":8741,"Ġglucose":8742,"ivered":8743,"Ġscientist":8744,"ĠLin":8745,"Ġdraft":8746,"acco":8747,"ĠArts":8748,"ĠLiter":8749,"Ġsimultane":8750,"Fl":8751,"sen":8752,"TER":8753,"Ġcra":8754,"Ġprobability":8755,"Ġwarning":8756,"oric":8757,"Ġbringing":8758,"97":8759,"ĊĊĠĠĠĠĠĠĠĠĠĠĠĠĠĠĠ":8760,"gov":8761,"Ġfiction":8762,"++":8763,"iger":8764,"adow":8765,"Ġmunicip":8766,"Ġsuffered":8767,"ĠEqu":8768,"Ġproved":8769,"Ġstability":8770,"Ġinsulin":8771,"Ġpounds":8772,"Ġfarming":8773,"ĠLy":8774,"Ġsampl":8775,"Ġkwargs":8776,"Ġcosm":8777,"gressive":8778,"gression":8779,"Before":8780,"Ġkidney":8781,"Ġdetected":8782,"Ġindicated":8783,"IO":8784,"Ġcolonial":8785,"Ġathlet":8786,"Ġfalls":8787,"iano":8788,"Ġlogic":8789,"Ġparameter":8790,"ĠFire":8791,"Ġwine":8792,"Ġwindows":8793,"ĠServices":8794,"patch":8795,"Ġcaught":8796,"contin":8797,"Ġdefend":8798,"Ġstyles":8799,"IST":8800,"upp":8801,"Ġmanaging":8802,"ira":8803,"Ġceremon":8804,"remove":8805,"ĠEU":8806,"uality":8807,"ĠVe":8808,"iah":8809,"ĠLast":8810,"Ġplug":8811,"Ã±":8812,"Ġadm":8813,"Ġinhabit":8814,"Ġsimpl":8815,"Ġpartnership":8816,"Ġ--------------------------------":8817,"Ġrarely":8818,"Ġduration":8819,"aded":8820,"istical":8821,"Ġexcessive":8822,"Ġchannels":8823,"Ġadds":8824,"uri":8825,"pay":8826,"Ġpreparation":8827,"Ġunusual":8828,"esides":8829,"Ġhardware":8830,"torch":8831,"awa":8832,"Ġmetabol":8833,"ĠColumbia":8834,"Ġschedule":8835,"Ġpanel":8836,"Ġsymbols":8837,"Ġscope":8838,"Hist":8839,"Ġaims":8840,"Ġanalyze":8841,"fs":8842,"Ġblank":8843,"space":8844,"Ã¢":8845,"Ġenables":8846,"Ġ{\\":8847,"Ġpharm":8848,"Ġaer":8849,"Because":8850,"Ġrenewable":8851,"azon":8852,"Åį":8853,"ĠFred":8854,"asket":8855,"pytest":8856,"ĠSupreme":8857,"ĠMean":8858,"src":8859,"»¿":8860,"Ġlistening":8861,"Ġdys":8862,"ĠUr":8863,"mann":8864,"Ġcontributed":8865,"Ġlights":8866,"Ġlaid":8867,"etts":8868,"Ġphrase":8869,"ĠHead":8870,"ritis":8871,"Line":8872,"theless":8873,"Handler":8874,"Ġsentences":8875,"Ġexpanded":8876,"ographical":8877,"Ġcandidate":8878,"ediat":8879,"Ġconverted":8880,"Ġflour":8881,"Ġresid":8882,"mble":8883,"itals":8884,"Ġthreats":8885,"Ġvideos":8886,"Every":8887,"ĠRam":8888,"Ġ1920":8889,"Ġhur":8890,"Ġseparated":8891,"Ġdisput":8892,"pir":8893,"Ġinn":8894,"rane":8895,"ĠRemember":8896,"ĠJava":8897,"ĠPortug":8898,"iro":8899,"ï»¿":8900,"Ġbabies":8901,"route":8902,"Ġauto":8903,"ĠLi":8904,"otton":8905,"Ġremind":8906,"Ġwra":8907,"Ġfilms":8908,"uber":8909,"Ġkernel":8910,"columns":8911,"channel":8912,"ĠSoft":8913,"Ġpresents":8914,"dates":8915,"Ġterror":8916,"Ġpairs":8917,"Ġdiameter":8918,"Ġreaching":8919,"Ġforming":8920,"Ġgro":8921,"Ġmathematical":8922,"nsylvania":8923,"iological":8924,"Ġcash":8925,"ĠCard":8926,"Ġgrant":8927,"rical":8928,"Ġequally":8929,"300":8930,"Ġwww":8931,"Today":8932,"azz":8933,"Ġhealing":8934,"roups":8935,"Ġperforming":8936,"itual":8937,"Ġroads":8938,"TR":8939,"ĠAlexander":8940,"found":8941,"Ġparas":8942,"Ġplenty":8943,"Ġcomfortable":8944,"haust":8945,"98":8946,"Ġprovider":8947,"Cur":8948,"Ġsegment":8949,"arn":8950,"Ġoverw":8951,"ois":8952,"quar":8953,"Ġmoisture":8954,"Ġlake":8955,"ĠLow":8956,"including":8957,"Object":8958,"century":8959,"Ġdisrupt":8960,"Ġdescript":8961,"aved":8962,"aml":8963,"Ġinfant":8964,"icensed":8965,"achus":8966,"ĠIndians":8967,"atre":8968,"Ġpolar":8969,"ĠNever":8970,"Ġflash":8971,"Ġlens":8972,"Ġflows":8973,"Please":8974,"Ġchlor":8975,"Ġabnormal":8976,"Ġpandas":8977,"opher":8978,"Ġ34":8979,"Ġphosph":8980,"Ġproportion":8981,"Ġheads":8982,"Ġinstances":8983,"Ġargue":8984,"Ġobserve":8985,"Ġvariation":8986,"uating":8987,"Ġexclud":8988,"ĠUk":8989,"Ġbreeding":8990,"Ġlearners":8991,"brid":8992,"header":8993,"åħ":8994,"Ġwaiting":8995,"Ġrecording":8996,"Ġradical":8997,"utive":8998,"Ġmarks":8999,"Ġwheel":9000,"ais":9001,"east":9002,"ĠNavy":9003,"full":9004,"Ge":9005,"Ġdisaster":9006,"ĠParliament":9007,"Ġven":9008,"Ġvisitors":9009,"Ġcopper":9010,"Ġpoetry":9011,"Ġbias":9012,"Ġintest":9013,"Ġheating":9014,"ati":9015,"DB":9016,"Ġatoms":9017,"orate":9018,"ammar":9019,"Ġproven":9020,"ruit":9021,"Ġdriven":9022,"Ġabsence":9023,"adder":9024,"apped":9025,"Ġevil":9026,"controll":9027,"ĠPlant":9028,"acle":9029,"sq":9030,"Ġaccompan":9031,"ĠOhio":9032,"iest":9033,"cmd":9034,"Ġslaves":9035,"onal":9036,"Ġstead":9037,"column":9038,"ĠCho":9039,"element":9040,"eller":9041,"Ġaccommod":9042,"Ġconcerning":9043,"utrit":9044,"oured":9045,"Ġthereby":9046,"EE":9047,"pdf":9048,"Ġextend":9049,"ĠEngineering":9050,"tmp":9051,"Ġfeat":9052,"TS":9053,"Ġsocieties":9054,"Ġfaces":9055,"Ġvertical":9056,"Ġasc":9057,"plant":9058,"ĠRun":9059,"edu":9060,"Ġconsideration":9061,"neg":9062,"Ġsurprising":9063,"Ġinsight":9064,"Ġencouraged":9065,"Ġexperimental":9066,"enter":9067,"ventions":9068,"Ġearliest":9069,"tensor":9070,"acles":9071,"Ġcreatures":9072,"ĠLater":9073,"Ġcoc":9074,"Ġentertain":9075,"ups":9076,"adel":9077,"Ġclock":9078,"Ġintense":9079,"Ġgiant":9080,"Ġrows":9081,"Sm":9082,"endar":9083,"Ġstructural":9084,"61":9085,"gument":9086,"asses":9087,"Ġcalories":9088,"ĠBlue":9089,"holders":9090,"ĠHam":9091,"Ġusual":9092,"Ġremoval":9093,"ĠPlease":9094,"Ġregardless":9095,"Ġkilling":9096,"Ġphotos":9097,"Ġlosses":9098,"han":9099,"ĠHeart":9100,"Ġtechnological":9101,"Ġanalys":9102,"comfort":9103,"util":9104,"Ġholes":9105,"Ġreveal":9106,"Ġconserv":9107,"Ġsizes":9108,"Ġles":9109,"Ġrac":9110,"Ġoldest":9111,"oli":9112,"amins":9113,"Ġregister":9114,"ĠHa":9115,"future":9116,"Back":9117,"Ġengineers":9118,"ĠLittle":9119,"62":9120,"ĠPhilipp":9121,"Ġfault":9122,"Ġdifficulties":9123,"Ġconsiderable":9124,"HD":9125,"Ġeffectiveness":9126,"Ġdelivered":9127,"Ġclassical":9128,"wd":9129,"etary":9130,"ohyd":9131,"Ġpreced":9132,"ĠPur":9133,"Ġprohib":9134,"Ġcontents":9135,"Ġchest":9136,"Ġtropical":9137,"Ðº":9138,"vi":9139,"Ġ``":9140,"Ġexecutive":9141,"istant":9142,"Ġsorted":9143,"Ġslave":9144,"ansas":9145,"Ġattributes":9146,"Ġacting":9147,"agen":9148,"Ġintensity":9149,"Ġrab":9150,"riz":9151,"unct":9152,"high":9153,"Pub":9154,"inition":9155,"ĠAgency":9156,"gments":9157,"bour":9158,"ĠFund":9159,"Ġwrites":9160,"ĠLincoln":9161,"Ġov":9162,"anz":9163,"================================":9164,"Ġ48":9165,"aration":9166,"Ġfed":9167,"rection":9168,"Ġrecommendations":9169,"Ear":9170,"ocial":9171,"ĠBusiness":9172,"Ġpursu":9173,"Ġmyst":9174,"Ġfra":9175,"Ġrespiratory":9176,"ela":9177,"Ġprinted":9178,"Ġcontributions":9179,"Art":9180,"displaystyle":9181,"ĠContin":9182,"NAME":9183,"ulty":9184,"UP":9185,"Ġpregnant":9186,"oa":9187,"aret":9188,"ĠAdministration":9189,"Ġrom":9190,"ĠPennsylvania":9191,"Ġplanets":9192,"Ġexplicit":9193,"Ġattach":9194,":]":9195,"Cons":9196,"Ġencoding":9197,"Ass":9198,"ĠĠĠĠĠĠĠĠĠĠĠĠĠĠĠĠĠĠĠĠĠĠĠĠĠĠĠĠĠĠĠĠĠĠĠĠĠĠĠĠĠĠĠĠĠĠĠĠĠĠĠĠĠĠĠĠ":9199,"Ġ\",":9200,"Down":9201,"LA":9202,"Ġemerged":9203,"Ġalpha":9204,"ĠHospital":9205,"Ġaffecting":9206,"Ġtreating":9207,"Ġcoverage":9208,"ĠCorn":9209,"Ġethical":9210,"Ġsitting":9211,"Ġrecover":9212,"Ġsettlement":9213,"ĠKenn":9214,"Ġquarter":9215,"Ġpreserve":9216,"Ġheader":9217,"ĠElizabeth":9218,"æķ°":9219,"EO":9220,"Ġnitrogen":9221,"Ġcluster":9222,"Ġburied":9223,"ĠHeb":9224,"Ġcompens":9225,"Ġdecay":9226,"Ġmeasuring":9227,"ĠMach":9228,"ĠResources":9229,"ensional":9230,"Ġgravity":9231,"ucky":9232,"rug":9233,"Ġfishing":9234,"Ġmicrosc":9235,"writer":9236,"!\"":9237,"Ġcommands":9238,"Ġcustomer":9239,"Ġbat":9240,"Ġtaxes":9241,"sex":9242,"ĠMarc":9243,"Ġdiscussions":9244,"Ġemerging":9245,"friend":9246,"you":9247,"ĠIslamic":9248,"Ġcommitment":9249,"Are":9250,"Ġpaint":9251,"Ġnarrative":9252,"æĸ":9253,"ĠSupp":9254,"Ġparagraph":9255,"itamin":9256,"ĠStan":9257,"Ġ42":9258,"bel":9259,"oga":9260,"ĠBang":9261,"seq":9262,"Ġstake":9263,"mal":9264,"âĢ³":9265,"Ġ1988":9266,"door":9267,"cule":9268,"Ġthreshold":9269,"ostic":9270,"Ġ37":9271,"opath":9272,"ĠGeorgia":9273,"Ġassets":9274,"Check":9275,"ĠChristians":9276,"Ġstopped":9277,"Ġmineral":9278,"Ġcsv":9279,"vin":9280,"Ġdeeply":9281,"hus":9282,"ĠTable":9283,"Ġfung":9284,"ĠLim":9285,"Ġanywhere":9286,"Ġquantity":9287,"Ġpeoples":9288,"ĠMur":9289,"kg":9290,"Ġdispos":9291,"Ġsculpt":9292,"Ġnewspaper":9293,"logging":9294,"Ġregulation":9295,"ĠFigure":9296,"mn":9297,"eting":9298,"Ġdose":9299,"Ġtemporary":9300,"Ġidentifying":9301,"mons":9302,"Ġcomplexity":9303,"Ġexceed":9304,"iments":9305,"handler":9306,"Ġgut":9307,"Ġappreciate":9308,"John":9309,"ĠCub":9310,"åĲ":9311,"Ġintegration":9312,"ocument":9313,"achusetts":9314,"Ġorders":9315,"Ġmeals":9316,"Ġ},":9317,"âĢĬ":9318,"foot":9319,"loads":9320,"Ġgrain":9321,"Ã³n":9322,"Ġrose":9323,"awn":9324,"irt":9325,"feature":9326,"ello":9327,"Ġprotecting":9328,"Ġhouseholds":9329,"amination":9330,"Ġquiet":9331,"Act":9332,"green":9333,"iki":9334,"Ġren":9335,"URL":9336,"lights":9337,"Ġpersonality":9338,"Ġdrain":9339,"Ġsteam":9340,"Ġcharged":9341,"icular":9342,"Ġbroadcast":9343,"td":9344,"ĠParam":9345,"FO":9346,"Ġmigration":9347,"Ġhormone":9348,"Ġinfect":9349,"ĠIV":9350,"Ġdimensions":9351,"ĠTry":9352,"Ġsunlight":9353,"Ġwisdom":9354,"Ġmatplotlib":9355,"Ġprime":9356,"Ġsensors":9357,"92":9358,"ĠObs":9359,"Ġbag":9360,"lected":9361,"Ġalive":9362,"Ġirrit":9363,"decode":9364,"III":9365,"About":9366,"Ġisolated":9367,"Ġtransc":9368,"Ġwouldn":9369,"ĠMD":9370,"Ġargued":9371,"IDS":9372,"Ġmicrob":9373,"nodes":9374,"Ġconj":9375,"Ġovercome":9376,"Ġfought":9377,"initial":9378,"samples":9379,"exist":9380,"ĠMichigan":9381,"Ġhence":9382,"Ġcollective":9383,"engine":9384,"Ġmixture":9385,"Ġsister":9386,"Ġsuperior":9387,"Ġexciting":9388,"sur":9389,"ĠJustice":9390,"iva":9391,"Ġhumanity":9392,"93":9393,"Ġincident":9394,"Ġplain":9395,"mock":9396,"Ġcalculated":9397,"Ġpix":9398,"ĠLess":9399,"Ġprofit":9400,"Ġstrengthen":9401,"Ġprinting":9402,"atal":9403,"Ġmigr":9404,"Ġcomputing":9405,"ĠOrganization":9406,"Ġmountains":9407,"Ġconfirm":9408,"Ġcleaning":9409,"heimer":9410,"Ġhandling":9411,"sent":9412,"Ġfeatured":9413,"Ġsetup":9414,"Ġvocabulary":9415,"Ġrational":9416,"directory":9417,"Ġeliminate":9418,"iodiversity":9419,"Ġfocusing":9420,"Ġpropag":9421,"ĠCapt":9422,"Ġvo":9423,"elfare":9424,"Ġpsychology":9425,"Ġperception":9426,"Ġvictory":9427,"Ġexpectations":9428,"prefix":9429,"ĠIra":9430,"raine":9431,"Ġviewed":9432,"Load":9433,"execute":9434,"iy":9435,"ART":9436,"Ġcomprom":9437,"Ġpurs":9438,"ding":9439,"headers":9440,"ĠFrancisco":9441,"ĠEvent":9442,"Ġflying":9443,"ĠPage":9444,"usters":9445,"ĠLo":9446,"Ġcompliance":9447,"Ġgrows":9448,"Ġcapabilities":9449,"ĠIslands":9450,"Ġritual":9451,"Ġengagement":9452,"Ġbin":9453,"verb":9454,"Ġemotion":9455,"Ġsoul":9456,"ĊĊĉ":9457,"Ġconsume":9458,"Ġattended":9459,"è¯":9460,"Ġbinary":9461,"Ġdecreased":9462,"Ġcas":9463,"bound":9464,"obile":9465,"ĠCrit":9466,"Ġerr":9467,"ĠCode":9468,"Ġlibr":9469,"Ġawarded":9470,"tok":9471,"Ġmic":9472,"Ġphysician":9473,"People":9474,"req":9475,"Ġordinary":9476,"Ġhosp":9477,"asets":9478,"alm":9479,"Ġcooling":9480,"}\")":9481,"Ġspl":9482,"Ġcomplications":9483,"Ġgases":9484,"Ġ2024":9485,"Google":9486,"Ġaddressing":9487,"Ġconference":9488,"ĠFile":9489,"Ġintroduce":9490,"Ġcompound":9491,"Ġvariations":9492,"login":9493,"(_":9494,"Ġconcluded":9495,"worth":9496,"Ġvibr":9497,"success":9498,"Ġplatforms":9499,"pus":9500,"Ġhoney":9501,"ĠMid":9502,"Start":9503,"asant":9504,"Ġfalling":9505,"Ġflower":9506,"ĠIntroduction":9507,"ailing":9508,"Ġoverwhel":9509,"ĠFact":9510,"Ġcort":9511,"ĠStr":9512,"neys":9513,"ĠVan":9514,"Ġentity":9515,"çĶ":9516,"Ġoptimal":9517,"Ġactivation":9518,"Ġresc":9519,"Ġ38":9520,"ometers":9521,"child":9522,"Ġmortality":9523,"erly":9524,"Ġignore":9525,"Ġbeat":9526,"Ġexit":9527,"Ġcopies":9528,"parameters":9529,").__":9530,"ĠAndrew":9531,"make":9532,"ĠMajor":9533,"ĠBooks":9534,"Ġidentification":9535,"ĠCambridge":9536,"ĠAngeles":9537,"Ġ1986":9538,"omatic":9539,"Ġlosing":9540,"Ġobjectives":9541,"Ġcul":9542,"Ġvarieties":9543,"]['":9544,"iture":9545,"Ġoffset":9546,"Ġcharacteristic":9547,"ĠÂ£":9548,"Ġtowns":9549,"2010":9550,"Ġdemocracy":9551,"Dat":9552,"Ġexhaust":9553,"chem":9554,"Ġmagazine":9555,"Ġblow":9556,"Ġcovering":9557,"Have":9558,"ovascular":9559,"Client":9560,"vas":9561,"ĠAL":9562,"Ġcouldn":9563,"Ġfinger":9564,"ĠDE":9565,"Ġapplicable":9566,"ushing":9567,"Pr":9568,"Ġtip":9569,"ĠEll":9570,"Ġhall":9571,"ĠJim":9572,"rior":9573,"Ġ),":9574,"ĠLearn":9575,"2012":9576,"Ġcattle":9577,"ĠTO":9578,"Ġassumed":9579,"ĠCP":9580,"Ġthermal":9581,"erated":9582,"Ġstrike":9583,"Ġengines":9584,"Ġregarded":9585,"Ġcreativity":9586,"person":9587,"track":9588,"ĠMassachusetts":9589,"bell":9590,"Ġacres":9591,"Ġfeels":9592,"uffer":9593,"ĠMedia":9594,"Ġkeeps":9595,"ĠObject":9596,"ĠOrder":9597,"ĠChief":9598,"itarian":9599,"Ġ\".":9600,"Ġchemistry":9601,"yer":9602,"Ġprovince":9603,"Ġnotable":9604,"Ġdifferently":9605,"Ġopposition":9606,"Ġproviders":9607,"keep":9608,"Ġduty":9609,"okes":9610,"Ġboat":9611,"400":9612,"bu":9613,"diction":9614,"Ġemphasis":9615,"cv":9616,"ĊĠĠĠĠĠĠĠĠĠĠĠĠĠ":9617,"Ġtraits":9618,"\"{":9619,"Ġmine":9620,"ouds":9621,"ĠAnalysis":9622,"Ġconvey":9623,"Ġmanifest":9624,"ĠChristianity":9625,"dot":9626,"PATH":9627,"Ġimaging":9628,"DR":9629,"Ġheaders":9630,"ĠHon":9631,"cyclopedia":9632,"Ġaged":9633,"thritis":9634,"Sy":9635,"igue":9636,"ĠFacebook":9637,"Ġtempor":9638,"ika":9639,"Ġdisk":9640,"web":9641,"cred":9642,"else":9643,"__)":9644,"Ġhypothesis":9645,"Ġdress":9646,"Ġlambda":9647,"ĠPolicy":9648,"Ġdominant":9649,"embed":9650,"Ġwatching":9651,".|":9652,"Ġworst":9653,"ĠReading":9654,"Ġpandemic":9655,"ĠHot":9656,"render":9657,"Ġbreed":9658,"ĠProp":9659,"ĠTri":9660,"Ġexperiencing":9661,"Ġoccurring":9662,"Ġlaser":9663,"ĠSystems":9664,"ĊĊĊĠ":9665,"agan":9666,"ĠWin":9667,"äº":9668,"Ġremarkable":9669,"Ġrealized":9670,"Ġencounter":9671,"ĠFre":9672,"Ġminds":9673,"ĠNumber":9674,"Ġsubstit":9675,"ĠBuilding":9676,"olesc":9677,"Ġfost":9678,"Ġedges":9679,"Ġconsciousness":9680,"ptic":9681,"Ġbiom":9682,"Ġbroader":9683,"Ġenorm":9684,"ĠMove":9685,"ĠArgs":9686,"Ġtrick":9687,"IES":9688,"Ġneutral":9689,"Ġhazard":9690,"Ġscenario":9691,"Ġ;":9692,"Ġpartial":9693,"Ġdive":9694,"ercury":9695,"cient":9696,"Ġcontribution":9697,"Ġcurve":9698,"Ġanalog":9699,"SH":9700,"Ġrestaur":9701,"occ":9702,"Ġpond":9703,"depth":9704,"SON":9705,"ithub":9706,"Ġperspectives":9707,"ĠĊĠĠĠ":9708,"Ġsensitivity":9709,"Ġequality":9710,".:":9711,"also":9712,"olds":9713,"olt":9714,"Ġhunting":9715,"Ġmeaningful":9716,"Ġacute":9717,"ĠMath":9718,"ĠAM":9719,"Ġvelocity":9720,"Ġdipl":9721,"Ġtransmit":9722,"ĠWithout":9723,"Ġshaped":9724,"Ġapi":9725,"Ġzip":9726,"Dis":9727,"Ġtermin":9728,"Ġfactory":9729,"Ġ1987":9730,"month":9731,"ĠExamples":9732,"role":9733,"ĠFar":9734,"olk":9735,"Ġweakness":9736,"Ġlungs":9737,"Ġtor":9738,"clean":9739,"Ġworker":9740,"Ġadvis":9741,"Ġstd":9742,"aine":9743,"ĠWales":9744,"Ġworkshe":9745,"Ġinfluences":9746,"ĠLew":9747,"Response":9748,"uris":9749,"po":9750,"Ġillegal":9751,"Ġ55":9752,"Spec":9753,"Ġworship":9754,"Ġreferences":9755,".).":9756,"Ġpaths":9757,"Ġdynamics":9758,"agnetic":9759,"Ġclients":9760,"jo":9761,"Ġorigins":9762,"uum":9763,"Logger":9764,"ĠPakistan":9765,"Ġreserved":9766,"plex":9767,"ĠIndones":9768,"Ġsettled":9769,"eness":9770,"ĠConsider":9771,"ĠGar":9772,"Ġlicense":9773,"Ġshr":9774,"angered":9775,"ĠOl":9776,"ĠSimilarly":9777,"Ġguitar":9778,"erty":9779,"urches":9780,"Ġprecise":9781,"ko":9782,"abel":9783,"Ġdirections":9784,"Ġlip":9785,"Ġchromos":9786,"Ġpredicted":9787,"ĠView":9788,"ĠJun":9789,"zym":9790,"bury":9791,"Ġfant":9792,"through":9793,"Ġ39":9794,"Ġliteracy":9795,"Ġhash":9796,"Ġexamined":9797,"ustain":9798,"ĠAgain":9799,"athered":9800,"Ġsurge":9801,"Ġclassic":9802,"ĠStation":9803,"Ġchap":9804,"Ġwing":9805,"Use":9806,"Ġapplying":9807,"Ġton":9808,"pin":9809,"Ġexhibit":9810,"Ġtransferred":9811,"Imp":9812,"otherapy":9813,"eps":9814,"Ġsuscept":9815,"ĠDie":9816,"Where":9817,"Ġinterior":9818,"ĠCup":9819,"=['":9820,"aa":9821,"ĠDat":9822,"ĠIraq":9823,"Ġfunctioning":9824,"Ġcensus":9825,"Ġtribes":9826,"2000":9827,"Ġbuck":9828,"ĠBern":9829,"Comp":9830,"Ġharder":9831,"Ġprotective":9832,"ogenic":9833,"Ġroyal":9834,"anner":9835,"Ġcust":9836,"2011":9837,"Ġspoken":9838,"uther":9839,"Ġinteractive":9840,"Ġavailability":9841,"apor":9842,"Ġmatches":9843,"Ġmembrane":9844,"ĠLead":9845,"Ġsevent":9846,"ront":9847,"original":9848,"ussian":9849,"Ġgast":9850,"ĠPalest":9851,"ĠDemocratic":9852,"ingle":9853,"Ġspecim":9854,"Ġspecialized":9855,"Ġtrauma":9856,"Cal":9857,"ĠLove":9858,"Ġdrag":9859,"ĠDC":9860,"encode":9861,"ĠEnt":9862,"ĠJoh":9863,"asts":9864,"Point":9865,"NE":9866,"abling":9867,"Wid":9868,"ĠInvest":9869,"Ġdies":9870,"SL":9871,"Despite":9872,"Ġassembly":9873,"Ġstreets":9874,"Ġbacterial":9875,"Ġposts":9876,"inst":9877,"BA":9878,"cap":9879,"Ġimprovements":9880,"Ġstones":9881,"Ġshed":9882,"ĠHebrew":9883,"Ġcyber":9884,"Ġcopyright":9885,"fin":9886,"2013":9887,"Ġpointed":9888,"Ġbees":9889,"Ġalert":9890,"Ġastronom":9891,"Ġpassion":9892,"ori":9893,"Ġtack":9894,"Ġreporting":9895,"inois":9896,"Ġtact":9897,"window":9898,"Ġmarketing":9899,"Ġunw":9900,"Ġvaccines":9901,"ĠWikipedia":9902,"kind":9903,"Ġnoticed":9904,"ĠSafety":9905,"dest":9906,"prob":9907,"Ġbatteries":9908,"ĠTotal":9909,"Ġproductivity":9910,"Ġclassified":9911,"books":9912,"Ġstrain":9913,"Ġlob":9914,"Ġessays":9915,"('\\":9916,"Ġcolonies":9917,"ĠFed":9918,"Ġparticle":9919,"Ġversus":9920,"Wind":9921,"forward":9922,"Ġtransformation":9923,"Ġelections":9924,"orical":9925,"pie":9926,"eren":9927,"Count":9928,"thur":9929,"ĠConfed":9930,"ĠCarl":9931,"Ġtumor":9932,"ĠMic":9933,"Sim":9934,"ials":9935,"ĠStandard":9936,"Ġpuzz":9937,"Just":9938,"Ġoperated":9939,"regular":9940,"ĠDO":9941,"entials":9942,"Ġadapted":9943,"Ġelsewhere":9944,"IF":9945,"queue":9946,"Ġæ":9947,"Ġgover":9948,"ĠUnfortunately":9949,"ĠAff":9950,"Two":9951,"Ġbreaking":9952,"Request":9953,"econom":9954,"Ġ\"\"":9955,"Ġbelieves":9956,"Ġidx":9957,"rove":9958,"Ġphysically":9959,"Ġtab":9960,"May":9961,"ĠTeam":9962,"Ġtow":9963,"issance":9964,"Ġpla":9965,"Ġscreening":9966,"ĠWis":9967,"Ġtracks":9968,"Ġ1985":9969,"å¤":9970,"ĠURL":9971,"ĠDaniel":9972,"Ġcourts":9973,"MM":9974,"ĠFilm":9975,"reams":9976,"ĠArctic":9977,"Ġscheme":9978,"prot":9979,"Ġcurrency":9980,"Ġantibiotics":9981,"Ġchose":9982,"ĠJo":9983,"acks":9984,"ĠFarm":9985,"rox":9986,"Ġfur":9987,"Ġconversion":9988,"Ġbonds":9989,"utely":9990,"xx":9991,"Ġtong":9992,"Also":9993,"Ġchances":9994,"Using":9995,"ĠGame":9996,"Ġschedul":9997,"94":9998,"Ġwat":9999,"Ġtelling":10000,"ĠGreece":10001,"ĠKent":10002,"Ġ>>>":10003,"Ġ1945":10004,"}\\":10005,"Ġexped":10006,"record":10007,"Ġalarm":10008,"ĠCorpor":10009,"ĠFather":10010,"Ġmouse":10011,"BM":10012,"Ġparad":10013,"{\\":10014,"Ġfriendly":10015,"Ġmanufacturers":10016,"Ġestablishment":10017,"ĠCreek":10018,"Ġpreferred":10019,"elly":10020,"Ġconflicts":10021,"ĠGre":10022,"bean":10023,"Ġpars":10024,"fulness":10025,"Att":10026,"Ġcord":10027,"card":10028,"ĠMaster":10029,"Ġwebsites":10030,"ĠJackson":10031,"Input":10032,"was":10033,"ĠAsh":10034,"Ġexisted":10035,"ĠHard":10036,"imm":10037,"ĠAP":10038,"Ġentr":10039,"ĠHistorical":10040,"ĠMS":10041,"Ġion":10042,"Ġacknowled":10043,"thew":10044,"parts":10045,"Ġranging":10046,"utrition":10047,"advant":10048,"Ġclassification":10049,"optim":10050,"Ġherself":10051,"ĠVersion":10052,"Ġasthma":10053,"Ġlymph":10054,"Ġ'--":10055,"Ġelectrons":10056,"Ġ44":10057,"weights":10058,"Ġalgorithms":10059,"ĠIT":10060,"2014":10061,"ĠOnline":10062,"ĠNO":10063,"Ġmetals":10064,"mend":10065,"Ġtap":10066,"ĠSO":10067,"è¿":10068,"Ġpion":10069,"idal":10070,"Ġscr":10071,"Ġmoderate":10072,"ĠSenate":10073,"Ġecosystems":10074,"Ġsimultaneously":10075,"Ġdeploy":10076,"Ġgly":10077,"(\"\\":10078,"elescope":10079,"Ġ\"/":10080,"Ġfuels":10081,"uity":10082,"Ġentering":10083,"Ġpreserv":10084,"Ġoccas":10085,"ceive":10086,"Ġpromise":10087,"Ġweights":10088,"ili":10089,"ĠSupport":10090,"iders":10091,"driver":10092,"Ġsaving":10093,"law":10094,"ĠShow":10095,"channels":10096,"elve":10097,"Ġdating":10098,"Ġsubt":10099,"Ke":10100,"Ġremoving":10101,"Ġsad":10102,"ĠReal":10103,"bat":10104,"Ġgerm":10105,"Ġsrc":10106,"Ġtension":10107,"outheast":10108,"Ġoperator":10109,"lan":10110,"Ġgate":10111,"ĠDam":10112,"Ġcommittee":10113,"Ġ1984":10114,"Ġaddressed":10115,"Ġmultip":10116,"ĠOtt":10117,"Ġlingu":10118,"appy":10119,"Ġ120":10120,"Ġprofound":10121,"Mat":10122,"Ġfacilitate":10123,"Ġsoph":10124,"ivate":10125,"ĠSecretary":10126,"Number":10127,"Ġattribute":10128,"Ġpasses":10129,"ĠBerlin":10130,"bow":10131,"../":10132,"berry":10133,"Ġcoron":10134,"endment":10135,"Ġdiffer":10136,"Ġfing":10137,"Ġfarms":10138,"Ġcontributing":10139,"Ġpestic":10140,"igm":10141,"eor":10142,"Ġspan":10143,"Ġpriority":10144,"yan":10145,"ĠDictionary":10146,"Ġinherent":10147,"zheimer":10148,"Ġprey":10149,"usalem":10150,"Ġsessions":10151,"Ġevening":10152,"Ġpanels":10153,"ieve":10154,"specific":10155,"gregation":10156,"Ġspr":10157,"Ġlowest":10158,"factory":10159,"rams":10160,"Ġpilot":10161,"ĠJr":10162,"ĠEnter":10163,"Ġcow":10164,"Ġintr":10165,"Ġgoverning":10166,"Ġgenome":10167,"ĠVietnam":10168,"Ġcounsel":10169,"Ġsolving":10170,"Ġdoct":10171,"Ġbytes":10172,"Ġhier":10173,"Ġresearcher":10174,"Ġwars":10175,"Ġconsumed":10176,"Ġdropped":10177,"ĠProduct":10178,"mt":10179,"Ġrevers":10180,"Ġfo":10181,"ĠHit":10182,"Ġdrought":10183,"Ġdietary":10184,"ocolate":10185,"Ġmapping":10186,"urolog":10187,"report":10188,"ĠNext":10189,"ĠNa":10190,"ashes":10191,"Ġpossibilities":10192,"Ġdramatic":10193,"ĠNorm":10194,"Ġplas":10195,"TE":10196,"ĠConference":10197,"Ġthreatened":10198,"ĠSource":10199,"ĠColorado":10200,"zip":10201,"Ġcommunications":10202,"izz":10203,"Ġlighting":10204,"Ġperceived":10205,"rapeut":10206,"Ġexecution":10207,"Ġtargeted":10208,"Ġconcentrations":10209,"staticmethod":10210,"ĠAssembly":10211,"otion":10212,"Ġactively":10213,"Ġbalanced":10214,"Ġcrypt":10215,"achers":10216,"voc":10217,"Ġflexible":10218,"HS":10219,"Ġdetermining":10220,"xml":10221,"itled":10222,"Ġpray":10223,"Ġtob":10224,"Ġgrains":10225,"ĠPoland":10226,"Ġsql":10227,"ranean":10228,"player":10229,"ols":10230,"ATA":10231,"ĠCost":10232,"ĠNob":10233,"Ġengineer":10234,"Ġsect":10235,"Ġmanual":10236,"%,":10237,"2009":10238,"Ġprogramme":10239,"ĠEnc":10240,"Ġcache":10241,"ĠAction":10242,"ĠConservation":10243,"numpy":10244,"ĠTele":10245,"bir":10246,"ĠDigital":10247,"Ġwheat":10248,"made":10249,"ÂłÂłÂł":10250,"Ġreasonable":10251,"Ġpurchased":10252,"Ġrequiring":10253,"Ġwearing":10254,"Ġreplacement":10255,"environ":10256,"Ġeru":10257,"olves":10258,"ĠPhot":10259,"Ġvert":10260,"Ġeducators":10261,"Ġrh":10262,"Ġfolder":10263,"idae":10264,"unctions":10265,"Ġraising":10266,"Ġidentical":10267,"ĠWilliams":10268,"Imagine":10269,"comput":10270,"Ġinterventions":10271,"Ġtone":10272,"QU":10273,"Ġarmed":10274,"Ġownership":10275,"Ġaddresses":10276,"adelph":10277,"contain":10278,"ĠTitle":10279,"ĠIss":10280,"Ġvitamins":10281,"Ġdevelopments":10282,"Ġfinish":10283,"Ġstrategic":10284,"255":10285,"Ġstere":10286,"GR":10287,"Ġoccupied":10288,"Ġestate":10289,"Ġnoun":10290,"ĠMA":10291,"NN":10292,"Ġstood":10293,"consc":10294,"Ġcandidates":10295,"Ġecological":10296,"ĠANY":10297,"Ġfatty":10298,"Fe":10299,"ĠColon":10300,"Ġinvestigate":10301,"rait":10302,"Ġdestination":10303,"ĠRE":10304,"Ġminister":10305,"Ġdil":10306,"Ġsubsequently":10307,"Ġcrack":10308,"iop":10309,"åŃ":10310,"connection":10311,"ĠTurn":10312,"Ġbarriers":10313,"Ġaccompanied":10314,"uv":10315,"ĠYes":10316,"Ġregistered":10317,"burn":10318,"alpha":10319,"ĠHawai":10320,"ĠPlace":10321,"thod":10322,"Ã£":10323,"Ġnice":10324,"Ñĥ":10325,"ĠJones":10326,"Ġhal":10327,"Ġdisplayed":10328,"Ġsustainability":10329,"gien":10330,"aven":10331,"Ġviolent":10332,"ĊĠĠĠĠĠĠĠĠĠĠĠĠĠĠĠĠĠĠĠĠĠĠĠĠĠĠĠĠĠĠĠ":10333,"Ġminimize":10334,"Fact":10335,"Ġsafely":10336,"Ġemit":10337,"cos":10338,"SR":10339,"likely":10340,"Ġpatch":10341,"ĠScholar":10342,"91":10343,"ĠThink":10344,"mediate":10345,"een":10346,"commun":10347,"Ġconstraint":10348,"Ġoverl":10349,"ĠIllinois":10350,"Ġvessel":10351,"Ġgent":10352,"async":10353,"Ġending":10354,"iner":10355,"ĠCharl":10356,"Ġhat":10357,"Ġpeer":10358,"ĠBa":10359,"Like":10360,"Ġprospect":10361,"roud":10362,"Ġcompass":10363,"Ġmg":10364,"2008":10365,"Ġnotion":10366,"ĠGir":10367,"Ġwider":10368,"ĠĊĠĠĠĠĠĠĠ":10369,"ĠString":10370,"Ġmurder":10371,"ĠProtection":10372,"bytes":10373,"Ġfifth":10374,"Ġenthus":10375,"Through":10376,"ĠAud":10377,"Ġkingdom":10378,"ĠNic":10379,"connected":10380,"DIR":10381,"Ġminimal":10382,"aware":10383,"cost":10384,"Ġcarbohyd":10385,"ĠPrint":10386,"ĠAnsw":10387,"quir":10388,"aints":10389,"Ġbreaks":10390,"ĠVar":10391,"Ġneurons":10392,"two":10393,"Ġgenus":10394,"Î±":10395,"Ġuniversities":10396,"Ġmosquit":10397,"Ġutility":10398,"inputs":10399,"Ġintention":10400,"ORT":10401,"ĠSoftware":10402,"Ġweigh":10403,"Ġusername":10404,"().__":10405,"Ġconfront":10406,"zyme":10407,"Ġhaven":10408,"stra":10409,"register":10410,"IND":10411,"Ġnic":10412,"bro":10413,"account":10414,"Ġreaches":10415,"Ġ1979":10416,"1000":10417,"Ġexamining":10418,"Ġrefused":10419,"Ġqualities":10420,"ĠHom":10421,"ĠKorean":10422,"Ġtobacco":10423,"insert":10424,"sort":10425,"Ġclothes":10426,"Ġ',":10427,"iosity":10428,"adelphia":10429,"oked":10430,"ioxid":10431,"ĠMexican":10432,"ULT":10433,"Ġherb":10434,"yes":10435,"ĠSpirit":10436,"chron":10437,"ODO":10438,"Ġdrivers":10439,"mented":10440,"2017":10441,"Ġachievement":10442,"Ġker":10443,"ĠSon":10444,"Ġcelebrated":10445,"Ġ95":10446,"ĠHarvard":10447,"ometer":10448,"orrect":10449,"ĠKn":10450,"Ġimmigrants":10451,"efficient":10452,"clusions":10453,"pm":10454,"arios":10455,"Ġmaxim":10456,"tered":10457,"ĠMarg":10458,"Ġflask":10459,"ĠSunday":10460,"itzer":10461,"Ġinhabitants":10462,"Ġneural":10463,"Ġsequences":10464,"hea":10465,"Ġiter":10466,"ĠJerusalem":10467,"Ġbits":10468,"GET":10469,"Ġunlike":10470,"ĠLat":10471,"2015":10472,"ĠGulf":10473,"Ġarise":10474,"Ġexpertise":10475,"ĠSmall":10476,"pow":10477,"Ġsending":10478,"itchen":10479,"Ġcooperation":10480,"quality":10481,"thread":10482,"Ġearn":10483,"ĠChapter":10484,"ĠSus":10485,"Ġlogical":10486,"ĠIndex":10487,"Any":10488,"empl":10489,"ĠDate":10490,"Ġinvolvement":10491,"front":10492,"ĠStory":10493,"ometric":10494,"Ġ×":10495,"Ġbron":10496,"reprene":10497,"ortion":10498,"Ġartistic":10499,"Ġbasically":10500,"ĠSong":10501,"Ġfraction":10502,"ĠTurk":10503,"Ġfats":10504,"Ġwonderful":10505,"Ġbrowser":10506,"ĠWAR":10507,"Ġlegend":10508,"Ġcure":10509,"ĠMuslims":10510,"cr":10511,"Ġinitiative":10512,"Ġcontinuing":10513,"iously":10514,"Ġcotton":10515,"ROM":10516,"IONS":10517,"Ġvarying":10518,"Ġboundary":10519,"TC":10520,"havior":10521,"ĠWhether":10522,"Ġgrounds":10523,"Ġcodes":10524,"Ġattitude":10525,"dirname":10526,"Ġjoy":10527,"psy":10528,"Ġshorter":10529,"Ġcontrolling":10530,"ĠRen":10531,"ĠHindu":10532,"Ġreveals":10533,"Ġautism":10534,"ĠAssess":10535,"Ġspatial":10536,"Ġcub":10537,"ITY":10538,"Gl":10539,"ĠpH":10540,"Ġsale":10541,"ĠSurvey":10542,"speed":10543,"Ġattempted":10544,"Ġ1982":10545,"Ġmetres":10546,"users":10547,"shaped":10548,"Ġlifetime":10549,"Ġgathered":10550,"Ġwings":10551,"cursor":10552,"AF":10553,"otypes":10554,"site":10555,"ĠRight":10556,"Ġ'-":10557,"ĠHum":10558,"assertTrue":10559,"ceans":10560,"His":10561,"ĠShort":10562,"onday":10563,"aylor":10564,"Ġbare":10565,"ĠEconomic":10566,"ummy":10567,"estock":10568,"Ġrepresentative":10569,"Ġbene":10570,"TY":10571,"Ġforecast":10572,"icted":10573,"Ġmerch":10574,"Ġrobust":10575,"Ġborrow":10576,"Ġrestore":10577,"ĠSanta":10578,"some":10579,"Ġearned":10580,"Ġdisabilities":10581,"Ġepoch":10582,"Ġsuddenly":10583,"PD":10584,"Ġbought":10585,"Ġassemb":10586,"ĠAlzheimer":10587,"itches":10588,"onaut":10589,"Ġurine":10590,"Ġutils":10591,"Ġdefinitely":10592,"Ġdeficiency":10593,"Ġtheoretical":10594,"Ġcombine":10595,"Ġhabitats":10596,"phabet":10597,"2007":10598,"Ent":10599,"Ġreturning":10600,"oir":10601,"Who":10602,"oca":10603,"erver":10604,"steps":10605,"Ġwhenever":10606,"('-":10607,"tw":10608,"2016":10609,"Ġanticip":10610,"ĠTrad":10611,"Ġtuple":10612,"Ġconfusion":10613,"uscript":10614,"Ġensures":10615,"ĠTemple":10616,"ogs":10617,"ĊĊĠĠĠĠĠ":10618,"Ġaccurately":10619,"Each":10620,"ĠJon":10621,"Ġenormous":10622,"Ġsees":10623,":%":10624,"Ġassistant":10625,"ĠHarr":10626,"Ġreign":10627,"Ġplanting":10628,"Ġmyster":10629,"Ġpaintings":10630,"Ġsubprocess":10631,"ĠJean":10632,"Ġevolutionary":10633,"foo":10634,"Ġhormones":10635,"ĠWilson":10636,"Ġwal":10637,"Ġpopularity":10638,"Ġsons":10639,"ĠDyn":10640,"Ġinitiatives":10641,"Ġrepeat":10642,"borne":10643,"Ġportray":10644,"erb":10645,"job":10646,"Ġdesignated":10647,"Ġdevast":10648,"Ġnutrient":10649,"Hel":10650,"ĠAk":10651,"Ġdistricts":10652,"bec":10653,"Ġchoosing":10654,"Ġpersonnel":10655,"Ġvegetation":10656,"Ġattitudes":10657,"Ġadvances":10658,"Ġassociate":10659,"ĠWhich":10660,"-%":10661,"Ġenterpr":10662,"Ġsacred":10663,"ĠExp":10664,"lier":10665,"Ġpaying":10666,"Ġcolony":10667,"ĠSym":10668,"Ġtutorial":10669,"Ġsupplements":10670,"Ġrecycling":10671,"Ġspots":10672,"loader":10673,"Ġboxes":10674,"akespe":10675,"ĠNether":10676,"ĠBob":10677,"Ġreflected":10678,"Ġexpressions":10679,"ropy":10680,"icode":10681,"sn":10682,"ĠPrevention":10683,"bul":10684,"Ġgods":10685,"serial":10686,"Ġirrig":10687,"Column":10688,"Ġ1983":10689,"backs":10690,"Ġopinions":10691,"Ġsocket":10692,"ĠDeath":10693,"Ġvotes":10694,"Ġdimension":10695,"Ġreviews":10696,"isted":10697,"ietal":10698,"Ġevident":10699,"Ġfilters":10700,"CM":10701,"Ġcelebrate":10702,"western":10703,"velength":10704,"hal":10705,"Ġdisability":10706,"ĠHelp":10707,"Ġsodium":10708,"olph":10709,"Ġpractition":10710,"Ġdelete":10711,"domin":10712,"Ġbeneath":10713,"Ġsuit":10714,"Ġbehavioral":10715,"Ac":10716,"ĠArea":10717,"Ġscholar":10718,"ĠWeek":10719,"ÙĦ":10720,"ĠRest":10721,"Det":10722,"Ġspark":10723,"ĠLaboratory":10724,"Ġlon":10725,"Ġassignment":10726,"desc":10727,"ĠWrite":10728,"isely":10729,"Ġprivile":10730,"Ġspoke":10731,"fold":10732,"ocated":10733,"ĠBol":10734,"hard":10735,"wait":10736,"ĠTH":10737,"Ġoblig":10738,"Ġpill":10739,"zymes":10740,"Py":10741,"Ġstrings":10742,"Ġrotation":10743,"ologically":10744,"ysical":10745,"Ġofficially":10746,"shire":10747,"reshape":10748,"ĠAsk":10749,"mid":10750,"Ġunexpected":10751,"ĠAmazon":10752,"ĠAdam":10753,"ĠMinistry":10754,"Ġefficiently":10755,"ceptions":10756,"Ġstatic":10757,"ĠLocal":10758,"icating":10759,"Ġruled":10760,"Ġdish":10761,"metric":10762,"Ġbegun":10763,"'][":10764,"Ġverbose":10765,"Ġstrange":10766,"Ġwithdraw":10767,"ĠOffic":10768,"Ġinvasion":10769,"about":10770,"ropol":10771,"station":10772,"hot":10773,"Size":10774,"Run":10775,"engers":10776,"Create":10777,"Ġcancers":10778,"Ġapparently":10779,"fire":10780,"Ġtranslated":10781,"Ġcardiovascular":10782,"hemistry":10783,"Ġ\"--":10784,"Ġinequ":10785,"ĠConnect":10786,"Ġbeta":10787,"ĠGovernor":10788,"Ġpermit":10789,"Ġrequirement":10790,"Ġmetaph":10791,"Ġ'\\":10792,"Ġgraduate":10793,"manager":10794,"second":10795,"Ġol":10796,"Ġselling":10797,"Ġsemi":10798,"Ġda":10799,"Ġappeal":10800,"Ġdegrad":10801,"ĠUnivers":10802,"ĠMicrosoft":10803,"Ġmothers":10804,"Ġmemories":10805,"Ġrooms":10806,"Ġliterally":10807,"ĠEs":10808,"gets":10809,"rowth":10810,"ĠProm":10811,"uits":10812,"Ġsurg":10813,"Ġsuspect":10814,"ĠPrince":10815,"onymous":10816,"Ġ43":10817,"API":10818,"ouri":10819,"akespeare":10820,"VER":10821,"ĠSeveral":10822,"ĠIndigenous":10823,"Ġtmp":10824,"Ġvillages":10825,"ĠLevel":10826,"mo":10827,"ĠRepublican":10828,"sql":10829,"Ġprecision":10830,"DataFrame":10831,"forms":10832,"eful":10833,"ilst":10834,"Ġdistances":10835,"ogram":10836,"Ġtags":10837,"Ġpipe":10838,"Ġpayment":10839,"wall":10840,"Ġshares":10841,"ĠHung":10842,"counter":10843,"Ġsulf":10844,"Ġham":10845,"orters":10846,"aki":10847,"Ġcaps":10848,"Ġrhythm":10849,"icking":10850,"Ġancestors":10851,"Fore":10852,"Ġcycles":10853,"Ġmature":10854,"ĠIndeed":10855,"2018":10856,"aze":10857,"FC":10858,"Ġ----------":10859,"orus":10860,"Ġfatal":10861,"Ext":10862,"ĠRecords":10863,"ques":10864,"Ġdescend":10865,"ĠPhiladelphia":10866,"sters":10867,"tml":10868,"Red":10869,"Ġtends":10870,"Ġshore":10871,"Ġaggressive":10872,"Ġampl":10873,"Ġabsorb":10874,"Ġtransmitted":10875,"Ġdescribing":10876,"Ġstreams":10877,"Ġpredictions":10878,"Ġease":10879,"KEY":10880,"Ġconnecting":10881,"Ġvaries":10882,"Ġdialogue":10883,"inth":10884,"ĠDun":10885,"Ġprivacy":10886,"Module":10887,"Next":10888,"Ġregime":10889,"Ġcrowd":10890,"perties":10891,"Ġfrustr":10892,"Ġbroke":10893,"Ġvon":10894,"Ġdefeated":10895,"Ġbless":10896,"å®":10897,"ĠRNA":10898,"distance":10899,"Ġtower":10900,"Ġfires":10901,"terior":10902,"loop":10903,"arest":10904,"Ġmedieval":10905,"Ġsuicide":10906,"neum":10907,"isition":10908,"issipp":10909,"Ġincredible":10910,"Ġviral":10911,"ĠFair":10912,"Ġcompetitive":10913,"pc":10914,"history":10915,"Ġadolesc":10916,"Ġmultipl":10917,"ĠRout":10918,"Ġvirtually":10919,"Ġmagnitude":10920,"mega":10921,"Ġcirculation":10922,"ĠSeries":10923,"lem":10924,"ifice":10925,"Then":10926,"ethe":10927,"ĠRa":10928,"']:":10929,"Ġ250":10930,"ĠBon":10931,"Ġmyself":10932,"Ġembry":10933,"Ġsubsc":10934,"linear":10935,"POST":10936,"hour":10937,"ĠSpring":10938,"ĠEmer":10939,"ĠHan":10940,"Ġglobe":10941,"iterranean":10942,"ĠNum":10943,"Ġadministrative":10944,"}\"":10945,"ĠBell":10946,"SO":10947,"Ġglac":10948,"Ġpreserved":10949,"Ġfisher":10950,"Ġvisiting":10951,"Ġexport":10952,"Ġmold":10953,"Ġprefix":10954,"Ġspacecraft":10955,"Ġphilosoph":10956,"Ġdairy":10957,"inv":10958,"ĠSem":10959,"Ġperfectly":10960,"Ġfemin":10961,"white":10962,"Ġwelfare":10963,"Ġcheap":10964,"gt":10965,"Ġfet":10966,"Ġfoster":10967,"commit":10968,"Ġ~":10969,"Ġpersu":10970,"ĠDan":10971,"Ġmolecule":10972,"Ġpreparing":10973,"Ġorange":10974,":`":10975,"ĠFoot":10976,"ĠTrust":10977,"days":10978,"Ġdisag":10979,"ĠGames":10980,"master":10981,"Ġpel":10982,"stud":10983,"Event":10984,"ĠIncre":10985,"Ġunlikely":10986,"ĠCR":10987,"Ġposit":10988,"Ġincorporate":10989,"ĠAh":10990,"rowing":10991,"ĠHim":10992,"ĠMountain":10993,"ĠHo":10994,"Ġtom":10995,"ĠCentury":10996,"ez":10997,"Ġspray":10998,"Ġrend":10999,"Ġphotographs":11000,"978":11001,"ASE":11002,"Ġdistant":11003,"inces":11004,"rium":11005,")/":11006,"Ġresilience":11007,"Ġ1981":11008,"ĠFuture":11009,"IGHT":11010,"Ġhorizontal":11011,"enza":11012,"try":11013,"rons":11014,"ĠBu":11015,"Ġamino":11016,"ĠCell":11017,"ghan":11018,"Ġprecip":11019,"Ġsurrounded":11020,"Ġ::":11021,"Ġbiodiversity":11022,"Ġ{}\".":11023,"Ġrailway":11024,"Ġdocumentation":11025,"stic":11026,"aterials":11027,"adesh":11028,"Ġ1975":11029,"Ġgray":11030,"Ġabandoned":11031,"ĠAvoid":11032,"operative":11033,"Ġlar":11034,"Dec":11035,"ordinary":11036,"Ġsurprise":11037,"Ġrestrictions":11038,"ĠPerhaps":11039,"ĠWriting":11040,"Ġnavigation":11041,"Ġmammals":11042,"ĠPolish":11043,"Ġreson":11044,"Example":11045,"Ġ\"\\":11046,"Ġeverywhere":11047,"Ġquantities":11048,"Ġft":11049,"Ġestablishing":11050,"Ġprovision":11051,"Ġseriously":11052,"resource":11053,"Ġequipped":11054,"Ġdistinguish":11055,"ĠDue":11056,"elect":11057,"Ġash":11058,"ĠFollowing":11059,"Tensor":11060,"Ġwooden":11061,"dem":11062,"__()":11063,"rizona":11064,"uis":11065,"Ġdense":11066,"Ã£o":11067,"seud":11068,"price":11069,"jud":11070,"Ġunderground":11071,"Ġreflection":11072,"Ġaging":11073,"children":11074,"ä½":11075,"ifer":11076,"Ġ1968":11077,"iblical":11078,"ĠConfig":11079,"Em":11080,"Ġtrav":11081,"2006":11082,"Ġsklearn":11083,"Ġfatigue":11084,"plan":11085,"Ġcoat":11086,"urable":11087,"ĠSolar":11088,"ĠNetherlands":11089,"Ġ1972":11090,"Ġ41":11091,"Ġperpet":11092,"Ġhappiness":11093,"ĠImagine":11094,"schema":11095,"annot":11096,"arts":11097,"ĠWalk":11098,"Ġchurches":11099,"Ġjoints":11100,"Ġcouncil":11101,"ĠĠĠĠĠĠĠĠĠĠĠĠĠĠĠĠĠĠĠĠĠĠĠĠĠ":11102,"timestamp":11103,"Ġinterval":11104,"Ġ255":11105,"cha":11106,"ĠMir":11107,"control":11108,"jpg":11109,"Ġaddiction":11110,"ĠBureau":11111,"Ġranges":11112,"leton":11113,"Ġsavings":11114,"Ġclay":11115,"Ġwinds":11116,"Ġannot":11117,"Ġvice":11118,"Argument":11119,"Ġcream":11120,"Ġfunc":11121,"ĠBelg":11122,"ubble":11123,"Ġinspect":11124,"UG":11125,"Item":11126,"ĠSn":11127,"Ġbuying":11128,"Finally":11129,"Ġow":11130,"Click":11131,"ĠRab":11132,"imary":11133,"regon":11134,"Ġholiday":11135,"iability":11136,"Ġpose":11137,"illy":11138,"Ġexpanding":11139,"rating":11140,"Ġproducer":11141,"Ġconqu":11142,"2005":11143,"AGE":11144,"Ġgif":11145,"emies":11146,"ĠSection":11147,"Ġmotivation":11148,"Ġdefinitions":11149,"Ġspinal":11150,"Ġpainful":11151,"ĠAntar":11152,"Ġ600":11153,"Ġrecur":11154,"aug":11155,"ĠImpro":11156,"Ġdivide":11157,"Ġcharges":11158,"Ġsubsid":11159,"Ġoutbreak":11160,"Ġbeam":11161,"Ġseparation":11162,"Ġaccomplish":11163,"public":11164,"Color":11165,"Ġenjoyed":11166,"Ġexecuted":11167,"agger":11168,"Ġrib":11169,"ĠFer":11170,"even":11171,"ĠTraining":11172,"Ġconsisting":11173,"vation":11174,"ĠHeritage":11175,"ĠRay":11176,"ĠTenn":11177,"Ġlegacy":11178,"Ġcrown":11179,"ĠWIT":11180,"ĠBetween":11181,"Info":11182,"Ġscales":11183,"rimin":11184,"ĠTerm":11185,"aneous":11186,"ĠUnlike":11187,"ighth":11188,"ĠTreatment":11189,"Ġpace":11190,"issippi":11191,"ener":11192,"Ġorientation":11193,"Ġmetric":11194,"Ġanch":11195,"Ġminority":11196,"ĠBad":11197,"ibli":11198,"stats":11199,"Ġoptical":11200,"Ð°Ð":11201,"Ġtill":11202,"Return":11203,"Ġgenerator":11204,"Ġdiscipline":11205,"Ġphenomena":11206,"exper":11207,"formance":11208,"Mon":11209,"rub":11210,"Ġbind":11211,"ĠTheory":11212,"ĠChall":11213,"Ġanger":11214,"Ġvig":11215,"Ġears":11216,"UD":11217,"rin":11218,"Ġvaried":11219,"Ġindirect":11220,"Ġoptional":11221,"Ġgest":11222,"ĠBlood":11223,"ĠTree":11224,"Ġactor":11225,"github":11226,"Ġlegit":11227,"sequently":11228,"Ġdrinks":11229,"Ġchicken":11230,"metadata":11231,"Ġbears":11232,"Ġcompost":11233,"Ġrevenue":11234,"Ġspeaker":11235,"Ġrecall":11236,"Ġ1900":11237,"ĠRepresent":11238,"GO":11239,"Ġsurvived":11240,"Ġepisodes":11241,"ĠHop":11242,"Ġapplies":11243,"iations":11244,"Ġloan":11245,"}/":11246,"ateral":11247,"ben":11248,"Ġencouraging":11249,"cd":11250,"sole":11251,"aver":11252,"ĠGuard":11253,"}.":11254,"Ġhospitals":11255,"Ġmenu":11256,"center":11257,"Ġcough":11258,"Ġ1978":11259,"Ġbrothers":11260,"nan":11261,"Ġtort":11262,"ĠWildlife":11263,"Command":11264,"paths":11265,"ALL":11266,"Ps":11267,"ĠRadio":11268,"Ġtongue":11269,"nia":11270,"ĠClick":11271,"ĠCH":11272,"Ġcorporate":11273,"ĠUV":11274,"Fig":11275,"akh":11276,"ĠThanks":11277,"Ġdivine":11278,"Ġscenes":11279,"ĠTurkey":11280,"ificate":11281,"ÂłĊĠ":11282,"Ġ1976":11283,"ashed":11284,"Ġatom":11285,"ĠAwards":11286,"burgh":11287,"800":11288,"ĠMediterranean":11289,"]):":11290,"Ġlabour":11291,"Ġgrades":11292,"meta":11293,"Ġroutes":11294,"Ġclouds":11295,"ivities":11296,"Ġreadily":11297,"Ġannually":11298,"ĠTestament":11299,"profit":11300,"Ġsciences":11301,"Ġantioxid":11302,"Ġscal":11303,"rapeutic":11304,"ĠThird":11305,"ĠLewis":11306,"Ġincorporated":11307,"Mar":11308,"sol":11309,"Ġbleeding":11310,"ĠPersonal":11311,"Ġinspiration":11312,"Ġresemb":11313,"Ġbrains":11314,"Ġthesis":11315,"Ĥ¬":11316,"Ġeleph":11317,"hire":11318,"ĠShould":11319,"ammad":11320,"Ġcollapse":11321,"Ġtrading":11322,"Ġenabling":11323,"chnology":11324,"Ġpolitician":11325,"ĠCulture":11326,"Ġbeans":11327,"ĠNi":11328,"Ġdisadvant":11329,"Ġlibraries":11330,"Ġscar":11331,"gb":11332,"ependence":11333,"Ġadopt":11334,"ĠGi":11335,"Ġpowder":11336,"offset":11337,"Ġimplementing":11338,"ĠPut":11339,"Ġdigestive":11340,"Ġproposal":11341,"Ġmile":11342,"oard":11343,"Ġalike":11344,"Ġcable":11345,"Ġflexibility":11346,"tags":11347,"Ġdoors":11348,"Ġadaptation":11349,"natural":11350,"Ġultimate":11351,"prov":11352,"ĠEgyptian":11353,"isons":11354,"iph":11355,"Ġbarrier":11356,"Ġputs":11357,"ĠLuc":11358,"ĠReturn":11359,"Ġcam":11360,"ĠScottish":11361,"SM":11362,"ĠAncient":11363,"ZE":11364,"orient":11365,"ĠCook":11366,"Ġempire":11367,"Ġoccasionally":11368,"Ġdimin":11369,"ĠDict":11370,"Ġbasket":11371,"ĠTy":11372,"uz":11373,"mers":11374,"ĠJersey":11375,"Ġrent":11376,"Ġincent":11377,"ĠObama":11378,"Ġpenet":11379,"Ġdevelops":11380,"Ġsuggesting":11381,"Ġthroat":11382,"Ġalternatives":11383,"uns":11384,"Ġjuris":11385,"RANT":11386,"Ġseasons":11387,"Ġsummar":11388,"ĠOnt":11389,"dumps":11390,"ĊĠĠĠĠĠĠ":11391,"dm":11392,"ĠArm":11393,"aternal":11394,"ĠComputer":11395,"erally":11396,"inite":11397,"ĠSher":11398,"Ġreflects":11399,"Ġapps":11400,"Ġadjacent":11401,"Ġprediction":11402,"Ġencourages":11403,"ĠFestival":11404,"ĠRelig":11405,"PC":11406,"Ġresolve":11407,"bris":11408,"ĠExec":11409,"Ġoutputs":11410,"ĠMind":11411,"cin":11412,"Ġ------------------------":11413,"ĠWat":11414,"ĠAz":11415,"Ġenhanced":11416,"Ġmodules":11417,"oler":11418,"Ġ1973":11419,"Ġly":11420,"Ġrestoration":11421,"lass":11422,"Ġfan":11423,"ĠFOR":11424,"Ġkg":11425,"rose":11426,"Ġfounder":11427,"Ġcig":11428,"Ġwinning":11429,"accur":11430,"Ġanthrop":11431,"Ġbinding":11432,"Ġimper":11433,"Ġcyl":11434,"bn":11435,"ĠBeing":11436,"ĠMap":11437,"ĠStephen":11438,"quarters":11439,"dt":11440,"empty":11441,"ĠPu":11442,"Ġinval":11443,"ACT":11444,"Ġisolation":11445,"Ġarrival":11446,"Ġhonest":11447,"ĠArgent":11448,"Ġcompat":11449,"Ġà¤":11450,"Ġenabled":11451,"ĠÂ©":11452,"angel":11453,"Ġorganism":11454,"classmethod":11455,"ĠParent":11456,"Ġeconomics":11457,"ussion":11458,"Ġflavor":11459,"ĠBh":11460,"ouses":11461,"Ġrestricted":11462,"Ġparliament":11463,"ĠIde":11464,"AV":11465,"Ġsymb":11466,"Ġenroll":11467,"ims":11468,"fare":11469,"Ġcmd":11470,"Ġpollut":11471,"FR":11472,"ĠSweden":11473,"ĠDid":11474,"Ġentitled":11475,"Ġlanding":11476,"Ġcivilization":11477,"Ġzones":11478,"itus":11479,"Ġattacked":11480,"ĠCase":11481,"Ġprecisely":11482,"ĠFac":11483,"ĠConst":11484,"ORD":11485,"gae":11486,"ordination":11487,"Ġmagic":11488,"anth":11489,"hester":11490,"bet":11491,"ĠHTML":11492,"Ġcellular":11493,"Sign":11494,"Ġcalm":11495,"ĠPrime":11496,"font":11497,"Ġgrammar":11498,"irable":11499,"Ġentities":11500,"Ġmeetings":11501,"Ġmedicines":11502,"Ġmorph":11503,"Ġconcert":11504,"ĠArizona":11505,"Ġindicating":11506,"ĠOften":11507,"Ġshaping":11508,"ĠSab":11509,"Ġrecre":11510,"who":11511,"Ġdemocratic":11512,"Ġdevelopers":11513,"Ġmini":11514,"ĠSelf":11515,"flamm":11516,"oline":11517,"oons":11518,"athan":11519,"Ġachieving":11520,"ĠWars":11521,"gex":11522,"Ġì":11523,"develop":11524,"Ġaccord":11525,"Ġemployee":11526,"Ġfunded":11527,"ĠBrook":11528,"Ġattributed":11529,"Ġcod":11530,"complete":11531,"Ġadverse":11532,"Ġretain":11533,"Ġoverview":11534,"Ġstatistical":11535,"ĠPrize":11536,"culate":11537,"Ġpriest":11538,"Ġspons":11539,"ifiers":11540,"Learn":11541,"Ġcrimes":11542,"DL":11543,"ĠEmperor":11544,"Ġprosper":11545,"Ġmarginal":11546,"ĠMcC":11547,")-":11548,"Ġsimulation":11549,"ĠLeon":11550,"pattern":11551,"(\"/":11552,"ĊĠĠĠĠĠĠĠĠĠĠĠĠĠĠĠĠĠ":11553,"Ġsmell":11554,"Ġ1971":11555,"holder":11556,"formed":11557,"Ġmoments":11558,"Ġearthquake":11559,"Ġpod":11560,"Ġsheep":11561,"Ġtransformed":11562,"ĠPhysical":11563,"anna":11564,"ĠĠĠĠĠĠĠĠĠĠĠĠĠĠĠĠĠĠĠĠĠĠĠĠĠĠĠ":11565,"perature":11566,"training":11567,"Ġdiagram":11568,"requency":11569,"isticated":11570,"worm":11571,"Ġ46":11572,"move":11573,"Ġunem":11574,"Ġ1969":11575,"ĠAgriculture":11576,"ĠDiet":11577,"ĠZh":11578,"groups":11579,"Ġresistant":11580,"assium":11581,"Ġmetabolism":11582,"Ġpubl":11583,"CharField":11584,"Ġjudgment":11585,"enda":11586,"Ġ1974":11587,"Ġhack":11588,"Ġarter":11589,"stdout":11590,"Ġaside":11591,"Ġnutritional":11592,"ĠOS":11593,"ĠBrain":11594,"Ġfavour":11595,"ĠĠĠĠĠĠĠĠĠĠĠĠĠĠĠĠĠĠĠĠĠĠĠĠĠĠĠĠĠĠĠĠĠĠĠĠĠĠĠĠĠĠĠĠĠĠĠĠĠĠĠĠĠĠĠĠĠĠĠĠĠĠĠĠĠĠĠĠĠĠĠĠĠĠĠĠĠĠĠĠĠĠĠĠĠĠĠĠĠĠĠĠĠĠĠĠ":11596,"ĠBased":11597,"Ġsug":11598,"Ġtotally":11599,"Ġlivestock":11600,"WAR":11601,"Ġdistinction":11602,"Ġtracking":11603,"BI":11604,"ĠMississippi":11605,"ĠWARRANT":11606,"ĠBor":11607,"Ġrod":11608,"Ġinfants":11609,"ediatric":11610,"PRO":11611,"Ġgift":11612,"Ġdefeat":11613,"Ġembra":11614,"Ġdocumented":11615,"cir":11616,"ĠPain":11617,"giene":11618,"Ġcompute":11619,"Ġmanuscript":11620,"ĠResponse":11621,"Ġfir":11622,"Ġplates":11623,"Ġenzymes":11624,"ĠSa":11625,"ĠStone":11626,"Ġdisplays":11627,"Ġinev":11628,"Ġlecture":11629,"ĠMrs":11630,"necess":11631,"Ġartif":11632,"BO":11633,"Ġinvented":11634,"ĠLED":11635,"Ġrelate":11636,"ongo":11637,"Ġcounts":11638,"mic":11639,"osaur":11640,"ASS":11641,"Ãº":11642,"Ġcalendar":11643,"arse":11644,"Ġmemor":11645,"Ġjuice":11646,"Ġspreading":11647,"Ġ------":11648,"Ġexecute":11649,"Ġintric":11650,"Ġalumin":11651,"Ġillnesses":11652,"Ġequations":11653,"ĠRog":11654,"ĠHay":11655,"Ġborders":11656,"itic":11657,"Ġexhibition":11658,"Ġscenarios":11659,"Scient":11660,"construction":11661,"estion":11662,"cult":11663,"ĠKim":11664,"ĠSav":11665,"ova":11666,"Ġtape":11667,"times":11668,"bad":11669,"Ġmirror":11670,"Ġsubmit":11671,"Ġgardens":11672,"ĠOregon":11673,"Ġinfluential":11674,"enti":11675,"Ġinstallation":11676,"fly":11677,"Ġlakes":11678,"HER":11679,"ENSE":11680,"Ġ47":11681,"inate":11682,"ĠVictoria":11683,"Ġfitness":11684,"ĠĠĠĠĠĠĠĠĠĠĠĠĠĠĠĠĠĠĠĠĠĠĠĠĠĠ":11685,"Ġconsequence":11686,"Ġ49":11687,"tests":11688,"Ġintegrity":11689,"required":11690,"ĠTODO":11691,"Ġcomplement":11692,"Ġster":11693,"ĠApple":11694,"ĠPractice":11695,"Ġspeakers":11696,"Ġenforcement":11697,"Ġmodify":11698,"zero":11699,"tk":11700,"Ġchocolate":11701,"Ġ85":11702,"olean":11703,"Aut":11704,"ĠBow":11705,"Ġmunicipal":11706,"Ġcircular":11707,"Ġpeers":11708,"Ġhurt":11709,"Ġencl":11710,"oting":11711,"Ġamongst":11712,"DO":11713,"ĠNY":11714,"ĊĠĠĠĠĠĠĠĠĠĠĠĠĠĠ":11715,"ni":11716,"economic":11717,"auc":11718,"inch":11719,"Ġanalyzed":11720,"bage":11721,"Ġsurgical":11722,"Ġliberal":11723,"Ġinstant":11724,"note":11725,"arer":11726,"Ġreputation":11727,"nesota":11728,"ĠTwitter":11729,"Welcome":11730,"Ġdebug":11731,"UC":11732,"ĠMissouri":11733,"profile":11734,"Ġloaded":11735,"conscious":11736,"Ġhighlights":11737,"Ġseverity":11738,"Ġbull":11739,"Ġhybrid":11740,"Ġsovere":11741,"Met":11742,"Ġdiscussing":11743,"Yes":11744,"Ġheaven":11745,"}')":11746,"Message":11747,"uations":11748,"yo":11749,"lux":11750,"Ġmail":11751,"ĠRaj":11752,"Build":11753,"Ġoutdoor":11754,"Ġ1964":11755,"rible":11756,"Ġregulate":11757,"Ġinflation":11758,"Ġvegetable":11759,"mus":11760,"Hz":11761,"Ġwash":11762,"Ġsampling":11763,"ĠAlaska":11764,"ĠÏ":11765,"Ġtough":11766,"PT":11767,"ĠOthers":11768,"ĠConvention":11769,"ĠBoy":11770,"=-":11771,"Ġcriticism":11772,"Ġaffairs":11773,"Ġmistakes":11774,"ĠHitler":11775,"ĠOs":11776,"atoes":11777,"Ġyes":11778,"Max":11779,"ĠFunction":11780,"Ġ1944":11781,"ĠEPA":11782,"ĠTai":11783,"600":11784,"Ġinjured":11785,"Ġreasoning":11786,"Ġswimming":11787,"ĠLinux":11788,"ĠMand":11789,"2004":11790,"Ġpets":11791,"Ġbee":11792,"ivating":11793,"Ġprayer":11794,"Ġregulatory":11795,"Ġtorn":11796,"Ġcampus":11797,"Ġanalyses":11798,"Ġsomewhere":11799,"Author":11800,"tains":11801,"Ġatmospheric":11802,"è¡":11803,"Ġpale":11804,"network":11805,"ĠHig":11806,"Ġsensory":11807,"ĠBridge":11808,"Ġreproductive":11809,"reements":11810,"ĠPope":11811,"Ġimagination":11812,"Ġ1967":11813,"Ñı":11814,"Ġorb":11815,"Ġpromoted":11816,"Ġrepet":11817,"Ġburned":11818,"Ġ1977":11819,"Ġhook":11820,"ĠSearch":11821,"ĠColl":11822,"ĠDavis":11823,"Ġnavigate":11824,"Ġsurviv":11825,"olicy":11826,"ĠBiology":11827,"Ġproductive":11828,"Ġhistorian":11829,"Ġimplied":11830,"Ġdigit":11831,"rell":11832,"Ġcited":11833,"Ġpitch":11834,"emet":11835,"Ġconfident":11836,"Ġguns":11837,"Ġoceans":11838,"General":11839,"Ġinteger":11840,"Ġts":11841,"charg":11842,"Ġrays":11843,"Ġathletes":11844,"Ġlikelihood":11845,"Ġnarratives":11846,"ĠNeg":11847,"Ġencomp":11848,"Ġincorporating":11849,"Ġstabil":11850,"Ġabsolutely":11851,"Ġpainted":11852,"Ġacceptable":11853,"Ġsleeping":11854,"ĠCountry":11855,"Ġabol":11856,"ĠApache":11857,"Ġabsorption":11858,"ĠIntegr":11859,"Ġoste":11860,"ĠØ":11861,"Ġaster":11862,"Ġbuffer":11863,"Ġelevated":11864,"ĠPeace":11865,"\"][\"":11866,"rison":11867,"Ġentrance":11868,"ĠParameters":11869,"Ġoffices":11870,"pled":11871,"ĠHence":11872,"reating":11873,"derr":11874,"Ġentreprene":11875,"Mus":11876,"ĠHaving":11877,"ĠMoh":11878,"ĠTaylor":11879,"Ġgovernor":11880,"domain":11881,"good":11882,"ĠHem":11883,"Ġenzyme":11884,"unittest":11885,"Ġqueue":11886,"Ġsucceeded":11887,"Ġctx":11888,"Ġbeach":11889,"Ġtwelve":11890,"redit":11891,"Ġreceives":11892,"Ġdeer":11893,"ĠGra":11894,"Ġshield":11895,"thodox":11896,"Ġburden":11897,"Ġdefines":11898,"Ġspecialist":11899,"Ġchamber":11900,"WS":11901,"NO":11902,"ĠGiven":11903,"etry":11904,"ologic":11905,"Health":11906,"Ġsoils":11907,"edding":11908,"ĠRos":11909,"Ġdrives":11910,"ĠRub":11911,"Ġpredomin":11912,"Ġwavelength":11913,"ĠJacob":11914,"Ġplanted":11915,"ricane":11916,"Ġpunishment":11917,"Find":11918,"Serv":11919,"friendly":11920,"rb":11921,"expl":11922,"Ġconsistently":11923,"avirus":11924,"Ġcitizen":11925,"Ġatomic":11926,"dimensional":11927,"there":11928,"Ġproducers":11929,"ĠCareer":11930,"Ġinch":11931,"ught":11932,"hell":11933,"Ġvisits":11934,"esium":11935,"Ġcoordinates":11936,"Ġdisturb":11937,"Ġarranged":11938,"ĠĠĠĠĠĠĠĠĠĠĠĠĠĠĠĠĠĠĠĠĠĠĠĠĠĠĠĠ":11939,"Ġexcav":11940,"ĠSelect":11941,"Ġcuts":11942,"pur":11943,"cfg":11944,"pot":11945,"Ġsail":11946,"Ġexplored":11947,"ĠMatthew":11948,"Ġnick":11949,"Ġshelter":11950,"2019":11951,"ĠMIT":11952,"Ġhopes":11953,"uclear":11954,"ĠDub":11955,"Ġic":11956,"Ġcollecting":11957,"Ġreef":11958,"etically":11959,"Ġmeta":11960,"Ġdiarr":11961,"Ġsocio":11962,"ĠWithin":11963,"Som":11964,"dess":11965,"Ġdiver":11966,"Ġspeeds":11967,"./":11968,"256":11969,"World":11970,"science":11971,"ogens":11972,"elta":11973,"ĠCorporation":11974,"Ġ):":11975,"rus":11976,"reated":11977,"ĊĠĠĠĠĠĠĠĠĠĠĠĠĠĠĠĠĠĠĠĠ":11978,"Dep":11979,"Min":11980,"oys":11981,"Fil":11982,"Ġmanagers":11983,"Ġcontinent":11984,"Index":11985,"Ġentries":11986,"Ġprescribed":11987,"lav":11988,"Ġvolunteers":11989,"Ġradi":11990,"Serial":11991,"Ġerect":11992,"language":11993,"Ġduties":11994,"ĠNazi":11995,"dump":11996,"Ġhide":11997,"Ġlayout":11998,"Ġbands":11999,"ĠAT":12000,"Ġ1965":12001,"Ġhealthier":12002,"Ġavoiding":12003,"pair":12004,"Ġstruck":12005,"ĠPDF":12006,"æĺ":12007,"Work":12008,"alo":12009,"swith":12010,"Ġcontrad":12011,"ÂŃ":12012,"Ġpartly":12013,"Ġexch":12014,"ĠAfghan":12015,"ĠMaria":12016,"æĪ":12017,"short":12018,"obic":12019,"Ġnuts":12020,"Ġovers":12021,"Process":12022,"ĠCond":12023,"Ġtomat":12024,"ntil":12025,"Pat":12026,"Ġ----":12027,"mentation":12028,"Ġdesigning":12029,"video":12030,"Ġprotest":12031,"Ġrough":12032,"umatic":12033,"Ġmissions":12034,"2020":12035,"LS":12036,"ĠHyd":12037,"Ġindependently":12038,"PM":12039,"Ġcf":12040,"pres":12041,"generation":12042,"energy":12043,"ipy":12044,"essional":12045,"Ġdebris":12046,"Manager":12047,"Sum":12048,"clip":12049,"Ġresidential":12050,"Ġposted":12051,"Ġconsent":12052,"Ġpartially":12053,"Ġsophisticated":12054,"ĠStill":12055,"ĠExample":12056,"Ġfaculty":12057,"Ġrealm":12058,"ĠTour":12059,"ĠMi":12060,"Ġresponsibilities":12061,"Ġprevents":12062,"VD":12063,"Ġeducated":12064,"Ġappreciation":12065,"orer":12066,"Ġ51":12067,"secret":12068,"ĠFa":12069,"ĠClean":12070,"Ġchecks":12071,"Ġphones":12072,"Ġfinance":12073,"Ġimperial":12074,"Ġ52":12075,"otten":12076,"ĠMarine":12077,"yard":12078,"ouch":12079,"Current":12080,"orse":12081,"learning":12082,"aping":12083,"Ġendangered":12084,"ICENSE":12085,"Ġbottle":12086,"category":12087,"Ġtraveling":12088,"ĠGarden":12089,"]+":12090,"lessly":12091,"INE":12092,"Ġembedded":12093,"plus":12094,"Ġmetadata":12095,"Ġfingers":12096,"ĠJane":12097,"hidden":12098,"Ġhistorians":12099,"ĠAS":12100,"Ġworkplace":12101,"ĠAbraham":12102,"Ġextraordinary":12103,"Ġgenerating":12104,"Ġsecre":12105,"GS":12106,"lined":12107,"Ġsusceptible":12108,"buffer":12109,"ĠDesc":12110,"Ġdramatically":12111,"ç»":12112,"Ġvalley":12113,"acon":12114,"OK":12115,"estone":12116,"Ġimpair":12117,"Ġninet":12118,"Ġseiz":12119,"Ġpupils":12120,"global":12121,"ĠSix":12122,"igating":12123,"Ġtitles":12124,"cuda":12125,"Ġfeaturing":12126,"Page":12127,"icity":12128,"urse":12129,"ĠUlt":12130,"onto":12131,"ABLE":12132,"agent":12133,"ĠBroad":12134,"'{":12135,"Ġnort":12136,"Ġmig":12137,"Ġdeposits":12138,"ĠNight":12139,"ĠLind":12140,"Ġweaken":12141,"Ġgran":12142,"ĠMinnesota":12143,"isa":12144,"ĠArthur":12145,"Ġprevalence":12146,"itting":12147,"ĠKids":12148,"gebra":12149,"limit":12150,"ĠDuke":12151,"ĠRod":12152,"Ġlasting":12153,"ĠCorps":12154,"Ġradius":12155,"Ġabsorbed":12156,"Integer":12157,"ugin":12158,"Ġabundant":12159,"isode":12160,"Ġ-------":12161,"enny":12162,"Ġkilometers":12163,"when":12164,"Ġmovies":12165,"Ġelementary":12166,"Ġoccupation":12167,"Ġassault":12168,"uese":12169,"Ġcontributes":12170,"ĠOcc":12171,"inery":12172,"Ġcave":12173,"ĠPriv":12174,"Found":12175,"Ġgeometry":12176,"Ġdeleg":12177,"LC":12178,"ĠCensus":12179,"quiry":12180,"deg":12181,"ĠThom":12182,"Ġ1941":12183,"startswith":12184,"unks":12185,"ĠSep":12186,"Ġcheese":12187,"Ġpickle":12188,"gon":12189,"Related":12190,"High":12191,"human":12192,"ĠTransport":12193,"Ġaest":12194,"ĠHas":12195,"Ġterminal":12196,"Ant":12197,"Ġframes":12198,"ĠPRO":12199,"Ġadventure":12200,"Ġconversations":12201,"ĠFront":12202,"Ġkitchen":12203,"astics":12204,"vernment":12205,"Ġrejected":12206,"actic":12207,"Ġloyal":12208,"Ġoils":12209,"letter":12210,"Ġwage":12211,"emetery":12212,"Ġprolong":12213,"getLogger":12214,"Ġsocietal":12215,"pa":12216,"rank":12217,"Ġtendency":12218,"forced":12219,"ĠAltern":12220,"ĠFriday":12221,"Ġintegral":12222,"Ġsynthetic":12223,"hedral":12224,"ĠDifferent":12225,"Ġtribe":12226,"Ġicon":12227,"Ġaccounting":12228,"Ġsolely":12229,"asa":12230,"ĠMother":12231,"Ġprisoners":12232,"idate":12233,"Book":12234,"Ġmutations":12235,"uffle":12236,"itate":12237,"they":12238,"omal":12239,"shot":12240,"Ġcontainers":12241,"ships":12242,"ĠSamuel":12243,"Ġattractive":12244,"ĊĠĠĠĠĠĠĠĠĠĠĠĠĠĠĠĠĠĠĠĠĠ":12245,"Ġ800":12246,"Ġtransaction":12247,"Ġtolerance":12248,"Ġrainfall":12249,"Ġretrie":12250,"~~~~":12251,"ĠPhD":12252,"ĠCA":12253,"ĠFish":12254,"astype":12255,"Orig":12256,"ĠÅ":12257,"ĠAC":12258,"Ġloud":12259,"Ġweapon":12260,"2003":12261,"Â®":12262,"icul":12263,"ĠAst":12264,"Ġdiets":12265,"Bar":12266,"Ġcann":12267,"Ġparticipated":12268,"Ġaltered":12269,"Ġcontroversial":12270,"ĠCaptain":12271,"Ġplacing":12272,"Ġempower":12273,"ĠShakespeare":12274,"Ġthyroid":12275,"eem":12276,"black":12277,"Ġfestival":12278,"vector":12279,"ĠPerson":12280,"states":12281,"isations":12282,"Ġdesk":12283,"Ġthirty":12284,"Ġnam":12285,"Ġfibers":12286,"Ġsectors":12287,"Ġrailroad":12288,"Ġ\"-":12289,"button":12290,"Ġwound":12291,"Ġcomparing":12292,"Ġaggreg":12293,"ĠTrade":12294,"Ġinequality":12295,"Ġinvention":12296,"ednes":12297,"á¹":12298,"Î¿":12299,"Ġgentle":12300,"Ġquad":12301,"Ġquote":12302,"Ġpredators":12303,"Ġarc":12304,"Ġmart":12305,"HA":12306,"llib":12307,"Ġtumors":12308,"Î½":12309,"Ġcolored":12310,"Ġrelatives":12311,"atile":12312,"Ġcarries":12313,"Ġmystery":12314,"ĠForeign":12315,"ospel":12316,"Ġwake":12317,"ĠCB":12318,"ĠMaryland":12319,"stat":12320,"Mult":12321,"Ġredirect":12322,"ĠBalt":12323,"Ġ\")":12324,"Ġoffs":12325,"upper":12326,"ĠOntario":12327,"fol":12328,"Ġgum":12329,"Ġvalidation":12330,"iversary":12331,"uct":12332,"rays":12333,"ĠGreg":12334,"Level":12335,"Ġapproval":12336,"ĠSummer":12337,"Ġconfused":12338,"ĠCape":12339,"iances":12340,"Ġcanal":12341,"insula":12342,"Ġforever":12343,"Ġtar":12344,"ti":12345,"consin":12346,"Ġpermissions":12347,"RC":12348,"Ġcurious":12349,"Ġhung":12350,"Implement":12351,"Ġthank":12352,"Ġexcited":12353,"Ġsediment":12354,"ĠLes":12355,"Ġtrail":12356,"ĠBBC":12357,"Ġma":12358,"Ġdischarge":12359,"ĠPhysics":12360,"Ġneurolog":12361,"!âĢĿ":12362,"Ġgear":12363,"ressing":12364,"Ġhtml":12365,"Ġverify":12366,"ĠLie":12367,"Ġmutual":12368,"Ġretail":12369,"imals":12370,"don":12371,"ustainable":12372,"Ġtok":12373,"ĠCarib":12374,"Ġasks":12375,"Ġcoach":12376,"Ġdiamond":12377,"zech":12378,"vance":12379,"ĠGermans":12380,"Ġ1942":12381,"Ġteens":12382,"vec":12383,"ĠWW":12384,"ĠIndonesia":12385,"storm":12386,"Ġtreaty":12387,"ĠEmb":12388,"Ġphy":12389,"Ġ----------------------------------------------------------------":12390,"Ġelab":12391,"Ġsoy":12392,"Ġdying":12393,"ĠCommons":12394,"available":12395,"Av":12396,"Ġacquire":12397,"security":12398,"Ġprol":12399,"Ġshoes":12400,"guard":12401,"Ġterritories":12402,"Ġbom":12403,"Ġmedian":12404,"Ġcompletion":12405,"Ġvag":12406,"Ġparticipating":12407,"Ġ(âĢľ":12408,"marks":12409,"Ġvalidate":12410,"Ġempathy":12411,"ĊĠĠĠĠĠĠĠĠĊĠĠĠ":12412,"ylon":12413,"oop":12414,"whe":12415,"Ġdelta":12416,"ĠOrd":12417,"ĠFull":12418,"****************":12419,"ĠEX":12420,"aux":12421,"ographer":12422,"Ġperf":12423,"UB":12424,"Ġdispar":12425,"Ġstretch":12426,"Ġpublications":12427,"Ġwise":12428,"Num":12429,"ĠVitamin":12430,"Ġoperational":12431,"bt":12432,"Ġknee":12433,"Ġtexture":12434,"Introduction":12435,"Ġconclusions":12436,"Ġspir":12437,"ĠPaper":12438,"asures":12439,"Ġopens":12440,"Ġerosion":12441,"ĠQuestions":12442,".),":12443,"MI":12444,"El":12445,"Ġgraphic":12446,"Ġdemonstrates":12447,"Ġelderly":12448,"Ġmuc":12449,"Ġcha":12450,"erer":12451,"Ġsympt":12452,"Look":12453,"Ġdiagnostic":12454,"Ġanalyzing":12455,"Copyright":12456,"generate":12457,")(":12458,"Ġdistinctive":12459,"Ġcalculations":12460,"ĠGh":12461,"Ġ---":12462,"gered":12463,"Ġoriginated":12464,"ĠTrump":12465,"ibration":12466,"ä¸Ģ":12467,"Ġplasma":12468,"agle":12469,"Ġstudio":12470,"Ġvom":12471,"choice":12472,"Ġpromising":12473,"ĠGraph":12474,"Ġcorrelation":12475,":-":12476,"Ġgolden":12477,"hex":12478,"Less":12479,"ĠHur":12480,"Ġintelligent":12481,"pts":12482,"ĠCop":12483,"Ġloose":12484,"stock":12485,"attered":12486,"Ġtries":12487,"clusively":12488,"Ġincorrect":12489,"away":12490,"ĠAnton":12491,"Param":12492,"leted":12493,"RNA":12494,"utor":12495,"extract":12496,"Ġmeter":12497,"ĠCT":12498,"Ġsheets":12499,"Ġvoices":12500,"ĠBru":12501,"Ġ99":12502,"End":12503,"Ġmetabolic":12504,"Ġtied":12505,"application":12506,"ĠStudent":12507,"ĠProtest":12508,"ĠMess":12509,"Ġvocal":12510,"apsed":12511,"admin":12512,"ĊĠĠĠĠĠĠĠĠĠĠ":12513,"Box":12514,"ikh":12515,"sqrt":12516,"National":12517,"Ġtransactions":12518,"Ġincidence":12519,"Ġdebut":12520,"Ġswelling":12521,"ĠCit":12522,"Ġpadding":12523,"Ġprox":12524,"ĠâĪĴ":12525,"ĠSchools":12526,"eft":12527,"ĠBall":12528,"ĠRather":12529,"Search":12530,"Ġarrive":12531,"father":12532,"Ġbusy":12533,"Ġlocally":12534,"Ġcoins":12535,"Ġinvasive":12536,"ĠSC":12537,"Äĩ":12538,"Ġadoption":12539,"covery":12540,"indices":12541,"ĠGolden":12542,"Ġguarantee":12543,"handle":12544,"Ġunity":12545,"Main":12546,"Ġrefugees":12547,"elli":12548,"Ä«":12549,"ĠLady":12550,"Ġ1939":12551,"Call":12552,"argo":12553,"inton":12554,"uf":12555,"ĠKong":12556,"Ġessence":12557,"Ġbrid":12558,"ocent":12559,"Ġ1963":12560,"ĠSarah":12561,"Ġshoulder":12562,"}{":12563,"ĠMaybe":12564,"Ġsle":12565,"git":12566,"ĠBush":12567,"Ġretired":12568,"aturday":12569,"Ġlin":12570,"relu":12571,"Ġmodeling":12572,"Ġsuggestions":12573,"eland":12574,"Ġfolk":12575,"Ġvoting":12576,"Ġclusters":12577,"flat":12578,"eg":12579,"Ġcourage":12580,"Ġbrush":12581,"kh":12582,"Ġcamps":12583,"Researchers":12584,"owa":12585,"acity":12586,"Ġvolumes":12587,"Tem":12588,"Ġbags":12589,"Ġeaten":12590,"Vis":12591,"Ġbass":12592,"ĠMos":12593,"Ġsettlers":12594,"AND":12595,"ĠNep":12596,"ĠNation":12597,"ĠSpr":12598,"Ġretire":12599,"ĠNeed":12600,"ĠMoses":12601,"hall":12602,"ucket":12603,"Ġmagnet":12604,"activity":12605,"uesday":12606,"Ġmim":12607,"Ġtens":12608,"ĠScript":12609,"Ġdrops":12610,"orney":12611,"\"].":12612,"ulsion":12613,"Ġdried":12614,"Ġdispers":12615,"()))":12616,"Ġpayload":12617,"ĠDecl":12618,"Ġdoses":12619,"factor":12620,"ĠCold":12621,"Ġride":12622,"Ġmonument":12623,"Ġbite":12624,"Ġpad":12625,"Ġabundance":12626,"Ġcompassion":12627,"Ġhill":12628,"Ġneighbors":12629,"rend":12630,"jan":12631,"tuple":12632,"raid":12633,"ilib":12634,"2001":12635,"erical":12636,"fc":12637,"dr":12638,"Ġproud":12639,"Ġsynthesis":12640,"Ġarrested":12641,"ampion":12642,"Christ":12643,"ICE":12644,"Ġok":12645,"imation":12646,"ĠMes":12647,"Ġbelonging":12648,"ĠMit":12649,"eling":12650,"Ġutilize":12651,"pany":12652,"Ġintens":12653,"Ġargues":12654,"Ġpushed":12655,"ĠResp":12656,"Ġutilized":12657,"FILE":12658,"ĠOpt":12659,"(**":12660,"ednesday":12661,"Ġprogressive":12662,"ĠVill":12663,"Ġsoup":12664,"Ġpursue":12665,"Ġsearching":12666,"ĠNeuro":12667,"Ġirrigation":12668,"Ġdistribut":12669,"Ġrepresentatives":12670,"Ġrobots":12671,"Ġ1948":12672,"ĠHong":12673,"screen":12674,"dtype":12675,"Ġharsh":12676,"stru":12677,"Ġoutline":12678,"ĠRoss":12679,"Ġarbit":12680,"ariable":12681,"Ġrear":12682,"Ġenl":12683,"atching":12684,"ÐµÐ":12685,"Ġweekly":12686,"ĠAlbert":12687,"ursday":12688,"amera":12689,"ĠIM":12690,"Ġimplies":12691,"Ġsituated":12692,"ĠSQL":12693,"aton":12694,"Ġconstitutional":12695,"Ġcircles":12696,"Ġcontamination":12697,"ountered":12698,"rock":12699,"LOG":12700,"/'":12701,"Ġsupplied":12702,"Ġdevelopmental":12703,"ercise":12704,"olly":12705,"ĠTok":12706,"ĠIron":12707,"ĠAustria":12708,"Ġdump":12709,"Ġfreely":12710,"Ġcameras":12711,"Ġdot":12712,"Ġpoems":12713,"rying":12714,"oning":12715,"Ġassumptions":12716,"ĠOp":12717,"arter":12718,"Ġstriking":12719,"ĠFord":12720,"Ġrating":12721,"Ġnorms":12722,"Ġanat":12723,"ĠCS":12724,"ws":12725,"åĽ":12726,"Ġlift":12727,"ignment":12728,"inian":12729,"Ġ2025":12730,"apore":12731,"week":12732,"ĠKennedy":12733,"database":12734,"ĠTen":12735,"enders":12736,"ĠScientific":12737,"Leave":12738,"Map":12739,"Ġmes":12740,"ĠOpp":12741,"Ġinvestments":12742,"Ġimpressive":12743,"Ġadmin":12744,"Ġtanks":12745,"ĠKat":12746,"ĠColumn":12747,"Ġunders":12748,"Ġmi":12749,"Further":12750,"Ġcontexts":12751,"pyplot":12752,"outer":12753,"Ġdivers":12754,"Ġshallow":12755,"ordan":12756,"ĠLuther":12757,"Ġpreferences":12758,"Ġheter":12759,"Ġreads":12760,"ĠSE":12761,"Ġstraw":12762,"Ġpreservation":12763,"Ġconsuming":12764,"GE":12765,"ĠScientists":12766,"2002":12767,"ĠSound":12768,"ĠNap":12769,"Ġseal":12770,"reset":12771,"ĠPhilos":12772,"Ġevaluated":12773,"Ġallergies":12774,"Ġgalaxy":12775,"Ġwelcome":12776,"Ġip":12777,"ĠIsa":12778,"Ġdismiss":12779,"Ġmetrics":12780,"Ġillustrate":12781,"compile":12782,"utical":12783,"Ġgenu":12784,"Ġwarr":12785,".*":12786,"ĠTogether":12787,"ository":12788,"Ġtitled":12789,"Ġcrash":12790,"Ġanten":12791,"Ġundergo":12792,"Ra":12793,"ceeds":12794,"Ġdishes":12795,"Ġencountered":12796,"ĠPay":12797,"Ġrelating":12798,"ĠSimp":12799,"ulator":12800,"Ġdetermination":12801,"Ġgathering":12802,"Ġpromotes":12803,"ĠWisconsin":12804,"obe":12805,"Ġpipeline":12806,"Ġaccidents":12807,"Ġsystematic":12808,"Ġcritics":12809,"Ġfeather":12810,"Ġunnecess":12811,"001":12812,"iley":12813,"Ġmarker":12814,"Ġarrangement":12815,"area":12816,"ĠPow":12817,"Ã¡n":12818,"ĠCore":12819,"Ġignored":12820,"ĠDarwin":12821,"Ġuncertainty":12822,"Ġodd":12823,"Ġupload":12824,"ĠIntellig":12825,"phones":12826,"ĠPap":12827,"ader":12828,"Research":12829,"anas":12830,"Ġacceptance":12831,"ĠCultural":12832,"early":12833,"Ġvalve":12834,"Ġfrequencies":12835,"Ġinfectious":12836,"Gr":12837,"aft":12838,"Ġupdates":12839,"cpu":12840,"Ġlogin":12841,"ĠDougl":12842,"ĠKansas":12843,"iking":12844,"anol":12845,"ĠDaily":12846,"Ġpneum":12847,"Ġgau":12848,"Ġstruggling":12849,"Ġbreat":12850,"Ġmonthly":12851,"Ġstops":12852,"Ġmanufacturer":12853,"Ġcuriosity":12854,"Ġdistinguished":12855,"bone":12856,"Ġemerge":12857,"Ġ56":12858,"Ġvow":12859,"illance":12860,"walk":12861,"Ġ54":12862,"Ġportions":12863,"ennis":12864,"Ġcataly":12865,"Ġsalmon":12866,"Ġtear":12867,"END":12868,"ĠMilitary":12869,"ĠPolitical":12870,"Ġinvited":12871,"Ġimmigration":12872,"Code":12873,"ĠMovement":12874,"ĠMuh":12875,"Ùİ":12876,"Ġbattles":12877,"Ġtherapeutic":12878,"aments":12879,"Ġcursor":12880,"ĠPict":12881,"Ġsinging":12882,"odd":12883,"(['":12884,"final":12885,"Ġcontaminated":12886,"zes":12887,"claimed":12888,"ĠEncyclopedia":12889,"abases":12890,"angular":12891,"super":12892,"Ġconstraints":12893,"ĠImper":12894,"placement":12895,"Ġpowered":12896,"Ġmatching":12897,"pick":12898,"bb":12899,"js":12900,"Ġoverlook":12901,"Ġthoroughly":12902,"amous":12903,"Ġsubtle":12904,"Gu":12905,"Ġappointment":12906,"amilton":12907,"Di":12908,"heastern":12909,"Ġpersistent":12910,"ĠAmb":12911,"phe":12912,"Ġdecreases":12913,"lon":12914,"Ġ53":12915,"Ġdement":12916,"Ġbeet":12917,"pton":12918,"Ġrocket":12919,"utter":12920,"ĠAlf":12921,"Ġseasonal":12922,"Ġconvenient":12923,"vae":12924,"Ġqualified":12925,"Ġ{}'.":12926,"ĠEN":12927,"Ġsignature":12928,"Sk":12929,"arma":12930,"Ġinvestors":12931,"Ġbases":12932,"Ġmeditation":12933,"cycle":12934,"Ġvaccination":12935,"Ġshortly":12936,"Ġdiscoveries":12937,"Ġasset":12938,"Ġactors":12939,"Ġphon":12940,"aga":12941,"avor":12942,"uates":12943,"effective":12944,")).":12945,"Ġfostering":12946,"ulates":12947,"Ġgaps":12948,"zo":12949,"Ġangles":12950,"FS":12951,"inea":12952,"Ġexplaining":12953,"ĠPolice":12954,"Ġethics":12955,"Ġseemingly":12956,"ĠNevertheless":12957,"()[":12958,"150":12959,"omer":12960,"Ġcoin":12961,"support":12962,"instein":12963,"Ġruling":12964,"iac":12965,"Ġhip":12966,"Ġoperators":12967,"+'":12968,"Ġverse":12969,"Ñĭ":12970,"!)":12971,"ArgumentParser":12972,"Ġracism":12973,"adi":12974,"ĠPR":12975,"Ġ1966":12976,"osity":12977,"Ġstrains":12978,"Ġthorough":12979,"Ġonset":12980,"ixed":12981,"tab":12982,"Ġjew":12983,"chi":12984,"Ġimproves":12985,"figure":12986,"onomous":12987,"ĠPa":12988,"ĠRole":12989,"Ġchecking":12990,"Ġworn":12991,"Ġmistake":12992,"ĠYears":12993,"ĠHal":12994,"late":12995,"errors":12996,"ĠPhilippines":12997,"ĠInterest":12998,"Ġpine":12999,"Ġhorn":13000,"Ġrespective":13001,"tan":13002,"Ġadvertising":13003,"Ġcommod":13004,"Output":13005,"Ġshouldn":13006,"Ġpink":13007,"tein":13008,"Ġtoys":13009,"Ġmeets":13010,"Ġwritings":13011,"Conv":13012,"Ġber":13013,"ĠGil":13014,"Ġantibodies":13015,"Ġparks":13016,"Ġhomework":13017,"icates":13018,"upiter":13019,"Ġ1918":13020,"Ġhosts":13021,"Ġdow":13022,"Å¡":13023,"Ġfate":13024,"ĠJoe":13025,"Ġaccompany":13026,"ĠCastle":13027,"Ġschema":13028,"socket":13029,"Ġtraditionally":13030,"Ġcloth":13031,"ĠFig":13032,"Ġconstitu":13033,"olas":13034,"vy":13035,"Ġarthritis":13036,"Ġmurd":13037,"Ġthrive":13038,"ĠMarx":13039,"Ġtourism":13040,"Ġdrama":13041,"Ġhygiene":13042,"'}":13043,"COL":13044,"Ġsafer":13045,"ĠFranklin":13046,"ĠSud":13047,"scope":13048,"Ġmasses":13049,"ĠSyd":13050,"Ġaug":13051,"Ġsurveys":13052,"ĠWARRANTIES":13053,"Ġcommem":13054,"Ġspine":13055,"ACK":13056,"Ġfleet":13057,"ĠFDA":13058,"Ġprevented":13059,"Ġgrab":13060,"Ġalphabet":13061,"ĠAccount":13062,"ths":13063,"Ġ'%":13064,"Ġconcentrated":13065,"Ġlean":13066,"ĠAnne":13067,"Ġfails":13068,"healthy":13069,"Ans":13070,"Ġhumidity":13071,"ĠMuch":13072,"ĠArchitect":13073,"Ġstems":13074,"ĠJefferson":13075,"Ġcontinuously":13076,"Ġaccomplished":13077,"ĠEssay":13078,"Ġcelebration":13079,"Ġpoliticians":13080,"ĠGa":13081,"entieth":13082,"Ġphotography":13083,"ĠChart":13084,"ĠDeep":13085,"Ġvacuum":13086,"balance":13087,"Ġholy":13088,"ensis":13089,"Make":13090,"ipation":13091,"Ġpygame":13092,"Ġthickness":13093,"Ġdeals":13094,"Ġclosest":13095,"ĠFall":13096,"Ġextinction":13097,"lr":13098,"metrics":13099,"untime":13100,"bus":13101,"Ġpleasure":13102,"Ġobviously":13103,"ĠHistoric":13104,"Ġpathways":13105,"Ġimportantly":13106,"ĠMiller":13107,"eeze":13108,"Ġpatri":13109,"Ġpracticing":13110,"aman":13111,"pip":13112,"omon":13113,"ĠTal":13114,"plane":13115,"anium":13116,"Ġstakeholders":13117,"Ġedit":13118,"mouth":13119,"produ":13120,"ffe":13121,"ĠDraw":13122,"ancial":13123,"Ġassessments":13124,"\">":13125,"ĠCaribbean":13126,"tokens":13127,"blems":13128,"Web":13129,"ĠImpact":13130,"Ġcrust":13131,"Ġtiming":13132,"Water":13133,")*":13134,"uction":13135,"ĠKir":13136,"nea":13137,"Ġoverwhelming":13138,"Ġorganisation":13139,"ĠMonday":13140,"Ġ1962":13141,"Ġwages":13142,"ĠBox":13143,"Ġfounding":13144,"Ġpicked":13145,"sens":13146,"Take":13147,"istically":13148,"Ġsinger":13149,"Ġdementia":13150,"Ġfunctionality":13151,"Based":13152,"ĠMathemat":13153,"Ġobs":13154,"ĠReserve":13155,"Ġspecify":13156,"Ġsteady":13157,"Ġirregular":13158,"ĠTib":13159,"FOR":13160,"Ġpatent":13161,"ĠAnaly":13162,"cert":13163,"Ġreviewed":13164,"ĠPortuguese":13165,"ĠRomans":13166,"Ġchron":13167,"VI":13168,"Ġattempting":13169,"Students":13170,"ĠStock":13171,"emon":13172,"dam":13173,"symbol":13174,"teenth":13175,"ĠElectric":13176,"Aug":13177,"orship":13178,"processing":13179,"Ġ1961":13180,"ĠSwedish":13181,"Ġ1943":13182,"oen":13183,"phal":13184,"LECT":13185,"Ġgrace":13186,"Ġreh":13187,"Ġrevolutionary":13188,"Ġmeteor":13189,"iotic":13190,"ĠChampionship":13191,"ryption":13192,"aceutical":13193,"semble":13194,"essee":13195,"Ġmobility":13196,"Ġ72":13197,"XX":13198,"venile":13199,"Ġmethane":13200,"Ag":13201,"kal":13202,"Ġvine":13203,"ĠKal":13204,"Ġarchitectural":13205,"istent":13206,"}'":13207,"ĠPier":13208,"Ġreserve":13209,"opol":13210,"Ġgains":13211,"ĠConstant":13212,"Ġconservative":13213,"thal":13214,"ĠMountains":13215,"Ġbullying":13216,"ĠRegion":13217,"Ġdelve":13218,"Ġextends":13219,"osphere":13220,"entity":13221,"Ġchip":13222,"Ġrestored":13223,"Ġskip":13224,")\"":13225,"Ġleak":13226,"Init":13227,"Ġgalaxies":13228,"Ġcombining":13229,"Ġlic":13230,"Ġsegments":13231,"Ġdual":13232,"elson":13233,"Ġenemies":13234,"Ġrubber":13235,"ĊĠĠĠĠĠĠĠĠĠĠĠĠĠĠĠĠĠĠ":13236,"PV":13237,"ĠIndividual":13238,"Ġfallen":13239,"Ġdefining":13240,"Ġallergic":13241,"English":13242,"ĠCzech":13243,"Ġyeast":13244,"Expl":13245,"raises":13246,"Ġcustoms":13247,"ĠHu":13248,"Diff":13249,"hr":13250,"elle":13251,"setup":13252,"Ġconducting":13253,"Ġdollar":13254,"ĠHind":13255,"Ġdistract":13256,"Ġtalks":13257,"Ġteaches":13258,"Ġpiano":13259,"Ġkin":13260,"Ġraces":13261,"Well":13262,"ÑĮ":13263,"tons":13264,"Ġskull":13265,"ĠResearchers":13266,"Ġalien":13267,"ĠDor":13268,"ĠLoad":13269,"Ġtang":13270,"\");":13271,"asal":13272,":.":13273,"Ġmarkers":13274,"Ġpsychiat":13275,"ternoon":13276,"arded":13277,"Ġcapability":13278,"Ġreferring":13279,"ĠSac":13280,"ĠNorway":13281,"ĠBasic":13282,"Ġfluor":13283,"Â©":13284,"ĠUkraine":13285,"ĠHans":13286,"Ġpesticides":13287,"Ġbulk":13288,"Ġstrip":13289,"utenant":13290,"Ġfluct":13291,"itzerland":13292,"Ġchains":13293,"Ġaccused":13294,"Ġreset":13295,"Ġpor":13296,"Ġphysicians":13297,"Ġelig":13298,"Ġcampaigns":13299,"Ġpermitted":13300,"may":13301,"adium":13302,"Ġmilit":13303,"ĠBody":13304,"je":13305,"ĠAnimal":13306,"Ġreceptors":13307,"ĠRose":13308,"ðŁ":13309,"Ġinherited":13310,"Ġraises":13311,"via":13312,"^{":13313,"ĠGP":13314,"Ġ1800":13315,"Ġfluids":13316,"download":13317,"ĠVolume":13318,"DI":13319,"ĠEval":13320,"ĠTax":13321,"Both":13322,"Ġsurprised":13323,"ĠLower":13324,"ride":13325,"Ġcoinc":13326,"cler":13327,"rared":13328,"Open":13329,"ĠBuddh":13330,"acies":13331,"Ġhazards":13332,"Ġcircul":13333,"Ġsnake":13334,"Acc":13335,"sized":13336,"iolet":13337,"uce":13338,"FAULT":13339,"ho":13340,"Ġsacrifice":13341,"unning":13342,"Ġcommander":13343,"Ġprone":13344,"Ġdupl":13345,"ulative":13346,"Ġheal":13347,"Ġbearing":13348,"Ġ-------------":13349,"Ġdominated":13350,"âĸ":13351,"Ġalleged":13352,"Ġelectronics":13353,"Ġsmallest":13354,"Public":13355,"Ġintra":13356,"Ġtubes":13357,"TA":13358,"othy":13359,"ottom":13360,"Photo":13361,"Ġexpedition":13362,"ĠArabic":13363,".]":13364,"PDF":13365,"Ġmixing":13366,"velt":13367,"Ġinclusion":13368,"Ġgang":13369,"çĶ¨":13370,"License":13371,"sin":13372,"ĠĠĠĠĠĠĠĠĠĠĠĠĠĠĠĠĠĠĠĠĠĠĠĠĠĠĠĠĠ":13373,"Ġbills":13374,"Ġcastle":13375,"ĠChap":13376,"Ġaver":13377,"UE":13378,"Ġsau":13379,"gas":13380,"Ġattracted":13381,"ĠGer":13382,"Ġhang":13383,"ĠBand":13384,"Ġavoided":13385,"hend":13386,"iating":13387,"Ġfles":13388,"Ġirre":13389,"enaissance":13390,"Ġtraveled":13391,"Ġpotassium":13392,"Ġintrig":13393,"views":13394,"bid":13395,"Ġnamely":13396,"pad":13397,"Ġyields":13398,"crit":13399,"Whe":13400,"Ġphilosophical":13401,"ĠLink":13402,"Conclusion":13403,"Ġillustrated":13404,"Ġceremony":13405,"Ġgenre":13406,"dominal":13407,"Ġexceptions":13408,"feed":13409,"Ġemission":13410,"ĠSydney":13411,"ĠDocument":13412,"Ġcombinations":13413,"ante":13414,"repr":13415,"tension":13416,"ĠMemorial":13417,"ĠObserv":13418,"Ġgrams":13419,"ĠNE":13420,"Ġfrozen":13421,"Ġpushing":13422,"ĠPit":13423,"unciation":13424,"Ġultr":13425,"Ġcompact":13426,"è®":13427,"Jan":13428,"Ġimmunity":13429,"ĠDescription":13430,"Ġinjection":13431,"income":13432,"Ġdevoted":13433,"arians":13434,"fetch":13435,"igs":13436,"Ġreplacing":13437,"Ġdecom":13438,"Ġtrains":13439,"Ġthinks":13440,"Disc":13441,"åº":13442,"Ġfacial":13443,"Group":13444,"Ġtensorflow":13445,"Ġassociations":13446,"ĠNotes":13447,"ĠCDC":13448,"Ġbark":13449,"ikes":13450,"Ġabroad":13451,"ĠConsequently":13452,"Content":13453,"ĠTrack":13454,"Ġprogression":13455,"Ġamid":13456,"ĠNig":13457,"Ġconvention":13458,"Ġshopping":13459,"ĠAssessment":13460,"iors":13461,"Sw":13462,"Ġcoral":13463,"Ġeconomies":13464,"Ġphrases":13465,"posed":13466,"ĠMP":13467,"Ġinherit":13468,"Ġcrossing":13469,"Ġbench":13470,"Ġstaying":13471,"Ġpap":13472,"Course":13473,"ĠUnless":13474,"chemy":13475,"Ġinfluenza":13476,"Dataset":13477,"eman":13478,"Ġprecious":13479,"Ġnovels":13480,"Ġreligions":13481,"Ġtransp":13482,"acre":13483,"Ġsubmitted":13484,"Ġservers":13485,"Ġsustained":13486,"Ġpest":13487,"ĠVideo":13488,"adequ":13489,"ĠBah":13490,"pix":13491,"Ġinver":13492,"summary":13493,"Ġcontrary":13494,"Ġpresidential":13495,"ĠCru":13496,"Ġtransplant":13497,"Ġnerves":13498,"OM":13499,"Ġnursing":13500,"uuid":13501,"ĠSingapore":13502,"Ġdreams":13503,"Ġadmitted":13504,"Ġreleases":13505,"Ġexplos":13506,"ĠEthiop":13507,"ĠSleep":13508,"atories":13509,"Ġcalculation":13510,"Ġcasual":13511,"Inst":13512,"Ġinterrupt":13513,"ĠSimple":13514,"ĠConserv":13515,"ĠEvolution":13516,"ĠGallery":13517,"Ġadvers":13518,"efits":13519,"ĠLiving":13520,"Ġflooding":13521,"Ġmeanings":13522,"rels":13523,"ĠPeriod":13524,"vo":13525,"Ġexpenses":13526,"ardo":13527,"ãĢĤ":13528,"Ġpreserving":13529,"reatment":13530,"ĠBeaut":13531,"Ġconsisted":13532,"ĠGrant":13533,"Ġverte":13534,"Ġshade":13535,"Ġtherapies":13536,"ĠQur":13537,"Mark":13538,"eared":13539,"Ġscheduled":13540,"lam":13541,"tol":13542,"ĊĠĠĠĠĠĠĠĠĠĠĠĠĠĠĠĠĠĠĠĠĠĠĠĠĠ":13543,"prop":13544,"Ġneighbour":13545,"Ġdisappear":13546,"Ġdeclined":13547,"Ġaffordable":13548,"Ġpublish":13549,"ocker":13550,"ĠÃĹ":13551,"osevelt":13552,"Ġcro":13553,"Ġbold":13554,"ĠMeanwhile":13555,"ĠVisual":13556,"ĠTalk":13557,"Ġentertainment":13558,"Ġinspire":13559,"Ġexclusively":13560,"Ġloans":13561,"scores":13562,"Bas":13563,"ropriate":13564,"Ġshifts":13565,"Ġfootprint":13566,"ĠChile":13567,"ĠFem":13568,"Ġelectrom":13569,"school":13570,"Ġrealistic":13571,"Ġdrum":13572,"Ä±":13573,"ilty":13574,"Ġassumption":13575,"Ġphysic":13576,"Ġnewspapers":13577,"Ġwealthy":13578,"Ġnu":13579,"Ġreserves":13580,"urated":13581,".-":13582,"mu":13583,"Ġindicators":13584,"Ġconsensus":13585,"iel":13586,"à¦":13587,"128":13588,"Ġfirms":13589,"Ġcarbohydrates":13590,"illery":13591,"ĠMagn":13592,"Ġdefects":13593,"Ġtelescope":13594,"ugg":13595,"Ġbrick":13596,"ogg":13597,"Ġafraid":13598,"La":13599,"filled":13600,"ĠBio":13601,"osynt":13602,"Ġ],":13603,"rage":13604,"Ġorganize":13605,"Ġjoining":13606,"ĠIndustrial":13607,"Ġsubstr":13608,"Ġtokens":13609,"ĠWorking":13610,"Ġhardly":13611,"Ġpayments":13612,"Ġbriefly":13613,"TV":13614,"Ġdetermines":13615,"Ġfloating":13616,"ĠFreder":13617,"ĠSolution":13618,"ĠResource":13619,"ĠHTTP":13620,"ĠRelations":13621,"ĠCirc":13622,"ĠCass":13623,"ĠBot":13624,"ĠCab":13625,"ĠHunt":13626,"cp":13627,"ĠChoose":13628,")|":13629,"Ġmutation":13630,"ĠTennessee":13631,"lob":13632,"Ġfest":13633,"ocaust":13634,"emed":13635,"isible":13636,"Ġtremend":13637,"Ġacquisition":13638,"Ġsearc":13639,"Status":13640,"Ġseats":13641,"ĠGDP":13642,"mill":13643,"Ġstorms":13644,"Ġpractitioners":13645,"ĠElement":13646,"Ġanswered":13647,"Ġtoxins":13648,"ĠRisk":13649,"ĠSpecies":13650,"oscow":13651,"ĠNich":13652,"Ġ1947":13653,"Ġkilomet":13654,"SIZE":13655,"Ġpoorly":13656,"Ġsatellites":13657,"Ġsuspected":13658,"iser":13659,"Ġspelling":13660,"ilibrium":13661,"ĠMun":13662,"Ġgenetics":13663,"Ġapple":13664,"rophic":13665,"ĠInput":13666,"ĠSite":13667,"berries":13668,"ĠClinical":13669,"Ġprovisions":13670,"liter":13671,"Ġmargin":13672,"ĠStandards":13673,"ĠTurkish":13674,"Top":13675,"ĠRon":13676,"Ġreproduction":13677,"Ġcondem":13678,"ĠDrug":13679,"imeter":13680,"Ġoverse":13681,"ĠMission":13682,"created":13683,"Ġtale":13684,"Ġcombust":13685,"Ġ57":13686,"Ġchat":13687,"Ġinterpreted":13688,"Ġshadow":13689,"Ġadministered":13690,"som":13691,"Ġkeras":13692,"reens":13693,"Ġrequested":13694,"Ġoccurrence":13695,"Ġrepeatedly":13696,"Ġcontracts":13697,"Does":13698,"Ġtoile":13699,"Ġsou":13700,"Ġpenal":13701,"Ġmodes":13702,"ĠDiego":13703,"Ġna":13704,"Ġsorts":13705,"ĠPoly":13706,"HOUT":13707,"ĠRecord":13708,"ĠBlock":13709,"ito":13710,"Ġdoctrine":13711,"isl":13712,"Ġlunch":13713,"writing":13714,"incial":13715,"åĬ":13716,"Ġlandscapes":13717,"ishers":13718,"ä¸ª":13719,"ushes":13720,"Ġleague":13721,"Ġimpression":13722,"angers":13723,"arten":13724,"Ġintervals":13725,"ĠMas":13726,"ĠCert":13727,"Ġalgae":13728,"Ġenters":13729,"Ġindoor":13730,"GBT":13731,"Ġbelongs":13732,")}":13733,"Ġwireless":13734,"ĠSwitzerland":13735,"MD":13736,"Ġtunnel":13737,"Ġhandler":13738,"osex":13739,"Ġfollowers":13740,"Ġfilling":13741,"ĠPear":13742,"ĠClark":13743,"pk":13744,"Ġbrilli":13745,"ĠTreaty":13746,"Ġlying":13747,"Ġflags":13748,"Ġgaining":13749,"Å«":13750,"Ġdiscomfort":13751,"Ġboards":13752,"ĠSi":13753,"avy":13754,"ĠBegin":13755,"ĠIce":13756,"eping":13757,"Ġacknowledge":13758,"eu":13759,"ĠTyp":13760,"Ġlisting":13761,"ĠFive":13762,"Ġoxid":13763,"ndarray":13764,"Ġcher":13765,"tick":13766,"ĠCollection":13767,"Ġedited":13768,"ĠSimon":13769,"ĠArmen":13770,"Ġskilled":13771,"Ġdescriptions":13772,"MC":13773,"edges":13774,"Ġadolescents":13775,"analysis":13776,"Ġfertility":13777,"Ġphases":13778,"viously":13779,"Home":13780,"ĠBeach":13781,"bool":13782,"Ġprotocols":13783,"Result":13784,"Ġappet":13785,"clear":13786,"Ġswallow":13787,"Ġpackages":13788,"ĠLive":13789,"anny":13790,"Ġcategor":13791,"Ġ1914":13792,"Ġdesigners":13793,"Ġrefrig":13794,"restrial":13795,"Ġpassengers":13796,"Ġ%(":13797,"Second":13798,"Ġperipher":13799,"GA":13800,"Ġurllib":13801,"Ġpulled":13802,"Var":13803,"Ġcompression":13804,"Mean":13805,"Ġanniversary":13806,"Ġdens":13807,"ĠOlympic":13808,"pective":13809,"Ġgland":13810,"Ġdeadly":13811,"ĠRenaissance":13812,"ĠMu":13813,"Ġincredibly":13814,"Ġbladder":13815,"Ġbugs":13816,"Ġcomprehension":13817,"makers":13818,"Ġnucleus":13819,"ĠCE":13820,"Ġdinner":13821,"ĠQueens":13822,"letion":13823,"Tree":13824,"Ġmounted":13825,"Ġenhancing":13826,"ĠLiterature":13827,"Ġmainstream":13828,"ĠAffairs":13829,"mac":13830,"Ġautomatic":13831,"Black":13832,"Ġwellbeing":13833,"gate":13834,"Ġremed":13835,"present":13836,"ĠBishop":13837,"ĠPhilip":13838,"isphere":13839,"Ġ1917":13840,"Ġmerge":13841,"ĠADHD":13842,"quire":13843,"lications":13844,"asting":13845,"+\"":13846,"Ġlig":13847,"exception":13848,"Following":13849,"ĠChris":13850,"ĠAllah":13851,"ĠBuddhist":13852,"Ġchecked":13853,"ĠStaff":13854,"Ġsoap":13855,"Ġlimiting":13856,"ĠProvince":13857,"Ġwashing":13858,"ĠJupiter":13859,"Ùħ":13860,"Ġseeks":13861,"Ġconsiderations":13862,"Ġhills":13863,"Ġpackaging":13864,"Ġpests":13865,"ĠSyria":13866,"Ġcope":13867,"Ġpresum":13868,"Ġexplicitly":13869,"agu":13870,"DIT":13871,"Ġfake":13872,"Ġlongest":13873,"Ġstruggles":13874,"Ġsel":13875,"Ġproc":13876,"ĠOd":13877,"metry":13878,"Ġric":13879,"ĠArk":13880,"Ġinsu":13881,"cross":13882,"SQL":13883,"scill":13884,"History":13885,"Ġspecimens":13886,"ĠWhit":13887,"Ġcompete":13888,"Ġunnecessary":13889,"ĠFox":13890,"Ġsenses":13891,"variable":13892,"Ġps":13893,"Ġbes":13894,"heres":13895,"ĠBehavior":13896,"sequence":13897,"ropolitan":13898,"(\"--":13899,"ĠFle":13900,"Download":13901,"cols":13902,"Ġseverely":13903,"Ġrescue":13904,"Ġsphere":13905,"Ġparish":13906,"Pol":13907,"Ġreven":13908,"Ġmacro":13909,"ĠAnswer":13910,"Ġcoordinate":13911,"Ġcounties":13912,"ĠHarry":13913,"Ġhistorically":13914,"uble":13915,"convert":13916,"Ġcorruption":13917,"------------------------":13918,"DC":13919,",âĢĻ":13920,"ĠPresent":13921,"custom":13922,"ĠFROM":13923,"Ġhind":13924,"Ġoperates":13925,"quired":13926,"osaurs":13927,"Ġextraction":13928,"Pass":13929,"Ġinclusive":13930,"Ġnineteenth":13931,"Remember":13932,"ĠSports":13933,"correct":13934,"ĠHispan":13935,"Ġpride":13936,"ĠHamilton":13937,"Ġrepublic":13938,"Ġobsc":13939,"Enc":13940,"ĠSug":13941,"pars":13942,"ĠBrig":13943,"entral":13944,"Enter":13945,"hu":13946,"frac":13947,"Ġhunger":13948,"Ġgeographical":13949,"country":13950,"Ġstuck":13951,"forming":13952,"Ġrats":13953,"Ġtired":13954,"Ġvapor":13955,"Button":13956,"Ġwhilst":13957,"ogene":13958,"Ġcooked":13959,"Ġrises":13960,"Ġimagery":13961,"stan":13962,"ĠEric":13963,"hops":13964,"Ġtelephone":13965,"Ġweld":13966,"reader":13967,"Ġworlds":13968,"Ġ180":13969,"Ġderiv":13970,"Ġdenied":13971,"Ġobstacles":13972,"hematic":13973,"atar":13974,"Ġprescription":13975,"ĠBarb":13976,"Ġprevalent":13977,"atherine":13978,"Her":13979,"blue":13980,"four":13981,"Ġincl":13982,"irical":13983,"uty":13984,"ĠOil":13985,"redu":13986,"ĠKhan":13987,"ĊĠĠĠĠĠĠĠĠĠĠĠĠĠĠĠĠĠĠĠĠĠĠ":13988,"ĠClear":13989,"fa":13990,"Ġions":13991,"Ġembark":13992,"ĠDefense":13993,"Ġdangers":13994,"Ġ((":13995,"Ġtravels":13996,"Ġunemployment":13997,"Ġsperm":13998,"ĠKy":13999,"Ġgraphics":14000,"Ġrecovered":14001,"?)":14002,"antine":14003,"Ġbasics":14004,"ĠPil":14005,"Ġmomentum":14006,"Ġkings":14007,"Graph":14008,"addr":14009,"ĠEle":14010,"Ġflowing":14011,"ĠLawrence":14012,"ĠAth":14013,"ĠBAS":14014,"Ġresponded":14015,"Ġvariant":14016,"ĠĠĠĠĠĠĠĠĠĠĠĠĠĠĠĠĠĠĠĠĠĠĠĠĠĠĠĠĠĠ":14017,"iative":14018,"Ġexert":14019,"Ġgenetically":14020,"æĹ":14021,"GER":14022,"will":14023,"Ġdiarrhea":14024,"Ġwhites":14025,"Ġrival":14026,"bian":14027,"Ġimplant":14028,"Ġresidence":14029,"Ġblo":14030,"ĠPsychology":14031,"ĠGuid":14032,"Ġkit":14033,"ĠLouisiana":14034,"Though":14035,"Ġslide":14036,"generator":14037,"ĠStatistics":14038,"Ġsyll":14039,"ĠBeng":14040,":\\":14041,"Ġafternoon":14042,"aza":14043,"Head":14044,"Ġbor":14045,"wich":14046,"ĠToronto":14047,"entially":14048,"tail":14049,"Ġintermediate":14050,"abilitation":14051,"iplinary":14052,"ĠFA":14053,"Ġcontroller":14054,"Ġviewing":14055,"arity":14056,"Ġpotatoes":14057,"mk":14058,"ĠComment":14059,"ĠPersian":14060,"ĠPack":14061,"1999":14062,"({'":14063,"Ġchips":14064,"Ġcoordination":14065,"ĠMarket":14066,"_(":14067,"vised":14068,"Ġloads":14069,"fixture":14070,"Ġannounce":14071,"Ġboats":14072,"Ġteachings":14073,"ctx":14074,"Ġdivor":14075,"Ġcollaborative":14076,"Ġobserving":14077,"ournals":14078,"icked":14079,"\";":14080,"Ġpassive":14081,"Ġchapters":14082,"ĠCollect":14083,"ĠContact":14084,"ĠCL":14085,"named":14086,"Ġmechanics":14087,"Ġ66":14088,"ÙĨ":14089,"ĠJordan":14090,"ĠAdams":14091,"åĩ":14092,"Ġreceptor":14093,"etheless":14094,"ĠImperial":14095,"Ġworkshop":14096,"Ġpathway":14097,"Element":14098,"itational":14099,"Ġelevation":14100,"AY":14101,"ĠDepression":14102,"Ġaluminum":14103,"ĠMember":14104,"Ġgovernance":14105,"Sur":14106,"Ġtech":14107,"ighters":14108,"Ġmarch":14109,"Ġstiff":14110,"ĠDemocr":14111,"inced":14112,"CTION":14113,"âĢĿ)":14114,"Children":14115,"Token":14116,"ĠHou":14117,"Ġyard":14118,"minute":14119,"Ġmercury":14120,"Ġdt":14121,"ĠAlab":14122,"ĠRoosevelt":14123,"Pres":14124,"apply":14125,"eted":14126,"ĠTeachers":14127,"Ġwarnings":14128,"Ġ')":14129,"ĠYellow":14130,"Which":14131,"rup":14132,"Ġsymptom":14133,"Ġmembership":14134,"Ġgym":14135,"timeout":14136,"ĠIndiana":14137,"sky":14138,"tz":14139,"Ġstrengths":14140,"Ġconsol":14141,"Ġpalm":14142,"jamin":14143,"Ġsimilarities":14144,"Ġexpense":14145,"rish":14146,"ochond":14147,"Ġconsec":14148,"><":14149,"ĠRap":14150,"ĠAfghanistan":14151,"Ġdentist":14152,"Ġende":14153,"Ġmalaria":14154,"Ġtimeout":14155,"Ġrings":14156,"Ġadvocate":14157,"emics":14158,"Ġharmony":14159,"Ġprosec":14160,"ĠMachine":14161,"Did":14162,"Ġheaded":14163,"ĠMoscow":14164,"region":14165,"ĠEns":14166,"ĠSequ":14167,"ĠAmendment":14168,"ĠIndependence":14169,"ĠDur":14170,"Ġpressures":14171,"ĠMong":14172,"Common":14173,"Ġassessed":14174,"Ġguided":14175,"ĠMental":14176,"ĠPi":14177,"ĠUl":14178,"ĠMuhammad":14179,"ocate":14180,"turn":14181,"ĠRain":14182,"ĠWalter":14183,"Ġinvestigated":14184,"azy":14185,"ĠHun":14186,"Ġbeer":14187,"ĠArist":14188,"ĠHug":14189,"iller":14190,"riving":14191,"BL":14192,"oult":14193,"ĠMagazine":14194,"Ġglobally":14195,"roach":14196,"Ġdepartments":14197,"ĠSP":14198,"rl":14199,"tics":14200,"units":14201,"Ġpromotion":14202,"Ġvoters":14203,"orious":14204,"Ġclosing":14205,"comm":14206,"ĠMaking":14207,"Ġgamma":14208,"Ġgrey":14209,"Ġdistur":14210,"ĠRoc":14211,"rapper":14212,"Ġattending":14213,"Ġbars":14214,"piece":14215,"ĠReply":14216,"ĠChemical":14217,"ramid":14218,"cluster":14219,"Ġequity":14220,"arring":14221,"Ġ58":14222,"Ġcounting":14223,"Ġpublicly":14224,"Ġnotably":14225,"ĠAges":14226,"ĠOt":14227,"Ġbell":14228,"memory":14229,"Ġties":14230,"Ġinitiated":14231,"Ġselecting":14232,"Ġmanufactured":14233,"ods":14234,"inely":14235,"arium":14236,"Only":14237,"ĠEV":14238,"Oct":14239,
[...]
