{
  "version": "1.0",
  "truncation": null,
  "padding": null,
  "added_tokens": [
    {
      "id": 0,
      "content": "[PAD]",
      "single_word": false,
      "lstrip": false,
      "rstrip": false,
      "normalized": false,
      "special": true
    },
    {
      "id": 1,
      "content": "[UNK]",
      "single_word": false,
      "lstrip": false,
      "rstrip": false,
      "normalized": false,
      "special": true
    },
    {
      "id": 2,
      "content": "[BOS]",
      "single_word": false,
      "lstrip": false,
      "rstrip": false,
      "normalized": false,
      "special": true
    },
    {
      "id": 3,
      "content": "[EOS]",
      "single_word": false,
      "lstrip": false,
      "rstrip": false,
      "normalized": false,
      "special": true
    }
  ],
  "normalizer": {
    "type": "NFKC"
  },
  "pre_tokenizer": {
    "type": "ByteLevel",
    "add_prefix_space": false,
    "trim_offsets": true,
    "use_regex": true
  },
  "post_processor": null,
  "decoder": {
    "type": "ByteLevel",
    "add_prefix_space": true,
    "trim_offsets": true,
    "use_regex": true
  },
  "model": {
    "type": "BPE",
    "dropout": null,
    "unk_token": "[UNK]",
    "continuing_subword_prefix": null,
    "end_of_word_suffix": null,
    "fuse_unk": false,
    "byte_fallback": false,
    "ignore_merges": false,
    "vocab": {
      "[PAD]": 0,
      "[UNK]": 1,
      "[BOS]": 2,
      "[EOS]": 3,
      "!": 4,
      "\"": 5,
      "#": 6,
      "$": 7,
      "%": 8,
      "&": 9,
      "'": 10,
      "(": 11,
      ")": 12,
      "*": 13,
      "+": 14,
      ",": 15,
      "-": 16,
      ".": 17,
      "/": 18,
      "0": 19,
      "1": 20,
      "2": 21,
      "3": 22,
      "4": 23,
      "5": 24,
      "6": 25,
      "7": 26,
      "8": 27,
      "9": 28,
      ":": 29,
      ";": 30,
      "<": 31,
      "=": 32,
      ">": 33,
      "?": 34,
      "@": 35,
      "A": 36,
      "B": 37,
      "C": 38,
      "D": 39,
      "E": 40,
      "F": 41,
      "G": 42,
      "H": 43,
      "I": 44,
      "J": 45,
      "K": 46,
      "L": 47,
      "M": 48,
      "N": 49,
      "O": 50,
      "P": 51,
      "Q": 52,
      "R": 53,
      "S": 54,
      "T": 55,
      "U": 56,
      "V": 57,
      "W": 58,
      "X": 59,
      "Y": 60,
      "Z": 61,
      "[": 62,
      "\\": 63,
      "]": 64,
      "^": 65,
      "_": 66,
      "`": 67,
      "a": 68,
      "b": 69,
      "c": 70,
      "d": 71,
      "e": 72,
      "f": 73,
      "g": 74,
      "h": 75,
      "i": 76,
      "j": 77,
      "k": 78,
      "l": 79,
      "m": 80,
      "n": 81,
      "o": 82,
      "p": 83,
      "q": 84,
      "r": 85,
      "s": 86,
      "t": 87,
      "u": 88,
      "v": 89,
      "w": 90,
      "x": 91,
      "y": 92,
      "z": 93,
      "{": 94,
      "|": 95,
      "}": 96,
      "~": 97,
      "¡": 98,
      "¢": 99,
      "£": 100,
      "¤": 101,
      "¥": 102,
      "¦": 103,
      "§": 104,
      "¨": 105,
      "©": 106,
      "ª": 107,
      "«": 108,
      "¬": 109,
      "®": 110,
      "¯": 111,
      "°": 112,
      "±": 113,
      "²": 114,
      "³": 115,
      "´": 116,
      "µ": 117,
      "¶": 118,
      "·": 119,
      "¸": 120,
      "¹": 121,
      "º": 122,
      "»": 123,
      "¼": 124,
      "½": 125,
      "¾": 126,
      "¿": 127,
      "À": 128,
      "Á": 129,
      "Â": 130,
      "Ã": 131,
      "Ä": 132,
      "Å": 133,
      "Æ": 134,
      "Ç": 135,
      "È": 136,
      "É": 137,
      "Ê": 138,
      "Ë": 139,
      "Ì": 140,
      "Í": 141,
      "Î": 142,
      "Ï": 143,
      "Ð": 144,
      "Ñ": 145,
      "Ò": 146,
      "Ó": 147,
      "Ô": 148,
      "Õ": 149,
      "Ö": 150,
      "×": 151,
      "Ø": 152,
      "Ù": 153,
      "Ú": 154,
      "Û": 155,
      "Ü": 156,
      "Ý": 157,
      "Þ": 158,
      "ß": 159,
      "à": 160,
      "á": 161,
      "â": 162,
      "ã": 163,
      "ä": 164,
      "å": 165,
      "æ": 166,
      "ç": 167,
      "è": 168,
      "é": 169,
      "ê": 170,
      "ë": 171,
      "ì": 172,
      "í": 173,
      "î": 174,
      "ï": 175,
      "ð": 176,
      "ñ": 177,
      "ò": 178,
      "ó": 179,
      "ô": 180,
      "õ": 181,
      "ö": 182,
      "÷": 183,
      "ø": 184,
      "ù": 185,
      "ú": 186,
      "û": 187,
      "ü": 188,
      "ý": 189,
      "þ": 190,
      "ÿ": 191,
      "Ā": 192,
      "ā": 193,
      "Ă": 194,
      "ă": 195,
      "Ą": 196,
      "ą": 197,
      "Ć": 198,
      "ć": 199,
      "Ĉ": 200,
      "ĉ": 201,
      "Ċ": 202,
      "ċ": 203,
      "Č": 204,
      "č": 205,
      "Ď": 206,
      "ď": 207,
      "Đ": 208,
      "đ": 209,
      "Ē": 210,
      "ē": 211,
      "Ĕ": 212,
      "ĕ": 213,
      "Ė": 214,
      "ė": 215,
      "Ę": 216,
      "ę": 217,
      "Ě": 218,
      "ě": 219,
      "Ĝ": 220,
      "ĝ": 221,
      "Ğ": 222,
      "ğ": 223,
      "Ġ": 224,
      "ġ": 225,
      "Ģ": 226,
      "ģ": 227,
      "Ĥ": 228,
      "ĥ": 229,
      "Ħ": 230,
      "ħ": 231,
      "Ĩ": 232,
      "ĩ": 233,
      "Ī": 234,
      "ī": 235,
      "Ĭ": 236,
      "ĭ": 237,
      "Į": 238,
      "į": 239,
      "İ": 240,
      "ı": 241,
      "Ĳ": 242,
      "ĳ": 243,
      "Ĵ": 244,
      "ĵ": 245,
      "Ķ": 246,
      "ķ": 247,
      "ĸ": 248,
      "Ĺ": 249,
      "ĺ": 250,
      "Ļ": 251,
      "ļ": 252,
      "Ľ": 253,
      "ľ": 254,
      "Ŀ": 255,
      "ŀ": 256,
      "Ł": 257,
      "ł": 258,
      "Ń": 259,
      "ĠĠ": 260,
      "Ġt": 261,
      "in": 262,
      "Ġa": 263,
      "he": 264,
      "ĠĠĠĠ": 265,
      "re": 266,
      "on": 267,
      "er": 268,
      "Ġthe": 269,
      "at": 270,
      "Ġs": 271,
      "or": 272,
      "en": 273,
      "es": 274,
      "Ġo": 275,
      "Ġc": 276,
      "is": 277,
      "an": 278,
      "it": 279,
      "Ġw": 280,
      "al": 281,
      "Ġp": 282,
      "ed": 283,
      "Ġf": 284,
      "ar": 285,
      "Ġb": 286,
      "Ġan": 287,
      "Ġof": 288,
      "Ġin": 289,
      "ing": 290,
      "ĠĠĠ": 291,
      "ion": 292,
      "ou": 293,
      "Ġd": 294,
      "ic": 295,
      "Ġm": 296,
      "el": 297,
      "Ġand": 298,
      "Ġto": 299,
      "as": 300,
      "ro": 301,
      "le": 302,
      "ĠĠĠĠĠĠĠĠ": 303,
      "ent": 304,
      "Ġh": 305,
      "Ġre": 306,
      "ct": 307,
      "et": 308,
      "st": 309,
      "Ġth": 310,
      "Ġn": 311,
      "il": 312,
      "om": 313,
      "Ġl": 314,
      "im": 315,
      "Ġe": 316,
      "ĠĠĠĠĠĠĠ": 317,
      "am": 318,
      "ol": 319,
      "id": 320,
      "ĠT": 321,
      "ut": 322,
      "ur": 323,
      "se": 324,
      "ation": 325,
      "ot": 326,
      "ve": 327,
      "ce": 328,
      "Ġg": 329,
      "Ġis": 330,
      "ĊĠĠĠĠĠĠĠ": 331,
      "ig": 332,
      "Ġ=": 333,
      "ch": 334,
      "ad": 335,
      "ĠS": 336,
      "ly": 337,
      "ĠA": 338,
      "Ġfor": 339,
      "ow": 340,
      "ĊĠĠĠĠĠĠĠĠ": 341,
      "Ġbe": 342,
      "ĠC": 343,
      "Ġu": 344,
      "ver": 345,
      "ĊĠĠĠ": 346,
      "ra": 347,
      "Ġst": 348,
      "ul": 349,
      "if": 350,
      "Ġon": 351,
      "ir": 352,
      "Ġ(": 353,
      "Ġ1": 354,
      "od": 355,
      "ĠI": 356,
      "Ġthat": 357,
      "ay": 358,
      "Ġas": 359,
      "Ġ\"": 360,
      "ith": 361,
      "um": 362,
      "ist": 363,
      "Ġcon": 364,
      "elf": 365,
      "her": 366,
      "ge": 367,
      "ĠM": 368,
      "est": 369,
      "Ġde": 370,
      "Ġy": 371,
      "Ġpro": 372,
      "ate": 373,
      "Ġwith": 374,
      "pe": 375,
      "ter": 376,
      "ĠP": 377,
      "nd": 378,
      "ort": 379,
      "ab": 380,
      "qu": 381,
      "ĠThe": 382,
      "Ġit": 383,
      "Ġal": 384,
      "res": 385,
      "Ġwh": 386,
      "em": 387,
      "Ġor": 388,
      "ĠB": 389,
      "ri": 390,
      "ers": 391,
      "and": 392,
      "rom": 393,
      "us": 394,
      "Ġare": 395,
      "ac": 396,
      "op": 397,
      "os": 398,
      "Ġex": 399,
      "Ġv": 400,
      "th": 401,
      "ect": 402,
      "ess": 403,
      "ĠH": 404,
      "un": 405,
      "Ġhe": 406,
      "--": 407,
      "ĠN": 408,
      "Ġ2": 409,
      "oc": 410,
      "Ġwe": 411,
      "Ġcom": 412,
      "Ġr": 413,
      "ore": 414,
      "'s": 415,
      "ĊĠĠĠĠĠĠĠĠĠĠĠ": 416,
      "nt": 417,
      "Ġwas": 418,
      "Ġby": 419,
      "ill": 420,
      "ĠD": 421,
      "pp": 422,
      "ĠR": 423,
      "ity": 424,
      "ment": 425,
      "ĠF": 426,
      "ain": 427,
      "ke": 428,
      "00": 429,
      "ies": 430,
      "ĠW": 431,
      "iv": 432,
      "our": 433,
      "igh": 434,
      "Ġat": 435,
      "ld": 436,
      "ĠE": 437,
      "Ġsu": 438,
      "ame": 439,
      "ĠL": 440,
      "ant": 441,
      "Ġself": 442,
      "pt": 443,
      "Ġfrom": 444,
      "art": 445,
      "Ġ'": 446,
      "ĠG": 447,
      "pl": 448,
      "og": 449,
      "ive": 450,
      "ud": 451,
      "ew": 452,
      "Ġnot": 453,
      "all": 454,
      "end": 455,
      "red": 456,
      "Ġse": 457,
      "Ġch": 458,
      "ial": 459,
      "ave": 460,
      "imp": 461,
      "ue": 462,
      "ag": 463,
      "):": 464,
      "iz": 465,
      "ine": 466,
      "ight": 467,
      "out": 468,
      "cl": 469,
      "ions": 470,
      "ical": 471,
      "Ġle": 472,
      "ure": 473,
      "ass": 474,
      "age": 475,
      "ex": 476,
      "rou": 477,
      "Ġsh": 478,
      "ult": 479,
      "per": 480,
      "ĠO": 481,
      "Ġthis": 482,
      "Ġcan": 483,
      "ard": 484,
      "orm": 485,
      "Ġyou": 486,
      "ated": 487,
      "ich": 488,
      "##": 489,
      "Ġif": 490,
      "Ġhave": 491,
      "self": 492,
      "ost": 493,
      "Ġint": 494,
      "ĠJ": 495,
      "ust": 496,
      "ans": 497,
      "Ġpl": 498,
      "int": 499,
      "Ġus": 500,
      "gh": 501,
      "ould": 502,
      "ell": 503,
      "),": 504,
      "act": 505,
      "one": 506,
      "ĠU": 507,
      "ff": 508,
      "The": 509,
      "ther": 510,
      "Ġab": 511,
      "urn": 512,
      "ast": 513,
      "Ġres": 514,
      "Ġ19": 515,
      "ap": 516,
      "ord": 517,
      "ip": 518,
      "ile": 519,
      "Ġk": 520,
      "ide": 521,
      "ber": 522,
      "ome": 523,
      "ind": 524,
      "ear": 525,
      "con": 526,
      "Ġimp": 527,
      "Ġwhe": 528,
      "ak": 529,
      "Ġen": 530,
      "ary": 531,
      "Ġcont": 532,
      "ime": 533,
      "ations": 534,
      "ĠIn": 535,
      "Ġwhich": 536,
      "Ġ#": 537,
      "Ġdef": 538,
      "cc": 539,
      "ĊĠĠĠĠĠĠĠĠĠĠĠĠĠĠĠĠ": 540,
      "ath": 541,
      "ong": 542,
      "ep": 543,
      "able": 544,
      "Ġall": 545,
      "ry": 546,
      "ous": 547,
      "Ġcomp": 548,
      "Ġad": 549,
      "Ġcl": 550,
      "()": 551,
      "Ġ-": 552,
      "Ġtheir": 553,
      "ib": 554,
      "ĊĊĠĠĠ": 555,
      "ack": 556,
      "ata": 557,
      "ork": 558,
      "du": 559,
      "ia": 560,
      "',": 561,
      "âĢ": 562,
      "ents": 563,
      "are": 564,
      "ub": 565,
      "ok": 566,
      "av": 567,
      "ere": 568,
      "Ġar": 569,
      "ction": 570,
      "ase": 571,
      "ance": 572,
      ").": 573,
      "Ġret": 574,
      "Ġdis": 575,
      "ice": 576,
      "----": 577,
      "Ġhas": 578,
      "ĊĠĠĠĠĠĠĠĠĠĠĠĠĠĠĠ": 579,
      "ef": 580,
      "Ġthey": 581,
      "ign": 582,
      "ount": 583,
      "form": 584,
      "Ġel": 585,
      "Ġwere": 586,
      "ence": 587,
      "ĠTh": 588,
      "ru": 589,
      "lo": 590,
      "Ġj": 591,
      "ens": 592,
      "vel": 593,
      "Ġne": 594,
      "get": 595,
      "ach": 596,
      "ose": 597,
      "Ġout": 598,
      "ild": 599,
      "ual": 600,
      "Ġwill": 601,
      "ater": 602,
      "ace": 603,
      "ress": 604,
      "\"\"": 605,
      "ict": 606,
      "ang": 607,
      "Ġper": 608,
      "ĠSt": 609,
      "Ġhis": 610,
      "Ġmore": 611,
      "so": 612,
      "Ġother": 613,
      "Ġbut": 614,
      "ire": 615,
      "Ġun": 616,
      "ition": 617,
      "ory": 618,
      "Ġone": 619,
      "Ġdo": 620,
      "ĠK": 621,
      "Ġreturn": 622,
      "Ġman": 623,
      "ite": 624,
      "ert": 625,
      "__": 626,
      "Ġme": 627,
      "Ġsc": 628,
      "ound": 629,
      "ject": 630,
      "Ġgo": 631,
      "Ġtr": 632,
      "ors": 633,
      "\",": 634,
      "ext": 635,
      "au": 636,
      "Ġ3": 637,
      "ely": 638,
      "ake": 639,
      "ish": 640,
      "Ġsp": 641,
      "ph": 642,
      "Ġ0": 643,
      "Ġev": 644,
      "Ġpart": 645,
      "ail": 646,
      "Ġ+": 647,
      "==": 648,
      "Ġso": 649,
      "ces": 650,
      "Ġ[": 651,
      "own": 652,
      "ates": 653,
      "pec": 654,
      "Ġimport": 655,
      "Ġup": 656,
      "ĠV": 657,
      "Ġalso": 658,
      "ian": 659,
      "vers": 660,
      "ty": 661,
      "ck": 662,
      "very": 663,
      "mer": 664,
      "ree": 665,
      "erv": 666,
      "ys": 667,
      "Ġwho": 668,
      "Ġyour": 669,
      "Ġpr": 670,
      "ĠCh": 671,
      "Ġabout": 672,
      "Ġro": 673,
      "..": 674,
      "low": 675,
      "com": 676,
      "ings": 677,
      "name": 678,
      "Ġapp": 679,
      "Ġnum": 680,
      "irst": 681,
      "Ġqu": 682,
      "Ġpre": 683,
      "nder": 684,
      "we": 685,
      "Ġits": 686,
      "))": 687,
      "Ġcol": 688,
      "Ġtime": 689,
      "reat": 690,
      "Ġli": 691,
      "amp": 692,
      "Ġsy": 693,
      "####": 694,
      "gr": 695,
      "Ġcomm": 696,
      "ook": 697,
      "ĠIt": 698,
      "Ġhad": 699,
      "01": 700,
      "wo": 701,
      "Ġthan": 702,
      "put": 703,
      "Ġind": 704,
      "iff": 705,
      "ool": 706,
      "Ġinto": 707,
      "ient": 708,
      "ms": 709,
      "arg": 710,
      "ĊĊ": 711,
      "Ġass": 712,
      "Ġwork": 713,
      "Ġstud": 714,
      "Ġthere": 715,
      "Ġyear": 716,
      "('": 717,
      "ie": 718,
      "Ġnew": 719,
      "ays": 720,
      "ove": 721,
      "Ġwhen": 722,
      "ob": 723,
      "rit": 724,
      "Ġ200": 725,
      "ĊĊĠĠĠĠĠĠĠ": 726,
      "ize": 727,
      "Ġmay": 728,
      "olog": 729,
      "cre": 730,
      "val": 731,
      "âĢĵ": 732,
      "Ġbeen": 733,
      "Ġte": 734,
      "ange": 735,
      "rib": 736,
      "hed": 737,
      "odel": 738,
      "Ġpe": 739,
      "eth": 740,
      ".\"": 741,
      "te": 742,
      "clud": 743,
      "Ġ$": 744,
      "ark": 745,
      "ough": 746,
      "app": 747,
      "Ġag": 748,
      "ick": 749,
      "ode": 750,
      "Ġsome": 751,
      "oint": 752,
      "ax": 753,
      "Ġkn": 754,
      "In": 755,
      "Ġbec": 756,
      "ĠY": 757,
      "Ġover": 758,
      "cess": 759,
      "Ġthese": 760,
      "Ġsa": 761,
      "les": 762,
      "Ġbet": 763,
      "Ġdes": 764,
      "cept": 765,
      "ll": 766,
      "row": 767,
      "ational": 768,
      "Ġob": 769,
      "ock": 770,
      "']": 771,
      "ific": 772,
      "rain": 773,
      "Ġval": 774,
      "Ġfirst": 775,
      "ĠHe": 776,
      "rough": 777,
      "ons": 778,
      "Ġrep": 779,
      "Ġthem": 780,
      "Ġunder": 781,
      "iel": 782,
      "ĠThis": 783,
      "old": 784,
      "ars": 785,
      "ener": 786,
      "Ġcons": 787,
      "ren": 788,
      "ari": 789,
      "ĠUn": 790,
      "Ġwould": 791,
      "Ġim": 792,
      "ise": 793,
      "Ġacc": 794,
      "Ġtwo": 795,
      "ally": 796,
      "Ġdiff": 797,
      "Ġ4": 798,
      "tern": 799,
      "Ġact": 800,
      "(\"": 801,
      "')": 802,
      "Ġrec": 803,
      "oss": 804,
      "iss": 805,
      "Ġhow": 806,
      "from": 807,
      "Ġno": 808,
      "ade": 809,
      "Ġrel": 810,
      "ov": 811,
      "Ġspec": 812,
      "ics": 813,
      "ield": 814,
      "str": 815,
      "fter": 816,
      "Ġuse": 817,
      "ne": 818,
      "ities": 819,
      "lic": 820,
      "Ġ\"\"\"": 821,
      "Ġstr": 822,
      "ft": 823,
      "ause": 824,
      "ople": 825,
      "stem": 826,
      "erm": 827,
      "Ġsub": 828,
      "Ġour": 829,
      "ink": 830,
      "['": 831,
      "':": 832,
      "Ġany": 833,
      "ied": 834,
      "Ġget": 835,
      "Ġ{": 836,
      "Ġinclud": 837,
      "par": 838,
      "Ġonly": 839,
      "ced": 840,
      "ood": 841,
      "Ġra": 842,
      "Ġ5": 843,
      "als": 844,
      "ps": 845,
      "ating": 846,
      "'t": 847,
      "ning": 848,
      "Ġoff": 849,
      "round": 850,
      "Ġmost": 851,
      "Ġprov": 852,
      "Ġadd": 853,
      "Ġset": 854,
      "ular": 855,
      "def": 856,
      "Ġsuch": 857,
      "Ġreg": 858,
      "oth": 859,
      "Ġco": 860,
      "Ġ==": 861,
      "up": 862,
      "ev": 863,
      "Ġ*": 864,
      "Ġtest": 865,
      "ĠĠĠĠĠĠĠĠĠĠĠĠĠĠĠĠ": 866,
      "pect": 867,
      "ative": 868,
      "ix": 869,
      "Ġdata": 870,
      "ng": 871,
      "pro": 872,
      "Ġam": 873,
      "Ġpeople": 874,
      "arch": 875,
      "Ġform": 876,
      "ble": 877,
      "ution": 878,
      "aw": 879,
      "ec": 880,
      "Ġprodu": 881,
      "Ġatt": 882,
      "uring": 883,
      "velop": 884,
      "Ġused": 885,
      "ures": 886,
      "Ġfe": 887,
      "Ġthrough": 888,
      "pon": 889,
      "Ġrem": 890,
      "ween": 891,
      "Ġx": 892,
      "ased": 893,
      "sh": 894,
      "Ġph": 895,
      "Ġher": 896,
      "Ġresult": 897,
      "path": 898,
      "ues": 899,
      "its": 900,
      "ont": 901,
      "Ġhel": 902,
      "\")": 903,
      "--------": 904,
      "Ġem": 905,
      "orld": 906,
      "ract": 907,
      "ss": 908,
      "Ġeff": 909,
      "Ġneed": 910,
      "hen": 911,
      "ric": 912,
      "Ġwhere": 913,
      "Ġmany": 914,
      "ful": 915,
      "Ġlike": 916,
      "data": 917,
      "ists": 918,
      "ible": 919,
      "Ġbetween": 920,
      "rue": 921,
      "Ġwhat": 922,
      "Ġty": 923,
      "cy": 924,
      "Ġ18": 925,
      "ily": 926,
      "ited": 927,
      "Ġsm": 928,
      "Ġchild": 929,
      "set": 930,
      "Ġexp": 931,
      "Ġ:": 932,
      "Ġrequ": 933,
      "Ġbu": 934,
      "],": 935,
      "hes": 936,
      "alth": 937,
      "Ġdiffere": 938,
      "ility": 939,
      "Ġcall": 940,
      "ious": 941,
      "ĊĠĠĠĠĠĠĠĠĠĠĠĠĠĠĠĠĠĠĠ": 942,
      "ments": 943,
      "ower": 944,
      "Ġpol": 945,
      "sc": 946,
      "ĉĉ": 947,
      "ident": 948,
      "Ġbl": 949,
      "Ġinv": 950,
      "Ġtrans": 951,
      "land": 952,
      "Ġsystem": 953,
      "Ġdist": 954,
      "19": 955,
      "Ġinf": 956,
      "Ġinter": 957,
      "Ġfun": 958,
      "key": 959,
      "ines": 960,
      ",\"": 961,
      "Ġsur": 962,
      "Ġmat": 963,
      "Ġ201": 964,
      "iew": 965,
      "Ġdevelop": 966,
      "to": 967,
      "meric": 968,
      "itt": 969,
      "resent": 970,
      "eg": 971,
      "ern": 972,
      "Ġyears": 973,
      "ĠNone": 974,
      "read": 975,
      "chool": 976,
      "pr": 977,
      "ample": 978,
      "wn": 979,
      "gan": 980,
      "._": 981,
      "Ġcould": 982,
      "ten": 983,
      "fore": 984,
      "Ġac": 985,
      "Ġshould": 986,
      "\":": 987,
      "Ġsaid": 988,
      "ever": 989,
      "Ġ\\": 990,
      "ĠâĢĵ": 991,
      "io": 992,
      "Ġnumber": 993,
      "Ġafter": 994,
      "Ġinst": 995,
      "hem": 996,
      "ward": 997,
      "Ġfound": 998,
      "Ġsupp": 999,
      "Ġthen": 1000,
      "âĢĶ": 1001,
      "ollow": 1002,
      "ife": 1003,
      "inal": 1004,
      "Ġhelp": 1005,
      "====": 1006,
      "ror": 1007,
      "ug": 1008,
      "ection": 1009,
      "Ġeach": 1010,
      "other": 1011,
      "Ġ6": 1012,
      "cent": 1013,
      "oy": 1014,
      "Ġfl": 1015,
      "Ġcount": 1016,
      "Ġcent": 1017,
      "import": 1018,
      "ivers": 1019,
      "ĠAmeric": 1020,
      "Ġgener": 1021,
      "Ġear": 1022,
      "Ġcur": 1023,
      "Ġshe": 1024,
      "ins": 1025,
      "Ġdet": 1026,
      "der": 1027,
      "formation": 1028,
      "uth": 1029,
      "Ġloc": 1030,
      "ams": 1031,
      "ages": 1032,
      "Ġvari": 1033,
      "Ġcre": 1034,
      "Ġed": 1035,
      "fig": 1036,
      "ature": 1037,
      "uch": 1038,
      "Ġend": 1039,
      "ants": 1040,
      "Ġext": 1041,
      "roup": 1042,
      "irect": 1043,
      "the": 1044,
      "ts": 1045,
      "uc": 1046,
      "Ġwell": 1047,
      "Ġequ": 1048,
      "oci": 1049,
      "ices": 1050,
      "ually": 1051,
      "class": 1052,
      "file": 1053,
      "ute": 1054,
      "eng": 1055,
      "Ġent": 1056,
      "ĠAr": 1057,
      "Ġref": 1058,
      "Ġhigh": 1059,
      "ince": 1060,
      "ĠPro": 1061,
      "Ġmake": 1062,
      "orn": 1063,
      "ruct": 1064,
      "ology": 1065,
      "ural": 1066,
      "ask": 1067,
      "ĠCom": 1068,
      "Ġwater": 1069,
      "ically": 1070,
      "Ġgr": 1071,
      "py": 1072,
      "Ġpub": 1073,
      "Th": 1074,
      "air": 1075,
      "raph": 1076,
      "type": 1077,
      "ĠAl": 1078,
      "ption": 1079,
      "Ġfollow": 1080,
      "eb": 1081,
      "Ġsign": 1082,
      "Ġprint": 1083,
      "imes": 1084,
      "Ġmodel": 1085,
      "000": 1086,
      "gy": 1087,
      "rent": 1088,
      "tt": 1089,
      "Ġrese": 1090,
      "Ġbecause": 1091,
      "ank": 1092,
      "son": 1093,
      "='": 1094,
      "nce": 1095,
      "co": 1096,
      "chn": 1097,
      "Ġfind": 1098,
      "Ġpoint": 1099,
      "Ġjust": 1100,
      "ier": 1101,
      "########": 1102,
      "Ġthose": 1103,
      "add": 1104,
      "ale": 1105,
      "Ġlong": 1106,
      "Ġelse": 1107,
      "Ġdifferent": 1108,
      "ĠThey": 1109,
      "vent": 1110,
      "Ġtra": 1111,
      "Ġname": 1112,
      "ism": 1113,
      "Ġvery": 1114,
      "ience": 1115,
      "ox": 1116,
      "Ġ199": 1117,
      "Ġknow": 1118,
      "cond": 1119,
      "atch": 1120,
      "Ġeven": 1121,
      "])": 1122,
      "ray": 1123,
      "att": 1124,
      "ized": 1125,
      "ethod": 1126,
      "Ġboth": 1127,
      "ann": 1128,
      "led": 1129,
      "alse": 1130,
      "bers": 1131,
      "pos": 1132,
      "Ġback": 1133,
      "Ġsame": 1134,
      "Ġpers": 1135,
      "ĠNew": 1136,
      "Ġsee": 1137,
      "ator": 1138,
      "Ġmin": 1139,
      "Ġbel": 1140,
      "ives": 1141,
      "Ġop": 1142,
      "Ġplay": 1143,
      "Ġstate": 1144,
      "Ġpar": 1145,
      "Ġdi": 1146,
      "aking": 1147,
      "Ġevery": 1148,
      "vern": 1149,
      "Ġwhile": 1150,
      "ather": 1151,
      "Ġfact": 1152,
      "ĠAn": 1153,
      "ape": 1154,
      ".,": 1155,
      "any": 1156,
      "Ġser": 1157,
      "ource": 1158,
      "ases": 1159,
      "arm": 1160,
      "10": 1161,
      "Ġdec": 1162,
      "Ġbeing": 1163,
      "Ġmade": 1164,
      "Ġworld": 1165,
      "ished": 1166,
      "Ġcar": 1167,
      "und": 1168,
      "Ġhim": 1169,
      "Ġinformation": 1170,
      "Ġ10": 1171,
      "min": 1172,
      "Ġclass": 1173,
      "Ġduring": 1174,
      "Ġ|": 1175,
      "St": 1176,
      "Ġsol": 1177,
      "Ġcomple": 1178,
      "Ġright": 1179,
      "Ġlist": 1180,
      "Ġpartic": 1181,
      "ull": 1182,
      "Ġincre": 1183,
      "Ġproble": 1184,
      "Ġmon": 1185,
      "Ġ7": 1186,
      "ired": 1187,
      "Ġagain": 1188,
      "Ġstart": 1189,
      "**": 1190,
      "Ġusing": 1191,
      "test": 1192,
      "ames": 1193,
      "Ġway": 1194,
      "Ġmed": 1195,
      "iron": 1196,
      "abel": 1197,
      "ting": 1198,
      "Ġap": 1199,
      "ness": 1200,
      "Ġprocess": 1201,
      "Ġeffect": 1202,
      "ond": 1203,
      "Ġsmall": 1204,
      "gs": 1205,
      "ved": 1206,
      "Ġshow": 1207,
      "Ġ_": 1208,
      "iversity": 1209,
      "Ġpat": 1210,
      "ĠSe": 1211,
      "ody": 1212,
      "Ġexpl": 1213,
      "Ġfam": 1214,
      "ĠWh": 1215,
      "Ġnp": 1216,
      "Ġdep": 1217,
      "Ġ8": 1218,
      "Ġread": 1219,
      "ĠFor": 1220,
      "Ġhum": 1221,
      "Ġappro": 1222,
      "Ġdoes": 1223,
      "orth": 1224,
      "ash": 1225,
      "args": 1226,
      "Ġbr": 1227,
      "ered": 1228,
      "Ġserv": 1229,
      "Ġmem": 1230,
      "Ġown": 1231,
      "ision": 1232,
      "ah": 1233,
      "Ġbefore": 1234,
      "ety": 1235,
      "Ġconst": 1236,
      "Ġthree": 1237,
      "ĠAs": 1238,
      "Ġvalue": 1239,
      "ined": 1240,
      "Ġart": 1241,
      "arn": 1242,
      "ton": 1243,
      "Ġnow": 1244,
      "Ġpop": 1245,
      "ĊĠĠĠĠ": 1246,
      "lect": 1247,
      "ead": 1248,
      "Ġi": 1249,
      "Ġlead": 1250,
      "hip": 1251,
      "Ġest": 1252,
      "list": 1253,
      "Ġfil": 1254,
      "Ġcalled": 1255,
      "Ġpass": 1256,
      "Ġca": 1257,
      "Ġschool": 1258,
      "ense": 1259,
      "Ġexper": 1260,
      "iven": 1261,
      "port": 1262,
      "Ġins": 1263,
      "Ġmuch": 1264,
      "arge": 1265,
      "Ġday": 1266,
      "Ġhealth": 1267,
      "Ġdisc": 1268,
      "ER": 1269,
      "Ġ)": 1270,
      "Ġmain": 1271,
      "work": 1272,
      "ides": 1273,
      "Ġav": 1274,
      "ral": 1275,
      "ulation": 1276,
      "ains": 1277,
      "ĠIf": 1278,
      "ument": 1279,
      "Ġlog": 1280,
      "Ġcontin": 1281,
      "Ġdown": 1282,
      "heck": 1283,
      "Ġmy": 1284,
      "init": 1285,
      "Ġhist": 1286,
      "ets": 1287,
      "ential": 1288,
      "ĠWe": 1289,
      "Ġposs": 1290,
      "Ġ9": 1291,
      "Ġsk": 1292,
      "Ġchildren": 1293,
      "Ġcor": 1294,
      "stand": 1295,
      "ĠSc": 1296,
      "uss": 1297,
      "Ġmust": 1298,
      "anc": 1299,
      "Ġsom": 1300,
      "ords": 1301,
      "log": 1302,
      "Ġtechn": 1303,
      "Ġpos": 1304,
      "requ": 1305,
      "way": 1306,
      "ery": 1307,
      "Ġprogr": 1308,
      "Ġline": 1309,
      "Ġlevel": 1310,
      "man": 1311,
      "col": 1312,
      "Ġlook": 1313,
      "viron": 1314,
      "ault": 1315,
      "Ġmod": 1316,
      "line": 1317,
      "[\"": 1318,
      "Ġ%": 1319,
      "Ġcommun": 1320,
      "True": 1321,
      "Ġmet": 1322,
      "ĠInd": 1323,
      "ĠCon": 1324,
      "Ġhand": 1325,
      "ected": 1326,
      "ivid": 1327,
      "Ġlife": 1328,
      "ared": 1329,
      "oun": 1330,
      "Ġocc": 1331,
      "Ġsim": 1332,
      "ider": 1333,
      "...": 1334,
      "az": 1335,
      "ury": 1336,
      "Ġstudy": 1337,
      "li": 1338,
      "ouse": 1339,
      "Ġdirect": 1340,
      "Ġ/": 1341,
      "aj": 1342,
      "ality": 1343,
      "outh": 1344,
      "ves": 1345,
      "ponse": 1346,
      "size": 1347,
      "ĠHow": 1348,
      "ters": 1349,
      "=\"": 1350,
      "ency": 1351,
      "Ġdid": 1352,
      "by": 1353,
      "ret": 1354,
      "ify": 1355,
      "20": 1356,
      "ross": 1357,
      "ĠBut": 1358,
      "čĊ": 1359,
      "Ġz": 1360,
      "Ġpower": 1361,
      "IN": 1362,
      "itions": 1363,
      "ĠEx": 1364,
      "Ġ20": 1365,
      "cont": 1366,
      "ner": 1367,
      "ĊĠĠĠĠĠĠĠĠĠĠĠĠĠĠĠĠĠĠĠĠĠĠĠĠ": 1368,
      "Ġopen": 1369,
      "oh": 1370,
      "omen": 1371,
      "čĊĠĠĠĠĠĠĠ": 1372,
      "Ġexample": 1373,
      "akes": 1374,
      "Ġtype": 1375,
      "fil": 1376,
      "que": 1377,
      "Ġaround": 1378,
      "ĠQ": 1379,
      "mon": 1380,
      "ON": 1381,
      "atic": 1382,
      "rol": 1383,
      "Ġimportant": 1384,
      "\".": 1385,
      "yn": 1386,
      "Ġdesc": 1387,
      "time": 1388,
      "Ġ&": 1389,
      "ids": 1390,
      "day": 1391,
      "Ġfunction": 1392,
      "Ġoper": 1393,
      "arent": 1394,
      "Ġorig": 1395,
      "Ġ<": 1396,
      "Ġstudents": 1397,
      "ason": 1398,
      "Ġreport": 1399,
      "Ġcond": 1400,
      "Ġ__": 1401,
      "12": 1402,
      "inf": 1403,
      "Ġbuild": 1404,
      "Ġgovern": 1405,
      "ization": 1406,
      "ird": 1407,
      "Ġsecond": 1408,
      "Ġgrow": 1409,
      "Ġwithin": 1410,
      "Ġ.": 1411,
      "Ġdel": 1412,
      "Ġgood": 1413,
      "Ġknown": 1414,
      "Ġless": 1415,
      "Ġbre": 1416,
      "Ġtem": 1417,
      "Ġwant": 1418,
      "Ġperson": 1419,
      "Ġallow": 1420,
      "num": 1421,
      "Ġorgan": 1422,
      "Ġassert": 1423,
      "model": 1424,
      "ified": 1425,
      "ĠAmerican": 1426,
      "Ġlet": 1427,
      "Ġrun": 1428,
      "Ġland": 1429,
      "Ġconf": 1430,
      "Ġoften": 1431,
      "Ġtake": 1432,
      "Ġincluding": 1433,
      "Ġke": 1434,
      "AT": 1435,
      "Ġfile": 1436,
      "vironment": 1437,
      "Ġobject": 1438,
      "Ġwrit": 1439,
      "Ġgroup": 1440,
      "ek": 1441,
      "ĠUniversity": 1442,
      "Ġcell": 1443,
      "Ġdesign": 1444,
      "\"]": 1445,
      "ger": 1446,
      "Ġsupport": 1447,
      "||": 1448,
      "ples": 1449,
      "Ġgu": 1450,
      "alk": 1451,
      "ven": 1452,
      "ĠCol": 1453,
      "hers": 1454,
      "ccess": 1455,
      "ional": 1456,
      "Ġrange": 1457,
      "ES": 1458,
      "of": 1459,
      "ately": 1460,
      "Ġactiv": 1461,
      "Ġfield": 1462,
      "rop": 1463,
      "Ġpublic": 1464,
      "This": 1465,
      "Ġcurrent": 1466,
      "Ġanother": 1467,
      "gg": 1468,
      "ron": 1469,
      "mb": 1470,
      "Ġcare": 1471,
      "Ġcle": 1472,
      "lish": 1473,
      "Ġstand": 1474,
      "ule": 1475,
      "Ġfood": 1476,
      "ats": 1477,
      "ries": 1478,
      "ote": 1479,
      "Ġpres": 1480,
      "Ġresearch": 1481,
      "lob": 1482,
      "amm": 1483,
      "Ġthough": 1484,
      "date": 1485,
      "ane": 1486,
      "ission": 1487,
      "Ġcommon": 1488,
      "irc": 1489,
      "ĠIs": 1490,
      "ĠCl": 1491,
      "ĠSh": 1492,
      "Ġappe": 1493,
      "Ġcal": 1494,
      "ĠAd": 1495,
      "Ġgiven": 1496,
      "ital": 1497,
      "Ġmethod": 1498,
      "Ġtry": 1499,
      "Ġgen": 1500,
      "ength": 1501,
      "iod": 1502,
      "acter": 1503,
      "ium": 1504,
      "Ġarea": 1505,
      "els": 1506,
      "Ġstill": 1507,
      "Ġtreat": 1508,
      "ĠYou": 1509,
      "rans": 1510,
      "uro": 1511,
      "Ġhead": 1512,
      "load": 1513,
      "isk": 1514,
      "ained": 1515,
      "atus": 1516,
      "50": 1517,
      "ĊĠĠĠĠĠĠĠĠĠĠĠĠĠĠĠĠĠĠĠĠĠĠĠ": 1518,
      "ially": 1519,
      "Ġproper": 1520,
      "uthor": 1521,
      "Ġsl": 1522,
      "ĠDe": 1523,
      "here": 1524,
      "Ġsince": 1525,
      "čĊĠĠĠ": 1526,
      "//": 1527,
      "ĠRes": 1528,
      "ĊĠĠĠĠĠĠĠĠĠĠĠĠĠĠĠĠĠĠĠĠĠĠĠĠĠĠĠĠĠĠĠĠ": 1529,
      "ĠShe": 1530,
      "ĠAnd": 1531,
      "ior": 1532,
      "Ġmult": 1533,
      "Ġlast": 1534,
      "ived": 1535,
      "Ġchang": 1536,
      "cer": 1537,
      "append": 1538,
      "Ġvis": 1539,
      "assert": 1540,
      "ĠThere": 1541,
      "Ġ>": 1542,
      "Ġgreat": 1543,
      "Ġtyp": 1544,
      "ources": 1545,
      "reen": 1546,
      "arget": 1547,
      "Ġpresent": 1548,
      "Ġhuman": 1549,
      "ots": 1550,
      "Ġkey": 1551,
      "aving": 1552,
      "ĠEng": 1553,
      "Ġproject": 1554,
      "for": 1555,
      "ording": 1556,
      "Ġunderstand": 1557,
      "not": 1558,
      "Ġelect": 1559,
      "ĠUnited": 1560,
      "Ġident": 1561,
      "ians": 1562,
      "Ġbook": 1563,
      "rror": 1564,
      "url": 1565,
      "lished": 1566,
      "Ġwithout": 1567,
      "\"\"\"": 1568,
      "ided": 1569,
      "inc": 1570,
      "Ġredu": 1571,
      "angu": 1572,
      "ertain": 1573,
      "Ġer": 1574,
      "ser": 1575,
      "conom": 1576,
      "less": 1577,
      "Ġve": 1578,
      "ems": 1579,
      "Ġquest": 1580,
      "ination": 1581,
      "dir": 1582,
      "Ġdise": 1583,
      "Ġplace": 1584,
      "iter": 1585,
      "Ġchar": 1586,
      "AS": 1587,
      "Ġcour": 1588,
      "lood": 1589,
      "18": 1590,
      "ively": 1591,
      "Ġprot": 1592,
      "Ġlarge": 1593,
      "aterial": 1594,
      "ability": 1595,
      "cur": 1596,
      "Ġmeas": 1597,
      "Ġadv": 1598,
      "Ġpo": 1599,
      "Ġunt": 1600,
      "erest": 1601,
      "\\_": 1602,
      "Ġ198": 1603,
      "Ġ12": 1604,
      "dict": 1605,
      "ted": 1606,
      "Ġinvol": 1607,
      "Ġold": 1608,
      "me": 1609,
      "ergy": 1610,
      "Ġaff": 1611,
      "view": 1612,
      "Ġlaw": 1613,
      "fe": 1614,
      "----------------": 1615,
      "amet": 1616,
      "Ġide": 1617,
      "Ġbeh": 1618,
      "ends": 1619,
      "ribut": 1620,
      "Ġhere": 1621,
      "ĠPh": 1622,
      "Ġreal": 1623,
      "illion": 1624,
      "Error": 1625,
      "ittle": 1626,
      "serv": 1627,
      "Ġmight": 1628,
      "Ġbody": 1629,
      "sp": 1630,
      "Ġfr": 1631,
      "Ġter": 1632,
      "Ġlim": 1633,
      "sy": 1634,
      "ĠZ": 1635,
      "cul": 1636,
      "value": 1637,
      "ajor": 1638,
      "ww": 1639,
      "AR": 1640,
      "my": 1641,
      "itive": 1642,
      "Ġchange": 1643,
      "Ġtop": 1644,
      "Ġthink": 1645,
      "iving": 1646,
      "Ċĉ": 1647,
      "Ġspe": 1648,
      "Ċĉĉ": 1649,
      "rite": 1650,
      "ently": 1651,
      "comm": 1652,
      "opy": 1653,
      "icult": 1654,
      "Ġnon": 1655,
      "Ġos": 1656,
      "arc": 1657,
      "ĠThese": 1658,
      "Ġtrain": 1659,
      "reg": 1660,
      "Ġnear": 1661,
      "raw": 1662,
      "Ġorder": 1663,
      "ole": 1664,
      "Ġsever": 1665,
      "Wh": 1666,
      "agn": 1667,
      "Ġmark": 1668,
      "text": 1669,
      "ividual": 1670,
      "Ġfin": 1671,
      "OR": 1672,
      "lu": 1673,
      "Ġagainst": 1674,
      "Ġeduc": 1675,
      "ving": 1676,
      "Ġproduct": 1677,
      "Ġcap": 1678,
      "Ġfour": 1679,
      "Ġtri": 1680,
      "oad": 1681,
      "========": 1682,
      "ĠSp": 1683,
      "ailable": 1684,
      "Ġfew": 1685,
      "ocial": 1686,
      "ilar": 1687,
      "ember": 1688,
      "Ġpri": 1689,
      "ĠX": 1690,
      "Ġ17": 1691,
      "Ġinc": 1692,
      "It": 1693,
      "ik": 1694,
      "ograph": 1695,
      "essage": 1696,
      "format": 1697,
      "Ġsing": 1698,
      "11": 1699,
      "Ġ`": 1700,
      "Ġsum": 1701,
      "Ġiss": 1702,
      "ration": 1703,
      "Ġbas": 1704,
      "ĠStates": 1705,
      "Ġanal": 1706,
      "gin": 1707,
      "Ġeas": 1708,
      "face": 1709,
      "right": 1710,
      "None": 1711,
      "Ġtext": 1712,
      "Ġdev": 1713,
      "():": 1714,
      "Ġpercent": 1715,
      "itional": 1716,
      "Ġpur": 1717,
      "Ġenergy": 1718,
      "umn": 1719,
      "Ġ15": 1720,
      "Ġsay": 1721,
      "Ġexcept": 1722,
      "Ġgovernment": 1723,
      "ĠFr": 1724,
      "Ġeng": 1725,
      "osed": 1726,
      "rist": 1727,
      "Ġbased": 1728,
      "use": 1729,
      "ype": 1730,
      "Ġlight": 1731,
      "200": 1732,
      "Ġmil": 1733,
      "Ġmean": 1734,
      "oin": 1735,
      "imate": 1736,
      "__(": 1737,
      "Ġpract": 1738,
      "Ġseveral": 1739,
      "ĠNational": 1740,
      "Ġconn": 1741,
      "lement": 1742,
      "Ġhapp": 1743,
      "Ġpath": 1744,
      "Ġearly": 1745,
      "ways": 1746,
      "user": 1747,
      "med": 1748,
      "Ġrepresent": 1749,
      "Ġinclude": 1750,
      "version": 1751,
      "].": 1752,
      "Ġplan": 1753,
      "idd": 1754,
      "Ġdon": 1755,
      "Ġbo": 1756,
      "ither": 1757,
      "ering": 1758,
      "Ġfollowing": 1759,
      "olution": 1760,
      "Ġuntil": 1761,
      "Ġinterest": 1762,
      "Ġsays": 1763,
      "enc": 1764,
      "ohn": 1765,
      "be": 1766,
      "ina": 1767,
      "EN": 1768,
      "Ġ16": 1769,
      "Ġlater": 1770,
      "ised": 1771,
      "Ġ@": 1772,
      "Ġinit": 1773,
      "Ġmove": 1774,
      "stit": 1775,
      "Ġperform": 1776,
      "ances": 1777,
      "Ġfore": 1778,
      "oms": 1779,
      "Ġindividual": 1780,
      "ĠPl": 1781,
      "://": 1782,
      "ĠHowever": 1783,
      "atural": 1784,
      "mp": 1785,
      "ĠAt": 1786,
      "Ġphys": 1787,
      "Ġmaterial": 1788,
      "ention": 1789,
      "duct": 1790,
      "ression": 1791,
      "Ġtoo": 1792,
      "ring": 1793,
      "ĠTrue": 1794,
      "Ġalong": 1795,
      "ĠTo": 1796,
      "bs": 1797,
      "Ġlearn": 1798,
      "Ġrad": 1799,
      "ological": 1800,
      "config": 1801,
      "Ġlocal": 1802,
      "ĠWhen": 1803,
      "Ġlen": 1804,
      "ards": 1805,
      "ences": 1806,
      "ware": 1807,
      "Ġresults": 1808,
      "Ġlittle": 1809,
      "esc": 1810,
      "Ġproblem": 1811,
      "Ġpossible": 1812,
      "len": 1813,
      "Ch": 1814,
      "Ġenvironment": 1815,
      "rac": 1816,
      "Ġparticular": 1817,
      "Ġmeans": 1818,
      "Ġcaus": 1819,
      "bl": 1820,
      "Ġhy": 1821,
      "ĠCent": 1822,
      "Ġoccur": 1823,
      "ID": 1824,
      "Ġbro": 1825,
      "Ġscient": 1826,
      "Ġcomb": 1827,
      "ended": 1828,
      "Ġmajor": 1829,
      "ement": 1830,
      "Ġdevelopment": 1831,
      "Ġcase": 1832,
      "aster": 1833,
      "Ġsit": 1834,
      "ories": 1835,
      "Ġrece": 1836,
      "Ġwomen": 1837,
      "une": 1838,
      "Ġbest": 1839,
      "Ġcontrol": 1840,
      "Ġrisk": 1841,
      "Ġhome": 1842,
      "Ġopp": 1843,
      "Ġfamily": 1844,
      "Ġamong": 1845,
      "Ġperiod": 1846,
      "Ġanim": 1847,
      "Ġexist": 1848,
      "Ġturn": 1849,
      "Ġmus": 1850,
      "vert": 1851,
      "oot": 1852,
      "ĠOr": 1853,
      "Ġet": 1854,
      "Ġrele": 1855,
      "util": 1856,
      "Ġcr": 1857,
      "Ġdat": 1858,
      "Ġlarg": 1859,
      "iver": 1860,
      "Ġhistory": 1861,
      "Ġopt": 1862,
      "ured": 1863,
      "Ġmen": 1864,
      "anguage": 1865,
      "max": 1866,
      "fess": 1867,
      "though": 1868,
      "Ġsimp": 1869,
      "Ġbecome": 1870,
      "Ġ197": 1871,
      "ST": 1872,
      "Ġcomput": 1873,
      "ormal": 1874,
      "Ġspecies": 1875,
      "aining": 1876,
      "erence": 1877,
      "icle": 1878,
      "Ġleft": 1879,
      "Ġair": 1880,
      "Ġwar": 1881,
      "Ġavailable": 1882,
      "Ġdeterm": 1883,
      "sw": 1884,
      "Ġtimes": 1885,
      "Ġtot": 1886,
      "Ġeconom": 1887,
      "Ġarg": 1888,
      "Ġcreate": 1889,
      "Ġnumbers": 1890,
      "aces": 1891,
      "Ġsuccess": 1892,
      "etwork": 1893,
      "osp": 1894,
      "ateg": 1895,
      "Ġpot": 1896,
      "Ġbi": 1897,
      "amb": 1898,
      "equ": 1899,
      "Ġvol": 1900,
      "Ġlow": 1901,
      "Ġnext": 1902,
      "met": 1903,
      "atures": 1904,
      "Ġtre": 1905,
      "ĠAll": 1906,
      "ging": 1907,
      "plic": 1908,
      "Ġview": 1909,
      "urther": 1910,
      "count": 1911,
      "ients": 1912,
      "16": 1913,
      "ething": 1914,
      "Ġant": 1915,
      "Ġhig": 1916,
      "aps": 1917,
      "Ġkeep": 1918,
      "por": 1919,
      "ĊĠ": 1920,
      "Ex": 1921,
      "ĠâĢĶ": 1922,
      "ĠOn": 1923,
      "Ġstruct": 1924,
      "Ġpost": 1925,
      "Ġspace": 1926,
      "idence": 1927,
      "Ġleg": 1928,
      "Ġspecial": 1929,
      "ental": 1930,
      "ĠComm": 1931,
      "Ġpred": 1932,
      "Ġmov": 1933,
      "ttp": 1934,
      "Ġlik": 1935,
      "Ġconsider": 1936,
      "Ġdisease": 1937,
      "ler": 1938,
      "Ġcertain": 1939,
      "''": 1940,
      "30": 1941,
      "Ġfri": 1942,
      "Ġthings": 1943,
      "gen": 1944,
      "ĠLe": 1945,
      "ploy": 1946,
      "NA": 1947,
      "vious": 1948,
      "Ġ--": 1949,
      "Ġmax": 1950,
      "Ġbetter": 1951,
      "roups": 1952,
      "ored": 1953,
      "Ġdr": 1954,
      "mber": 1955,
      "################": 1956,
      "Ġevent": 1957,
      "ctor": 1958,
      "Ġrequest": 1959,
      "Ġuser": 1960,
      "ta": 1961,
      "index": 1962,
      "inst": 1963,
      "ables": 1964,
      "itle": 1965,
      "ĠJohn": 1966,
      "},": 1967,
      "Ġinput": 1968,
      "Ġexpect": 1969,
      "ĊĠĠĠĠĠ": 1970,
      "Ġsw": 1971,
      "ably": 1972,
      "False": 1973,
      "To": 1974,
      "andom": 1975,
      "enn": 1976,
      "ĠFalse": 1977,
      "ait": 1978,
      "Ġrest": 1979,
      "25": 1980,
      "iness": 1981,
      "back": 1982,
      "abor": 1983,
      "IT": 1984,
      "Ġtoget": 1985,
      "Ġsize": 1986,
      "Ġtogether": 1987,
      "ternational": 1988,
      "point": 1989,
      "Ġput": 1990,
      "Ġprovide": 1991,
      "Ġvalues": 1992,
      "Ġstep": 1993,
      "ey": 1994,
      "lobal": 1995,
      "inter": 1996,
      "ple": 1997,
      "Ġimpro": 1998,
      "Ġoutput": 1999,
      "Ġterm": 2000,
      "label": 2001,
      "Ġareas": 2002,
      "ique": 2003,
      "info": 2004,
      "ĠCan": 2005,
      "Ġcult": 2006,
      "urope": 2007,
      "15": 2008,
      "Ġsomething": 2009,
      "ights": 2010,
      "loat": 2011,
      "Ġcost": 2012,
      "ators": 2013,
      "Ġsimilar": 2014,
      "place": 2015,
      "Ġassoci": 2016,
      "rodu": 2017,
      "Ġresponse": 2018,
      "play": 2019,
      "ones": 2020,
      "Ġdue": 2021,
      "ged": 2022,
      "Ġbig": 2023,
      "Ġmonth": 2024,
      "Ġben": 2025,
      "ott": 2026,
      "Ġcountry": 2027,
      "ffic": 2028,
      "pre": 2029,
      "ogn": 2030,
      "}{": 2031,
      "Ġyoung": 2032,
      "Ġask": 2033,
      "Ġauthor": 2034,
      "Ġsuper": 2035,
      "ending": 2036,
      "Ġbecame": 2037,
      "sub": 2038,
      "ush": 2039,
      "arning": 2040,
      "Ġmar": 2041,
      "omet": 2042,
      "amples": 2043,
      "AN": 2044,
      "side": 2045,
      "Ġdescrib": 2046,
      "Ġestab": 2047,
      "amed": 2048,
      "df": 2049,
      "ĠOne": 2050,
      "cle": 2051,
      "Ġimage": 2052,
      "Ġblood": 2053,
      "hern": 2054,
      "ling": 2055,
      "Ġtotal": 2056,
      "Ġsignific": 2057,
      "ands": 2058,
      "ume": 2059,
      "Ġenc": 2060,
      "Ġproblems": 2061,
      "Ġupon": 2062,
      "Ġprob": 2063,
      "Ġcheck": 2064,
      "ĠChrist": 2065,
      "Ġfar": 2066,
      "([": 2067,
      "'re": 2068,
      "ĠSo": 2069,
      "Ġprogram": 2070,
      "Ġside": 2071,
      "opt": 2072,
      "Ġpopulation": 2073,
      "Ġ[]": 2074,
      "head": 2075,
      "Ġsocial": 2076,
      "ĠUS": 2077,
      "ero": 2078,
      "Ġsingle": 2079,
      "Ġabove": 2080,
      "Ġcirc": 2081,
      "Ġpolit": 2082,
      "ison": 2083,
      "alf": 2084,
      "Ġcho": 2085,
      "verage": 2086,
      "Ġcolle": 2087,
      "icy": 2088,
      "Ġshort": 2089,
      "Ġ196": 2090,
      "Ġothers": 2091,
      "Ġresp": 2092,
      "Pro": 2093,
      "ĠGod": 2094,
      "ename": 2095,
      "Ġsel": 2096,
      "Ġconcept": 2097,
      "plit": 2098,
      "Ġgl": 2099,
      "ĠEurope": 2100,
      "uture": 2101,
      "ĠAf": 2102,
      "Ġaut": 2103,
      "rect": 2104,
      "ills": 2105,
      "Ġpain": 2106,
      "Ġweek": 2107,
      "aper": 2108,
      "ma": 2109,
      "Con": 2110,
      "ml": 2111,
      "rel": 2112,
      "ription": 2113,
      "ober": 2114,
      "aken": 2115,
      "ley": 2116,
      "Ġfac": 2117,
      "32": 2118,
      "40": 2119,
      "Ġraise": 2120,
      "Ġprom": 2121,
      "ript": 2122,
      "Ġparent": 2123,
      "eder": 2124,
      "param": 2125,
      "Ġalways": 2126,
      "ification": 2127,
      "action": 2128,
      "ĠBrit": 2129,
      "arser": 2130,
      "let": 2131,
      "org": 2132,
      "Ġage": 2133,
      "Ġaccess": 2134,
      "oph": 2135,
      "Ġnatural": 2136,
      "Ġtrad": 2137,
      "lying": 2138,
      "ocus": 2139,
      "Ġamount": 2140,
      "We": 2141,
      "Ġcome": 2142,
      "Ġcharacter": 2143,
      "array": 2144,
      "dd": 2145,
      "ĠRe": 2146,
      "ilt": 2147,
      "ĠEn": 2148,
      "ĊĊĠĠĠĠĠĠĠĠĠĠĠ": 2149,
      "dat": 2150,
      "ued": 2151,
      "An": 2152,
      "Ġmillion": 2153,
      "wh": 2154,
      "Ġapplic": 2155,
      "ĠMay": 2156,
      "ctions": 2157,
      "ĠMed": 2158,
      "egr": 2159,
      "aut": 2160,
      "Ġwhether": 2161,
      "Ġcentury": 2162,
      "Ġeither": 2163,
      "sequ": 2164,
      "Ġfull": 2165,
      "state": 2166,
      "ieve": 2167,
      "ĠBy": 2168,
      "now": 2169,
      "RE": 2170,
      "ipp": 2171,
      "Ġsugg": 2172,
      "Ġsuggest": 2173,
      "Ġport": 2174,
      "Ġvarious": 2175,
      "ĠWorld": 2176,
      "aim": 2177,
      "input": 2178,
      "Ġmaking": 2179,
      "ope": 2180,
      "over": 2181,
      "Ġhowever": 2182,
      "ĠWar": 2183,
      "ges": 2184,
      "urch": 2185,
      "atory": 2186,
      "Ġbegin": 2187,
      "Ġdeath": 2188,
      "Ġoriginal": 2189,
      "ublic": 2190,
      "most": 2191,
      "ruction": 2192,
      "AL": 2193,
      "Ġhard": 2194,
      "ĠĠĠĠĠ": 2195,
      "itor": 2196,
      "Ġcause": 2197,
      "Ġ+=": 2198,
      "ours": 2199,
      "ĠGe": 2200,
      "Ġflow": 2201,
      "17": 2202,
      "ĠGerm": 2203,
      "bu": 2204,
      "af": 2205,
      "iction": 2206,
      "object": 2207,
      "Ġbus": 2208,
      "ales": 2209,
      "roll": 2210,
      "Ġprim": 2211,
      "Ġpress": 2212,
      "14": 2213,
      "Ġcrit": 2214,
      "acy": 2215,
      "Ġ**": 2216,
      "ĠCal": 2217,
      "Ġgre": 2218,
      "ĠEar": 2219,
      "Ġpy": 2220,
      "Ġhaving": 2221,
      "Ġable": 2222,
      "Ġ{}": 2223,
      "Ġgeneral": 2224,
      "Ġtarget": 2225,
      "Ġspecific": 2226,
      "field": 2227,
      "ĠBe": 2228,
      "Ġrecord": 2229,
      "rad": 2230,
      "Ġdoc": 2231,
      "rix": 2232,
      "Ġdays": 2233,
      "Ġ14": 2234,
      "Ġdri": 2235,
      "Ġ30": 2236,
      "Ġelif": 2237,
      "indow": 2238,
      "Ġred": 2239,
      "np": 2240,
      "Ġleast": 2241,
      "Ġconditions": 2242,
      "Ġsource": 2243,
      "ready": 2244,
      "Ġnever": 2245,
      "ourn": 2246,
      "ĠCar": 2247,
      "Ġann": 2248,
      "Ġ->": 2249,
      "ises": 2250,
      "wards": 2251,
      "ief": 2252,
      "ream": 2253,
      "Ġoffic": 2254,
      "Ġlink": 2255,
      "ilities": 2256,
      "ME": 2257,
      "Ġax": 2258,
      "Ġlanguage": 2259,
      "ĠWest": 2260,
      "Ġ100": 2261,
      "ĠYork": 2262,
      "ibr": 2263,
      "ister": 2264,
      "13": 2265,
      "orch": 2266,
      "Ġdiscuss": 2267,
      "pond": 2268,
      "Ġmodels": 2269,
      "IC": 2270,
      "iple": 2271,
      "resh": 2272,
      "Ġrequired": 2273,
      "Ġfree": 2274,
      "ĠTe": 2275,
      "aring": 2276,
      "ae": 2277,
      "Ġrelations": 2278,
      "ising": 2279,
      "oman": 2280,
      "Ġcomplex": 2281,
      "Ġdefault": 2282,
      "Equ": 2283,
      "ires": 2284,
      "join": 2285,
      "Ġcells": 2286,
      "oid": 2287,
      "start": 2288,
      "ze": 2289,
      "Ġill": 2290,
      "ayer": 2291,
      "Ġfund": 2292,
      "run": 2293,
      "Ġgroups": 2294,
      "ym": 2295,
      "apt": 2296,
      "ules": 2297,
      "Ġsignificant": 2298,
      "ception": 2299,
      "Ġaway": 2300,
      "empt": 2301,
      "$$": 2302,
      "For": 2303,
      "Ġsystems": 2304,
      "Ã©": 2305,
      "train": 2306,
      ".__": 2307,
      "Ġconfig": 2308,
      "new": 2309,
      "Ġsite": 2310,
      "ĠNorth": 2311,
      "ysis": 2312,
      "Ġfurther": 2313,
      "order": 2314,
      "ession": 2315,
      "Ġplant": 2316,
      "Ġcity": 2317,
      "print": 2318,
      "Ġindic": 2319,
      "'.": 2320,
      "Ġchanges": 2321,
      "Ġtreatment": 2322,
      "Ġprevent": 2323,
      "Cl": 2324,
      "aves": 2325,
      "Ġacross": 2326,
      "bo": 2327,
      "wargs": 2328,
      "Ġdem": 2329,
      "shape": 2330,
      "Ġkind": 2331,
      "ches": 2332,
      "Ġ25": 2333,
      "Ġnecess": 2334,
      "Ġdom": 2335,
      "Ġfocus": 2336,
      "Ġloss": 2337,
      "Ġpast": 2338,
      "istic": 2339,
      "ĠThat": 2340,
      "Ġ13": 2341,
      "Ġdest": 2342,
      "Ġcommunity": 2343,
      "Ġblock": 2344,
      "Ġsqu": 2345,
      "ee": 2346,
      "rem": 2347,
      "Ġpoints": 2348,
      "Ġlabel": 2349,
      "As": 2350,
      "Ġwords": 2351,
      "Ġes": 2352,
      "epend": 2353,
      "etic": 2354,
      "ĠAfric": 2355,
      "loc": 2356,
      "ĠSouth": 2357,
      "augh": 2358,
      "ĠAss": 2359,
      "Ġinvest": 2360,
      "Ġteam": 2361,
      "Ġpotential": 2362,
      "Ġaction": 2363,
      "Ġnational": 2364,
      "su": 2365,
      "ociety": 2366,
      "Ġfail": 2367,
      "201": 2368,
      "mod": 2369,
      "iation": 2370,
      "Ġlevels": 2371,
      "Ġgive": 2372,
      "asing": 2373,
      "ĠState": 2374,
      "Ġindust": 2375,
      "Ġsym": 2376,
      "de": 2377,
      "Ġseries": 2378,
      "Al": 2379,
      "Ġprofess": 2380,
      "Ġvir": 2381,
      "fer": 2382,
      "Ġmembers": 2383,
      "ĠAust": 2384,
      "ledge": 2385,
      "Ġabs": 2386,
      "inary": 2387,
      "ĠBl": 2388,
      "Ġground": 2389,
      "Ġobserv": 2390,
      "ties": 2391,
      "frac": 2392,
      "ai": 2393,
      "output": 2394,
      "Ġquestion": 2395,
      "Ġmathem": 2396,
      "Ġgoing": 2397,
      "br": 2398,
      "fr": 2399,
      "Res": 2400,
      "Ġclear": 2401,
      "Ġresearc": 2402,
      "Ġtw": 2403,
      "Ġcancer": 2404,
      "Ġaccount": 2405,
      "odes": 2406,
      "Ġconc": 2407,
      "LE": 2408,
      "earch": 2409,
      "Ġusually": 2410,
      "Ġhold": 2411,
      "Ġcollect": 2412,
      "Ġhigher": 2413,
      "Ġtemper": 2414,
      "Ġheart": 2415,
      "erc": 2416,
      "raft": 2417,
      "Ġeducation": 2418,
      "Ġcolor": 2419,
      "agement": 2420,
      "Ġalready": 2421,
      "Ġhouse": 2422,
      "ĠGo": 2423,
      "ols": 2424,
      "ĠPar": 2425,
      "result": 2426,
      "with": 2427,
      "Ġprovided": 2428,
      "uments": 2429,
      "word": 2430,
      "Ġge": 2431,
      "thing": 2432,
      "Ġlikely": 2433,
      "ude": 2434,
      "][": 2435,
      "Ġfive": 2436,
      "bed": 2437,
      "artment": 2438,
      "ĠSchool": 2439,
      "fact": 2440,
      "Ġdiv": 2441,
      "Ġsubject": 2442,
      "Ġcourse": 2443,
      "())": 2444,
      "ĠPr": 2445,
      "Ġcame": 2446,
      "orts": 2447,
      "lim": 2448,
      "Ġworking": 2449,
      "čĊĠĠĠĠĠĠĠĠĠĠĠ": 2450,
      "Ġfig": 2451,
      "Ġtoday": 2452,
      "âĪ": 2453,
      "icro": 2454,
      "AC": 2455,
      "Ġcalcul": 2456,
      "uation": 2457,
      "Equal": 2458,
      "ortun": 2459,
      "Ġsent": 2460,
      "Ġ}": 2461,
      "Ġbenef": 2462,
      "ĠMar": 2463,
      "Ġwon": 2464,
      "Ġlearning": 2465,
      "Ġstrong": 2466,
      "Field": 2467,
      "Ġmot": 2468,
      "trans": 2469,
      "overed": 2470,
      "ĠIm": 2471,
      "ensor": 2472,
      "Ġver": 2473,
      "If": 2474,
      "Ġword": 2475,
      "mat": 2476,
      "Com": 2477,
      "Ġenough": 2478,
      "off": 2479,
      "aset": 2480,
      "fl": 2481,
      "izer": 2482,
      "Ġcreated": 2483,
      "Ġrate": 2484,
      "pecially": 2485,
      "Ġbehav": 2486,
      "gress": 2487,
      "image": 2488,
      "Ġsix": 2489,
      "ites": 2490,
      "rec": 2491,
      "Ġposition": 2492,
      "ump": 2493,
      "Ġteac": 2494,
      "ops": 2495,
      "Ġrequire": 2496,
      "Ġscience": 2497,
      "Ġlower": 2498,
      "ĠPol": 2499,
      "yle": 2500,
      "Ġrole": 2501,
      "Ġcases": 2502,
      "22": 2503,
      "Ġaddress": 2504,
      "Ġfeel": 2505,
      "Ġtook": 2506,
      "go": 2507,
      "Ġ11": 2508,
      "oney": 2509,
      "Ġcy": 2510,
      "ĠRet": 2511,
      "Ġaccording": 2512,
      "ĠRep": 2513,
      "Ġdeg": 2514,
      "Ġneg": 2515,
      "request": 2516,
      "ĠSy": 2517,
      "idth": 2518,
      "Ġfuture": 2519,
      "Ġlength": 2520,
      "ival": 2521,
      "Ġincrease": 2522,
      "hel": 2523,
      "ĠMan": 2524,
      "sum": 2525,
      "Ġwhy": 2526,
      "aced": 2527,
      "ĠHis": 2528,
      "elves": 2529,
      "isc": 2530,
      "Ġbegan": 2531,
      "ining": 2532,
      "json": 2533,
      "code": 2534,
      "Ġcountries": 2535,
      "rs": 2536,
      "Ġdifficult": 2537,
      "ements": 2538,
      "Ġonce": 2539,
      "Ġmass": 2540,
      "db": 2541,
      "IS": 2542,
      "99": 2543,
      "ĠEnglish": 2544,
      "atter": 2545,
      "Ġess": 2546,
      "ried": 2547,
      "Ġbecom": 2548,
      "Ġstates": 2549,
      "Ġbreak": 2550,
      "ete": 2551,
      "Ġinflu": 2552,
      "Ġmom": 2553,
      "Ġsepar": 2554,
      "aching": 2555,
      "ĠVal": 2556,
      "ips": 2557,
      "Ġep": 2558,
      "Ġterms": 2559,
      "cing": 2560,
      "ene": 2561,
      "Ġfall": 2562,
      "ounds": 2563,
      "ĠĠĠĠĠĠ": 2564,
      ".)": 2565,
      "ivil": 2566,
      "Ġsurface": 2567,
      "Ġexc": 2568,
      "return": 2569,
      "Ġrespons": 2570,
      "Ġargs": 2571,
      "Ġimm": 2572,
      "There": 2573,
      "ĠAmerica": 2574,
      "ĠWhat": 2575,
      "Ġcreat": 2576,
      "ĠDep": 2577,
      "pper": 2578,
      "Ġprevious": 2579,
      "Ġdetail": 2580,
      "ores": 2581,
      "Ġsett": 2582,
      "valid": 2583,
      "Ġtypes": 2584,
      "Ġhalf": 2585,
      "DE": 2586,
      "Ġbuilding": 2587,
      "illed": 2588,
      "[:": 2589,
      "ĠNo": 2590,
      "Ġpublished": 2591,
      "Ġrather": 2592,
      "Ġexpress": 2593,
      "aries": 2594,
      "Ġseen": 2595,
      "Ġengine": 2596,
      "Ġreason": 2597,
      "ibility": 2598,
      "Ġur": 2599,
      "Ġchem": 2600,
      "Ġitself": 2601,
      "ĠAb": 2602,
      "ĠWith": 2603,
      "Ġbase": 2604,
      "Ġpattern": 2605,
      "^{": 2606,
      "ung": 2607,
      "Ġsat": 2608,
      "ĠGu": 2609,
      "Ġsequ": 2610,
      "rate": 2611,
      "Ġri": 2612,
      "Ġbrain": 2613,
      "imum": 2614,
      "eds": 2615,
      "Ġ,": 2616,
      "ameters": 2617,
      "Ġfrequ": 2618,
      "((": 2619,
      "Ġdone": 2620,
      "Ġtaken": 2621,
      "Ġ194": 2622,
      "ribution": 2623,
      "write": 2624,
      "Ġcannot": 2625,
      "ched": 2626,
      "Ġregion": 2627,
      "Ġglobal": 2628,
      "Ġstudies": 2629,
      "dom": 2630,
      "istory": 2631,
      "oon": 2632,
      "Ġden": 2633,
      "iment": 2634,
      "Ġey": 2635,
      "Ġang": 2636,
      "Ġservice": 2637,
      "itary": 2638,
      "Ġtell": 2639,
      "ĠHealth": 2640,
      "pri": 2641,
      "Ġentire": 2642,
      "hest": 2643,
      "Ġmeasure": 2644,
      "Ġblack": 2645,
      "Ġgrad": 2646,
      "iol": 2647,
      "Ġmeet": 2648,
      "verse": 2649,
      "iting": 2650,
      "da": 2651,
      "Ġphot": 2652,
      "Ġder": 2653,
      "Ġ('": 2654,
      "Ġla": 2655,
      "ĠJew": 2656,
      "Ġdeveloped": 2657,
      "ĠCount": 2658,
      "oken": 2659,
      "ĠSome": 2660,
      "Ġimpact": 2661,
      "ĠAfter": 2662,
      "Ar": 2663,
      "What": 2664,
      "Ġespecially": 2665,
      "part": 2666,
      "del": 2667,
      "Ġmakes": 2668,
      "thon": 2669,
      "Ġproduction": 2670,
      "assertEqual": 2671,
      "ension": 2672,
      "Ġnetwork": 2673,
      "Ġpage": 2674,
      "uel": 2675,
      "ĠII": 2676,
      "Ġbelow": 2677,
      "ĠAm": 2678,
      "Ġintegr": 2679,
      "ĠCo": 2680,
      "arr": 2681,
      "Ġworks": 2682,
      "mark": 2683,
      "instance": 2684,
      "Ġrespect": 2685,
      "Ġassociated": 2686,
      "Ġprinc": 2687,
      "rict": 2688,
      "On": 2689,
      "Ġrelationship": 2690,
      "Ġrecogn": 2691,
      "Ġwhole": 2692,
      "Ġcommand": 2693,
      "reed": 2694,
      "acc": 2695,
      "tain": 2696,
      "Ġaddition": 2697,
      "Ġgra": 2698,
      "Ġtrue": 2699,
      "Ġemploy": 2700,
      "rown": 2701,
      "aff": 2702,
      "Ġresearchers": 2703,
      "ournal": 2704,
      "Ġtechnology": 2705,
      "ĠCont": 2706,
      "Ġattack": 2707,
      "idx": 2708,
      "ivity": 2709,
      "iddle": 2710,
      "Ġcamp": 2711,
      "ections": 2712,
      "etime": 2713,
      "Ġ$\\": 2714,
      "Ġeffects": 2715,
      "Ġbox": 2716,
      "ius": 2717,
      "eter": 2718,
      "ĠEarth": 2719,
      "Ġappear": 2720,
      "Ġparts": 2721,
      "Ġways": 2722,
      "clus": 2723,
      "64": 2724,
      "24": 2725,
      "Ġyet": 2726,
      "ened": 2727,
      "ION": 2728,
      "$,": 2729,
      "ĠJan": 2730,
      "But": 2731,
      "Ġhistor": 2732,
      "Ġcut": 2733,
      "Ġrights": 2734,
      "Ġintrodu": 2735,
      "itted": 2736,
      "Ġrelig": 2737,
      "Ġversion": 2738,
      "icense": 2739,
      "().": 2740,
      "ED": 2741,
      "ĠGr": 2742,
      "tra": 2743,
      "Ġregard": 2744,
      "apan": 2745,
      "hib": 2746,
      "Ġthought": 2747,
      "Ġpay": 2748,
      "Ġansw": 2749,
      "pose": 2750,
      "ĠBritish": 2751,
      "Ġindex": 2752,
      "idered": 2753,
      "Ġflu": 2754,
      "map": 2755,
      "bon": 2756,
      "Ġever": 2757,
      "Ġgame": 2758,
      "Ġ50": 2759,
      "ese": 2760,
      "Ġinstead": 2761,
      "cial": 2762,
      "ney": 2763,
      "iqu": 2764,
      "Ġarch": 2765,
      "ĠDr": 2766,
      "ET": 2767,
      "Ġneeds": 2768,
      "izing": 2769,
      "UT": 2770,
      "ĠEd": 2771,
      "ached": 2772,
      "iet": 2773,
      "Now": 2774,
      "Ġparticip": 2775,
      "Ġexam": 2776,
      "ĠCanad": 2777,
      "Ġresources": 2778,
      "Ġexpected": 2779,
      "Ġjob": 2780,
      "minist": 2781,
      "ache": 2782,
      "Ġpolitical": 2783,
      "Ġ...": 2784,
      "Ġclos": 2785,
      "'],": 2786,
      "cret": 2787,
      "Ġens": 2788,
      "(),": 2789,
      "Ġtask": 2790,
      "Ġdam": 2791,
      "Type": 2792,
      "Ġbuilt": 2793,
      "Ġknowledge": 2794,
      "ternal": 2795,
      "ift": 2796,
      "Ġorigin": 2797,
      "Ġconsidered": 2798,
      "uary": 2799,
      "ĠSu": 2800,
      "Ġcontinue": 2801,
      "ks": 2802,
      "ĠFl": 2803,
      "Ġplants": 2804,
      "ĠAct": 2805,
      "ground": 2806,
      "Ġ2012": 2807,
      "ĠJu": 2808,
      "math": 2809,
      "Ġclaim": 2810,
      "Ġstory": 2811,
      "Ġrelated": 2812,
      "ĊĠĠĠĠĠĠĠĠĠĠĠĠĠĠĠĠĠĠĠĠĠĠĠĠĠĠĠ": 2813,
      "call": 2814,
      "Ġcontext": 2815,
      "alt": 2816,
      "})": 2817,
      "Ġaverage": 2818,
      "Ġrow": 2819,
      "illi": 2820,
      "Ġnormal": 2821,
      "ideo": 2822,
      "Ġ2010": 2823,
      "Ġcontent": 2824,
      "Data": 2825,
      "dim": 2826,
      "Ġnamed": 2827,
      "utions": 2828,
      "Ġsimple": 2829,
      "cs": 2830,
      "iding": 2831,
      "Ġbusiness": 2832,
      "Ġevidence": 2833,
      "istance": 2834,
      "like": 2835,
      "aged": 2836,
      "params": 2837,
      "$.": 2838,
      "ĠAug": 2839,
      "Ġweight": 2840,
      "ĠStud": 2841,
      "Ġmathemat": 2842,
      "Ġreally": 2843,
      "Ġforce": 2844,
      "oll": 2845,
      "pes": 2846,
      "Ġpatients": 2847,
      "Ġstandard": 2848,
      "Ġsure": 2849,
      "Ġsoft": 2850,
      "Ġpaper": 2851,
      "Ġchall": 2852,
      "ication": 2853,
      "box": 2854,
      "oud": 2855,
      "uck": 2856,
      "Ġwent": 2857,
      "Ġneeded": 2858,
      "Ġcode": 2859,
      "Ġfinal": 2860,
      "Ġtalk": 2861,
      "range": 2862,
      "60": 2863,
      "ederal": 2864,
      "Ġdru": 2865,
      "idge": 2866,
      "ington": 2867,
      "Ġtown": 2868,
      "Ġprovides": 2869,
      "'),": 2870,
      "Ġconsum": 2871,
      "och": 2872,
      "attle": 2873,
      "Ġ2011": 2874,
      "ribute": 2875,
      "RO": 2876,
      "Ġidea": 2877,
      "ĠGener": 2878,
      "ula": 2879,
      "Ġtorch": 2880,
      "split": 2881,
      "Ġpriv": 2882,
      "stitute": 2883,
      "ags": 2884,
      "ref": 2885,
      "Ġwhite": 2886,
      "irl": 2887,
      "Ġdig": 2888,
      "Ġach": 2889,
      "nces": 2890,
      "status": 2891,
      "leep": 2892,
      "Ġdeb": 2893,
      "Ġload": 2894,
      "Ġimag": 2895,
      "Ġactually": 2896,
      "wise": 2897,
      "ĠAustral": 2898,
      "group": 2899,
      "Ġstop": 2900,
      "_{": 2901,
      "Ġunderstanding": 2902,
      "Ġsun": 2903,
      "Ġfish": 2904,
      "na": 2905,
      "ustom": 2906,
      "``": 2907,
      "mselves": 2908,
      "80": 2909,
      "Ġnature": 2910,
      "lex": 2911,
      "Ġeval": 2912,
      "sych": 2913,
      "hood": 2914,
      "Ġlive": 2915,
      "Ġbird": 2916,
      "21": 2917,
      "Ġanimals": 2918,
      "ball": 2919,
      "Ġactivity": 2920,
      "Ġoil": 2921,
      "ager": 2922,
      "Ġhttp": 2923,
      "ĠMin": 2924,
      "Ġinitial": 2925,
      "Ġ!": 2926,
      "api": 2927,
      "Ġgrowth": 2928,
      "Ġpie": 2929,
      "Ġarticle": 2930,
      "utes": 2931,
      "pril": 2932,
      "filename": 2933,
      "Ġthemselves": 2934,
      "Im": 2935,
      "Ġimprove": 2936,
      "Ġmusic": 2937,
      "ĠPres": 2938,
      "Ġalmost": 2939,
      "Ġclose": 2940,
      "issions": 2941,
      "Ġexperience": 2942,
      "Ġperm": 2943,
      "Ġfunctions": 2944,
      "method": 2945,
      "Ġdecl": 2946,
      "ĠJapan": 2947,
      "ament": 2948,
      "Ġfamil": 2949,
      "Ġseason": 2950,
      "Ġmor": 2951,
      "imately": 2952,
      "Test": 2953,
      "Ġvalid": 2954,
      "erson": 2955,
      "bor": 2956,
      "fun": 2957,
      "ounter": 2958,
      "Ġcoll": 2959,
      "ĠKing": 2960,
      "kwargs": 2961,
      "annel": 2962,
      "Ġphysical": 2963,
      "Ġcompon": 2964,
      "Ġrev": 2965,
      "no": 2966,
      "node": 2967,
      "plot": 2968,
      "Ġcomputer": 2969,
      "Ġtraining": 2970,
      "Ġlo": 2971,
      "atives": 2972,
      "icles": 2973,
      "Ġdraw": 2974,
      "eed": 2975,
      "medi": 2976,
      "Ġsaw": 2977,
      "oura": 2978,
      "asc": 2979,
      "Ġgas": 2980,
      "client": 2981,
      "Ġstructure": 2982,
      "Ġdim": 2983,
      "23": 2984,
      "bit": 2985,
      "lands": 2986,
      "}\\": 2987,
      "ptoms": 2988,
      "Ġproducts": 2989,
      "year": 2990,
      "process": 2991,
      "100": 2992,
      "istics": 2993,
      "Ġrandom": 2994,
      "Ġmodern": 2995,
      "Ġhom": 2996,
      "Ġliving": 2997,
      "tem": 2998,
      "Ġmessage": 2999,
      "AP": 3000,
      "Name": 3001,
      "Ġcontain": 3002,
      "Ġhost": 3003,
      "chan": 3004,
      "ĠOct": 3005,
      "etimes": 3006,
      "Ġequal": 3007,
      "Sc": 3008,
      "comp": 3009,
      "Ġconcern": 3010,
      "ĠCenter": 3011,
      "Un": 3012,
      "Ġactivities": 3013,
      "anced": 3014,
      "ĠMarch": 3015,
      "How": 3016,
      "Ġanalysis": 3017,
      "lease": 3018,
      "Ġliter": 3019,
      "Ġwritten": 3020,
      "Ġ2009": 3021,
      "Ġcomes": 3022,
      "fully": 3023,
      "Ġseem": 3024,
      "Ġfire": 3025,
      "Ġlines": 3026,
      "ht": 3027,
      "Ġcopy": 3028,
      "Ġincreased": 3029,
      "When": 3030,
      "Ġevents": 3031,
      "Ġprotect": 3032,
      "Ġmonths": 3033,
      "www": 3034,
      "Ġmedical": 3035,
      "Ġmethods": 3036,
      "tes": 3037,
      "uration": 3038,
      "Ġquick": 3039,
      "rench": 3040,
      "Ġ24": 3041,
      "rap": 3042,
      "Ġball": 3043,
      "ĠQu": 3044,
      "ensive": 3045,
      "Ġincluded": 3046,
      "Ġheld": 3047,
      "Ġquestions": 3048,
      "199": 3049,
      "Ġthroughout": 3050,
      "ĠJune": 3051,
      "osis": 3052,
      "Ġsometimes": 3053,
      "Ġ2008": 3054,
      "Ġeconomic": 3055,
      "Ġshows": 3056,
      "Ġscientists": 3057,
      "Ġled": 3058,
      "Ġgraph": 3059,
      "Ġclimate": 3060,
      "length": 3061,
      "Ġconduct": 3062,
      "olic": 3063,
      "Ġnecessary": 3064,
      "Ġ||": 3065,
      "conn": 3066,
      "Ġshape": 3067,
      "Ġstatus": 3068,
      "Ġattempt": 3069,
      "error": 3070,
      "Ġforms": 3071,
      "rig": 3072,
      "lier": 3073,
      "Ġcolumn": 3074,
      "ptember": 3075,
      "Ġservices": 3076,
      "Ġsearch": 3077,
      "ceed": 3078,
      "sing": 3079,
      "Ġaffect": 3080,
      "Ġinstance": 3081,
      "vey": 3082,
      "Ġcondition": 3083,
      "ĠReg": 3084,
      "33": 3085,
      "ulations": 3086,
      "Ġtel": 3087,
      "ille": 3088,
      "umb": 3089,
      "Ġmind": 3090,
      "Ġaccept": 3091,
      "ĠAugust": 3092,
      "left": 3093,
      "ama": 3094,
      "IL": 3095,
      "================": 3096,
      "Ġpositive": 3097,
      "Ġelements": 3098,
      "Ġoutside": 3099,
      "xy": 3100,
      "irth": 3101,
      "oved": 3102,
      "Ġlate": 3103,
      "igr": 3104,
      "Ġdict": 3105,
      "utils": 3106,
      "where": 3107,
      "airs": 3108,
      "Ġstarted": 3109,
      "ography": 3110,
      "aling": 3111,
      "Ġsens": 3112,
      "****": 3113,
      "'ll": 3114,
      "Ġ195": 3115,
      "rag": 3116,
      "Ġbar": 3117,
      "Ġestim": 3118,
      "ibrary": 3119,
      "ening": 3120,
      "IV": 3121,
      "Ġissues": 3122,
      "Ġthird": 3123,
      "Ġtaking": 3124,
      "Ġgreater": 3125,
      "ĠNot": 3126,
      "Ġstudent": 3127,
      "Ġtable": 3128,
      "Ġgreen": 3129,
      "abit": 3130,
      "imal": 3131,
      "ike": 3132,
      "Ġcorrect": 3133,
      "check": 3134,
      "ĠPer": 3135,
      "arily": 3136,
      "Ġtrack": 3137,
      "Ġconsist": 3138,
      "values": 3139,
      "HE": 3140,
      "Ġpack": 3141,
      "main": 3142,
      "SE": 3143,
      "Ġ2007": 3144,
      "adem": 3145,
      "He": 3146,
      "Ġrock": 3147,
      "Ġfactors": 3148,
      "Ġsuff": 3149,
      "tx": 3150,
      "Ġheav": 3151,
      "ellow": 3152,
      "Ġmarket": 3153,
      "Ġanc": 3154,
      "oper": 3155,
      "CO": 3156,
      "ĠApp": 3157,
      "Ġ!=": 3158,
      "itude": 3159,
      "Ġindepend": 3160,
      "Ġmoney": 3161,
      "Ġmeaning": 3162,
      "Ġformer": 3163,
      "Ġmatter": 3164,
      "Ġinside": 3165,
      "Ġquality": 3166,
      "nown": 3167,
      "md": 3168,
      "ĠJuly": 3169,
      "Ġlimit": 3170,
      "ameter": 3171,
      "itch": 3172,
      "Ġproduce": 3173,
      "ken": 3174,
      "ĠPe": 3175,
      "Ġapproach": 3176,
      "Ġprec": 3177,
      "ucle": 3178,
      "Ġschools": 3179,
      "vere": 3180,
      "ĠResearch": 3181,
      "ĠApril": 3182,
      "Ġ40": 3183,
      "Ġcompany": 3184,
      "rought": 3185,
      "ĠTest": 3186,
      "create": 3187,
      "ordin": 3188,
      "ĠDo": 3189,
      "Ġelement": 3190,
      "Ġcat": 3191,
      "ĠPart": 3192,
      "Ġrecent": 3193,
      "erous": 3194,
      "Ġprograms": 3195,
      "Ġemer": 3196,
      "Ġtree": 3197,
      "'])": 3198,
      "Ġestablished": 3199,
      "Cont": 3200,
      "amin": 3201,
      "Ġpressure": 3202,
      "Ġrecomm": 3203,
      "Ġproperty": 3204,
      "Ġdemon": 3205,
      "ector": 3206,
      "Ġtheory": 3207,
      "ixed": 3208,
      "irection": 3209,
      "Ġpractice": 3210,
      "Ġyield": 3211,
      "Ġdou": 3212,
      "ĠMe": 3213,
      "Ġreduce": 3214,
      "Ġfriend": 3215,
      "Ġpopular": 3216,
      "cil": 3217,
      "default": 3218,
      "Ġproduced": 3219,
      "ĠCalif": 3220,
      "rew": 3221,
      "Ġparents": 3222,
      "based": 3223,
      "rt": 3224,
      "Ġexact": 3225,
      "oring": 3226,
      "Ġerror": 3227,
      "Ġreceived": 3228,
      "Ġreported": 3229,
      "ĠHer": 3230,
      "Ġord": 3231,
      "Ġwest": 3232,
      "Ġadult": 3233,
      "Ġeffic": 3234,
      "Ġpredict": 3235,
      "Ġdocument": 3236,
      "MA": 3237,
      "Ġstat": 3238,
      "Ġrefer": 3239,
      "Ġ2006": 3240,
      "Ġcross": 3241,
      "Ġmaterials": 3242,
      "Ġissue": 3243,
      "ana": 3244,
      "Ġimplement": 3245,
      "Ġnorth": 3246,
      "cember": 3247,
      "Ġunique": 3248,
      "Ġund": 3249,
      "string": 3250,
      "respond": 3251,
      "Ġsymptoms": 3252,
      "dev": 3253,
      "Ġessential": 3254,
      "Ġhours": 3255,
      "Ġfarm": 3256,
      "ĠDepartment": 3257,
      "Ġadded": 3258,
      "anch": 3259,
      "Ġpolicy": 3260,
      "Ġincludes": 3261,
      "List": 3262,
      "hand": 3263,
      "Ġreview": 3264,
      "ributed": 3265,
      "Ġjson": 3266,
      "Ġfeatures": 3267,
      "Ġsurv": 3268,
      "ervation": 3269,
      "elt": 3270,
      "Ġincreasing": 3271,
      "Ġwor": 3272,
      "Ġdate": 3273,
      "uff": 3274,
      "ades": 3275,
      "Ġinternational": 3276,
      "ornia": 3277,
      "Ġmagn": 3278,
      "Ġclean": 3279,
      "Ġshare": 3280,
      "ĠCity": 3281,
      "Ġlonger": 3282,
      "lin": 3283,
      "duc": 3284,
      "ĠScience": 3285,
      "Ġbehavior": 3286,
      "You": 3287,
      "AD": 3288,
      "Ġmultiple": 3289,
      "Ġthus": 3290,
      "gricult": 3291,
      "Ġstring": 3292,
      "OT": 3293,
      "aul": 3294,
      "ĠPark": 3295,
      "Ġdetermine": 3296,
      "update": 3297,
      "aly": 3298,
      "lt": 3299,
      "Ġfoot": 3300,
      "Ġquant": 3301,
      "Ġnode": 3302,
      "Ġinvolved": 3303,
      "Ġcontact": 3304,
      "ĠJanuary": 3305,
      "Ġpict": 3306,
      "ino": 3307,
      "Ġearth": 3308,
      "encies": 3309,
      "ĠInt": 3310,
      "Ġdemonstr": 3311,
      "ĠMc": 3312,
      "Ġlot": 3313,
      "ccording": 3314,
      "ĠSeptember": 3315,
      "float": 3316,
      "Ġ(\"": 3317,
      "ĠNow": 3318,
      "Ġsaf": 3319,
      "Ġforest": 3320,
      "ovember": 3321,
      "models": 3322,
      "Ġlocated": 3323,
      "Ġexec": 3324,
      "het": 3325,
      "Ġfriends": 3326,
      "ambda": 3327,
      "inct": 3328,
      "Ġcenter": 3329,
      "iences": 3330,
      "Ġdeep": 3331,
      "ender": 3332,
      "pred": 3333,
      "item": 3334,
      "Ġsense": 3335,
      "Ġmach": 3336,
      "Ġpropos": 3337,
      "Ġwhose": 3338,
      "ING": 3339,
      "Ġfeed": 3340,
      "hold": 3341,
      ");": 3342,
      "Ġcapt": 3343,
      "Ġadditional": 3344,
      "ĠRiver": 3345,
      "By": 3346,
      "sk": 3347,
      "Ġrout": 3348,
      "zer": 3349,
      "Ġuses": 3350,
      "Ġtax": 3351,
      "Ġ]": 3352,
      "CT": 3353,
      "27": 3354,
      "Ġbasic": 3355,
      "Ġroot": 3356,
      "message": 3357,
      "net": 3358,
      "Ġlarger": 3359,
      "Ġdistance": 3360,
      "Ġsex": 3361,
      "aches": 3362,
      "Ġmedic": 3363,
      "Ġcomplete": 3364,
      "Ġmember": 3365,
      "ĠOctober": 3366,
      "ram": 3367,
      "Ġfields": 3368,
      "rest": 3369,
      "step": 3370,
      "ils": 3371,
      "ĠDav": 3372,
      "Ġsold": 3373,
      "Ġid": 3374,
      "oday": 3375,
      "urg": 3376,
      "Ġsimply": 3377,
      "Ġfilm": 3378,
      "Ġtemperature": 3379,
      "Ġrule": 3380,
      "irm": 3381,
      "Ġenvironmental": 3382,
      "Ġregular": 3383,
      "plate": 3384,
      "Ġdesigned": 3385,
      "Ġviol": 3386,
      "Ġdirectly": 3387,
      "ĠFrench": 3388,
      "ĠCounty": 3389,
      "cos": 3390,
      "Ġapprox": 3391,
      "Ġability": 3392,
      "rial": 3393,
      "Ġste": 3394,
      "ĠFeb": 3395,
      "Ġprimary": 3396,
      "Ġmicro": 3397,
      "Ġbecomes": 3398,
      "Ġcontains": 3399,
      "Ġshown": 3400,
      "ĠNe": 3401,
      "level": 3402,
      "pol": 3403,
      "Ġchemical": 3404,
      "ptional": 3405,
      "ĠInstitute": 3406,
      "ĠRev": 3407,
      "Ġwrite": 3408,
      "ĠCalifornia": 3409,
      "light": 3410,
      "proper": 3411,
      "UR": 3412,
      "ĠChar": 3413,
      "Ġtf": 3414,
      "Ġstri": 3415,
      "Ġslow": 3416,
      "ĠCor": 3417,
      "ĠHar": 3418,
      "Ġsn": 3419,
      "Ġmanagement": 3420,
      "Ġeffective": 3421,
      "ony": 3422,
      "ĠAg": 3423,
      "ashington": 3424,
      "ĠComp": 3425,
      "oo": 3426,
      "ĠColle": 3427,
      "ĠWhile": 3428,
      "Ġwriting": 3429,
      "Ġofficial": 3430,
      "Ġnames": 3431,
      "used": 3432,
      "obj": 3433,
      "Ġopportun": 3434,
      "--------------------------------": 3435,
      "Ġcaused": 3436,
      "outhern": 3437,
      "ĠServ": 3438,
      "Ġprote": 3439,
      "Ġmilitary": 3440,
      "Ġmatch": 3441,
      "'ve": 3442,
      "ĠCons": 3443,
      "Ġmag": 3444,
      "Ġproperties": 3445,
      "Ġsouth": 3446,
      "Ġcorrespond": 3447,
      "Ġtakes": 3448,
      "Ġfem": 3449,
      "Ġlay": 3450,
      "34": 3451,
      "men": 3452,
      "Ġdoesn": 3453,
      "uk": 3454,
      "Ġtravel": 3455,
      "Ġface": 3456,
      "28": 3457,
      "Id": 3458,
      "35": 3459,
      "Ġappl": 3460,
      "ĊĠĠĠĠĊĠĠĠ": 3461,
      "parse": 3462,
      "pi": 3463,
      "uous": 3464,
      "book": 3465,
      "Ġpick": 3466,
      "Ġthing": 3467,
      "Ġparticularly": 3468,
      "Ġaccom": 3469,
      "pid": 3470,
      "ouncil": 3471,
      "Ġbroad": 3472,
      "sel": 3473,
      "Ġsection": 3474,
      "Ġdevice": 3475,
      "Ġfiles": 3476,
      "aur": 3477,
      "ync": 3478,
      "Ġgenerally": 3479,
      "Ġimages": 3480,
      "isions": 3481,
      "Val": 3482,
      "ĠGerman": 3483,
      "ĠSm": 3484,
      "Ġwalk": 3485,
      "rc": 3486,
      "Ġbound": 3487,
      "pass": 3488,
      "ald": 3489,
      "ĠLet": 3490,
      "Ġsound": 3491,
      "angle": 3492,
      "Ġsubst": 3493,
      "Ġwild": 3494,
      "iles": 3495,
      "Ġfeet": 3496,
      "Ġwind": 3497,
      "useum": 3498,
      "cast": 3499,
      "Ġgot": 3500,
      "ster": 3501,
      "atively": 3502,
      "Ġfav": 3503,
      "loss": 3504,
      "29": 3505,
      "lib": 3506,
      "Ġalthough": 3507,
      "Ġ{'": 3508,
      "Ġearlier": 3509,
      "Ġgirl": 3510,
      "erve": 3511,
      "ĠBo": 3512,
      "ĠIndian": 3513,
      "Ġcompet": 3514,
      "dis": 3515,
      "itation": 3516,
      "0000": 3517,
      "ha": 3518,
      "Ġobjects": 3519,
      "down": 3520,
      "Ġhor": 3521,
      "Ġassess": 3522,
      "ĠSw": 3523,
      "orthern": 3524,
      "Ġaw": 3525,
      "hy": 3526,
      "ĠÃ": 3527,
      "Col": 3528,
      "Ġsmaller": 3529,
      "ruary": 3530,
      "Ġsources": 3531,
      "Ġ2000": 3532,
      "Ġanswer": 3533,
      "ĠWilli": 3534,
      "known": 3535,
      "ĠDecember": 3536,
      "iber": 3537,
      "Ġdisco": 3538,
      "elling": 3539,
      "pha": 3540,
      "Ġmath": 3541,
      "ĠSince": 3542,
      "target": 3543,
      "So": 3544,
      "Ġnut": 3545,
      "Ġparser": 3546,
      "Ġ['": 3547,
      "Ġshall": 3548,
      "Ġitem": 3549,
      "ĠRuss": 3550,
      "Ġsample": 3551,
      "ĠMore": 3552,
      "ague": 3553,
      "Ġago": 3554,
      "Ġprobably": 3555,
      "ara": 3556,
      "sl": 3557,
      "]:": 3558,
      "Ġsoon": 3559,
      "70": 3560,
      "Ġâ": 3561,
      "Ġ21": 3562,
      "Ġgoal": 3563,
      "ĠInternational": 3564,
      "Ġvisit": 3565,
      "flow": 3566,
      "US": 3567,
      "iers": 3568,
      "Ġroad": 3569,
      "response": 3570,
      "Ġindustry": 3571,
      "urns": 3572,
      "Ġdoing": 3573,
      "ancy": 3574,
      "ieved": 3575,
      "Ġheat": 3576,
      "Ġmother": 3577,
      "ango": 3578,
      "see": 3579,
      "ĠLicense": 3580,
      "Ġequation": 3581,
      "Ġinvestig": 3582,
      "36": 3583,
      "Ġcover": 3584,
      "cles": 3585,
      "Ġaccur": 3586,
      "Ġmovement": 3587,
      "Ġsea": 3588,
      "Ġmechan": 3589,
      "Ġspread": 3590,
      "vention": 3591,
      "Ġsquare": 3592,
      "Ġdifference": 3593,
      "Ġremains": 3594,
      "Ġetc": 3595,
      "izes": 3596,
      "Ġdog": 3597,
      "astic": 3598,
      "Ġwin": 3599,
      "top": 3600,
      "IG": 3601,
      "Ġthreat": 3602,
      "oding": 3603,
      "ĠAssoci": 3604,
      "spec": 3605,
      "sq": 3606,
      "Ġsymb": 3607,
      "Ġplayed": 3608,
      "Ġasked": 3609,
      "Ġdf": 3610,
      "base": 3611,
      "26": 3612,
      "Ġ2005": 3613,
      "}}": 3614,
      "Ġir": 3615,
      "ĠNovember": 3616,
      "Ġadj": 3617,
      "Ġbring": 3618,
      "Ġfat": 3619,
      "yl": 3620,
      "ham": 3621,
      "aily": 3622,
      "ĠChurch": 3623,
      "frame": 3624,
      "Ġaltern": 3625,
      "ĠEl": 3626,
      "ulum": 3627,
      "Ġfront": 3628,
      "ĠBr": 3629,
      "Ġskin": 3630,
      "color": 3631,
      "Ġcivil": 3632,
      "ĠPhil": 3633,
      "ban": 3634,
      "Ġtitle": 3635,
      "Ġzero": 3636,
      "Ġsave": 3637,
      "Ġreading": 3638,
      "Ġsong": 3639,
      "active": 3640,
      "Ġscientific": 3641,
      "ĠEuropean": 3642,
      "otal": 3643,
      "ĠMon": 3644,
      "ĠWashington": 3645,
      "Ġappropri": 3646,
      "Ġpersonal": 3647,
      "fficient": 3648,
      "fix": 3649,
      "Ġanaly": 3650,
      "istry": 3651,
      "Ġinj": 3652,
      "Ġsort": 3653,
      "cean": 3654,
      "Ġcollection": 3655,
      "Ġarri": 3656,
      "Ġsil": 3657,
      "Ġdescribed": 3658,
      "At": 3659,
      "Ġindividuals": 3660,
      "Ġexerc": 3661,
      "ondon": 3662,
      "ford": 3663,
      "Ġnight": 3664,
      "Ġspeed": 3665,
      "batch": 3666,
      "Ġcand": 3667,
      "Ġmap": 3668,
      "Ġmulti": 3669,
      "={": 3670,
      "ĠPresident": 3671,
      ".\"\"\"": 3672,
      "Ġborn": 3673,
      "Ġq": 3674,
      "Pl": 3675,
      "board": 3676,
      "Ġrules": 3677,
      "oice": 3678,
      "ners": 3679,
      "post": 3680,
      "And": 3681,
      "Ġleading": 3682,
      "rote": 3683,
      "Ġ'''": 3684,
      "Ġbooks": 3685,
      "uate": 3686,
      "Ġunit": 3687,
      "mit": 3688,
      "ĠMus": 3689,
      "ĠHigh": 3690,
      "html": 3691,
      "reek": 3692,
      "reng": 3693,
      "Ġson": 3694,
      "Ġdiagn": 3695,
      "igned": 3696,
      "ecause": 3697,
      "Ġdied": 3698,
      "\"),": 3699,
      "Ġbott": 3700,
      "do": 3701,
      "Ġlocation": 3702,
      "img": 3703,
      "Ġreleased": 3704,
      "anks": 3705,
      "ĠCong": 3706,
      "Ġframe": 3707,
      "ĠAc": 3708,
      "reet": 3709,
      "Ġreve": 3710,
      "ĠIS": 3711,
      "ĠSpec": 3712,
      "Ġmount": 3713,
      "Ġtransform": 3714,
      "Ġsys": 3715,
      "Ġextra": 3716,
      "ronic": 3717,
      "ufact": 3718,
      "Ġelectric": 3719,
      "90": 3720,
      "argument": 3721,
      "Ġbehind": 3722,
      "=[": 3723,
      "{\\": 3724,
      "Ġonline": 3725,
      "onom": 3726,
      "const": 3727,
      "amer": 3728,
      "LO": 3729,
      "Ġbelieve": 3730,
      "Ġremain": 3731,
      "Ġcarbon": 3732,
      "ĠEngland": 3733,
      "ĠOb": 3734,
      "rees": 3735,
      "Ġsociety": 3736,
      "Ġlack": 3737,
      "token": 3738,
      "roy": 3739,
      "75": 3740,
      "Ġadminist": 3741,
      "ĠRec": 3742,
      "Ġskills": 3743,
      "ĠFirst": 3744,
      "oted": 3745,
      "Ġlost": 3746,
      "Ġallows": 3747,
      "Ġsolution": 3748,
      "ĠFrom": 3749,
      "Ġmid": 3750,
      "Ġcentral": 3751,
      "bin": 3752,
      "abase": 3753,
      "ĠÂ": 3754,
      "fect": 3755,
      "Ġsequence": 3756,
      "Ġplt": 3757,
      "Ġactive": 3758,
      "Ġattention": 3759,
      "Ġconstant": 3760,
      "lation": 3761,
      "Ġtests": 3762,
      "?\"": 3763,
      "aging": 3764,
      "AM": 3765,
      "Ġwanted": 3766,
      "Ġhimself": 3767,
      "idget": 3768,
      "Ġpoor": 3769,
      "ĠUnion": 3770,
      "Ġcateg": 3771,
      "AB": 3772,
      "keys": 3773,
      "Ġwarm": 3774,
      "iques": 3775,
      "Sh": 3776,
      "Ġgives": 3777,
      "abet": 3778,
      "Ġfloat": 3779,
      "ico": 3780,
      "room": 3781,
      "ulate": 3782,
      "Ġinstit": 3783,
      "ĠEduc": 3784,
      "Ġstation": 3785,
      "ĠOther": 3786,
      "term": 3787,
      "ĠGovern": 3788,
      "unch": 3789,
      "Ġprior": 3790,
      "exp": 3791,
      "Ġidentify": 3792,
      "Ġideas": 3793,
      "ĠBar": 3794,
      "Ġvideo": 3795,
      "Ġlargest": 3796,
      "resents": 3797,
      "haps": 3798,
      "inition": 3799,
      "env": 3800,
      "ĠHol": 3801,
      "Ġones": 3802,
      "Ġwall": 3803,
      "Ġfather": 3804,
      "undred": 3805,
      "Ġbirth": 3806,
      "ĠPress": 3807,
      "Ġten": 3808,
      "Ġdistribution": 3809,
      "irit": 3810,
      "One": 3811,
      "Ġvariety": 3812,
      "dro": 3813,
      "ĠEm": 3814,
      "Ġestablish": 3815,
      "hing": 3816,
      "Model": 3817,
      "change": 3818,
      "can": 3819,
      "rim": 3820,
      "Ġdefined": 3821,
      "Ġlives": 3822,
      "Ġmatrix": 3823,
      "fit": 3824,
      "Ġprogress": 3825,
      "Ġassum": 3826,
      "ĠAdd": 3827,
      "orage": 3828,
      "rast": 3829,
      ")]": 3830,
      "Ġeasy": 3831,
      "Ġavoid": 3832,
      "eger": 3833,
      "Ġisinstance": 3834,
      "Ġprivate": 3835,
      "grad": 3836,
      "38": 3837,
      "Ġfast": 3838,
      "Ġfollowed": 3839,
      "icip": 3840,
      "Ġtools": 3841,
      "Ġut": 3842,
      "Ġpark": 3843,
      "Ġcompared": 3844,
      "pite": 3845,
      "Ġwood": 3846,
      "Ġexpression": 3847,
      "Ġconver": 3848,
      "host": 3849,
      "jango": 3850,
      "Ġbit": 3851,
      "Ġthous": 3852,
      "oke": 3853,
      "Ġlabor": 3854,
      "ĠAnt": 3855,
      "actions": 3856,
      "ias": 3857,
      "ĠSch": 3858,
      "Ġsoftware": 3859,
      "ĠIndia": 3860,
      "Ġlogging": 3861,
      "ien": 3862,
      "ĠChina": 3863,
      "Ġanimal": 3864,
      "CH": 3865,
      "Ġnucle": 3866,
      "ĠLily": 3867,
      "Ġneigh": 3868,
      "Ġforces": 3869,
      "dec": 3870,
      "ifically": 3871,
      "Ġdisplay": 3872,
      "ĠFebruary": 3873,
      "uman": 3874,
      "Ġnation": 3875,
      "Ġperformance": 3876,
      "Ġsoil": 3877,
      "Ġfru": 3878,
      "Ġcauses": 3879,
      "ildren": 3880,
      "Ġmention": 3881,
      "Ġscale": 3882,
      "Ġtim": 3883,
      "ĠTrans": 3884,
      "eff": 3885,
      "Ġoperations": 3886,
      "Ġimmedi": 3887,
      "uge": 3888,
      "otes": 3889,
      "ĠÎ": 3890,
      "Ġcool": 3891,
      "Ġdirection": 3892,
      "rapy": 3893,
      "Ġcit": 3894,
      "ĠGeneral": 3895,
      "Ġoptions": 3896,
      "Ġprep": 3897,
      "Ġreflect": 3898,
      "Ġserious": 3899,
      "Ġmer": 3900,
      "title": 3901,
      "Ġrequires": 3902,
      "save": 3903,
      "Ġwebs": 3904,
      "Ġbeginning": 3905,
      "ĠSan": 3906,
      "ĠList": 3907,
      "ĠMany": 3908,
      "Ġche": 3909,
      "45": 3910,
      "Ġfactor": 3911,
      "Ġpsych": 3912,
      "itte": 3913,
      "Ġdeveloping": 3914,
      "nn": 3915,
      "ENT": 3916,
      "Set": 3917,
      "pret": 3918,
      "ĠMy": 3919,
      "Ġconstit": 3920,
      "File": 3921,
      "ica": 3922,
      "Ġdepend": 3923,
      "mask": 3924,
      "Ġconstruct": 3925,
      "Ġseems": 3926,
      "Ġtowards": 3927,
      "(\\": 3928,
      "Ġcred": 3929,
      "idden": 3930,
      "Ġeat": 3931,
      "last": 3932,
      "ĠArt": 3933,
      "Ġlooking": 3934,
      "ĠDis": 3935,
      "Ġrepresents": 3936,
      "curity": 3937,
      "rep": 3938,
      "names": 3939,
      "Ġbur": 3940,
      "come": 3941,
      "ĠThen": 3942,
      ")))": 3943,
      "ternet": 3944,
      "Ġvill": 3945,
      "itting": 3946,
      "gn": 3947,
      "Ġlove": 3948,
      "ensity": 3949,
      "ctors": 3950,
      "Ġmiles": 3951,
      "Ġtherefore": 3952,
      "Ġheight": 3953,
      "Ġquite": 3954,
      "west": 3955,
      "Ġful": 3956,
      "Ġapplication": 3957,
      "37": 3958,
      "apter": 3959,
      "Ġconcent": 3960,
      "rors": 3961,
      "udd": 3962,
      "rael": 3963,
      "pped": 3964,
      "Ġ2013": 3965,
      "Ġquickly": 3966,
      "rack": 3967,
      "Ġtold": 3968,
      "Ġculture": 3969,
      "ĠAlthough": 3970,
      "]]": 3971,
      "Ġrat": 3972,
      "aker": 3973,
      "Ġhelps": 3974,
      "Ġcontinued": 3975,
      "ĠCanada": 3976,
      "Ġencoura": 3977,
      "asons": 3978,
      "edia": 3979,
      "attr": 3980,
      "ĠRed": 3981,
      "Ġbrought": 3982,
      "files": 3983,
      "Ġroom": 3984,
      "ĠLondon": 3985,
      "Ġinstall": 3986,
      "ĠMost": 3987,
      "ĠWeb": 3988,
      "ĠEast": 3989,
      "39": 3990,
      "vis": 3991,
      "tings": 3992,
      "zz": 3993,
      "ĠChristian": 3994,
      "Ġurl": 3995,
      "ĠAfrica": 3996,
      "Ġdrink": 3997,
      "Ġcompan": 3998,
      "ii": 3999,
      "Ġnegative": 4000,
      "Ġice": 4001,
      "orge": 4002,
      "desc": 4003,
      "Ġwrote": 4004,
      "Ġeth": 4005,
      "Ġgetting": 4006,
      "Ġfinding": 4007,
      "Ġnews": 4008,
      "ĠDes": 4009,
      "Ġnearly": 4010,
      "Ġjud": 4011,
      "Ġbad": 4012,
      "Ġresource": 4013,
      "current": 4014,
      "ttps": 4015,
      "Ġvia": 4016,
      "ĠTr": 4017,
      "čĊč": 4018,
      "ĠHouse": 4019,
      "erate": 4020,
      "rab": 4021,
      "items": 4022,
      "Ġ60": 4023,
      "ĠHistory": 4024,
      "sec": 4025,
      "Ġsal": 4026,
      "Ġemb": 4027,
      "Ġsites": 4028,
      "osition": 4029,
      "Ġaud": 4030,
      "Ġ2004": 4031,
      "Ġstreng": 4032,
      "Ġsus": 4033,
      "Ġtransport": 4034,
      "Ġdoctor": 4035,
      "Ġuseful": 4036,
      "################################": 4037,
      "Ġgrowing": 4038,
      "Ġcard": 4039,
      "ĠAN": 4040,
      "Ġbab": 4041,
      "road": 4042,
      "eta": 4043,
      "NAME": 4044,
      "ĊĠĠĠĠĠĠĠĠĠ": 4045,
      "mean": 4046,
      "Ġformed": 4047,
      "Ġbal": 4048,
      "Ġfederal": 4049,
      "Ġformat": 4050,
      "gar": 4051,
      "uster": 4052,
      "Ġgave": 4053,
      "Ġbasis": 4054,
      "Ġdecre": 4055,
      "unk": 4056,
      "ĠBen": 4057,
      "ĠAfrican": 4058,
      "Ġweb": 4059,
      "Ġensure": 4060,
      "Ġtraditional": 4061,
      "Ġrepl": 4062,
      "Ġleaders": 4063,
      "Re": 4064,
      "aid": 4065,
      "Fr": 4066,
      "Ġarray": 4067,
      "urt": 4068,
      "Ġcoast": 4069,
      "Ġ28": 4070,
      "position": 4071,
      "pack": 4072,
      "ares": 4073,
      "ech": 4074,
      "{}": 4075,
      "Ġmanufact": 4076,
      "older": 4077,
      "ĠIr": 4078,
      "Ġdistrict": 4079,
      "open": 4080,
      "Ġhundred": 4081,
      "filter": 4082,
      "Ġstress": 4083,
      "Ġsteps": 4084,
      "!\"": 4085,
      "find": 4086,
      "[:,": 4087,
      "mary": 4088,
      "ulated": 4089,
      "ying": 4090,
      "Ġdiet": 4091,
      "umber": 4092,
      "ĠHere": 4093,
      "more": 4094,
      "Ġmiss": 4095,
      "ĠSee": 4096,
      "(-": 4097,
      "Ġallowed": 4098,
      "Ġactual": 4099,
      "ĠDef": 4100,
      "isms": 4101,
      "event": 4102,
      "Ġlimited": 4103,
      "http": 4104,
      "urs": 4105,
      "eline": 4106,
      "oes": 4107,
      "ĠThus": 4108,
      "âĢ¢": 4109,
      "var": 4110,
      "bot": 4111,
      "tained": 4112,
      "ĠVir": 4113,
      "78": 4114,
      "ux": 4115,
      "Ġapply": 4116,
      "Ġdamage": 4117,
      "ĠSer": 4118,
      "Ġsleep": 4119,
      "IP": 4120,
      "ĠMat": 4121,
      "Ġcommer": 4122,
      "Ġhot": 4123,
      "doc": 4124,
      "Ġtechniques": 4125,
      "Ġteachers": 4126,
      "Ġvict": 4127,
      "det": 4128,
      "Ġtrees": 4129,
      "Ġ22": 4130,
      "ocr": 4131,
      "Ġchalleng": 4132,
      "Ġconnect": 4133,
      "ĠCollege": 4134,
      "unt": 4135,
      "bar": 4136,
      "width": 4137,
      "osing": 4138,
      "ĠAng": 4139,
      "illing": 4140,
      "cal": 4141,
      "gener": 4142,
      "block": 4143,
      "yond": 4144,
      "Ġfamilies": 4145,
      "Ġrepe": 4146,
      "Ġunits": 4147,
      "With": 4148,
      "acity": 4149,
      "ought": 4150,
      "uple": 4151,
      "Ġcel": 4152,
      "ĠGreat": 4153,
      "Ġwindow": 4154,
      "Ġreligious": 4155,
      "abs": 4156,
      "apping": 4157,
      "Ġrain": 4158,
      "bum": 4159,
      "Ġnumpy": 4160,
      "bb": 4161,
      "ĠLaw": 4162,
      "build": 4163,
      "ĠMex": 4164,
      "Ġmedia": 4165,
      "ube": 4166,
      "65": 4167,
      "No": 4168,
      "Ġdegree": 4169,
      "pat": 4170,
      "iency": 4171,
      "Ġrates": 4172,
      "hens": 4173,
      "izations": 4174,
      "Ġlat": 4175,
      "aled": 4176,
      "Ġvirus": 4177,
      "Ġdivid": 4178,
      "Ġsafety": 4179,
      "Ġblue": 4180,
      "Ġclient": 4181,
      "Ġstay": 4182,
      "Ġbeyond": 4183,
      "Not": 4184,
      "Ġeight": 4185,
      "ĠCour": 4186,
      "Ġwide": 4187,
      "Ġvert": 4188,
      "Ġmemory": 4189,
      "win": 4190,
      "Ġhappy": 4191,
      "Ġstyle": 4192,
      "Ġcommunities": 4193,
      "Ġcustom": 4194,
      "Int": 4195,
      "Ġexplore": 4196,
      "Ġhealthy": 4197,
      "Ġeasily": 4198,
      "UN": 4199,
      "omb": 4200,
      "Ġfigure": 4201,
      "Ind": 4202,
      "number": 4203,
      "life": 4204,
      "born": 4205,
      "Ġappropriate": 4206,
      "Ġround": 4207,
      "Ġaspect": 4208,
      "iny": 4209,
      "Ġmoved": 4210,
      "PO": 4211,
      "ped": 4212,
      "amic": 4213,
      "Ġreturned": 4214,
      "Ġrot": 4215,
      "05": 4216,
      "itect": 4217,
      "All": 4218,
      "Ġcorn": 4219,
      "Ġfight": 4220,
      "ospital": 4221,
      "Ġappears": 4222,
      "Ġcapital": 4223,
      "pan": 4224,
      "gram": 4225,
      "ĠIsrael": 4226,
      "Ġrunning": 4227,
      "Ġ2001": 4228,
      "ĠTim": 4229,
      "sect": 4230,
      "Ġcarry": 4231,
      "Ġ2003": 4232,
      "Ġreach": 4233,
      "Ġband": 4234,
      "Ġ23": 4235,
      "Ġhands": 4236,
      "Ġharm": 4237,
      "sin": 4238,
      "table": 4239,
      "Ġpassed": 4240,
      "Ġplaces": 4241,
      "column": 4242,
      "Ġhous": 4243,
      "rong": 4244,
      "Ġbacter": 4245,
      "ĠJust": 4246,
      "ĠCO": 4247,
      "Ġcomplet": 4248,
      "property": 4249,
      "ĠAssociation": 4250,
      "Ġscreen": 4251,
      "Ġforward": 4252,
      "Ġcurrently": 4253,
      "Ġ26": 4254,
      "hol": 4255,
      "Ġconv": 4256,
      "ĠSystem": 4257,
      "Ġmole": 4258,
      "weight": 4259,
      "water": 4260,
      "omin": 4261,
      "Ġstar": 4262,
      "isf": 4263,
      "ĠFin": 4264,
      "ĠSociety": 4265,
      "ĊĠĠĠĠĠĠĠĠĠĠĠĠĠĠĠĠĠĠĠĠĠĠĠĠĠĠĠĠĠĠĠĠĠĠĠĠĠĠĠĠ": 4266,
      "vest": 4267,
      "Ġnorm": 4268,
      "Ġhar": 4269,
      "ĠMich": 4270,
      "Ġmiddle": 4271,
      "Ġsomeone": 4272,
      "ĊĊĠ": 4273,
      "Ġefforts": 4274,
      "content": 4275,
      "idents": 4276,
      "II": 4277,
      "ifier": 4278,
      "Ob": 4279,
      "Ġexists": 4280,
      "Ġstage": 4281,
      "Ġitems": 4282,
      "Ġremember": 4283,
      "Ġhabit": 4284,
      "root": 4285,
      "mosp": 4286,
      "Ġlif": 4287,
      "PA": 4288,
      "Ġdang": 4289,
      "semb": 4290,
      "tr": 4291,
      "Ġachieve": 4292,
      "ĠAmericans": 4293,
      "rip": 4294,
      "lay": 4295,
      "Ġoccup": 4296,
      "Ġvacc": 4297,
      "88": 4298,
      "Ġtend": 4299,
      "Ġconstruction": 4300,
      "Ġproced": 4301,
      "oe": 4302,
      "Ġnothing": 4303,
      "Ġdark": 4304,
      "Ġinstr": 4305,
      "Ġpoll": 4306,
      "Ġprop": 4307,
      "ds": 4308,
      "rics": 4309,
      "Ġnote": 4310,
      "Ġdescription": 4311,
      "lor": 4312,
      "Ġsolar": 4313,
      "sg": 4314,
      "Ġ27": 4315,
      "ingu": 4316,
      "query": 4317,
      "Ġaxis": 4318,
      "ĠSim": 4319,
      "Ġsust": 4320,
      "iar": 4321,
      "ĠCongress": 4322,
      "Ġchurch": 4323,
      "osure": 4324,
      "Ġbatch": 4325,
      "ails": 4326,
      "Ġcontaining": 4327,
      "ĠRoman": 4328,
      "ns": 4329,
      "mission": 4330,
      "adata": 4331,
      "Ġking": 4332,
      "Ġlayer": 4333,
      "Ġagricult": 4334,
      "Ġveget": 4335,
      "Ġign": 4336,
      "Ġoperation": 4337,
      "Ġworkers": 4338,
      "ittee": 4339,
      "Ġfuel": 4340,
      "ĠDavid": 4341,
      "ĠAustralia": 4342,
      "....": 4343,
      "istor": 4344,
      "Ġsummer": 4345,
      "stitution": 4346,
      "Ġhighly": 4347,
      "lict": 4348,
      "Ġvariable": 4349,
      "Ġminutes": 4350,
      "Ġprogramm": 4351,
      "ĠJewish": 4352,
      "ĠInter": 4353,
      "Ġserved": 4354,
      "Ġkids": 4355,
      "Ġhol": 4356,
      "Ġdecision": 4357,
      "estic": 4358,
      "Ġsafe": 4359,
      "Ġcou": 4360,
      "Ġillust": 4361,
      "ros": 4362,
      "'))": 4363,
      "pot": 4364,
      "Ġsevere": 4365,
      "Ġsurround": 4366,
      "rated": 4367,
      "OD": 4368,
      "erg": 4369,
      "iples": 4370,
      "Ġtrade": 4371,
      "joy": 4372,
      "}$": 4373,
      "Ġchanged": 4374,
      "ĠDon": 4375,
      "Ġancient": 4376,
      "Ġhon": 4377,
      "Ġacqu": 4378,
      "Ġtool": 4379,
      "Ġgard": 4380,
      "Ġflo": 4381,
      "ios": 4382,
      "Ġhumans": 4383,
      "Ġdistinct": 4384,
      "ĠWilliam": 4385,
      "body": 4386,
      ">>": 4387,
      "Ġfeature": 4388,
      "=(": 4389,
      "random": 4390,
      "ĊĠĠĠĠĠĠĠĠĠĠĠĠĠĠĠĠĠĠĠĠĠĠĠĠĠĠĠĠĠĠĠĠĠĠĠĠĠĠĠĠĠĠĠĠĠĠĠĠ": 4391,
      "ĠDuring": 4392,
      "task": 4393,
      "Ġrapid": 4394,
      "Ġoffer": 4395,
      "gor": 4396,
      "Ġsituation": 4397,
      "aters": 4398,
      "uries": 4399,
      "igen": 4400,
      "Ġrare": 4401,
      "ĠDay": 4402,
      "omas": 4403,
      "Ġworked": 4404,
      "Ġcontroll": 4405,
      "Ġdb": 4406,
      "Ġexisting": 4407,
      "Ġcritical": 4408,
      "Ġvector": 4409,
      "Ġsets": 4410,
      "MP": 4411,
      "Ġinfluence": 4412,
      "ĠCouncil": 4413,
      "ĠLa": 4414,
      "Ġcru": 4415,
      "Ġtesting": 4416,
      "Ġprojects": 4417,
      "Ġ2002": 4418,
      "erved": 4419,
      "reme": 4420,
      "inese": 4421,
      "gment": 4422,
      "normal": 4423,
      "ĠEducation": 4424,
      "aign": 4425,
      "Ã¡": 4426,
      "Ġbenefits": 4427,
      "Ġveh": 4428,
      "amental": 4429,
      "Ġinteresting": 4430,
      "ĠKe": 4431,
      "vant": 4432,
      "Ġplaced": 4433,
      "ĊĠĠĠĠĠĠĠĠĊĠĠĠĠĠĠĠ": 4434,
      "bre": 4435,
      "48": 4436,
      "Ġweeks": 4437,
      "Ġplaying": 4438,
      "ĠToday": 4439,
      "Ġwait": 4440,
      "abilities": 4441,
      "Ġmill": 4442,
      "nov": 4443,
      "ĠArch": 4444,
      "ĠCommun": 4445,
      "Ġfollows": 4446,
      "Ġphil": 4447,
      "iled": 4448,
      "ĠEach": 4449,
      "Ġpp": 4450,
      "Ġexpand": 4451,
      "IR": 4452,
      "Ġanything": 4453,
      "Ġfinanc": 4454,
      "ĠFrance": 4455,
      "ĠJames": 4456,
      "ĠInst": 4457,
      "Ġdead": 4458,
      "Ġsecurity": 4459,
      "Ġpan": 4460,
      "ĊĠĠĠĠĠĠĠĠĠĠĠĠ": 4461,
      "ĠPal": 4462,
      "gu": 4463,
      "parent": 4464,
      "Ġapplications": 4465,
      "Ġplot": 4466,
      "msg": 4467,
      "ocol": 4468,
      "orders": 4469,
      "Ġcolon": 4470,
      "ĠMor": 4471,
      "Ġpresident": 4472,
      "pected": 4473,
      "lines": 4474,
      "ĠWork": 4475,
      "Ġsem": 4476,
      "Ġboard": 4477,
      "Ġaim": 4478,
      "Ġlogger": 4479,
      "Ġtoward": 4480,
      "Ġevolution": 4481,
      "ĠPat": 4482,
      "aught": 4483,
      "Ġpatient": 4484,
      "anish": 4485,
      "context": 4486,
      "Ġvariables": 4487,
      "Ġvers": 4488,
      "ĠPre": 4489,
      "Ġsupply": 4490,
      "Ġapplied": 4491,
      "Ġplayer": 4492,
      "ĠRober": 4493,
      "Ġdaily": 4494,
      "ãģ": 4495,
      "Ġmode": 4496,
      "deb": 4497,
      "ĠTechn": 4498,
      "Ġusers": 4499,
      "ĠVol": 4500,
      "Ġmoving": 4501,
      "ĠAir": 4502,
      "Ġdemand": 4503,
      "enge": 4504,
      "axis": 4505,
      "Ġdiscovered": 4506,
      "Ġpatterns": 4507,
      "CC": 4508,
      "Ġpow": 4509,
      "Ġauth": 4510,
      "Ġseparate": 4511,
      "Ġselect": 4512,
      "Ġast": 4513,
      "atur": 4514,
      "ributes": 4515,
      "ĠYour": 4516,
      "close": 4517,
      "Add": 4518,
      "Ġoverall": 4519,
      "Ġsuccessful": 4520,
      "En": 4521,
      "','": 4522,
      "Key": 4523,
      "[-": 4524,
      "page": 4525,
      "Ġbeaut": 4526,
      "Ġsch": 4527,
      "Is": 4528,
      "dot": 4529,
      "Ġcosts": 4530,
      "Ġcreating": 4531,
      "Ġtrying": 4532,
      "Ġreference": 4533,
      "02": 4534,
      "Get": 4535,
      "Ġeverything": 4536,
      "Ġdidn": 4537,
      "Ġmission": 4538,
      "source": 4539,
      "Ġcop": 4540,
      "New": 4541,
      "UL": 4542,
      "Ġcomponents": 4543,
      "ĠGreen": 4544,
      "Ph": 4545,
      "Ġcoordin": 4546,
      "ipment": 4547,
      "raction": 4548,
      "Ġriver": 4549,
      "Ġcitiz": 4550,
      "Let": 4551,
      "Ġdry": 4552,
      "Ġclin": 4553,
      "Ġgold": 4554,
      "Ġrecently": 4555,
      "cell": 4556,
      "Ġpurpose": 4557,
      "dataset": 4558,
      "31": 4559,
      "Ġdeal": 4560,
      "link": 4561,
      "Ġgoes": 4562,
      "Ċĉĉĉ": 4563,
      "({": 4564,
      "ĠIN": 4565,
      "ĠPublic": 4566,
      "Ġautom": 4567,
      "Ġverb": 4568,
      "Ġmix": 4569,
      "Ġtiss": 4570,
      "ĠDist": 4571,
      "but": 4572,
      "95": 4573,
      "čĊĠĠĠĠĠĠĠĠĠĠĠĠĠĠĠ": 4574,
      "'m": 4575,
      "oses": 4576,
      "Ġcontract": 4577,
      "Ġ),": 4578,
      "copy": 4579,
      "AG": 4580,
      "project": 4581,
      "objects": 4582,
      "Ġexamples": 4583,
      "ida": 4584,
      "Ġcompanies": 4585,
      "ously": 4586,
      "ĠTom": 4587,
      "Ġapproximately": 4588,
      "Ġconnection": 4589,
      "arian": 4590,
      "Ġadapt": 4591,
      "Ġbeg": 4592,
      "ĠMary": 4593,
      "Ġdetails": 4594,
      "Ġdestroy": 4595,
      "ĠSub": 4596,
      "rm": 4597,
      "Ġeye": 4598,
      "Ġrecords": 4599,
      "Ġbul": 4600,
      "points": 4601,
      "wide": 4602,
      "usion": 4603,
      "Ġexactly": 4604,
      "sqrt": 4605,
      "Ġaware": 4606,
      "ologies": 4607,
      "Ġoffice": 4608,
      "Time": 4609,
      "Ġpresented": 4610,
      "44": 4611,
      "ĠJes": 4612,
      "EL": 4613,
      "Ġutil": 4614,
      "ester": 4615,
      "ĠGermany": 4616,
      "Ġwebsite": 4617,
      "Ġprice": 4618,
      "ĠBlack": 4619,
      "From": 4620,
      "Ġprocesses": 4621,
      "house": 4622,
      "ĠJournal": 4623,
      "Ġsec": 4624,
      "which": 4625,
      "ĠOF": 4626,
      "Ġwid": 4627,
      "ASA": 4628,
      "Ġolder": 4629,
      "Ġisn": 4630,
      "Ġdifferences": 4631,
      "ĠCath": 4632,
      "Ġparams": 4633,
      "Ġlaws": 4634,
      "Ġeventually": 4635,
      "Ġdrug": 4636,
      "abetes": 4637,
      "osoph": 4638,
      "command": 4639,
      "Ġrelease": 4640,
      "Ġformula": 4641,
      "cat": 4642,
      "Ġreceive": 4643,
      "Ġmathematical": 4644,
      "Ġresulting": 4645,
      "Ġbirds": 4646,
      "\"],": 4647,
      "Ġperfect": 4648,
      "Ġbillion": 4649,
      "Ġexhib": 4650,
      "Ġcareer": 4651,
      "atin": 4652,
      "Ġalone": 4653,
      "ĠBook": 4654,
      "pen": 4655,
      "Ġmoment": 4656,
      "ampl": 4657,
      "Ġstore": 4658,
      "aint": 4659,
      "riev": 4660,
      "Ġstandards": 4661,
      "bra": 4662,
      "ä¸": 4663,
      "Ġfa": 4664,
      "ario": 4665,
      "Ġimpl": 4666,
      "Ġinfection": 4667,
      "Ġincor": 4668,
      "ĠTex": 4669,
      "Ġbelong": 4670,
      "Ġupper": 4671,
      "Ġindependent": 4672,
      "ĠPaul": 4673,
      "urb": 4674,
      "ensions": 4675,
      "Ġfoods": 4676,
      "ĠGeorge": 4677,
      ")),": 4678,
      "Ġstarting": 4679,
      "Ġwoman": 4680,
      "Ġtou": 4681,
      "Ġlab": 4682,
      "66": 4683,
      "ĠUnder": 4684,
      "ools": 4685,
      "Ġfit": 4686,
      "uit": 4687,
      "Ġeffort": 4688,
      "Ġoccurs": 4689,
      "odies": 4690,
      "Ġmeasures": 4691,
      "ĠReturns": 4692,
      "Ġradio": 4693,
      "ĠValue": 4694,
      "After": 4695,
      "Ġgames": 4696,
      "Ġfair": 4697,
      "Ġremove": 4698,
      "csv": 4699,
      "arrow": 4700,
      "annels": 4701,
      "Ġteaching": 4702,
      "rief": 4703,
      "che": 4704,
      "scale": 4705,
      "Ġprotection": 4706,
      "Ġleave": 4707,
      "Ġenjoy": 4708,
      "gorith": 4709,
      "tered": 4710,
      "Ġcompar": 4711,
      "Ġtransfer": 4712,
      "ĠDiv": 4713,
      "clusion": 4714,
      "Ġweather": 4715,
      "Ġorganization": 4716,
      "Ġsides": 4717,
      "Text": 4718,
      "Ġvisual": 4719,
      "Ġseven": 4720,
      "Ġvolume": 4721,
      "ipl": 4722,
      "Ġlegal": 4723,
      "icks": 4724,
      "Ġdecided": 4725,
      "Ġupdate": 4726,
      "sequently": 4727,
      "HO": 4728,
      "Ġstru": 4729,
      "anged": 4730,
      "ĊĠĠĠĠĠĠĠĠĠĠĠĠĠĠĠĠĠĠĠĠĠĠĠĠĠĠĠĠĠĠĠ": 4731,
      "Par": 4732,
      "ĠSur": 4733,
      "Ġinvolving": 4734,
      "oration": 4735,
      "Ġparty": 4736,
      "ĠRel": 4737,
      "stream": 4738,
      "Ġdiseases": 4739,
      "Ġconcepts": 4740,
      "rical": 4741,
      "server": 4742,
      "Ġresponsible": 4743,
      "Ġimportance": 4744,
      "Ġstrateg": 4745,
      "Ġvirt": 4746,
      "session": 4747,
      "ĠData": 4748,
      "Ġleaves": 4749,
      "Once": 4750,
      "ĠService": 4751,
      "ystem": 4752,
      "TP": 4753,
      "Ġawait": 4754,
      "'):": 4755,
      "ago": 4756,
      "antic": 4757,
      "Ġsimpl": 4758,
      "Ġlinear": 4759,
      "ĠConf": 4760,
      "unction": 4761,
      "Ġproviding": 4762,
      "sm": 4763,
      "ernel": 4764,
      "Ġprofessional": 4765,
      "ĠChinese": 4766,
      "55": 4767,
      "oma": 4768,
      "Ġteacher": 4769,
      "ĠGen": 4770,
      "atically": 4771,
      "ĠRepublic": 4772,
      "Ġrespond": 4773,
      "reate": 4774,
      "ĠRich": 4775,
      "ĠPy": 4776,
      "iful": 4777,
      "ĠDevelop": 4778,
      "Ġmut": 4779,
      "Ġ1990": 4780,
      "types": 4781,
      "ML": 4782,
      "Ġpen": 4783,
      "Ġdefinition": 4784,
      "Ġhope": 4785,
      "device": 4786,
      "matrix": 4787,
      "Ġplanet": 4788,
      "Ġserver": 4789,
      "Ġatmosp": 4790,
      "efore": 4791,
      "ĠAccording": 4792,
      "Ġenter": 4793,
      "ĠEnvironment": 4794,
      "Ġhistorical": 4795,
      "Ġscen": 4796,
      "Ġsurpr": 4797,
      "Ġgene": 4798,
      "Ġcounter": 4799,
      "Ġspirit": 4800,
      "ĠRem": 4801,
      "ira": 4802,
      "Ġrestr": 4803,
      "Ad": 4804,
      "Ġobtain": 4805,
      "Ġmonitor": 4806,
      "dist": 4807,
      "Ġalbum": 4808,
      "ictionary": 4809,
      "Ġtypically": 4810,
      "Ġspect": 4811,
      "Form": 4812,
      "BC": 4813,
      "Ġceleb": 4814,
      "iance": 4815,
      "ees": 4816,
      "SS": 4817,
      "HT": 4818,
      "ounced": 4819,
      "lambda": 4820,
      "stract": 4821,
      "ocal": 4822,
      "Ġmock": 4823,
      "mar": 4824,
      "Ġreplace": 4825,
      "debug": 4826,
      "cor": 4827,
      "iat": 4828,
      "iate": 4829,
      "ado": 4830,
      "Ġhydro": 4831,
      "Ġsession": 4832,
      "Ġchoose": 4833,
      "Ġcoming": 4834,
      "Ġacid": 4835,
      "ĠOur": 4836,
      "Ġfelt": 4837,
      "Ġseek": 4838,
      "Ġfavor": 4839,
      "ĠPort": 4840,
      "čĊčĊĠĠĠ": 4841,
      "itable": 4842,
      "PE": 4843,
      "ĠWestern": 4844,
      "olar": 4845,
      "Ġ29": 4846,
      "ĠMiss": 4847,
      "Ġsatisf": 4848,
      "oder": 4849,
      "Ġcast": 4850,
      "Ġprotein": 4851,
      "graph": 4852,
      "asion": 4853,
      "isher": 4854,
      "Ġmachine": 4855,
      "Ġinterpret": 4856,
      "Ġanti": 4857,
      "Ġpurch": 4858,
      "Ġexercise": 4859,
      "enty": 4860,
      "apes": 4861,
      "Ġpicture": 4862,
      "atform": 4863,
      "Ġclasses": 4864,
      "enth": 4865,
      "oul": 4866,
      "ĠâĪ": 4867,
      "labels": 4868,
      "Ġpowerful": 4869,
      "ĠRef": 4870,
      "DA": 4871,
      "Ġcos": 4872,
      "Ġpiece": 4873,
      "Ġhighest": 4874,
      "iform": 4875,
      "porary": 4876,
      "related": 4877,
      "These": 4878,
      "Ġreduced": 4879,
      "Ġblocks": 4880,
      "Ġadults": 4881,
      "Ġactions": 4882,
      "iring": 4883,
      "ĠLou": 4884,
      "Ġ{\"": 4885,
      "orial": 4886,
      "Ġeyes": 4887,
      "Ġspeak": 4888,
      "hema": 4889,
      "vari": 4890,
      "mitted": 4891,
      "reedom": 4892,
      "abled": 4893,
      "Ġdatetime": 4894,
      "eph": 4895,
      "ĠFound": 4896,
      "ĠTexas": 4897,
      "Ġ1999": 4898,
      "Ġregions": 4899,
      "Ġgenetic": 4900,
      "Ser": 4901,
      "Ġrise": 4902,
      "Ġbrother": 4903,
      "iments": 4904,
      "Ġsignal": 4905,
      "lock": 4906,
      "Ġreports": 4907,
      "Ġcook": 4908,
      "Ġforeign": 4909,
      "Ġassist": 4910,
      "Ġshowed": 4911,
      "Ġmis": 4912,
      "Ġconflict": 4913,
      "ĠOff": 4914,
      "85": 4915,
      "Ġidentified": 4916,
      "igration": 4917,
      "Se": 4918,
      "agine": 4919,
      "ĠRead": 4920,
      "phas": 4921,
      "Ġcultural": 4922,
      "rupt": 4923,
      "Ġchoice": 4924,
      "Ġrelatively": 4925,
      "ibly": 4926,
      "Ġregarding": 4927,
      "Ġlived": 4928,
      "Ġcommercial": 4929,
      "Ġpet": 4930,
      "Ġperhaps": 4931,
      "bert": 4932,
      "Ġstatement": 4933,
      "ĠDel": 4934,
      "ĠEven": 4935,
      "Ġult": 4936,
      "Ġinform": 4937,
      "Ġpd": 4938,
      "ocket": 4939,
      "ĠBi": 4940,
      "Ġparameters": 4941,
      "Ġrelative": 4942,
      "Ġadvant": 4943,
      "ping": 4944,
      "ĠSen": 4945,
      "ĠTherefore": 4946,
      "TR": 4947,
      "oyal": 4948,
      "Ġcold": 4949,
      "ael": 4950,
      "Ġsecret": 4951,
      "CE": 4952,
      "Ġstaff": 4953,
      "Ġstructures": 4954,
      "ĠJapanese": 4955,
      "dated": 4956,
      "grid": 4957,
      "allel": 4958,
      "Ġmess": 4959,
      "Ġcourt": 4960,
      "77": 4961,
      "Ġdegrees": 4962,
      "Ġinvolves": 4963,
      "Ġcomplic": 4964,
      "Ġlooked": 4965,
      "Ġfundamental": 4966,
      "Ġlegis": 4967,
      "gl": 4968,
      "Ġequipment": 4969,
      "Ġstra": 4970,
      "ĠMuseum": 4971,
      "Ġesc": 4972,
      "Ġeconomy": 4973,
      "ĠMount": 4974,
      "CL": 4975,
      "Ċĉĉĉĉ": 4976,
      "ĠBra": 4977,
      "Ġeast": 4978,
      "Ġrace": 4979,
      "Ġkilled": 4980,
      "ĠDem": 4981,
      "Ġswe": 4982,
      "Ġnuclear": 4983,
      "MS": 4984,
      "Ġmajority": 4985,
      "Ġentry": 4986,
      "ĠMark": 4987,
      "Ġdrugs": 4988,
      "uid": 4989,
      "Ġintroduced": 4990,
      "04": 4991,
      "ĠUN": 4992,
      "za": 4993,
      "ĠProject": 4994,
      "Ġfinally": 4995,
      "raint": 4996,
      "icon": 4997,
      "utive": 4998,
      "anges": 4999,
      "Ġjournal": 5000,
      "ĠArmy": 5001,
      "gypt": 5002,
      "ĠIsland": 5003,
      "Ġreached": 5004,
      "ellig": 5005,
      "ĠOf": 5006,
      "Ġexposure": 5007,
      "Ġsamples": 5008,
      "ĠGovernment": 5009,
      "Ġwhom": 5010,
      "ĠFore": 5011,
      "pop": 5012,
      "mode": 5013,
      "Ġangle": 5014,
      "first": 5015,
      "iot": 5016,
      "ographic": 5017,
      "Ġimg": 5018,
      "Ġbottom": 5019,
      "ander": 5020,
      "Ġsend": 5021,
      "ÃŃ": 5022,
      "Ġdataset": 5023,
      "ĠAre": 5024,
      "Ġlearned": 5025,
      "Ġinterval": 5026,
      "=\\": 5027,
      "Ġemail": 5028,
      "Ġwinter": 5029,
      "Ġoptim": 5030,
      "Ġcry": 5031,
      "ĠDNA": 5032,
      "nes": 5033,
      "Ġpair": 5034,
      "Ġthinking": 5035,
      "Ġmask": 5036,
      "ifying": 5037,
      "Ġburn": 5038,
      "gest": 5039,
      "DF": 5040,
      "itis": 5041,
      "Ġperformed": 5042,
      "Ġmaximum": 5043,
      ".'": 5044,
      "Ġobserved": 5045,
      "Ġ[\"": 5046,
      "Ġpeace": 5047,
      "Ġsav": 5048,
      ".\")": 5049,
      "ĠBer": 5050,
      "Ġdyn": 5051,
      "Ġheard": 5052,
      "ĠOR": 5053,
      "ĊĊĠĠĠĠĠĠĠĠĠĠĠĠĠĠĠ": 5054,
      "Ġnn": 5055,
      "Ġkm": 5056,
      "Ġarchitect": 5057,
      "Ġpresence": 5058,
      "iated": 5059,
      "Ġjoint": 5060,
      "erences": 5061,
      "ĠGet": 5062,
      "Ġfinancial": 5063,
      "ĠAlso": 5064,
      "Ġedge": 5065,
      "search": 5066,
      "Ġmentioned": 5067,
      "ĠSam": 5068,
      "ship": 5069,
      "Ġsetting": 5070,
      "Ġsitu": 5071,
      "Ġselected": 5072,
      "acing": 5073,
      "ĠCourt": 5074,
      "Ġcapacity": 5075,
      "ĠJer": 5076,
      "sample": 5077,
      "Ġ``": 5078,
      "ĠDi": 5079,
      "standing": 5080,
      "Ġcompletely": 5081,
      "Ġfilter": 5082,
      "Ġpreviously": 5083,
      "Ġextrem": 5084,
      "Ġcomment": 5085,
      "'].": 5086,
      "Ġqual": 5087,
      "PS": 5088,
      "ste": 5089,
      "ĠInternet": 5090,
      "Ġtransl": 5091,
      "Ġfemale": 5092,
      "ĠHIV": 5093,
      "Ġslight": 5094,
      "Ġnor": 5095,
      "Ġletter": 5096,
      "Ġdevices": 5097,
      "ses": 5098,
      "conf": 5099,
      "writ": 5100,
      "ky": 5101,
      "Ġabsol": 5102,
      "ĠWater": 5103,
      "Ġsupported": 5104,
      "aughter": 5105,
      "tim": 5106,
      "Qu": 5107,
      "opyright": 5108,
      "Ġnotice": 5109,
      "ĠJews": 5110,
      "Ġgenerate": 5111,
      "Ġgiving": 5112,
      "AA": 5113,
      "ĠHen": 5114,
      "ĠBecause": 5115,
      "auth": 5116,
      "core": 5117,
      "wood": 5118,
      "Ġdro": 5119,
      "TH": 5120,
      "ulf": 5121,
      "Ġdiscussion": 5122,
      "ĠOptional": 5123,
      "inated": 5124,
      "alog": 5125,
      "parser": 5126,
      "osen": 5127,
      "Ġefficient": 5128,
      "fg": 5129,
      "Ġcompl": 5130,
      "ĠTheir": 5131,
      "Ġnovel": 5132,
      "Ġsin": 5133,
      "ding": 5134,
      "ĠBu": 5135,
      "ĠMars": 5136,
      "hat": 5137,
      "omial": 5138,
      "Ġoption": 5139,
      "fort": 5140,
      "delete": 5141,
      "76": 5142,
      "ned": 5143,
      "ĠMal": 5144,
      "Ġexperiment": 5145,
      "Ġappoint": 5146,
      "Ġargument": 5147,
      "PI": 5148,
      "Ġgrant": 5149,
      "dep": 5150,
      "Ġsurvey": 5151,
      "Â°": 5152,
      "Ġcompleted": 5153,
      "03": 5154,
      "txt": 5155,
      "rows": 5156,
      "Ġcalc": 5157,
      "Ġquery": 5158,
      "*-": 5159,
      "cher": 5160,
      "Ġcities": 5161,
      "ĠVirgin": 5162,
      "berg": 5163,
      "Value": 5164,
      "that": 5165,
      "De": 5166,
      "ĠSet": 5167,
      "rome": 5168,
      "aus": 5169,
      "send": 5170,
      "App": 5171,
      "Ġbreast": 5172,
      "ĠCur": 5173,
      "Ġimagine": 5174,
      "Ġcommunic": 5175,
      "Ġarm": 5176,
      "Ġconnected": 5177,
      "Ġnative": 5178,
      "Ġminor": 5179,
      "egin": 5180,
      "Ġcommonly": 5181,
      "ris": 5182,
      "Ġeducational": 5183,
      "Ġserve": 5184,
      "Ġeveryone": 5185,
      "Ġcombined": 5186,
      "08": 5187,
      "ĠSun": 5188,
      "ville": 5189,
      "ĠEgypt": 5190,
      "Ġopened": 5191,
      "ij": 5192,
      "Ġtro": 5193,
      "Ġcarried": 5194,
      "Ġnoted": 5195,
      "Ġincreases": 5196,
      "olved": 5197,
      "asure": 5198,
      "Ġfully": 5199,
      "ructure": 5200,
      "ĠMart": 5201,
      "Ġcampaign": 5202,
      "long": 5203,
      "Ġclosed": 5204,
      "Ġvit": 5205,
      "Ġclub": 5206,
      "---": 5207,
      "Ġemot": 5208,
      "ĠUse": 5209,
      "Ġdjango": 5210,
      "Ġremoved": 5211,
      "show": 5212,
      "Ġestimated": 5213,
      "Ġstream": 5214,
      "ĠJesus": 5215,
      "ailed": 5216,
      "Ġspring": 5217,
      "Ġfindings": 5218,
      "ician": 5219,
      "Ġchance": 5220,
      "Ġenh": 5221,
      "esh": 5222,
      "band": 5223,
      "Ġcalculate": 5224,
      "rieved": 5225,
      "Some": 5226,
      "Ġ1998": 5227,
      "ressed": 5228,
      "Ġturned": 5229,
      "Ġdu": 5230,
      "ĠLord": 5231,
      "Ġdirector": 5232,
      "Ġfear": 5233,
      "amera": 5234,
      "Ġsouthern": 5235,
      "Path": 5236,
      "']['": 5237,
      "clude": 5238,
      "Americ": 5239,
      "astern": 5240,
      "Ġpret": 5241,
      "Ġwrong": 5242,
      "Ġoffers": 5243,
      "Ġpregn": 5244,
      "uted": 5245,
      "eding": 5246,
      "Ġrail": 5247,
      "Ġheavy": 5248,
      "nergy": 5249,
      "CR": 5250,
      "ĠQue": 5251,
      "well": 5252,
      "ogle": 5253,
      "Ġsurg": 5254,
      "Ġship": 5255,
      "Ġdistributed": 5256,
      "anned": 5257,
      "ifies": 5258,
      "anging": 5259,
      "Ġtrig": 5260,
      "Ġobj": 5261,
      "ny": 5262,
      "Ġmeeting": 5263,
      "ologist": 5264,
      "Config": 5265,
      "Ġbackground": 5266,
      "Ġprobability": 5267,
      "replace": 5268,
      "Ġgets": 5269,
      "ĠLin": 5270,
      "score": 5271,
      "Ġaffected": 5272,
      "ĠJack": 5273,
      "Ġwidth": 5274,
      "ĠBay": 5275,
      "Ġprinciples": 5276,
      "Ġplans": 5277,
      "ometry": 5278,
      "ĠMedic": 5279,
      "89": 5280,
      "Ġcore": 5281,
      "pty": 5282,
      "Ġreasons": 5283,
      "Ġcombination": 5284,
      "Ġenum": 5285,
      "nel": 5286,
      "ĠRobert": 5287,
      "Here": 5288,
      "ĠGroup": 5289,
      "address": 5290,
      "Ġnorthern": 5291,
      "Ġotherwise": 5292,
      "Ġsustain": 5293,
      "tag": 5294,
      "pu": 5295,
      "ĠBel": 5296,
      "Log": 5297,
      "Ġphen": 5298,
      "Ġequival": 5299,
      "Ġimmediately": 5300,
      ")):": 5301,
      "fields": 5302,
      "IM": 5303,
      "Ġmaster": 5304,
      "ĠNASA": 5305,
      "ĠMil": 5306,
      "Ġnumerous": 5307,
      "Ġbelieved": 5308,
      "ĠMexico": 5309,
      "ĠMac": 5310,
      "Ġpoly": 5311,
      "Ġcreation": 5312,
      "Ġbattle": 5313,
      "Ġadding": 5314,
      "ensus": 5315,
      "apers": 5316,
      "Ġwatch": 5317,
      "Ġmaintain": 5318,
      "agon": 5319,
      "acters": 5320,
      "Ġdatabase": 5321,
      "Ġcovered": 5322,
      "Ġbaby": 5323,
      "ĠOut": 5324,
      "Ġannual": 5325,
      "06": 5326,
      "ests": 5327,
      "Ġadvanced": 5328,
      "86": 5329,
      "rot": 5330,
      "Ġ},": 5331,
      "conv": 5332,
      "First": 5333,
      "Ġtruth": 5334,
      "ĠIts": 5335,
      "Ġdrop": 5336,
      "Ġtru": 5337,
      "ĠThomas": 5338,
      "rd": 5339,
      "Ġwaste": 5340,
      "ming": 5341,
      "Ġbelief": 5342,
      "evision": 5343,
      "ĠDirect": 5344,
      "49": 5345,
      "logger": 5346,
      "Ġremained": 5347,
      "Ġscore": 5348,
      "Ġappeared": 5349,
      "Ġstrength": 5350,
      "Ġsuggests": 5351,
      "Ġrecommend": 5352,
      "total": 5353,
      "Ġrich": 5354,
      "greg": 5355,
      "Ġjo": 5356,
      "Ġrecorded": 5357,
      "Ġbank": 5358,
      "space": 5359,
      "Ġmodule": 5360,
      "ĠTHE": 5361,
      "Ġgeneration": 5362,
      "Ġec": 5363,
      "Up": 5364,
      "acific": 5365,
      "Ġded": 5366,
      "rum": 5367,
      "Ġemissions": 5368,
      "Ġopportunity": 5369,
      "Ġnet": 5370,
      "Ġchannel": 5371,
      "Ġspecified": 5372,
      "Ġtoys": 5373,
      "Ġroll": 5374,
      "Ġthousands": 5375,
      "Ġmathematics": 5376,
      "Ġterrit": 5377,
      "Ġsac": 5378,
      ")$": 5379,
      "Ġfamous": 5380,
      "lection": 5381,
      "Ġcitizens": 5382,
      "Ġstraight": 5383,
      "ĠOver": 5384,
      "Ġinstruct": 5385,
      "Ġpieces": 5386,
      "ĠGreek": 5387,
      "\\\\": 5388,
      "van": 5389,
      "Ġchanging": 5390,
      "Ġbenefit": 5391,
      "Ġbuildings": 5392,
      "Ġelim": 5393,
      "FA": 5394,
      "ĠMr": 5395,
      "Ġacadem": 5396,
      "Ġdetermined": 5397,
      "pers": 5398,
      "Ġjoin": 5399,
      "Ġcollege": 5400,
      "Ġbool": 5401,
      "Char": 5402,
      "orig": 5403,
      "align": 5404,
      "Ġworth": 5405,
      "Ġlabels": 5406,
      "inate": 5407,
      "Ġsymbol": 5408,
      "Ġfrequency": 5409,
      "ĠException": 5410,
      "EST": 5411,
      "Ġhop": 5412,
      "Ġ80": 5413,
      "Ġprofessor": 5414,
      "Ġconsequ": 5415,
      "Ġalternative": 5416,
      "fo": 5417,
      "force": 5418,
      "Ġcomponent": 5419,
      "Ġkept": 5420,
      "iverse": 5421,
      "aped": 5422,
      "orted": 5423,
      "Ġlooks": 5424,
      "Ġmental": 5425,
      "results": 5426,
      "Ġ-*-": 5427,
      "ĠCatholic": 5428,
      "local": 5429,
      "Ġfailed": 5430,
      "iable": 5431,
      "Ġseed": 5432,
      "Ġ90": 5433,
      "Ġsettings": 5434,
      "layer": 5435,
      "cls": 5436,
      "Ġdoll": 5437,
      "Ġdomain": 5438,
      "Ġmsg": 5439,
      "Ġvillage": 5440,
      "Ġpractices": 5441,
      "Ġproposed": 5442,
      "tf": 5443,
      "eval": 5444,
      "reshold": 5445,
      "rence": 5446,
      "Ġguid": 5447,
      "Ġemerg": 5448,
      "46": 5449,
      "ĠÐ": 5450,
      "Ġdouble": 5451,
      "500": 5452,
      "ĠAv": 5453,
      "Ġrepresented": 5454,
      "While": 5455,
      "ota": 5456,
      "Ġpul": 5457,
      "cohol": 5458,
      "lower": 5459,
      "ĠAny": 5460,
      "Ġstories": 5461,
      "TE": 5462,
      "bt": 5463,
      "ĠAtl": 5464,
      "Ġcommunication": 5465,
      "Ġdetect": 5466,
      ")/": 5467,
      "Ġeasier": 5468,
      "Ġrestrict": 5469,
      "oto": 5470,
      "Ġ1997": 5471,
      "rian": 5472,
      "Base": 5473,
      "Le": 5474,
      "ĠSpace": 5475,
      "String": 5476,
      "Ġmale": 5477,
      "Ġradiation": 5478,
      "Ġcandid": 5479,
      "Ġcro": 5480,
      "Ġcollabor": 5481,
      "Ġcontinuous": 5482,
      "Ġderiv": 5483,
      "ĠNav": 5484,
      "Ġtox": 5485,
      "Ġ($": 5486,
      "Ġsolutions": 5487,
      "Ġbacteria": 5488,
      "Ġsand": 5489,
      "ĠPri": 5490,
      "std": 5491,
      "Ġtoken": 5492,
      "Ġraised": 5493,
      "Ġdiabetes": 5494,
      "ĠTra": 5495,
      "func": 5496,
      "ĠSpanish": 5497,
      "Ġocean": 5498,
      "'d": 5499,
      "47": 5500,
      "ĠNews": 5501,
      "Ġcompre": 5502,
      "\\_{": 5503,
      "Ġstorage": 5504,
      "ĠCompany": 5505,
      "Ġwife": 5506,
      ")^": 5507,
      "Ġunivers": 5508,
      "KE": 5509,
      "Ġrul": 5510,
      "amily": 5511,
      "hesis": 5512,
      "ooth": 5513,
      "enses": 5514,
      "ĠCommission": 5515,
      "ribe": 5516,
      "ĠTwo": 5517,
      "Ġmigr": 5518,
      "ĠHuman": 5519,
      "ĠClass": 5520,
      "Frame": 5521,
      "section": 5522,
      "Ġidentity": 5523,
      "Ġdiscover": 5524,
      "Ġneighbor": 5525,
      "Ġcv": 5526,
      "Äģ": 5527,
      "Requ": 5528,
      "Ġvary": 5529,
      "ĠCarol": 5530,
      "ĠWell": 5531,
      "sim": 5532,
      "ĠValueError": 5533,
      "Ġspot": 5534,
      "ategy": 5535,
      "ipe": 5536,
      "ĠUK": 5537,
      "Ġeating": 5538,
      "Ġconducted": 5539,
      "Ġsyn": 5540,
      "Ġmotion": 5541,
      "OS": 5542,
      "ĠPlan": 5543,
      "Ġpopulations": 5544,
      "ĠBas": 5545,
      "Ġdescribe": 5546,
      "Ġcharge": 5547,
      "ĠPeople": 5548,
      "la": 5549,
      "Ġfaith": 5550,
      "ĠWhite": 5551,
      "Ġsigns": 5552,
      "Ġindeed": 5553,
      "ologists": 5554,
      "strip": 5555,
      "~~": 5556,
      "07": 5557,
      "author": 5558,
      "09": 5559,
      "Ġremaining": 5560,
      "Ġspent": 5561,
      "Ġemphas": 5562,
      "vol": 5563,
      "ĠSal": 5564,
      "Ġsignificantly": 5565,
      "Ġisland": 5566,
      "anguages": 5567,
      "rier": 5568,
      "Ġtried": 5569,
      "Ġcloud": 5570,
      "Ġreferred": 5571,
      "ĠInc": 5572,
      "ĠStreet": 5573,
      "obile": 5574,
      "********": 5575,
      "Ġinternal": 5576,
      "Ġtour": 5577,
      "Ġorganizations": 5578,
      "Ġtherapy": 5579,
      "igma": 5580,
      "ether": 5581,
      "ĠCentral": 5582,
      "Ġfruit": 5583,
      "ĠMont": 5584,
      "Ġboy": 5585,
      "pir": 5586,
      "iders": 5587,
      "arp": 5588,
      "ĠAtt": 5589,
      "ĠLouis": 5590,
      "ĠBro": 5591,
      "]))": 5592,
      "ĠSmith": 5593,
      "Ġhelped": 5594,
      "Ġcontribut": 5595,
      "den": 5596,
      "ya": 5597,
      "https": 5598,
      "Ġadjust": 5599,
      "FF": 5600,
      "Ġplease": 5601,
      "Ġattract": 5602,
      "Ġgrid": 5603,
      "Ġ1980": 5604,
      "ria": 5605,
      "Ġcorresponding": 5606,
      "req": 5607,
      "Ret": 5608,
      "riage": 5609,
      "Ġcircle": 5610,
      "Ġtreated": 5611,
      "Ġgain": 5612,
      "56": 5613,
      "ows": 5614,
      "eration": 5615,
      "Ġnotes": 5616,
      "Ġtradition": 5617,
      "ishes": 5618,
      "Ġrequirements": 5619,
      "Ġchief": 5620,
      "ĠFlor": 5621,
      "spe": 5622,
      "Ġcharg": 5623,
      "ĠMass": 5624,
      "Ġclick": 5625,
      "service": 5626,
      "Ġcoal": 5627,
      "Ġfif": 5628,
      "Ġsolid": 5629,
      "Ġexistence": 5630,
      "aud": 5631,
      "Ġpages": 5632,
      "Input": 5633,
      "Ġhour": 5634,
      "Ġchallenge": 5635,
      "Ġelev": 5636,
      "Sub": 5637,
      "Ġraw": 5638,
      "osite": 5639,
      "Ġdtype": 5640,
      "ĠAcadem": 5641,
      "ĠDevelopment": 5642,
      "Ġfresh": 5643,
      "Ġdefinit": 5644,
      "Ġdepth": 5645,
      "oking": 5646,
      "Ġflood": 5647,
      "Ġillness": 5648,
      "Ġ1996": 5649,
      "ello": 5650,
      "Ġfailure": 5651,
      "options": 5652,
      "Ġ31": 5653,
      "ĠEv": 5654,
      "module": 5655,
      "Ġtheore": 5656,
      "Ġcircum": 5657,
      "inger": 5658,
      "description": 5659,
      "Ġdivided": 5660,
      "icated": 5661,
      "Ġequations": 5662,
      "Ġinvolve": 5663,
      "Ġindustrial": 5664,
      "Ġlibrary": 5665,
      "ture": 5666,
      "rat": 5667,
      "sign": 5668,
      "umps": 5669,
      "direct": 5670,
      "Ġhappens": 5671,
      "pective": 5672,
      "Ġextract": 5673,
      "bi": 5674,
      "ĠSecond": 5675,
      "Ġdecades": 5676,
      "ĠFranc": 5677,
      "mem": 5678,
      "Ġincome": 5679,
      "uing": 5680,
      "Ġphase": 5681,
      "poses": 5682,
      "Ġobtained": 5683,
      "ĠCD": 5684,
      ",'": 5685,
      "96": 5686,
      "Ġbed": 5687,
      "Ġfrequently": 5688,
      "inity": 5689,
      "ĠLake": 5690,
      "alpha": 5691,
      "arter": 5692,
      "ĠCharles": 5693,
      "norm": 5694,
      "unicip": 5695,
      "Ġpersons": 5696,
      "Ġarticles": 5697,
      "ĠSum": 5698,
      "Ġexplain": 5699,
      "elines": 5700,
      "next": 5701,
      "example": 5702,
      "err": 5703,
      "OL": 5704,
      "Ã¼": 5705,
      "ĠEvery": 5706,
      "See": 5707,
      "ĠType": 5708,
      "Ġdivision": 5709,
      "Ġcycle": 5710,
      "Ġalgorith": 5711,
      "oute": 5712,
      "Ġdepending": 5713,
      "Ġisol": 5714,
      "Ġnull": 5715,
      "</": 5716,
      "Ġrank": 5717,
      "Trans": 5718,
      "Ġcharacters": 5719,
      "Ġoccurred": 5720,
      "Ġresistance": 5721,
      "Widget": 5722,
      "igure": 5723,
      "Ġspecifically": 5724,
      "Ġstre": 5725,
      "Ġgoals": 5726,
      "SA": 5727,
      "Ġstock": 5728,
      "words": 5729,
      "Ġ<=": 5730,
      "87": 5731,
      "Ġhun": 5732,
      "Ġconsists": 5733,
      "Ġplanning": 5734,
      "job": 5735,
      "Ġcontrast": 5736,
      "Ġdigital": 5737,
      "ancer": 5738,
      "That": 5739,
      "Ġconservation": 5740,
      "ossible": 5741,
      "olve": 5742,
      "Ġmedicine": 5743,
      "Ġflat": 5744,
      "ializer": 5745,
      "Ġwidely": 5746,
      "comes": 5747,
      "Ġmultip": 5748,
      "Ġtechnique": 5749,
      "Ġgenes": 5750,
      "Ġonto": 5751,
      "Ġrelationships": 5752,
      "Ġbecoming": 5753,
      "zeros": 5754,
      "Ġhit": 5755,
      "real": 5756,
      "Ġurban": 5757,
      "Ġscript": 5758,
      "lat": 5759,
      "Ġincorpor": 5760,
      "crete": 5761,
      "patch": 5762,
      "Ġtum": 5763,
      "Ġ35": 5764,
      "Ġpolic": 5765,
      "Ġengineering": 5766,
      "42": 5767,
      "Ġcolors": 5768,
      "Ġrender": 5769,
      "features": 5770,
      ")}": 5771,
      "found": 5772,
      "ogen": 5773,
      "Ġgrand": 5774,
      "Ġauthors": 5775,
      "Ġ>=": 5776,
      "ãĤ": 5777,
      "ĠProfess": 5778,
      "Ġstorm": 5779,
      "Ġclearly": 5780,
      "Ġsugar": 5781,
      "ĠPacific": 5782,
      "Ġstars": 5783,
      "gebra": 5784,
      "ĠTur": 5785,
      "Ġgarden": 5786,
      "ĠJose": 5787,
      "(_": 5788,
      "Ġhousehold": 5789,
      "Ġgenerated": 5790,
      "Ġpal": 5791,
      "\").": 5792,
      "Ġtissue": 5793,
      "Ġ..": 5794,
      "Ġthread": 5795,
      "ĠProgram": 5796,
      "Ġarmy": 5797,
      "ĠCivil": 5798,
      "Ð¾": 5799,
      "Ġteach": 5800,
      "ĠLear": 5801,
      "Ġglass": 5802,
      "Ġpu": 5803,
      "ĠChildren": 5804,
      "Ġfle": 5805,
      "ulumi": 5806,
      "nic": 5807,
      "ãĥ": 5808,
      "\"])": 5809,
      "ipped": 5810,
      "has": 5811,
      ")\\": 5812,
      "inite": 5813,
      "Ġkwargs": 5814,
      "Ã³": 5815,
      "burg": 5816,
      "ca": 5817,
      "Ġfeat": 5818,
      "Ġ1995": 5819,
      "ĠWil": 5820,
      "Ġsexual": 5821,
      "ui": 5822,
      "Ġliqu": 5823,
      "icit": 5824,
      "Ġple": 5825,
      "Ġtopic": 5826,
      "Ġwonder": 5827,
      "stars": 5828,
      "taining": 5829,
      "Ġbalance": 5830,
      "Ġvess": 5831,
      "onic": 5832,
      "ls": 5833,
      "Ġinh": 5834,
      "Ġleads": 5835,
      "Ġmouth": 5836,
      "Ġbrief": 5837,
      "ĠMod": 5838,
      "Ġbehavi": 5839,
      "Object": 5840,
      "iced": 5841,
      "Ġran": 5842,
      "\"))": 5843,
      "Ġiron": 5844,
      "Ġmere": 5845,
      "Ġphilosoph": 5846,
      "called": 5847,
      "CD": 5848,
      "rand": 5849,
      "Ġ32": 5850,
      "ĠRetrieved": 5851,
      "cel": 5852,
      "CA": 5853,
      "ESS": 5854,
      "ircraft": 5855,
      "Ġsuppl": 5856,
      "ĠEnergy": 5857,
      "ĠMo": 5858,
      "ampions": 5859,
      "Ġdesired": 5860,
      "Ð°": 5861,
      "Ġfilename": 5862,
      "Ġstrugg": 5863,
      "Ġliber": 5864,
      "ĠMedical": 5865,
      "Ġnav": 5866,
      "option": 5867,
      "ĠMem": 5868,
      "ĠColumb": 5869,
      "Ġinsect": 5870,
      "Ġknew": 5871,
      "inations": 5872,
      "roke": 5873,
      "Ġaspects": 5874,
      "ĠIsl": 5875,
      "Ġthick": 5876,
      "TI": 5877,
      "ĠOld": 5878,
      "Ġliterature": 5879,
      "elect": 5880,
      "CS": 5881,
      "Other": 5882,
      "ĠVirginia": 5883,
      "ini": 5884,
      "gal": 5885,
      "Ġprison": 5886,
      "reement": 5887,
      "Ġopin": 5888,
      "ĠLeague": 5889,
      "Ġminimum": 5890,
      "Ġhappen": 5891,
      "stronom": 5892,
      "Exception": 5893,
      "Ġ1970": 5894,
      "Man": 5895,
      "amil": 5896,
      "itors": 5897,
      "ĠSocial": 5898,
      "Ġallowing": 5899,
      "mult": 5900,
      "Of": 5901,
      "ada": 5902,
      "bas": 5903,
      "Ġlinks": 5904,
      "Ġmostly": 5905,
      "Ġweak": 5906,
      "settings": 5907,
      "ffer": 5908,
      "ĠLibrary": 5909,
      "Ġantib": 5910,
      "nam": 5911,
      "ĠProt": 5912,
      "Ġsaying": 5913,
      "ĠHy": 5914,
      "Ġdrive": 5915,
      "Ġshared": 5916,
      "uda": 5917,
      "orter": 5918,
      "Ġelectricity": 5919,
      "Ġwave": 5920,
      "amma": 5921,
      "Ġreturns": 5922,
      "Ġtemperatures": 5923,
      "Ġforced": 5924,
      "Ġwaters": 5925,
      "Case": 5926,
      "static": 5927,
      "ĠHel": 5928,
      "Ġsplit": 5929,
      "Ġhandle": 5930,
      "ĠFoundation": 5931,
      "exec": 5932,
      "Ġcharacteristics": 5933,
      "ĠNor": 5934,
      "Ġrequests": 5935,
      "Ġstim": 5936,
      "Ġarguments": 5937,
      "Ab": 5938,
      "zing": 5939,
      "izont": 5940,
      "Ġpartners": 5941,
      "Ġflag": 5942,
      "Ġintended": 5943,
      "ĠRo": 5944,
      "faces": 5945,
      "ishing": 5946,
      "isation": 5947,
      "67": 5948,
      "Ġfixed": 5949,
      "Ġmo": 5950,
      "Ġsolve": 5951,
      "Ġready": 5952,
      "Ġoriginally": 5953,
      "Ġratio": 5954,
      "Ġstated": 5955,
      "Ġdirectory": 5956,
      "Ġdownload": 5957,
      "State": 5958,
      "Ġjoined": 5959,
      "Ġreligion": 5960,
      "Ġgrade": 5961,
      "game": 5962,
      "mock": 5963,
      "Ġbuy": 5964,
      "estamp": 5965,
      "Ġassign": 5966,
      "elled": 5967,
      "eria": 5968,
      "ĠAlex": 5969,
      "ĠPost": 5970,
      "ĠUp": 5971,
      "sembly": 5972,
      "ĠMet": 5973,
      "Ġsynt": 5974,
      "Mod": 5975,
      "Ġproport": 5976,
      "template": 5977,
      "Ġbone": 5978,
      "ĠAustralian": 5979,
      "Ġenem": 5980,
      "Ġconsumption": 5981,
      "Ġclinical": 5982,
      "ĠUsing": 5983,
      "84": 5984,
      "match": 5985,
      "ĠAD": 5986,
      "Ġauthority": 5987,
      "Ġhospital": 5988,
      "Ġextremely": 5989,
      "Ġdie": 5990,
      "ĠID": 5991,
      "Ġwestern": 5992,
      "Ġabsor": 5993,
      "ĠStand": 5994,
      "cular": 5995,
      "oting": 5996,
      "sv": 5997,
      "Ġdefine": 5998,
      "ĠArab": 5999,
      "ĠHall": 6000,
      "hent": 6001,
      "ĠRad": 6002,
      "Ġfreedom": 6003,
      "uable": 6004,
      "Ġagreed": 6005,
      "Ġoffered": 6006,
      "Ġspeech": 6007,
      "Ġtag": 6008,
      "Ġprefer": 6009,
      "Ġroots": 6010,
      "Ġapparent": 6011,
      "Ġadop": 6012,
      "View": 6013,
      "Ġprimarily": 6014,
      "Ġexplan": 6015,
      "ĠHenry": 6016,
      "connect": 6017,
      "Or": 6018,
      "orph": 6019,
      "aks": 6020,
      "Ġunknown": 6021,
      "sys": 6022,
      "Ġhuge": 6023,
      "CON": 6024,
      "cmd": 6025,
      "iant": 6026,
      "Ġletters": 6027,
      "Ġatmosphere": 6028,
      "Ġofficials": 6029,
      "istan": 6030,
      "Ġexpressed": 6031,
      "icians": 6032,
      "ĠMag": 6033,
      "Class": 6034,
      "Ġgrass": 6035,
      "Ġvoc": 6036,
      "Ġmetal": 6037,
      "ipal": 6038,
      "Rec": 6039,
      "Read": 6040,
      "Ġderived": 6041,
      ")(": 6042,
      "alysis": 6043,
      "::": 6044,
      "Ġsufficient": 6045,
      "Ġmilk": 6046,
      "Ġguide": 6047,
      "Ġkill": 6048,
      "Out": 6049,
      "uns": 6050,
      "Def": 6051,
      "Ġbeautiful": 6052,
      "stack": 6053,
      "ersion": 6054,
      "ĠAsia": 6055,
      "ĠOrgan": 6056,
      "Ġbodies": 6057,
      "Ġtells": 6058,
      "bal": 6059,
      "ingly": 6060,
      "Ġstrategies": 6061,
      "ett": 6062,
      "Ġdefe": 6063,
      "Ġclim": 6064,
      "Ġcomprehens": 6065,
      "email": 6066,
      "Ġarrange": 6067,
      "Ġ'/": 6068,
      "hi": 6069,
      "Ed": 6070,
      "system": 6071,
      "Ġsen": 6072,
      "Ġdra": 6073,
      "repon": 6074,
      "ĠMedicine": 6075,
      "ĠInformation": 6076,
      "ĠFrank": 6077,
      "Ġyellow": 6078,
      "alian": 6079,
      "enced": 6080,
      "Ġdir": 6081,
      "Ġyourself": 6082,
      "ka": 6083,
      "Ġtrial": 6084,
      "Ġ70": 6085,
      "Ġtoy": 6086,
      "ĠMax": 6087,
      "Ġfort": 6088,
      "Sp": 6089,
      "Ġevalu": 6090,
      "transform": 6091,
      "ĠLatin": 6092,
      "bf": 6093,
      "xygen": 6094,
      "reponame": 6095,
      "Ġmarried": 6096,
      "Ġleader": 6097,
      "ona": 6098,
      "79": 6099,
      "inating": 6100,
      "Ġtechnologies": 6101,
      "ĠOffice": 6102,
      "ĠProv": 6103,
      "ĠInstead": 6104,
      "Ġphenomen": 6105,
      "ĠTime": 6106,
      "Ġ>>>": 6107,
      "ava": 6108,
      "Ġprepar": 6109,
      "Ġpurposes": 6110,
      "Ðµ": 6111,
      ":`": 6112,
      "Ġdisorder": 6113,
      "Ġtemp": 6114,
      "Gener": 6115,
      "###": 6116,
      "Ġneuro": 6117,
      "Ġhypot": 6118,
      "ĠLand": 6119,
      "Ġhear": 6120,
      "PL": 6121,
      "ĠLu": 6122,
      "true": 6123,
      "'''": 6124,
      "Ġwriter": 6125,
      "ĠCanadian": 6126,
      "Ġempty": 6127,
      "Ġrefers": 6128,
      "aste": 6129,
      "Ġdespite": 6130,
      "ĠBritain": 6131,
      "ĠDistrict": 6132,
      "Ġhair": 6133,
      "Ġhomes": 6134,
      "TER": 6135,
      "drop": 6136,
      "function": 6137,
      "Ġlanguages": 6138,
      "ĠSupp": 6139,
      "height": 6140,
      "Ġcolumns": 6141,
      "store": 6142,
      "iling": 6143,
      "Ġpolice": 6144,
      "Ġvision": 6145,
      "ĠTem": 6146,
      "FI": 6147,
      "Ġwet": 6148,
      "ĠLabor": 6149,
      "Ġprocessing": 6150,
      "Ġlies": 6151,
      "diff": 6152,
      "Ġmel": 6153,
      "cluded": 6154,
      "lers": 6155,
      "BN": 6156,
      "Ġsubstant": 6157,
      "Ġleaving": 6158,
      "cut": 6159,
      "rations": 6160,
      "lements": 6161,
      "Ġtrend": 6162,
      "Ġshowing": 6163,
      "etch": 6164,
      "Ġpolicies": 6165,
      "Ġroute": 6166,
      "Ġcere": 6167,
      "urity": 6168,
      "kin": 6169,
      "However": 6170,
      "Ġerrors": 6171,
      "ĠCheck": 6172,
      "Ġinfo": 6173,
      "They": 6174,
      "iox": 6175,
      "adr": 6176,
      "]),": 6177,
      "bles": 6178,
      "rition": 6179,
      "Many": 6180,
      "Ġepis": 6181,
      "channel": 6182,
      "Ġportion": 6183,
      "ĠYear": 6184,
      "ĠGl": 6185,
      "Dict": 6186,
      "lication": 6187,
      "Ġhyper": 6188,
      "ĠDivision": 6189,
      "Ġaward": 6190,
      "Node": 6191,
      "Ġcontinues": 6192,
      "Ġalt": 6193,
      "ĠBoth": 6194,
      "ĠAnn": 6195,
      "ran": 6196,
      "Ġrecall": 6197,
      "Ġstrategy": 6198,
      "exists": 6199,
      "Ġfert": 6200,
      "Ġrelevant": 6201,
      "acts": 6202,
      "cycl": 6203,
      "ĠSov": 6204,
      "Ġenv": 6205,
      "Ġslightly": 6206,
      "fn": 6207,
      "ATE": 6208,
      "datetime": 6209,
      "ĠWild": 6210,
      "Ġsomew": 6211,
      "Ġalcohol": 6212,
      "Ġregist": 6213,
      "Ġfounded": 6214,
      "only": 6215,
      "src": 6216,
      "Ġinvent": 6217,
      "times": 6218,
      "oving": 6219,
      "Ġholds": 6220,
      "ĠFlorida": 6221,
      "Ġinteger": 6222,
      "ĠMuslim": 6223,
      "ocity": 6224,
      "Ġchallenges": 6225,
      "Ġeg": 6226,
      "ĠRichard": 6227,
      "Ġfill": 6228,
      "Ġindicate": 6229,
      "Ġpython": 6230,
      "Ġtouch": 6231,
      "lig": 6232,
      "Ġvel": 6233,
      "Ġpun": 6234,
      "ptions": 6235,
      "]['": 6236,
      "ortunately": 6237,
      "UM": 6238,
      "Ġannounced": 6239,
      "under": 6240,
      "ĠPeter": 6241,
      "ĠElect": 6242,
      "ĠForm": 6243,
      "Ġbright": 6244,
      "Ġdecisions": 6245,
      "Ġamounts": 6246,
      "gent": 6247,
      "User": 6248,
      "zy": 6249,
      "Image": 6250,
      "Ġfine": 6251,
      "Ġcausing": 6252,
      "ims": 6253,
      "Ġanyone": 6254,
      "Response": 6255,
      "eal": 6256,
      "Ġbegins": 6257,
      "Ġlimits": 6258,
      "ĠPhys": 6259,
      "Ġintellig": 6260,
      "rich": 6261,
      "Ġchart": 6262,
      "itan": 6263,
      "ĠFrancis": 6264,
      "Ġ500": 6265,
      "she": 6266,
      "Ġsnow": 6267,
      "Ġcars": 6268,
      "ynomial": 6269,
      "Ġlargely": 6270,
      "Ġfoss": 6271,
      "expected": 6272,
      "Ġpossess": 6273,
      "Ġparameter": 6274,
      "Ġinstrument": 6275,
      "Ġfacilities": 6276,
      "Ġadvantage": 6277,
      "ĠLife": 6278,
      "ala": 6279,
      "Ġ1994": 6280,
      "59": 6281,
      "aked": 6282,
      "ĠCON": 6283,
      "ĠDec": 6284,
      "anes": 6285,
      "TS": 6286,
      "Ġnan": 6287,
      "Ġgod": 6288,
      "ĠMiddle": 6289,
      "Ġlatter": 6290,
      "Ġfloor": 6291,
      "Ġopportunities": 6292,
      "Ġtwice": 6293,
      "temp": 6294,
      "Ġequivalent": 6295,
      "Ġasync": 6296,
      "cers": 6297,
      "Ġsuggested": 6298,
      "akers": 6299,
      "ĠSte": 6300,
      "Ġkid": 6301,
      "Pol": 6302,
      "Ġweap": 6303,
      "Ġapproaches": 6304,
      "eties": 6305,
      "Ġpil": 6306,
      "ilit": 6307,
      "icago": 6308,
      "Ġcategory": 6309,
      "Ġcloser": 6310,
      "des": 6311,
      "liament": 6312,
      "Ġchosen": 6313,
      "Since": 6314,
      "ĠOnce": 6315,
      "Ġstudied": 6316,
      "Ġselection": 6317,
      "ialog": 6318,
      "ansion": 6319,
      "draw": 6320,
      "ĊĠĠĠĠĠĠĠĠĠĠĠĠĠ": 6321,
      "Ġpositions": 6322,
      "Ġinterested": 6323,
      "ocation": 6324,
      "Ġclosely": 6325,
      "di": 6326,
      "Ġshell": 6327,
      "Ġbill": 6328,
      "Ġexcess": 6329,
      "comple": 6330,
      "Ġmeant": 6331,
      "Ġbranch": 6332,
      "SI": 6333,
      "pk": 6334,
      "Ġcert": 6335,
      "Ġwealth": 6336,
      "Ġgreatest": 6337,
      "Ġenumerate": 6338,
      "Ġprepared": 6339,
      "Ġreality": 6340,
      "edge": 6341,
      "Ġfol": 6342,
      "plication": 6343,
      "sey": 6344,
      "parameters": 6345,
      "Ġprices": 6346,
      "}.": 6347,
      "Ġunc": 6348,
      "Ġreaction": 6349,
      "Ġtow": 6350,
      "ded": 6351,
      "ĠInf": 6352,
      "Ġdepends": 6353,
      "Ã¶": 6354,
      "American": 6355,
      "Ġlinked": 6356,
      "Ġsigned": 6357,
      "Ġcls": 6358,
      "iveness": 6359,
      "Ġtelevision": 6360,
      "car": 6361,
      "Ġfamiliar": 6362,
      "organ": 6363,
      "Ġextent": 6364,
      "Ġkil": 6365,
      "Ġoperating": 6366,
      "Ġcalls": 6367,
      "Ġreform": 6368,
      "cluding": 6369,
      "ĠLeg": 6370,
      "Ġviolence": 6371,
      "Date": 6372,
      "Ġworry": 6373,
      "Ġdetailed": 6374,
      "Ġeffectively": 6375,
      "ston": 6376,
      "non": 6377,
      "alar": 6378,
      "Ġinstitutions": 6379,
      "common": 6380,
      "remove": 6381,
      "ĠHistor": 6382,
      "Ġcollected": 6383,
      "Ġparticles": 6384,
      "Ġtrou": 6385,
      "41": 6386,
      "Ġnoise": 6387,
      "Ġtrust": 6388,
      "ĠMichael": 6389,
      "Ĥ¬": 6390,
      "Ġaircraft": 6391,
      "TO": 6392,
      "Ġchain": 6393,
      "Ġembed": 6394,
      "Ġplatform": 6395,
      "ĠAp": 6396,
      "Ġreplaced": 6397,
      "Although": 6398,
      "indows": 6399,
      "Ġelection": 6400,
      "ĠTor": 6401,
      "Ġimmune": 6402,
      "ĠConst": 6403,
      "Ġarr": 6404,
      "Ġinnov": 6405,
      "Ġque": 6406,
      "pute": 6407,
      "Ġperman": 6408,
      "Ġabsolute": 6409,
      "Ġfaster": 6410,
      "theta": 6411,
      "predict": 6412,
      "Ġaid": 6413,
      "Ġruns": 6414,
      "iday": 6415,
      "udget": 6416,
      "Ġdiss": 6417,
      "Ġtechnical": 6418,
      "ga": 6419,
      "ras": 6420,
      "Ġturns": 6421,
      "Ġoxygen": 6422,
      "ĠFederal": 6423,
      "ĠSol": 6424,
      "mail": 6425,
      "itz": 6426,
      "Reg": 6427,
      "ĠGold": 6428,
      "python": 6429,
      "ponent": 6430,
      "eper": 6431,
      "Ġmanner": 6432,
      "Ġowners": 6433,
      "embed": 6434,
      "fall": 6435,
      "eli": 6436,
      "Ġsky": 6437,
      "ette": 6438,
      "anta": 6439,
      "Ġsatell": 6440,
      "Ġconcerns": 6441,
      "ndrome": 6442,
      "Ġlisted": 6443,
      "57": 6444,
      "olars": 6445,
      "Ġloved": 6446,
      "tree": 6447,
      "Ġexposed": 6448,
      "Ġ1960": 6449,
      "ean": 6450,
      "RA": 6451,
      "ĠFood": 6452,
      "Ġclassroom": 6453,
      "aven": 6454,
      "================================": 6455,
      "Ġsurgery": 6456,
      "43": 6457,
      "cache": 6458,
      "Ġfootball": 6459,
      "Ġmist": 6460,
      "Ġrough": 6461,
      "Ġbatter": 6462,
      "Ġverbose": 6463,
      "Ġexternal": 6464,
      "Ġrect": 6465,
      "Ġcurve": 6466,
      "Ġapplying": 6467,
      "folder": 6468,
      "ĠTechnology": 6469,
      "center": 6470,
      "Ġrepresenting": 6471,
      "Ġvoice": 6472,
      "free": 6473,
      "pc": 6474,
      "98": 6475,
      "ĠDan": 6476,
      "Ġconvert": 6477,
      "Ġmotor": 6478,
      "nodes": 6479,
      "ategory": 6480,
      "Ġdaughter": 6481,
      "Ġnumer": 6482,
      "Ġsurrounding": 6483,
      "ĠKore": 6484,
      "ĠCommittee": 6485,
      "hetic": 6486,
      "ĠRussian": 6487,
      "urance": 6488,
      "Ġcrucial": 6489,
      "Ġinterview": 6490,
      "ĠParty": 6491,
      "leg": 6492,
      "Ġrecommended": 6493,
      "bour": 6494,
      "Ġreduction": 6495,
      "ĠRoyal": 6496,
      "ĠÃĹ": 6497,
      "Ġyouth": 6498,
      "').": 6499,
      "Ġmorning": 6500,
      "Ġassessment": 6501,
      "xi": 6502,
      "ects": 6503,
      "According": 6504,
      "Ġrecognized": 6505,
      "Ġmanufacture": 6506,
      "ĠDet": 6507,
      "azine": 6508,
      "Ġorganic": 6509,
      "Ġjobs": 6510,
      "68": 6511,
      "ĠOh": 6512,
      "Ġconsc": 6513,
      "dri": 6514,
      "Ġdocuments": 6515,
      "During": 6516,
      "ocratic": 6517,
      "ĠUs": 6518,
      "Ġcompute": 6519,
      "MO": 6520,
      "Ġformation": 6521,
      "itter": 6522,
      "ĠIll": 6523,
      "ĠPenn": 6524,
      "case": 6525,
      "(*": 6526,
      "entry": 6527,
      "Ġdistingu": 6528,
      "itage": 6529,
      "seq": 6530,
      "header": 6531,
      "Ġparallel": 6532,
      "Ġimproved": 6533,
      "Ġmeasured": 6534,
      "ĠFurther": 6535,
      "Imagine": 6536,
      "Ġprime": 6537,
      "power": 6538,
      "ĠId": 6539,
      "ATION": 6540,
      "location": 6541,
      "press": 6542,
      "adding": 6543,
      "urd": 6544,
      "\"):": 6545,
      "ridge": 6546,
      "ĠEngine": 6547,
      "yd": 6548,
      "appe": 6549,
      "stop": 6550,
      "TY": 6551,
      "mm": 6552,
      "Ġnations": 6553,
      "ĠRights": 6554,
      "Ġaccel": 6555,
      "Ġaccurate": 6556,
      "pload": 6557,
      "bound": 6558,
      "oded": 6559,
      "Ġfro": 6560,
      "Ġcritic": 6561,
      "ĠNote": 6562,
      "icial": 6563,
      "ĠEnd": 6564,
      "eps": 6565,
      "uls": 6566,
      "soft": 6567,
      "ĠCamp": 6568,
      "pool": 6569,
      "neg": 6570,
      "ĠWhy": 6571,
      "Ġlandsc": 6572,
      "Ġgal": 6573,
      "going": 6574,
      "ĠRoad": 6575,
      "ba": 6576,
      "ittest": 6577,
      "ĠSea": 6578,
      "Ġinputs": 6579,
      "username": 6580,
      "ĠHT": 6581,
      "epoch": 6582,
      "icens": 6583,
      "Ġdescribes": 6584,
      "Ġagricultural": 6585,
      "arant": 6586,
      "Ġpairs": 6587,
      "Ġdut": 6588,
      "Hand": 6589,
      "char": 6590,
      "More": 6591,
      "ĠMain": 6592,
      "ola": 6593,
      "ĠTer": 6594,
      "Ġpowers": 6595,
      "Ġfarmers": 6596,
      "unte": 6597,
      "rains": 6598,
      "zen": 6599,
      "ĠKey": 6600,
      "Ġhidden": 6601,
      "Ref": 6602,
      "Ġplane": 6603,
      "Ġpretty": 6604,
      "ĠModel": 6605,
      "Ġlatest": 6606,
      "div": 6607,
      "ĠRob": 6608,
      "Ġobvious": 6609,
      "Ġexception": 6610,
      "Su": 6611,
      "Ġchoices": 6612,
      "second": 6613,
      "Ġvaluable": 6614,
      "Ġrepeated": 6615,
      "Ġsq": 6616,
      "heast": 6617,
      "Size": 6618,
      "Ġtiny": 6619,
      "Ġdensity": 6620,
      "Ġkinds": 6621,
      "Ġ45": 6622,
      "chers": 6623,
      "except": 6624,
      "ĠJoseph": 6625,
      "pping": 6626,
      "čĊčĊĠĠĠĠĠĠĠ": 6627,
      "ĠKh": 6628,
      "ĠTV": 6629,
      "itness": 6630,
      "Ġbear": 6631,
      "Ġreducing": 6632,
      "Ġclaims": 6633,
      "Ġsoldiers": 6634,
      "Ġdram": 6635,
      "Ġsolving": 6636,
      "Line": 6637,
      "ialize": 6638,
      "Ġrelation": 6639,
      "eles": 6640,
      "Most": 6641,
      "Ġbreath": 6642,
      "olf": 6643,
      "ĠAcademy": 6644,
      "Ġ'.": 6645,
      "war": 6646,
      "Ġcenturies": 6647,
      "ĠSouthern": 6648,
      "Ġcoding": 6649,
      "inding": 6650,
      "edy": 6651,
      "Ġmort": 6652,
      "My": 6653,
      "torch": 6654,
      "Ġconvent": 6655,
      "Ġcommit": 6656,
      "estion": 6657,
      "Ġ1992": 6658,
      "ĠPath": 6659,
      "heme": 6660,
      "Ġprinciple": 6661,
      "Ġinstruction": 6662,
      "Ġgrav": 6663,
      "Ġkeeping": 6664,
      "Ġsubjects": 6665,
      "agues": 6666,
      "ifications": 6667,
      "Ġmountain": 6668,
      "Ġglob": 6669,
      "Ġappearance": 6670,
      "Ġflight": 6671,
      "Ġsuc": 6672,
      "Ġdiscovery": 6673,
      "('/": 6674,
      "Ġalign": 6675,
      "ĠSoviet": 6676,
      "63": 6677,
      "ĠCy": 6678,
      "Ġdangerous": 6679,
      "inally": 6680,
      "ĠWomen": 6681,
      "Ġmainly": 6682,
      "ienced": 6683,
      "BS": 6684,
      "reland": 6685,
      "izontal": 6686,
      "itud": 6687,
      "cript": 6688,
      "Ġextended": 6689,
      "Ġparticipants": 6690,
      "61": 6691,
      "Ġhappened": 6692,
      "network": 6693,
      "Ġviews": 6694,
      "rays": 6695,
      "Ġacademic": 6696,
      "roph": 6697,
      "Ġaccepted": 6698,
      "ĠCarolina": 6699,
      "58": 6700,
      "Ġfinished": 6701,
      "Ġprocedure": 6702,
      "roid": 6703,
      "aph": 6704,
      "Ġexperiences": 6705,
      "zone": 6706,
      "Ġreact": 6707,
      "Ġtroops": 6708,
      "Ġequals": 6709,
      "ao": 6710,
      "Ġstem": 6711,
      "Ġnewsp": 6712,
      "ker": 6713,
      "ĠChicago": 6714,
      "Ġresidents": 6715,
      "Per": 6716,
      "ishop": 6717,
      "cosystem": 6718,
      "ulating": 6719,
      "Ġunf": 6720,
      "Last": 6721,
      "Ã¢": 6722,
      "Ġinjury": 6723,
      "Ġkernel": 6724,
      "Ġpromote": 6725,
      "ĊĊĊĠĠĠ": 6726,
      "rie": 6727,
      "Ġopening": 6728,
      "ĠCopyright": 6729,
      "Ġ1993": 6730,
      "Ġseconds": 6731,
      "Ġefficiency": 6732,
      "script": 6733,
      "ĠVict": 6734,
      "69": 6735,
      "Ġtun": 6736,
      "ĠConn": 6737,
      "make": 6738,
      "ĠBudd": 6739,
      "Ġprem": 6740,
      "Ġfilled": 6741,
      "ports": 6742,
      "ĠCle": 6743,
      "Ġstick": 6744,
      "Ġphysics": 6745,
      "KEY": 6746,
      "Ġstone": 6747,
      "ĠĠĠĠĠĠĠĠĠĠĠĠĠĠĠĠĠĠĠĠĠĠĠĠĠĠĠĠĠĠĠĠ": 6748,
      "Ġalgebra": 6749,
      "PR": 6750,
      "Ġconsult": 6751,
      "Ġnodes": 6752,
      "Ġdisorders": 6753,
      "Be": 6754,
      "Ġcollections": 6755,
      "ĠGeorg": 6756,
      "Ġmissing": 6757,
      "anda": 6758,
      "Ġthin": 6759,
      "Ġ''": 6760,
      "rary": 6761,
      "ĠUser": 6762,
      "ua": 6763,
      "full": 6764,
      "Ġmunicip": 6765,
      "Request": 6766,
      "hedul": 6767,
      "Ġ300": 6768,
      "Ġpassword": 6769,
      "Ġprev": 6770,
      "ĠEnvironmental": 6771,
      ")[": 6772,
      "dt": 6773,
      "Ġsummary": 6774,
      "Ġexamine": 6775,
      "Ġexperts": 6776,
      "Ġhabitat": 6777,
      "serve": 6778,
      "Ġremark": 6779,
      "Ġsounds": 6780,
      "hips": 6781,
      "mathbb": 6782,
      "Ġdomestic": 6783,
      "kins": 6784,
      "access": 6785,
      "Ġpush": 6786,
      "Ġtaught": 6787,
      "ĠScient": 6788,
      "ady": 6789,
      "Ġregional": 6790,
      "Ġcontem": 6791,
      "ĠEmp": 6792,
      "Ġpractical": 6793,
      "Ġborder": 6794,
      "Ġeggs": 6795,
      "ĠOnly": 6796,
      "Ġprove": 6797,
      "Ġshr": 6798,
      "roduction": 6799,
      "Ġspaces": 6800,
      ")*": 6801,
      "ĠFe": 6802,
      "Ġlayers": 6803,
      "istant": 6804,
      "ena": 6805,
      "ĠDise": 6806,
      "ĠChe": 6807,
      "password": 6808,
      "Ġbra": 6809,
      "Ġnine": 6810,
      "Ġbiological": 6811,
      "layers": 6812,
      "ĠTw": 6813,
      "otion": 6814,
      "cket": 6815,
      "ctic": 6816,
      "72": 6817,
      "Ġelected": 6818,
      "Ge": 6819,
      "equal": 6820,
      "Ġvast": 6821,
      "ORD": 6822,
      "ĠBoard": 6823,
      "resource": 6824,
      "Ġopposite": 6825,
      "Rep": 6826,
      "Ġtail": 6827,
      "ĠConstitution": 6828,
      "ivation": 6829,
      "ometimes": 6830,
      "Ġbow": 6831,
      "ocks": 6832,
      "fill": 6833,
      "Ġmessages": 6834,
      "Ġrevolution": 6835,
      "rices": 6836,
      "Ġfix": 6837,
      "racy": 6838,
      "Ġreject": 6839,
      "Ġtypical": 6840,
      "track": 6841,
      "Ġentirely": 6842,
      "81": 6843,
      "Ġlaun": 6844,
      "Ġring": 6845,
      "Ġobservations": 6846,
      "Ġpolynomial": 6847,
      "Ġideal": 6848,
      "Ġminer": 6849,
      "Ġapart": 6850,
      "Ġperiods": 6851,
      "Ġmaps": 6852,
      "othing": 6853,
      "Ġgall": 6854,
      "ĠScott": 6855,
      "Ġmanage": 6856,
      "classes": 6857,
      "tensor": 6858,
      "}^{": 6859,
      "ĠStudents": 6860,
      "Ġpros": 6861,
      "62": 6862,
      "Ġsituations": 6863,
      "Ġadvance": 6864,
      "Ġsector": 6865,
      "Ġexplained": 6866,
      "Ġwarn": 6867,
      "prefix": 6868,
      "Ġsalt": 6869,
      "Ġhouses": 6870,
      "Ġcounty": 6871,
      "ĠMill": 6872,
      "ora": 6873,
      "Ġnarrow": 6874,
      "Ġarrived": 6875,
      "Ġtasks": 6876,
      "Ġimplic": 6877,
      "ĠAut": 6878,
      "Ġexpert": 6879,
      "History": 6880,
      "Ġvisible": 6881,
      "Ġwww": 6882,
      "images": 6883,
      "Ġplayers": 6884,
      "FL": 6885,
      "Ġpull": 6886,
      "ĠColor": 6887,
      "Ġfont": 6888,
      "product": 6889,
      "Ġpoet": 6890,
      "Ġ(-": 6891,
      "Ġrenew": 6892,
      "74": 6893,
      "Ġvaccine": 6894,
      "ĠBrown": 6895,
      "while": 6896,
      "Ġchapter": 6897,
      "Ġagent": 6898,
      "Ġmuscle": 6899,
      "Ġpip": 6900,
      "Ġsubt": 6901,
      "Ġinner": 6902,
      "Ġextreme": 6903,
      "inn": 6904,
      "Our": 6905,
      "Ġstored": 6906,
      "ican": 6907,
      "pring": 6908,
      "Ġencourage": 6909,
      "ĠField": 6910,
      "EX": 6911,
      "even": 6912,
      "allow": 6913,
      "Ġvehicle": 6914,
      "Ġarms": 6915,
      "ĠSuch": 6916,
      "Att": 6917,
      "Ġaccompl": 6918,
      "rey": 6919,
      "Ġuniverse": 6920,
      "Ġrapidly": 6921,
      "ĠGrand": 6922,
      "Ġcontained": 6923,
      "Ġhaz": 6924,
      "uses": 6925,
      "Ġelectrical": 6926,
      "Ġunless": 6927,
      "Ġparse": 6928,
      "Pr": 6929,
      "ibilities": 6930,
      "ASS": 6931,
      "54": 6932,
      "Ġstret": 6933,
      "Ġsuccessfully": 6934,
      "Ġproperly": 6935,
      "83": 6936,
      "asp": 6937,
      "ĠFort": 6938,
      "Inter": 6939,
      "sa": 6940,
      "Ġinfections": 6941,
      "ĠTimes": 6942,
      "Ð¸": 6943,
      "dule": 6944,
      "Ġiniti": 6945,
      "Ġrepresentation": 6946,
      "ĊĠĠĠĠĠĠĠĠĠĠĠĠĠĠĠĠĠĠĠĠ": 6947,
      "abil": 6948,
      "ĠPo": 6949,
      "Ġindicates": 6950,
      "samples": 6951,
      "Ġdepression": 6952,
      "Ġadopted": 6953,
      "Ġlocations": 6954,
      "Ġpaid": 6955,
      "Ġagencies": 6956,
      "ĠAnother": 6957,
      "Ġmarg": 6958,
      "ypes": 6959,
      "Ġfunding": 6960,
      "zero": 6961,
      "Ġnutri": 6962,
      "umes": 6963,
      "Ġfluid": 6964,
      "Ġconclusion": 6965,
      "after": 6966,
      "ĠGal": 6967,
      "Ġfeeling": 6968,
      "Ġexcell": 6969,
      "stone": 6970,
      "ĠHaw": 6971,
      "ĠPers": 6972,
      "mt": 6973,
      "52": 6974,
      "Ġbond": 6975,
      "inder": 6976,
      "itled": 6977,
      "tmp": 6978,
      "Ġgirls": 6979,
      "ĠEconom": 6980,
      "Ġrespectively": 6981,
      "emic": 6982,
      "Ġ$(": 6983,
      "Ġdictionary": 6984,
      "ĊĠĠĠĠĠĠĠĠĠĠĠĠĠĠĠĠĠĠĠĠĠĠĠĠĠĠĠĠĠĠĠĠĠĠĠ": 6985,
      "Ġrisks": 6986,
      "Ġdealing": 6987,
      "VER": 6988,
      "Ġ--------": 6989,
      "Ġorganized": 6990,
      "Ġhelping": 6991,
      "ita": 6992,
      "bur": 6993,
      "ĠReview": 6994,
      "Ġneut": 6995,
      "Ġpollution": 6996,
      "ĠPet": 6997,
      "Ġtested": 6998,
      "ĠNorthern": 6999,
      "erves": 7000,
      "SC": 7001,
      "atever": 7002,
      "Ġcamera": 7003,
      "Ġinitially": 7004,
      "Ġhundreds": 7005,
      "hedule": 7006,
      "imer": 7007,
      "73": 7008,
      "Box": 7009,
      "Ġproceed": 7010,
      "Ġimplementation": 7011,
      "channels": 7012,
      "Ġchemicals": 7013,
      "ĠIreland": 7014,
      "Ġemergency": 7015,
      "ato": 7016,
      "Ġcredit": 7017,
      "begin": 7018,
      "ceived": 7019,
      "Ġexchange": 7020,
      "Ġwarming": 7021,
      "Ġattacks": 7022,
      "Ġreverse": 7023,
      "Ġfigures": 7024,
      "ĠLog": 7025,
      "ĠBur": 7026,
      "account": 7027,
      "ĠAdminist": 7028,
      "aa": 7029,
      "Ġmeat": 7030,
      "ĠArgs": 7031,
      "ATH": 7032,
      "Ġsecondary": 7033,
      "mas": 7034,
      "ancing": 7035,
      "omy": 7036,
      "('--": 7037,
      "Ġtoxic": 7038,
      "Ġ1991": 7039,
      "Ġunderlying": 7040,
      "Ġliquid": 7041,
      "Ġtopics": 7042,
      "Ġrural": 7043,
      "ĠControl": 7044,
      "ĠValley": 7045,
      "claim": 7046,
      "offset": 7047,
      "inos": 7048,
      "Ġloop": 7049,
      "Ġeastern": 7050,
      "ĠSuper": 7051,
      "Ġswitch": 7052,
      "ĠSk": 7053,
      "aser": 7054,
      "ĠCommon": 7055,
      "Ġtrib": 7056,
      "ads": 7057,
      "Ġmarked": 7058,
      "ĠDE": 7059,
      "Ġformal": 7060,
      "Ġsed": 7061,
      "ĠBase": 7062,
      "ami": 7063,
      "Ġoffset": 7064,
      "=-": 7065,
      "Ġfirm": 7066,
      "pub": 7067,
      "ĠPower": 7068,
      "Ġchronic": 7069,
      "Ġexperienced": 7070,
      "cules": 7071,
      "Ġped": 7072,
      "Ġvul": 7073,
      "Ġadministration": 7074,
      "Ġdoor": 7075,
      "Ġfourth": 7076,
      "ella": 7077,
      "ĠMD": 7078,
      "ÏĢ": 7079,
      "usr": 7080,
      "Ġcoe": 7081,
      "ih": 7082,
      "riculum": 7083,
      ":]": 7084,
      "Comm": 7085,
      "ĠBill": 7086,
      "IDS": 7087,
      "Ġrig": 7088,
      "Ġsan": 7089,
      "sequent": 7090,
      "Ġcontrolled": 7091,
      "Ġinsert": 7092,
      "ĠItaly": 7093,
      "Ġancest": 7094,
      "Ġmarriage": 7095,
      "ĠItalian": 7096,
      "ele": 7097,
      "rates": 7098,
      "Ġconcerned": 7099,
      "FT": 7100,
      "Ġsell": 7101,
      "Ġstands": 7102,
      "âĤ¬": 7103,
      "ĠHill": 7104,
      "Ġexperiments": 7105,
      "Ġflowers": 7106,
      "supp": 7107,
      "Ġfalse": 7108,
      "Ġamb": 7109,
      "Ġtensor": 7110,
      "ĠLong": 7111,
      "Ġfly": 7112,
      "Ġstarts": 7113,
      "ropical": 7114,
      "çļ": 7115,
      "Ġcatch": 7116,
      "Ġphone": 7117,
      "stood": 7118,
      "ĊĠĠĠĠĠĠĠĠĠĠĠĠĠĠĠĠĠ": 7119,
      "Ġshel": 7120,
      "Hello": 7121,
      "Ġwire": 7122,
      "ested": 7123,
      "'][": 7124,
      "pay": 7125,
      "cerning": 7126,
      "71": 7127,
      "world": 7128,
      "Ġpictures": 7129,
      "Ġyields": 7130,
      "Ġdrawing": 7131,
      "Ġmoral": 7132,
      "(__": 7133,
      "82": 7134,
      "ĠParis": 7135,
      "âĪĴ": 7136,
      "Ġextensive": 7137,
      "Te": 7138,
      "`.": 7139,
      "tests": 7140,
      "irs": 7141,
      "53": 7142,
      "Ġshapes": 7143,
      "Ġcomplicated": 7144,
      "ellect": 7145,
      "Ġcertainly": 7146,
      "Ġmanip": 7147,
      "ĠRussia": 7148,
      "cope": 7149,
      "ĠIII": 7150,
      "Ġestimate": 7151,
      "Ġnone": 7152,
      ")+": 7153,
      "ometric": 7154,
      "Ġinterests": 7155,
      "Ġincreasingly": 7156,
      "illa": 7157,
      "enly": 7158,
      "Ġpossibly": 7159,
      "click": 7160,
      "operation": 7161,
      "Ġdiagnosis": 7162,
      "mic": 7163,
      "columns": 7164,
      "utf": 7165,
      "Ġguess": 7166,
      "Ġimpossible": 7167,
      "Ġpure": 7168,
      "çļĦ": 7169,
      "RI": 7170,
      "Ġshot": 7171,
      "Ġvent": 7172,
      "ĠAND": 7173,
      "ĠDu": 7174,
      "otic": 7175,
      "ĠâĨ": 7176,
      "Ġtraffic": 7177,
      "Ġpig": 7178,
      "this": 7179,
      "Ġappointed": 7180,
      "ĠIP": 7181,
      "Ġpray": 7182,
      "Ġdepos": 7183,
      "rid": 7184,
      "Ġbelie": 7185,
      "Ġdiscussed": 7186,
      "teen": 7187,
      "Ġdrinking": 7188,
      "Ġrob": 7189,
      "eless": 7190,
      "sor": 7191,
      "ĠNetwork": 7192,
      "ĠProfessor": 7193,
      "Ġfasc": 7194,
      "Ġmoon": 7195,
      "OP": 7196,
      "ĠInit": 7197,
      "Ġminim": 7198,
      "ĠCreate": 7199,
      "Ġ'__": 7200,
      "ĠSecret": 7201,
      "ĠForce": 7202,
      "imple": 7203,
      "Ġacts": 7204,
      "Ġadvoc": 7205,
      "Ġlambda": 7206,
      "success": 7207,
      "ugin": 7208,
      "Ġremote": 7209,
      "Ġbroken": 7210,
      "opes": 7211,
      "just": 7212,
      "Ġfell": 7213,
      "Ġnearby": 7214,
      "åı": 7215,
      "Ġresponsibility": 7216,
      "icate": 7217,
      "Parser": 7218,
      "ĠCamb": 7219,
      "Ġheader": 7220,
      "osh": 7221,
      "Ġcrop": 7222,
      "uh": 7223,
      "DO": 7224,
      "Ġprofession": 7225,
      "ĠGra": 7226,
      "zil": 7227,
      "ĠColumbia": 7228,
      "Ġcm": 7229,
      "quad": 7230,
      "Ġordered": 7231,
      "Ġsmooth": 7232,
      "craft": 7233,
      "Ġrows": 7234,
      "Ġdeaths": 7235,
      "Ġiter": 7236,
      "cyclop": 7237,
      "Ġinches": 7238,
      "Ġpool": 7239,
      "Ġbag": 7240,
      "vas": 7241,
      "cho": 7242,
      "overy": 7243,
      "fs": 7244,
      "Ġmixed": 7245,
      "ĠStudies": 7246,
      "Ġvote": 7247,
      "Ġecosystem": 7248,
      "imental": 7249,
      "unc": 7250,
      "Ġwalls": 7251,
      "Ġcomputers": 7252,
      "style": 7253,
      "ĠSec": 7254,
      "Ġsucceed": 7255,
      ".')": 7256,
      "Ġcompr": 7257,
      "metric": 7258,
      "Ġoutcomes": 7259,
      "Ġcris": 7260,
      "izers": 7261,
      "rypt": 7262,
      "site": 7263,
      "Ġends": 7264,
      "Ġestimates": 7265,
      "ĠReport": 7266,
      "Can": 7267,
      "ĠBible": 7268,
      "inction": 7269,
      "Ġconsistent": 7270,
      "Ġkeys": 7271,
      "Item": 7272,
      "Ġcapable": 7273,
      "kes": 7274,
      "Ġwaves": 7275,
      "Ġfrag": 7276,
      "Ġgoods": 7277,
      "97": 7278,
      "ĠPan": 7279,
      "Ġmanaged": 7280,
      "Ġcompare": 7281,
      "feature": 7282,
      "ctr": 7283,
      "Ġinject": 7284,
      "orous": 7285,
      "hash": 7286,
      "51": 7287,
      "Ġresolution": 7288,
      "ĠLike": 7289,
      "Ġsoci": 7290,
      "CP": 7291,
      "Ġsudd": 7292,
      "ployment": 7293,
      "ĠTop": 7294,
      "Ġneither": 7295,
      ",\\": 7296,
      "Ġfocused": 7297,
      "Ġtyping": 7298,
      "rovers": 7299,
      "omic": 7300,
      "ĠBre": 7301,
      "Ġcart": 7302,
      "Ġfacts": 7303,
      "Ġmamm": 7304,
      "Ġlaunch": 7305,
      "ĠISBN": 7306,
      "ĠWood": 7307,
      "ĠRun": 7308,
      "rogen": 7309,
      "Ġcrops": 7310,
      "Ġplays": 7311,
      "ĠSing": 7312,
      "stances": 7313,
      "Note": 7314,
      "headers": 7315,
      "utch": 7316,
      "ĠFil": 7317,
      "Ġflex": 7318,
      "obs": 7319,
      "ĠDar": 7320,
      "Info": 7321,
      "Ġgovernments": 7322,
      "Ġentered": 7323,
      "erent": 7324,
      "igan": 7325,
      "Ġshift": 7326,
      "Ġtwenty": 7327,
      "Ġconnections": 7328,
      "itory": 7329,
      "Ġintegral": 7330,
      "Ġdelay": 7331,
      "Ġstack": 7332,
      "Ġconstraint": 7333,
      "Ġdestroyed": 7334,
      "Ġscholars": 7335,
      "Ġlots": 7336,
      "Ġenable": 7337,
      "orough": 7338,
      "Do": 7339,
      "Ġconfiguration": 7340,
      "ĠOper": 7341,
      "verty": 7342,
      "Ġseeds": 7343,
      ")=": 7344,
      "Ġ],": 7345,
      "IO": 7346,
      "Ġnit": 7347,
      "GE": 7348,
      "Ġlesson": 7349,
      "ĠOpen": 7350,
      "Check": 7351,
      "ĠNature": 7352,
      "Ġzone": 7353,
      "IST": 7354,
      "ĠMicro": 7355,
      "Ġended": 7356,
      "ĠMer": 7357,
      "ĠNations": 7358,
      "Ġadministr": 7359,
      "ansas": 7360,
      "ĠPoint": 7361,
      "ĠSpain": 7362,
      "ĠPub": 7363,
      "ĠRock": 7364,
      "Ġedition": 7365,
      "ĠTreat": 7366,
      "Ġorient": 7367,
      "Ġcontribute": 7368,
      "Ġcomments": 7369,
      "Ġuniform": 7370,
      "othe": 7371,
      "Ġpoverty": 7372,
      "ĠBank": 7373,
      "Ġmathematic": 7374,
      "Ġlists": 7375,
      "Ġprincipal": 7376,
      "ĠOcean": 7377,
      "lets": 7378,
      "ipping": 7379,
      "ourney": 7380,
      "Ġmonitoring": 7381,
      "Ġgrown": 7382,
      "Ġmoves": 7383,
      "Ġcarefully": 7384,
      "look": 7385,
      "ampling": 7386,
      "Ġoptional": 7387,
      "Ġcogn": 7388,
      "Ġstatistics": 7389,
      "perm": 7390,
      "Ġagency": 7391,
      "Ġagreement": 7392,
      "Ġexplains": 7393,
      "oles": 7394,
      "dig": 7395,
      "Ġpackage": 7396,
      "Ġissued": 7397,
      "Ġaccuracy": 7398,
      "Ġpotentially": 7399,
      "Ġforests": 7400,
      "coming": 7401,
      "Ġcompetition": 7402,
      "care": 7403,
      "Ġdirected": 7404,
      "Ġassume": 7405,
      "Part": 7406,
      "Ġrevealed": 7407,
      "ĠGood": 7408,
      "ĠForest": 7409,
      "Ġshut": 7410,
      "Ġjump": 7411,
      "UP": 7412,
      "Ġpossibility": 7413,
      "ĠImage": 7414,
      "Ġdiscipl": 7415,
      "ĠRome": 7416,
      "SP": 7417,
      "aturally": 7418,
      "orrow": 7419,
      "miss": 7420,
      "Ġinfl": 7421,
      "ĠScot": 7422,
      "Ġdrawn": 7423,
      "role": 7424,
      "ĠKingdom": 7425,
      "Ġodd": 7426,
      "Ġfract": 7427,
      "etween": 7428,
      "ĠMult": 7429,
      "Ġexpressions": 7430,
      "Ġprotected": 7431,
      "____": 7432,
      "Ġâī": 7433,
      "Ġinsp": 7434,
      "Ġdecade": 7435,
      "Ġteams": 7436,
      "irmed": 7437,
      "ĠCr": 7438,
      "ĠSl": 7439,
      "ums": 7440,
      "ensional": 7441,
      "sur": 7442,
      "Ġstrict": 7443,
      "RL": 7444,
      "Ġinterface": 7445,
      "Ġeditor": 7446,
      "ano": 7447,
      "Ġproducing": 7448,
      "Ġbin": 7449,
      "Ġhorm": 7450,
      "Ġplastic": 7451,
      "Ġ1000": 7452,
      "Ġmillions": 7453,
      "ĠVis": 7454,
      "Ġscene": 7455,
      "metadata": 7456,
      "Conn": 7457,
      "Ġages": 7458,
      "oston": 7459,
      "Ġera": 7460,
      "dest": 7461,
      "rh": 7462,
      "ye": 7463,
      "ĠBuild": 7464,
      "ĠUSA": 7465,
      "outs": 7466,
      "Ġmagnetic": 7467,
      "ĊĊĉ": 7468,
      "vec": 7469,
      "ĠMel": 7470,
      "anches": 7471,
      "Ġparties": 7472,
      "orship": 7473,
      "Ġhorse": 7474,
      "ĠFree": 7475,
      "Ġastronom": 7476,
      "Ġconstitution": 7477,
      "acent": 7478,
      "Am": 7479,
      "92": 7480,
      "igation": 7481,
      "ĊĠĠĠĠĠĠĠĠĠĠĠĠĠĠĠĠĠĠĠĠĠ": 7482,
      "Back": 7483,
      "Ġdepart": 7484,
      "Ġscores": 7485,
      "Ġupdated": 7486,
      "Ġmanager": 7487,
      "exit": 7488,
      "Ġmuseum": 7489,
      "tical": 7490,
      "Ġfre": 7491,
      "Ġ$$": 7492,
      "ribed": 7493,
      "Ġextension": 7494,
      "Ġsad": 7495,
      "Ġuniversity": 7496,
      "ĠPsych": 7497,
      "ĠManagement": 7498,
      "Ġassigned": 7499,
      "Ġcomfort": 7500,
      "Ġmodified": 7501,
      "numpy": 7502,
      "ĠJud": 7503,
      "ollowing": 7504,
      "Ġidx": 7505,
      "Ġ):": 7506,
      "such": 7507,
      "CharField": 7508,
      "ĠMake": 7509,
      "Ġteeth": 7510,
      "Ġconsequences": 7511,
      "Ġconcerning": 7512,
      "Ear": 7513,
      "Ġknows": 7514,
      "andon": 7515,
      "%.": 7516,
      "iana": 7517,
      "Ġexploring": 7518,
      "pytest": 7519,
      "cd": 7520,
      "Ġvitamin": 7521,
      "}/": 7522,
      "Client": 7523,
      "tage": 7524,
      "ÑĤ": 7525,
      "Ã¤": 7526,
      "Ġvectors": 7527,
      "contin": 7528,
      "Ġcareful": 7529,
      "Point": 7530,
      "ference": 7531,
      "element": 7532,
      "Ġalpha": 7533,
      "Ġbinary": 7534,
      "ĠCat": 7535,
      "ĠNatural": 7536,
      "prot": 7537,
      "Ġsignals": 7538,
      "Ġmarine": 7539,
      "Ġpromin": 7540,
      "seed": 7541,
      "record": 7542,
      "Ġcouple": 7543,
      "Ġsyndrome": 7544,
      "Another": 7545,
      "gt": 7546,
      "ĠIrish": 7547,
      "Ġevaluation": 7548,
      "ĠCap": 7549,
      "Ġexpansion": 7550,
      "Don": 7551,
      "Ġnormally": 7552,
      "cons": 7553,
      "Ġemployed": 7554,
      "prob": 7555,
      "Ġstudying": 7556,
      "Ġ1950": 7557,
      "Ġoccasion": 7558,
      "Ġsentence": 7559,
      "Ġgather": 7560,
      "Ġdriver": 7561,
      "Ġowner": 7562,
      "Ġcolleagues": 7563,
      "osa": 7564,
      "Dis": 7565,
      "Ġrecognize": 7566,
      "Ġproof": 7567,
      "Ġdogs": 7568,
      "RAN": 7569,
      "\",\"": 7570,
      "Ġanswers": 7571,
      "unit": 7572,
      "Ġbridge": 7573,
      "oral": 7574,
      "Ġadvice": 7575,
      "Ġheaders": 7576,
      "Ġsegment": 7577,
      "Ġerr": 7578,
      "Ġprepare": 7579,
      "Ġproteins": 7580,
      "ĠEastern": 7581,
      "Ġlands": 7582,
      "Ġframework": 7583,
      "ĠMad": 7584,
      "agers": 7585,
      "Ġmassive": 7586,
      "94": 7587,
      "Ġauthorities": 7588,
      "Bl": 7589,
      "Ġcategories": 7590,
      "Ġmanif": 7591,
      "ĠBig": 7592,
      "groups": 7593,
      "Ġbudget": 7594,
      "Ġpresc": 7595,
      "Ġpermission": 7596,
      "IA": 7597,
      "ĠWhe": 7598,
      "ĠLine": 7599,
      "lymp": 7600,
      "Ġsubsequent": 7601,
      "Ġtherm": 7602,
      "ĠOhio": 7603,
      "Ġpercentage": 7604,
      "Ġ\"/": 7605,
      "Ġcorpor": 7606,
      "Ġsusp": 7607,
      "ĠVictor": 7608,
      "Ġ400": 7609,
      "creen": 7610,
      "Ġships": 7611,
      "Step": 7612,
      "Ġlose": 7613,
      "Ġaf": 7614,
      "Ġfoundation": 7615,
      "ĠCall": 7616,
      "ĠPass": 7617,
      "Ġunion": 7618,
      "Inst": 7619,
      "Ġlun": 7620,
      "best": 7621,
      "Ġgrew": 7622,
      "Ġharvest": 7623,
      "ĠMartin": 7624,
      "Ġevaluate": 7625,
      "ĠDou": 7626,
      "Table": 7627,
      "encing": 7628,
      "Ġhearing": 7629,
      "Ġdepartment": 7630,
      "Ġsorted": 7631,
      "Ġpytest": 7632,
      "Ġbrown": 7633,
      "Ġdecide": 7634,
      "Del": 7635,
      "ĠOx": 7636,
      "Ġcluster": 7637,
      "Ġtemplate": 7638,
      "Ġthousand": 7639,
      "elihood": 7640,
      "Ġdiscrim": 7641,
      "93": 7642,
      "Ġopinion": 7643,
      "cdot": 7644,
      "vania": 7645,
      "Ġlaboratory": 7646,
      "Ġspiritual": 7647,
      "\"{": 7648,
      "Ġultimately": 7649,
      "ĠKeep": 7650,
      "Ġox": 7651,
      "kl": 7652,
      "Ġsick": 7653,
      "Ġassistance": 7654,
      "Ġspeaking": 7655,
      "Ġsections": 7656,
      "ĠAcc": 7657,
      "ĠStep": 7658,
      "ĠWill": 7659,
      "Ġindu": 7660,
      "Result": 7661,
      "Ġ1989": 7662,
      "ani": 7663,
      "venue": 7664,
      "ĠGlobal": 7665,
      "Next": 7666,
      "Ġhus": 7667,
      "Ġcmd": 7668,
      "ĠQt": 7669,
      "Ġplus": 7670,
      "Ġspend": 7671,
      "inputs": 7672,
      "Ġtall": 7673,
      "Ġce": 7674,
      "ĠVer": 7675,
      "weights": 7676,
      "ĠST": 7677,
      "ima": 7678,
      "Ġagriculture": 7679,
      "pace": 7680,
      "Dr": 7681,
      "ĠSciences": 7682,
      "Ġconcentration": 7683,
      "Ġ150": 7684,
      "Ġnecessarily": 7685,
      "Ġblog": 7686,
      "ureau": 7687,
      "Ġachieved": 7688,
      "Ġwants": 7689,
      "admin": 7690,
      "Ġattend": 7691,
      "Ġlaunched": 7692,
      "oster": 7693,
      "Ġterritory": 7694,
      "Ġcapture": 7695,
      "Ġblank": 7696,
      "Ġconvers": 7697,
      "Ġsubset": 7698,
      "Ġphr": 7699,
      "using": 7700,
      "Ġ2020": 7701,
      "Ġvelocity": 7702,
      "Ġ36": 7703,
      "Ġrub": 7704,
      "Ġdecline": 7705,
      "Ġsports": 7706,
      "Ġprocedures": 7707,
      "Count": 7708,
      "ione": 7709,
      "Ġcommission": 7710,
      "Ġfewer": 7711,
      "ups": 7712,
      "Ġconstructed": 7713,
      "May": 7714,
      "Ġwish": 7715,
      "gov": 7716,
      "ĠSimilar": 7717,
      "}(": 7718,
      ")-": 7719,
      "rons": 7720,
      "syl": 7721,
      "Ġcrisis": 7722,
      "Ġperspective": 7723,
      "Ġattached": 7724,
      "Ġguarant": 7725,
      "Des": 7726,
      "Cur": 7727,
      "Ġphotograph": 7728,
      "Ġgone": 7729,
      "Ġvehicles": 7730,
      "Ġapprec": 7731,
      "register": 7732,
      "Ġobjective": 7733,
      "Ġcalculated": 7734,
      "Ġconsidering": 7735,
      "Ġcreates": 7736,
      "Ġpartial": 7737,
      "cap": 7738,
      "']:": 7739,
      "Ġdiverse": 7740,
      "asket": 7741,
      "Dat": 7742,
      "icensed": 7743,
      "Ġmovements": 7744,
      "ponents": 7745,
      "Ġsuitable": 7746,
      "ODO": 7747,
      "Ġreb": 7748,
      "Ġunderstood": 7749,
      "Ġboxes": 7750,
      "Ġfacilit": 7751,
      "DS": 7752,
      "Ġunus": 7753,
      "Ġreader": 7754,
      "window": 7755,
      "Ġstations": 7756,
      "ycl": 7757,
      "ĠHome": 7758,
      "itar": 7759,
      "åĪ": 7760,
      "herent": 7761,
      "ĠEmpire": 7762,
      "čĊĉĉ": 7763,
      "Ġctx": 7764,
      "ĠDirector": 7765,
      "xx": 7766,
      "Ġexpensive": 7767,
      "ĠNon": 7768,
      "Ġcomposed": 7769,
      "ĊĠĠĠĠĠĠĠĠĠĠĠĠĠĠ": 7770,
      "Ġaccounts": 7771,
      "Ġintroduction": 7772,
      "EP": 7773,
      "Ġexcellent": 7774,
      "Ġenemy": 7775,
      "Ġvegetables": 7776,
      "ĠDen": 7777,
      "Ġtuple": 7778,
      "Ġchrom": 7779,
      "Ġmeters": 7780,
      "ĠPop": 7781,
      "Ġmeasurements": 7782,
      "Ġagree": 7783,
      "ective": 7784,
      "Ġintellect": 7785,
      "TestCase": 7786,
      "ĠFinally": 7787,
      "Ġelectronic": 7788,
      "Ġspl": 7789,
      "Â·": 7790,
      "ĠExpl": 7791,
      "adel": 7792,
      "ila": 7793,
      "Ġinstitution": 7794,
      "ĠAbout": 7795,
      "bytes": 7796,
      "Ġvar": 7797,
      "itudes": 7798,
      "Ġproduces": 7799,
      "ĠTy": 7800,
      "ĠRevolution": 7801,
      "Ġadequ": 7802,
      "Ġphilosophy": 7803,
      "rained": 7804,
      "Ġban": 7805,
      "Ġdisappe": 7806,
      "login": 7807,
      "ĠZeal": 7808,
      "ymph": 7809,
      "Ġaqu": 7810,
      "ĠĊĠĠĠĠĠĠĠ": 7811,
      "Ġforth": 7812,
      "Message": 7813,
      "aska": 7814,
      "king": 7815,
      "igenous": 7816,
      "Ġdecrease": 7817,
      "Ġrecip": 7818,
      "Ġwel": 7819,
      "Ġlie": 7820,
      "va": 7821,
      "osc": 7822,
      "Source": 7823,
      "Ġing": 7824,
      "ĠTown": 7825,
      "png": 7826,
      "Ġsharing": 7827,
      "Ġpand": 7828,
      "Ġjustice": 7829,
      "Ġmerely": 7830,
      "Ġworldwide": 7831,
      "Ġdimensions": 7832,
      "Ġtreatments": 7833,
      "Ġthr": 7834,
      "Ġparam": 7835,
      "ighter": 7836,
      "Ġmedium": 7837,
      "Ġvertical": 7838,
      "Ġdebate": 7839,
      "__':": 7840,
      "Ġrobot": 7841,
      "Ġvulner": 7842,
      "Over": 7843,
      "Spec": 7844,
      "ĠSpecial": 7845,
      "Ġethnic": 7846,
      "dx": 7847,
      "arters": 7848,
      "Ġprogramming": 7849,
      "Ġartist": 7850,
      "Ġsustainable": 7851,
      "Ġrational": 7852,
      "oves": 7853,
      "Ġimpacts": 7854,
      "wait": 7855,
      "stats": 7856,
      "Ġcircuit": 7857,
      "Ġreserved": 7858,
      "Ġdust": 7859,
      "She": 7860,
      "apped": 7861,
      "Ġweights": 7862,
      "Number": 7863,
      "Ġcomparison": 7864,
      "lope": 7865,
      "optim": 7866,
      "Ġvolunte": 7867,
      "Ġobservation": 7868,
      "Ġcontrovers": 7869,
      "ĠBrazil": 7870,
      "Ġcards": 7871,
      "Ġpermanent": 7872,
      "Ġslowly": 7873,
      "inant": 7874,
      "itionally": 7875,
      "child": 7876,
      "Ġawareness": 7877,
      "ĠOlymp": 7878,
      "Ġtriangle": 7879,
      "scope": 7880,
      "pet": 7881,
      "Ġresid": 7882,
      "Ġdoubt": 7883,
      "Ġ\"\"": 7884,
      "Ġpassing": 7885,
      "iary": 7886,
      "uuid": 7887,
      "Ġarrest": 7888,
      "ĠCup": 7889,
      "\"][\"": 7890,
      "#!": 7891,
      "ourse": 7892,
      "Ġleaf": 7893,
      "Ġtoler": 7894,
      "Ġfossil": 7895,
      "inds": 7896,
      "then": 7897,
      "Ġmac": 7898,
      ").__": 7899,
      "Ġinvestment": 7900,
      "Ġprevention": 7901,
      ")|": 7902,
      "hemical": 7903,
      "ĠGard": 7904,
      "Ġlegisl": 7905,
      "ĠZealand": 7906,
      "Ġble": 7907,
      "Pe": 7908,
      "ĠJeff": 7909,
      "roc": 7910,
      "tenance": 7911,
      "Co": 7912,
      "Ġcentre": 7913,
      "Ġfruits": 7914,
      "Ġexplanation": 7915,
      "91": 7916,
      "throp": 7917,
      "Index": 7918,
      "domain": 7919,
      "istent": 7920,
      "ĠParameters": 7921,
      "ĠUt": 7922,
      "Bu": 7923,
      "Ġalgorithm": 7924,
      "Ġtargets": 7925,
      "erior": 7926,
      "sylvania": 7927,
      "ĠCoast": 7928,
      "Ġleadership": 7929,
      "Ġpra": 7930,
      "ĠDev": 7931,
      "depth": 7932,
      "ĠAtlantic": 7933,
      "Ġstreet": 7934,
      "Ġ\".": 7935,
      "}{\\": 7936,
      "sn": 7937,
      "ĠEqu": 7938,
      "Ġcrew": 7939,
      "Ġgender": 7940,
      "handler": 7941,
      "Ġresulted": 7942,
      "Ġintegration": 7943,
      "Ġmolecules": 7944,
      "Ġaccident": 7945,
      "Ġwhereas": 7946,
      "ĠFour": 7947,
      "Ġwalking": 7948,
      "fish": 7949,
      "Ġscope": 7950,
      "GB": 7951,
      "čĊĉ": 7952,
      "display": 7953,
      "Ġholding": 7954,
      "Ġconscious": 7955,
      "ĠĊĠĠĠ": 7956,
      "ĠCancer": 7957,
      "Ġmyth": 7958,
      "Ġpregnancy": 7959,
      "Ġcoordinates": 7960,
      "Ġshif": 7961,
      "Label": 7962,
      "ĠMinister": 7963,
      "Ġaren": 7964,
      "annot": 7965,
      "Ġgreatly": 7966,
      "Ġwildlife": 7967,
      "prov": 7968,
      "Ġpump": 7969,
      "Ġcomprehensive": 7970,
      "Ġhttps": 7971,
      "Ġtrials": 7972,
      "Ġaffects": 7973,
      "ĠChild": 7974,
      "assertTrue": 7975,
      "Go": 7976,
      "Ġdedicated": 7977,
      "bool": 7978,
      "isters": 7979,
      "ĠBoston": 7980,
      "Ġsubs": 7981,
      "Ġbot": 7982,
      "ĠJac": 7983,
      "Ġju": 7984,
      "ĠWall": 7985,
      "wd": 7986,
      "Ġstages": 7987,
      "high": 7988,
      "hist": 7989,
      "ĠYoung": 7990,
      "ultane": 7991,
      "ĠThose": 7992,
      "aws": 7993,
      "Ġstanding": 7994,
      "QU": 7995,
      "uri": 7996,
      "FO": 7997,
      "Ġinfected": 7998,
      "async": 7999,
      "ĠNOT": 8000,
      "```": 8001,
      "ĠSil": 8002,
      "Ġhelpful": 8003,
      "Ġpublication": 8004,
      "ilon": 8005,
      "ĠExt": 8006,
      "Qt": 8007,
      "Ġtransition": 8008,
      "Ġgalax": 8009,
      "DP": 8010,
      "%)": 8011,
      "Ġprompt": 8012,
      "Ġimmun": 8013,
      "antly": 8014,
      "Ġyounger": 8015,
      "Ġtrace": 8016,
      "Ġapi": 8017,
      ".;": 8018,
      "coln": 8019,
      "Ġoutcome": 8020,
      "Why": 8021,
      "sol": 8022,
      "Ġsurvival": 8023,
      "ĠStudy": 8024,
      "Ð½": 8025,
      "Ġinstalled": 8026,
      "Ġamaz": 8027,
      "inner": 8028,
      "Ġdiox": 8029,
      "ĠHoly": 8030,
      "ĠSup": 8031,
      "Ġcorner": 8032,
      "disc": 8033,
      "Ġedges": 8034,
      "Ġfighting": 8035,
      "verb": 8036,
      "Ġdeclared": 8037,
      "struct": 8038,
      "Ġderivative": 8039,
      "Stud": 8040,
      "meta": 8041,
      "Ġ\",": 8042,
      "phi": 8043,
      "Ġcourses": 8044,
      "how": 8045,
      "Ġfraction": 8046,
      "ĠBC": 8047,
      "emb": 8048,
      "Ġfib": 8049,
      "xml": 8050,
      "ĠJohnson": 8051,
      "icing": 8052,
      "Ġnewly": 8053,
      "atern": 8054,
      "Ġliver": 8055,
      "entity": 8056,
      "Ġclaimed": 8057,
      "ĠYet": 8058,
      "Fil": 8059,
      "Ġaccum": 8060,
      "blem": 8061,
      "clusive": 8062,
      "NE": 8063,
      "ĠNumber": 8064,
      "Ġabstract": 8065,
      "Ġunable": 8066,
      "Ġhence": 8067,
      "Ġsequences": 8068,
      "ĠIndians": 8069,
      "ummy": 8070,
      "Ġserves": 8071,
      "Ġdriving": 8072,
      "Ġsrc": 8073,
      "John": 8074,
      "ĠĠĠĠĠĠĠĠĠĠĠĠ": 8075,
      "Ġcriteria": 8076,
      "Ġnaturally": 8077,
      "pdf": 8078,
      "Ġcircumstances": 8079,
      "Ġelectron": 8080,
      "Ġfellow": 8081,
      "Ġsaved": 8082,
      "Ġdeliver": 8083,
      "ĠClub": 8084,
      "Ġofficers": 8085,
      "profile": 8086,
      "Ġexplicit": 8087,
      "Ġidentical": 8088,
      "Ġradius": 8089,
      "Ġchol": 8090,
      "person": 8091,
      "ĠSpe": 8092,
      "Ġtalking": 8093,
      "Ġabuse": 8094,
      "ĠMethod": 8095,
      "ULT": 8096,
      "Ġimmediate": 8097,
      "Ġdivide": 8098,
      "Tensor": 8099,
      "sent": 8100,
      "vals": 8101,
      "fast": 8102,
      "Ġ64": 8103,
      "Ass": 8104,
      "Ġconventional": 8105,
      "Ġversions": 8106,
      "quare": 8107,
      "Ġshop": 8108,
      "web": 8109,
      "ĠSir": 8110,
      "gments": 8111,
      "enter": 8112,
      "ĠThrough": 8113,
      "report": 8114,
      "ĠCast": 8115,
      "Ġtransmission": 8116,
      "ashion": 8117,
      "zed": 8118,
      "Ġnetworks": 8119,
      "Ġobserve": 8120,
      "Ġlegislation": 8121,
      "ĠSwed": 8122,
      "Ġcopyright": 8123,
      "Ġattribute": 8124,
      "Ġmand": 8125,
      "ura": 8126,
      "Group": 8127,
      "ki": 8128,
      "ĠMathem": 8129,
      "cknow": 8130,
      "Ġ75": 8131,
      "everal": 8132,
      "Ġsoul": 8133,
      "ĠAgency": 8134,
      "`,": 8135,
      "Ġplate": 8136,
      "forward": 8137,
      "raining": 8138,
      "Ġsecure": 8139,
      "Ġcir": 8140,
      "SON": 8141,
      "TM": 8142,
      "Event": 8143,
      "Ġcomposition": 8144,
      "zo": 8145,
      ".|": 8146,
      "Ġzip": 8147,
      "infty": 8148,
      "aml": 8149,
      "Ġpeak": 8150,
      "ĠPlease": 8151,
      "Ġhole": 8152,
      "ĠServices": 8153,
      "qa": 8154,
      "Ġaer": 8155,
      "Ġfacility": 8156,
      "EMA": 8157,
      "Mat": 8158,
      "created": 8159,
      "sort": 8160,
      "ushed": 8161,
      "vard": 8162,
      "Ġutf": 8163,
      "olean": 8164,
      "grade": 8165,
      "po": 8166,
      "Ġmigrations": 8167,
      "irt": 8168,
      "ĊĠĠ": 8169,
      "ĠStat": 8170,
      "Ġprofile": 8171,
      "Ġusage": 8172,
      "Ġlimitations": 8173,
      "Ġhero": 8174,
      "ĠPennsylvania": 8175,
      "asters": 8176,
      "Ġtmp": 8177,
      "ĠAgricult": 8178,
      "steps": 8179,
      "Ġmatches": 8180,
      "=['": 8181,
      "directory": 8182,
      "ali": 8183,
      "tok": 8184,
      "Ġsheet": 8185,
      "čĊĠĠĠĠĠĠĠĠĠĠĠĠĠĠĠĠĠĠĠ": 8186,
      "Ġwitness": 8187,
      "clear": 8188,
      "peror": 8189,
      "Ġattempts": 8190,
      "onia": 8191,
      "ĊĠĠĠĠĠĠĠĠĠĠĠĠĠĠĠĠĠĠĠĠĠĠĠĠĠ": 8192,
      "++": 8193,
      "Ġbroadcast": 8194,
      "ĠMoreover": 8195,
      "lik": 8196,
      "Run": 8197,
      "Ġinstruments": 8198,
      "ĠRom": 8199,
      "Ġhonor": 8200,
      "Ġcaptured": 8201,
      "Ġsubstance": 8202,
      "Ġindependence": 8203,
      "EM": 8204,
      "dtype": 8205,
      "thlet": 8206,
      "ixel": 8207,
      "Ġmedications": 8208,
      "elet": 8209,
      "ĠBob": 8210,
      "Ġabund": 8211,
      "ĠAR": 8212,
      "Ġdiversity": 8213,
      "manager": 8214,
      "Ġsupplies": 8215,
      "cyclopedia": 8216,
      "Ġheads": 8217,
      "hered": 8218,
      "inson": 8219,
      "CI": 8220,
      "ÑĢ": 8221,
      "etts": 8222,
      "GET": 8223,
      "sleep": 8224,
      "ĠMen": 8225,
      "ainer": 8226,
      "Ġenhance": 8227,
      "ĠCare": 8228,
      "Ġabandon": 8229,
      "iac": 8230,
      "Ġlandscape": 8231,
      "Ġreaders": 8232,
      "Ġmechanism": 8233,
      "Ġdemonstrated": 8234,
      "Ġsupposed": 8235,
      "ulty": 8236,
      "earchers": 8237,
      "Ġjourney": 8238,
      "ĠResources": 8239,
      "reshape": 8240,
      "Ġ'\\": 8241,
      "Ġapproved": 8242,
      "ĠAdministration": 8243,
      "Ġinfrast": 8244,
      "Ġneighborhood": 8245,
      "Ġsupports": 8246,
      "Ġguidelines": 8247,
      "heric": 8248,
      "arsh": 8249,
      "Ġ\"\\": 8250,
      "aug": 8251,
      "ugh": 8252,
      "Ġproportion": 8253,
      "Ġdetermining": 8254,
      "ĠLos": 8255,
      "argv": 8256,
      "*(": 8257,
      "ĠGiven": 8258,
      "required": 8259,
      "Ġpuzz": 8260,
      "estival": 8261,
      "Ġmm": 8262,
      "aming": 8263,
      "Ġserving": 8264,
      "Ġdeeper": 8265,
      "esity": 8266,
      "Ġcurriculum": 8267,
      "Ġsatellite": 8268,
      "NO": 8269,
      "empty": 8270,
      "ĠClin": 8271,
      "Ġbutton": 8272,
      "Ġvessels": 8273,
      "dates": 8274,
      "Rem": 8275,
      "wing": 8276,
      "Load": 8277,
      "Ġsongs": 8278,
      "Ġuncertain": 8279,
      "Ġassociation": 8280,
      "Ġresponses": 8281,
      "Ġgranted": 8282,
      "acher": 8283,
      "CK": 8284,
      "iral": 8285,
      "Ġ\\\\": 8286,
      "Serv": 8287,
      "queue": 8288,
      "SD": 8289,
      "Ġgar": 8290,
      "istical": 8291,
      "aved": 8292,
      "SO": 8293,
      "Ġhousing": 8294,
      "Ġvital": 8295,
      "night": 8296,
      "ĠRail": 8297,
      "Ġcrim": 8298,
      "cover": 8299,
      "mbol": 8300,
      "}^": 8301,
      "Ġip": 8302,
      "isp": 8303,
      "fortunately": 8304,
      "Ġsomewhat": 8305,
      "uce": 8306,
      "Ġcenters": 8307,
      "Ġadvent": 8308,
      "Ġhistoric": 8309,
      "iology": 8310,
      "ocracy": 8311,
      "LL": 8312,
      "ĠChampions": 8313,
      "ĠGoogle": 8314,
      "Ġinher": 8315,
      "route": 8316,
      "Us": 8317,
      "Ġreward": 8318,
      "Ġquantity": 8319,
      "Ġadm": 8320,
      "relation": 8321,
      "Ġours": 8322,
      "Ġcomputing": 8323,
      "Ġowned": 8324,
      "Ġ1988": 8325,
      "300": 8326,
      "ĠExper": 8327,
      "cfg": 8328,
      "ART": 8329,
      "Ġsurvive": 8330,
      "controll": 8331,
      "Ġfavorite": 8332,
      "ĠGeorgia": 8333,
      "isely": 8334,
      "control": 8335,
      "Ġenviron": 8336,
      "Ġ2015": 8337,
      "achus": 8338,
      "linear": 8339,
      "Ġseeing": 8340,
      "iah": 8341,
      "ĠDisease": 8342,
      "usters": 8343,
      "Ġimplemented": 8344,
      "2000": 8345,
      "ĠFamily": 8346,
      "ĠBab": 8347,
      "Ġasc": 8348,
      "!!": 8349,
      "Ġearthqu": 8350,
      "ĠLiber": 8351,
      "Ġnob": 8352,
      "Ġahead": 8353,
      "Ġstroke": 8354,
      "Handler": 8355,
      "Ġtransportation": 8356,
      "home": 8357,
      "angles": 8358,
      "Ġdoctors": 8359,
      "Ġbio": 8360,
      "ĠViet": 8361,
      "Lay": 8362,
      "ĠEr": 8363,
      "#!/": 8364,
      "Ġcoun": 8365,
      "Ġmetadata": 8366,
      "Ġmeasurement": 8367,
      "encode": 8368,
      "Ġrecovery": 8369,
      "Ġboys": 8370,
      "ĠSar": 8371,
      "URL": 8372,
      "Ġcalculations": 8373,
      "ĠPM": 8374,
      "Ġescape": 8375,
      "clean": 8376,
      "Ġsharp": 8377,
      "icted": 8378,
      "ilation": 8379,
      "ĠMa": 8380,
      "Ġbigger": 8381,
      "rency": 8382,
      "erman": 8383,
      "named": 8384,
      "apse": 8385,
      "Ġcoastal": 8386,
      "Ġsensitive": 8387,
      "Ġwhatever": 8388,
      "]):": 8389,
      "Ġlect": 8390,
      "ivery": 8391,
      "Ġsight": 8392,
      "Ġquarter": 8393,
      "Create": 8394,
      "Ġdefic": 8395,
      "ĠLanguage": 8396,
      "riend": 8397,
      "Ġsenior": 8398,
      "Ġacquired": 8399,
      "Ġfunds": 8400,
      "Ġcandidate": 8401,
      "icide": 8402,
      "Ġangles": 8403,
      "osph": 8404,
      "osion": 8405,
      "liest": 8406,
      "Ġ((": 8407,
      "Ġmaybe": 8408,
      "Ġsought": 8409,
      "decode": 8410,
      "-------": 8411,
      "Ġphotos": 8412,
      "isted": 8413,
      "Ġgun": 8414,
      "usiness": 8415,
      "Ġartists": 8416,
      "atial": 8417,
      "ĠConsequently": 8418,
      "Ġcommittee": 8419,
      "ĠCult": 8420,
      "Rel": 8421,
      "Ġdemonstrate": 8422,
      "Ġinteg": 8423,
      "Ġcontainer": 8424,
      "Ġignore": 8425,
      "Ġdifficulty": 8426,
      "Ġcalling": 8427,
      "Ġsimultane": 8428,
      "Ġorganisms": 8429,
      "ĠOrder": 8430,
      "Ġlake": 8431,
      "gi": 8432,
      "Ne": 8433,
      "select": 8434,
      "ĠGuide": 8435,
      "Ġthreshold": 8436,
      "Ġmobile": 8437,
      "Ġchildhood": 8438,
      "loads": 8439,
      "EC": 8440,
      "fin": 8441,
      "ĠAward": 8442,
      "ĠNavy": 8443,
      "Ġattributes": 8444,
      "eries": 8445,
      "Ġsignificance": 8446,
      "Ġ'-": 8447,
      "staticmethod": 8448,
      "Act": 8449,
      "Ġpaths": 8450,
      "font": 8451,
      "Button": 8452,
      "Ġbones": 8453,
      "cp": 8454,
      "abul": 8455,
      "Ġweapons": 8456,
      "cm": 8457,
      "ĠNov": 8458,
      "Ġacknow": 8459,
      "Ġtick": 8460,
      "PATH": 8461,
      "elly": 8462,
      "enger": 8463,
      "thread": 8464,
      "Ġdioxide": 8465,
      "Ġarchitecture": 8466,
      "Ġorg": 8467,
      "ucky": 8468,
      "Ġinteraction": 8469,
      "ĠComput": 8470,
      "ĠBlue": 8471,
      "Ġ//": 8472,
      "mplement": 8473,
      "vate": 8474,
      "Ġprohib": 8475,
      "Ġvs": 8476,
      "ĠAPI": 8477,
      "indices": 8478,
      "Ġwear": 8479,
      "Ġsoc": 8480,
      "Return": 8481,
      "ulin": 8482,
      "ĠStar": 8483,
      "Ġtrip": 8484,
      "ĠLearning": 8485,
      "Ġsweet": 8486,
      "Ġepisode": 8487,
      "Ġ'--": 8488,
      "Ġoperator": 8489,
      "mathbf": 8490,
      "Ġsilver": 8491,
      "Ġseat": 8492,
      "(\"\\": 8493,
      "Ġconference": 8494,
      "POST": 8495,
      "ĠSat": 8496,
      "Ġworse": 8497,
      "Pre": 8498,
      "ĠMom": 8499,
      "Ġboundary": 8500,
      "Ġmatters": 8501,
      "Ġsupplement": 8502,
      "Ġalter": 8503,
      "raq": 8504,
      "ĠCross": 8505,
      "Ġspin": 8506,
      "Ġnegot": 8507,
      "Ġexciting": 8508,
      "Ġingred": 8509,
      "Ġemotional": 8510,
      "Ġtrained": 8511,
      "auto": 8512,
      "ITY": 8513,
      "quee": 8514,
      "ĠJul": 8515,
      "Ġbatt": 8516,
      "icular": 8517,
      "ĠHand": 8518,
      "Ġswim": 8519,
      "ORT": 8520,
      "ounce": 8521,
      "Ġrivers": 8522,
      "Ġ;": 8523,
      "Ġconfirm": 8524,
      "oup": 8525,
      "ĠIran": 8526,
      "DB": 8527,
      "ogether": 8528,
      "Ġdefinitions": 8529,
      "Ġexceed": 8530,
      "month": 8531,
      "Ġinstances": 8532,
      "ĠSpecifically": 8533,
      "ĠGree": 8534,
      "Ġouter": 8535,
      "ĊĠĠĠĠĠĠĠĠĠĠĠĠĠĠĠĠĠĠĠĠĠĠĠĠĠĠĠĠ": 8536,
      "vector": 8537,
      "Ġconj": 8538,
      "ĠSaf": 8539,
      "ĠLincoln": 8540,
      "Ġkilomet": 8541,
      "ented": 8542,
      "ificial": 8543,
      "gence": 8544,
      "ĠHave": 8545,
      "tags": 8546,
      "ĠNO": 8547,
      "Ġstd": 8548,
      "Ġcontents": 8549,
      "Ġchair": 8550,
      "}\")": 8551,
      "Ġthir": 8552,
      "Ent": 8553,
      "Ġsuffering": 8554,
      "uting": 8555,
      "Ġroles": 8556,
      "Start": 8557,
      "deg": 8558,
      "riz": 8559,
      "Column": 8560,
      "]+": 8561,
      "Ġplanned": 8562,
      "Figure": 8563,
      "Ġcovers": 8564,
      "ĠSand": 8565,
      "Ġseemed": 8566,
      "ĠEst": 8567,
      "ĠNative": 8568,
      "Ġlock": 8569,
      "ĠNaz": 8570,
      "usal": 8571,
      "Ġ1986": 8572,
      "Fore": 8573,
      "ĠRh": 8574,
      "MM": 8575,
      "Ġpolitics": 8576,
      "Ġinfrastructure": 8577,
      "255": 8578,
      "shire": 8579,
      "Sim": 8580,
      "Ġpolar": 8581,
      "Ġproved": 8582,
      "iatric": 8583,
      "Ġepoch": 8584,
      "ĠAmong": 8585,
      "Ġmal": 8586,
      "Ġhusband": 8587,
      "Ġmetric": 8588,
      "gramm": 8589,
      "Ġimper": 8590,
      "ograp": 8591,
      "Ġdenotes": 8592,
      "ĠFred": 8593,
      "Ġmoist": 8594,
      "umin": 8595,
      "Ġinstructions": 8596,
      "theless": 8597,
      "ĠMusic": 8598,
      "ĠSund": 8599,
      "Ġimplies": 8600,
      "Ġstopped": 8601,
      "Ġ2014": 8602,
      "Ġreceiving": 8603,
      "ĠTre": 8604,
      "mble": 8605,
      "Ġ1987": 8606,
      "fc": 8607,
      "-\\": 8608,
      "appy": 8609,
      "Ġstable": 8610,
      "Ġveter": 8611,
      "ĊĠĠĠĠĠĠĠĠĠĠĠĠĠĠĠĠĠĠĠĠĠĠ": 8612,
      "ĠTri": 8613,
      "pread": 8614,
      "also": 8615,
      "irds": 8616,
      "ĠText": 8617,
      "bat": 8618,
      "ATA": 8619,
      "adow": 8620,
      "Cal": 8621,
      "ĊĠĠĠĠĠĠĠĠĠĠĠĠĠĠĠĠĠĠ": 8622,
      "Ġcommands": 8623,
      "ikip": 8624,
      "break": 8625,
      "anted": 8626,
      "yles": 8627,
      "cost": 8628,
      "ĠWindows": 8629,
      "ĠBefore": 8630,
      "lishing": 8631,
      "Ġdraft": 8632,
      "ĠOxford": 8633,
      "Ġsupporting": 8634,
      "ĊĊĊ": 8635,
      "rowser": 8636,
      "Ġconfidence": 8637,
      "olds": 8638,
      "Ġdimension": 8639,
      "400": 8640,
      "rating": 8641,
      "ĠAccess": 8642,
      "Ġfinds": 8643,
      "future": 8644,
      "adelph": 8645,
      "Ġinteract": 8646,
      "Ġbranches": 8647,
      "Ġrecognition": 8648,
      "Ġregulations": 8649,
      "render": 8650,
      "ais": 8651,
      "Ġimmigr": 8652,
      "achusetts": 8653,
      "Ġclar": 8654,
      "ĠFrancisco": 8655,
      "HA": 8656,
      "ĠBattle": 8657,
      "nan": 8658,
      "inv": 8659,
      "Ġneck": 8660,
      "including": 8661,
      "oval": 8662,
      "Ġhydrogen": 8663,
      "mu": 8664,
      "Ġundert": 8665,
      "ĠPrinc": 8666,
      "Ġmapping": 8667,
      "Ġrocks": 8668,
      "Ġsmiled": 8669,
      "asets": 8670,
      "Ġmathematicians": 8671,
      "ĠBul": 8672,
      "inking": 8673,
      "ĠSecurity": 8674,
      "ctx": 8675,
      "urric": 8676,
      "amber": 8677,
      "Ġbomb": 8678,
      "idation": 8679,
      "Ġofficer": 8680,
      "Ġalle": 8681,
      "Ġentity": 8682,
      "ĠMichigan": 8683,
      "ĠLee": 8684,
      "Ġpassage": 8685,
      "Ġroof": 8686,
      "asy": 8687,
      "Ġepid": 8688,
      "PRO": 8689,
      "Ġforg": 8690,
      "two": 8691,
      "Ġ33": 8692,
      "Ġcolour": 8693,
      "avel": 8694,
      "ĠPython": 8695,
      "Ġopposed": 8696,
      "connection": 8697,
      "ĠLab": 8698,
      "equality": 8699,
      "ĠKar": 8700,
      "Ġdesire": 8701,
      "ĠANY": 8702,
      "Ġsubstantial": 8703,
      "ĠThree": 8704,
      "ĠSupreme": 8705,
      "estyle": 8706,
      "Ġvolcan": 8707,
      "idespread": 8708,
      "Ġoperate": 8709,
      "Ġdecor": 8710,
      "mn": 8711,
      "Ġdisk": 8712,
      "Ġrising": 8713,
      "ĠTODO": 8714,
      "ĠAuthor": 8715,
      "Code": 8716,
      "Ġment": 8717,
      "Ġdollars": 8718,
      "Ġfalls": 8719,
      "DR": 8720,
      "Ġpreced": 8721,
      "Ġvac": 8722,
      "Ġ1930": 8723,
      "Ġseparated": 8724,
      "Ġcrime": 8725,
      "Ġislands": 8726,
      "Med": 8727,
      "rog": 8728,
      "Ġregularly": 8729,
      "ĠConference": 8730,
      "Ġindicated": 8731,
      "Ġresident": 8732,
      "learn": 8733,
      "Ġinvestigation": 8734,
      "original": 8735,
      "Ġorders": 8736,
      "Ġvan": 8737,
      "aired": 8738,
      "Ġcouldn": 8739,
      "Ġgreenhouse": 8740,
      "rox": 8741,
      "yal": 8742,
      "else": 8743,
      "inois": 8744,
      "ĠWAR": 8745,
      "ĠTel": 8746,
      "Ġroughly": 8747,
      "adelphia": 8748,
      "td": 8749,
      "late": 8750,
      "Art": 8751,
      "roduct": 8752,
      "avor": 8753,
      "Ġcontrols": 8754,
      "Ġintelligence": 8755,
      "ĠCreek": 8756,
      "amps": 8757,
      "Ġmaintained": 8758,
      "Ġmovie": 8759,
      "|-": 8760,
      "ears": 8761,
      "ĠVari": 8762,
      "Ġexcited": 8763,
      "\"].": 8764,
      "Ġreaching": 8765,
      "Ġsetup": 8766,
      "dr": 8767,
      "Ġ----------": 8768,
      "player": 8769,
      "Ġpapers": 8770,
      "agent": 8771,
      "æķ": 8772,
      "ĠChange": 8773,
      "button": 8774,
      "Ġvisited": 8775,
      "Ġagents": 8776,
      "Ġparticipate": 8777,
      "lass": 8778,
      "global": 8779,
      "ĠCommunity": 8780,
      "Ġessentially": 8781,
      "Ġchannels": 8782,
      "Ġmetab": 8783,
      "Ġphoto": 8784,
      "enant": 8785,
      "Ġmusical": 8786,
      "tery": 8787,
      "Ġcontamin": 8788,
      "ĊĠĠĠĠĠĠ": 8789,
      "Ġutils": 8790,
      ":**": 8791,
      "Ġmachines": 8792,
      "Ġanalyze": 8793,
      "Ġnin": 8794,
      "ĠDesign": 8795,
      "ading": 8796,
      "ĠEp": 8797,
      "ĠTimmy": 8798,
      "Ġru": 8799,
      "Ġarbit": 8800,
      "engine": 8801,
      "Ġsacr": 8802,
      "pm": 8803,
      "Status": 8804,
      "mond": 8805,
      "ikipedia": 8806,
      "ALL": 8807,
      "Ġorbit": 8808,
      "Ġ\\(": 8809,
      "ĠVen": 8810,
      "eting": 8811,
      "anger": 8812,
      "entials": 8813,
      "Ġanalog": 8814,
      "Ġantibiot": 8815,
      "uity": 8816,
      "EMAIL": 8817,
      "Post": 8818,
      "Net": 8819,
      "Ġscenario": 8820,
      "Ð¾Ð": 8821,
      "Ġassumed": 8822,
      "Ġauto": 8823,
      "Ġmatrices": 8824,
      "Ġlogic": 8825,
      "Ġsizes": 8826,
      "gb": 8827,
      "Ġrh": 8828,
      "Ġbiggest": 8829,
      "Fact": 8830,
      "eted": 8831,
      "circ": 8832,
      "Ġexpanded": 8833,
      "ĠHospital": 8834,
      "foot": 8835,
      "ĠSaint": 8836,
      "ĠEarly": 8837,
      "Ġpulumi": 8838,
      "Ġprovider": 8839,
      "Ġstruggle": 8840,
      "Aut": 8841,
      "Ġcopies": 8842,
      "ells": 8843,
      "Ġbutter": 8844,
      "Ġdates": 8845,
      "ĠWal": 8846,
      "vision": 8847,
      "reated": 8848,
      "beta": 8849,
      "Ġhighlight": 8850,
      "ocument": 8851,
      "bing": 8852,
      "timestamp": 8853,
      "ĠKenn": 8854,
      "Ġsurve": 8855,
      "icious": 8856,
      "NS": 8857,
      "uels": 8858,
      "Ġtons": 8859,
      "ercury": 8860,
      "Call": 8861,
      "Ġpartner": 8862,
      "Ġoutputs": 8863,
      "Ġcryst": 8864,
      "Ġbread": 8865,
      "asty": 8866,
      "xiety": 8867,
      "esis": 8868,
      "Ġinflamm": 8869,
      "Ġscan": 8870,
      "Ġstatements": 8871,
      "Ġpit": 8872,
      "Ġequally": 8873,
      "green": 8874,
      "Ġnarr": 8875,
      "Ġmaintenance": 8876,
      "infor": 8877,
      "Ġmagnitude": 8878,
      "dy": 8879,
      "Desc": 8880,
      "ĊĠĠĠĠĠĠĠĠĠĠ": 8881,
      "ĠVersion": 8882,
      "Ġsuffered": 8883,
      "LA": 8884,
      "Ġknowing": 8885,
      "Ġ65": 8886,
      "Ġhorizontal": 8887,
      "ĠSO": 8888,
      "Ġconsiderable": 8889,
      "Ġemployment": 8890,
      "INE": 8891,
      "Ġexplo": 8892,
      "Ġdelete": 8893,
      "stat": 8894,
      "ĠEth": 8895,
      "Ġcontemporary": 8896,
      "users": 8897,
      "Ġhem": 8898,
      "Ġlegs": 8899,
      "Ġpatch": 8900,
      "'}": 8901,
      "ĠDO": 8902,
      "onym": 8903,
      "Ġfishing": 8904,
      "Module": 8905,
      "limit": 8906,
      "Ñģ": 8907,
      "Ġlaid": 8908,
      "ascular": 8909,
      "Ġvictory": 8910,
      "Ġtube": 8911,
      "Ġille": 8912,
      "hester": 8913,
      "ĠJim": 8914,
      "Ġcache": 8915,
      "ĠMassachusetts": 8916,
      "EE": 8917,
      "Ġmit": 8918,
      "âĸ": 8919,
      "ĠHind": 8920,
      "IONS": 8921,
      "Ġ\"__": 8922,
      "Ġmaintaining": 8923,
      "ftware": 8924,
      "Ġminute": 8925,
      "Ġnice": 8926,
      "gers": 8927,
      "ĠFile": 8928,
      "ussian": 8929,
      "icode": 8930,
      "Ġoral": 8931,
      "Ġconverted": 8932,
      "paths": 8933,
      "ibl": 8934,
      "Ġregul": 8935,
      "ĠLaboratory": 8936,
      "stein": 8937,
      "ĠBack": 8938,
      "Ġdefense": 8939,
      "Ġfemales": 8940,
      "Ġsmoke": 8941,
      "2012": 8942,
      "Ġdestruction": 8943,
      "Ġfunctional": 8944,
      "Ġforming": 8945,
      "Ġinterpretation": 8946,
      "ivered": 8947,
      "Ġsuffer": 8948,
      "ĠKnow": 8949,
      "etics": 8950,
      "Ġstrongly": 8951,
      "Ġputting": 8952,
      "Ġpainting": 8953,
      "Ġtruly": 8954,
      "Tem": 8955,
      "ĠMah": 8956,
      "Ġgained": 8957,
      "ĠIraq": 8958,
      "cf": 8959,
      "Ġsymbols": 8960,
      "Ġpounds": 8961,
      "Ġtexts": 8962,
      "master": 8963,
      "Ġdiameter": 8964,
      "esterol": 8965,
      "foo": 8966,
      "inks": 8967,
      "Ġdesert": 8968,
      "Ġrefuge": 8969,
      "Ġpurchase": 8970,
      "Ġconfirmed": 8971,
      "Ġconsumer": 8972,
      "Ġextend": 8973,
      "Ġgap": 8974,
      "Ġfurn": 8975,
      "Ġguard": 8976,
      "itivity": 8977,
      "Ġmeth": 8978,
      "Ġwasn": 8979,
      "Ġarts": 8980,
      "schema": 8981,
      "Ġapplicable": 8982,
      "Ġfer": 8983,
      "ithub": 8984,
      "ega": 8985,
      "Ġturning": 8986,
      "loader": 8987,
      "HS": 8988,
      "Ġtables": 8989,
      "Ġoblig": 8990,
      "ependent": 8991,
      "ĠCorn": 8992,
      "Ġcycl": 8993,
      "IB": 8994,
      "Py": 8995,
      "Ġpin": 8996,
      "Cons": 8997,
      "omes": 8998,
      "bors": 8999,
      "writer": 9000,
      "Max": 9001,
      "Ġnest": 9002,
      "Ġserial": 9003,
      "Ġprominent": 9004,
      "1000": 9005,
      "Ġlisten": 9006,
      "Ġsod": 9007,
      "Ġmales": 9008,
      "iki": 9009,
      "Ġmagazine": 9010,
      "was": 9011,
      "Sm": 9012,
      "Ġbiology": 9013,
      "ĠFund": 9014,
      "Ġlin": 9015,
      "abin": 9016,
      "Ġsettlement": 9017,
      "ĠSurvey": 9018,
      "Ġinsects": 9019,
      "abeth": 9020,
      "distance": 9021,
      "Ġmir": 9022,
      "ishment": 9023,
      "Ġmuscles": 9024,
      "Ġinfant": 9025,
      "Ġvirtual": 9026,
      "Ġspending": 9027,
      "Ġsteel": 9028,
      "Ġtack": 9029,
      "Î¸": 9030,
      "ivated": 9031,
      "Ġparticipation": 9032,
      "ĠDat": 9033,
      "Ġtight": 9034,
      "ĠSecretary": 9035,
      "onal": 9036,
      "Det": 9037,
      "ĠAge": 9038,
      "Ġdistances": 9039,
      "Ġconsumers": 9040,
      "CM": 9041,
      "race": 9042,
      "Ġcognitive": 9043,
      "Ġintegers": 9044,
      "Ġcompos": 9045,
      "Ġwidespread": 9046,
      "Ġaudio": 9047,
      "Ġteen": 9048,
      "Ġdependent": 9049,
      "ĠSenate": 9050,
      "Ġbusinesses": 9051,
      "Ġcommitted": 9052,
      "diction": 9053,
      "factor": 9054,
      "Ġcrow": 9055,
      "Ġ~": 9056,
      "Ġadds": 9057,
      "Ġtranslation": 9058,
      "Ġenvironments": 9059,
      "Min": 9060,
      "ĠAff": 9061,
      "ĠAngeles": 9062,
      "bits": 9063,
      "logging": 9064,
      "ĠAsian": 9065,
      "Ġexit": 9066,
      "Ġ',": 9067,
      "ĠEdward": 9068,
      "Ġbytes": 9069,
      "Ġpoison": 9070,
      "ĠDict": 9071,
      "Ġul": 9072,
      "urches": 9073,
      "ĠLittle": 9074,
      "roud": 9075,
      "Ġstuff": 9076,
      "Ġmagic": 9077,
      "ĠMoon": 9078,
      "Ġcarrying": 9079,
      "ja": 9080,
      "IGHT": 9081,
      "Layout": 9082,
      "2010": 9083,
      "Ġemployees": 9084,
      "resp": 9085,
      "Ġwarning": 9086,
      "Ġlit": 9087,
      "Ġfertil": 9088,
      "omach": 9089,
      "ĠHead": 9090,
      "ĠCard": 9091,
      "rick": 9092,
      "children": 9093,
      "Ġwound": 9094,
      "Ġdirections": 9095,
      "ĠAdv": 9096,
      "training": 9097,
      "ibraries": 9098,
      "Work": 9099,
      "DIR": 9100,
      "Ġkit": 9101,
      "Ġtrick": 9102,
      "Ġacting": 9103,
      "tol": 9104,
      "Ġcup": 9105,
      "ĠParliament": 9106,
      "uan": 9107,
      "rection": 9108,
      "pg": 9109,
      "ĠColorado": 9110,
      "cluster": 9111,
      "CN": 9112,
      "Ġdispl": 9113,
      "().__": 9114,
      "DataFrame": 9115,
      "Ġinjuries": 9116,
      "ĠLo": 9117,
      "iler": 9118,
      "Ġcoverage": 9119,
      "charge": 9120,
      "}\"": 9121,
      "ĠTO": 9122,
      "Ġpron": 9123,
      "Ġliv": 9124,
      "hav": 9125,
      "Ġ1985": 9126,
      "awn": 9127,
      "otype": 9128,
      "hma": 9129,
      "Ġargparse": 9130,
      "shot": 9131,
      "Ġboat": 9132,
      "Ġintellectual": 9133,
      "SU": 9134,
      "Ġrespective": 9135,
      "ĠIslam": 9136,
      "Ġdebt": 9137,
      "Ġaudience": 9138,
      "cpu": 9139,
      "ropy": 9140,
      "Ġafford": 9141,
      "+\\": 9142,
      "Ġwra": 9143,
      "Ġcraft": 9144,
      "zip": 9145,
      "QL": 9146,
      "Red": 9147,
      "Ġschedul": 9148,
      "Ġcorrectly": 9149,
      "ĠPage": 9150,
      "Ġduration": 9151,
      "Ġlessons": 9152,
      "Ġexamination": 9153,
      "Ġimproving": 9154,
      "ĠPak": 9155,
      "ji": 9156,
      "ĠNever": 9157,
      "Ġthrow": 9158,
      "ĠHor": 9159,
      "ĠGulf": 9160,
      "Bo": 9161,
      "partial": 9162,
      "Ġpadding": 9163,
      "Ġcombat": 9164,
      "ĠCentre": 9165,
      "Ġceremon": 9166,
      "endar": 9167,
      "Ġrecept": 9168,
      "Eng": 9169,
      "Ġcub": 9170,
      "ĠWhere": 9171,
      "ĠEll": 9172,
      "ĠMid": 9173,
      "----------------------------------------------------------------": 9174,
      "ĠRemember": 9175,
      "Ġcutting": 9176,
      "Ġmanufacturing": 9177,
      "ĠIllinois": 9178,
      "Ġ\"--": 9179,
      "plotlib": 9180,
      "Ġhall": 9181,
      "Ġunusual": 9182,
      "ĠConservation": 9183,
      "bn": 9184,
      "Ġmild": 9185,
      "reset": 9186,
      "Ġasking": 9187,
      "Ġintegrated": 9188,
      "oples": 9189,
      "ĠQueen": 9190,
      "ĠPhiladelphia": 9191,
      "Ġmarkets": 9192,
      "Ġoverl": 9193,
      "Ġentries": 9194,
      "Ġfeeding": 9195,
      "Me": 9196,
      "ĠRequ": 9197,
      "Ġtank": 9198,
      "ĠSign": 9199,
      "plt": 9200,
      "Ġcombinations": 9201,
      "insert": 9202,
      "Ġmeasuring": 9203,
      "Ġspectrum": 9204,
      "chen": 9205,
      "čĊčĊč": 9206,
      "Ġarchae": 9207,
      "Ġimprovement": 9208,
      "Ġmice": 9209,
      "ĠStart": 9210,
      "Ġ2016": 9211,
      "ĠDig": 9212,
      "Ġpanel": 9213,
      "Ġtract": 9214,
      "roat": 9215,
      "atre": 9216,
      "Ġconven": 9217,
      "riers": 9218,
      "Car": 9219,
      "Ġtransformation": 9220,
      "Ġneur": 9221,
      "Ġ1940": 9222,
      "Ġjudge": 9223,
      "Ġsess": 9224,
      "GR": 9225,
      "Ġscientist": 9226,
      "ĠLight": 9227,
      "aded": 9228,
      "orses": 9229,
      "Ġquantities": 9230,
      "Integer": 9231,
      "Ġvoltage": 9232,
      "Ġha": 9233,
      "ĠWay": 9234,
      "Ġclot": 9235,
      "Ġnewspaper": 9236,
      "Ġdetected": 9237,
      "æľ": 9238,
      "cr": 9239,
      "Ġcited": 9240,
      "Ġgenerations": 9241,
      "Hel": 9242,
      "mo": 9243,
      "ĠDespite": 9244,
      "Ġwilling": 9245,
      "Ġdescript": 9246,
      "Ġstores": 9247,
      "tic": 9248,
      "Ġtowns": 9249,
      "Ġ48": 9250,
      "sole": 9251,
      "Ġwhenever": 9252,
      "Ġallerg": 9253,
      "move": 9254,
      "Ġthorough": 9255,
      "Ġcharacteristic": 9256,
      "century": 9257,
      "Ġcouncil": 9258,
      "Ġspr": 9259,
      "Ġgravity": 9260,
      "Ġperforming": 9261,
      "category": 9262,
      "ä»": 9263,
      "Fl": 9264,
      "errors": 9265,
      "you": 9266,
      "Ġtang": 9267,
      "Ġadvert": 9268,
      "ĠFire": 9269,
      "Ġ'_": 9270,
      "Ġprof": 9271,
      "Ġnoqa": 9272,
      "LS": 9273,
      "Ġuniversal": 9274,
      "Ġroads": 9275,
      "Ġvictims": 9276,
      "ĠSometimes": 9277,
      "Ġearliest": 9278,
      "Ġcaught": 9279,
      "Ġinhib": 9280,
      "Ġ2018": 9281,
      "delta": 9282,
      "Ġfever": 9283,
      "ĠStan": 9284,
      "Ġbias": 9285,
      "Ġtheories": 9286,
      "states": 9287,
      "IND": 9288,
      "Ġinhabit": 9289,
      "abric": 9290,
      "ĠLy": 9291,
      "Ġsister": 9292,
      "ACT": 9293,
      "Ġvariation": 9294,
      ")).": 9295,
      "Ġskill": 9296,
      "arks": 9297,
      "Ġfrequent": 9298,
      "factory": 9299,
      "ĠName": 9300,
      "Ġgiant": 9301,
      "ĠMur": 9302,
      "ĠCurrent": 9303,
      "ĠChief": 9304,
      "Ġå": 9305,
      "handle": 9306,
      "mann": 9307,
      ":%": 9308,
      "uality": 9309,
      "ĠWho": 9310,
      "card": 9311,
      "avery": 9312,
      "Ġgeometry": 9313,
      "hidden": 9314,
      "oured": 9315,
      "sen": 9316,
      "Ġmur": 9317,
      "Ġregardless": 9318,
      "kind": 9319,
      "opic": 9320,
      "Ġgover": 9321,
      "sts": 9322,
      "aises": 9323,
      "itative": 9324,
      "Your": 9325,
      "angered": 9326,
      "Ġtrouble": 9327,
      "Ġimplications": 9328,
      "Ġauthent": 9329,
      "Ġlosses": 9330,
      "ĠDutch": 9331,
      "ĠSeries": 9332,
      "ĠEff": 9333,
      "ĠRE": 9334,
      "__()": 9335,
      "Ġsales": 9336,
      "Ġtruck": 9337,
      "Ġintervention": 9338,
      "Title": 9339,
      "ften": 9340,
      "aration": 9341,
      "ĠPalest": 9342,
      "Ġfeatured": 9343,
      "Ġrecording": 9344,
      "Ġcreative": 9345,
      "Ġ[],": 9346,
      "Ġfinite": 9347,
      "ĠArts": 9348,
      "ĠWilliams": 9349,
      "iro": 9350,
      "eller": 9351,
      "Ġenforce": 9352,
      "rank": 9353,
      "Ġconcrete": 9354,
      "uris": 9355,
      "keep": 9356,
      "Ġgoverning": 9357,
[...]
