{
  "version": "1.0",
  "truncation": null,
  "padding": null,
  "added_tokens": [
    {
      "id": 0,
      "content": "[PAD]",
      "single_word": false,
      "lstrip": false,
      "rstrip": false,
      "normalized": false,
      "special": true
    },
    {
      "id": 1,
      "content": "[UNK]",
      "single_word": false,
      "lstrip": false,
      "rstrip": false,
      "normalized": false,
      "special": true
    },
    {
      "id": 2,
      "content": "[BOS]",
      "single_word": false,
      "lstrip": false,
      "rstrip": false,
      "normalized": false,
      "special": true
    },
    {
      "id": 3,
      "content": "[EOS]",
      "single_word": false,
      "lstrip": false,
      "rstrip": false,
      "normalized": false,
      "special": true
    }
  ],
  "normalizer": {
    "type": "NFKC"
  },
  "pre_tokenizer": {
    "type": "ByteLevel",
    "add_prefix_space": true,
    "trim_offsets": true,
    "use_regex": true
  },
  "post_processor": {
    "type": "TemplateProcessing",
    "single": [
      {
        "SpecialToken": {
          "id": "[BOS]",
          "type_id": 0
        }
      },
      {
        "Sequence": {
          "id": "A",
          "type_id": 0
        }
      },
      {
        "SpecialToken": {
          "id": "[EOS]",
          "type_id": 0
        }
      }
    ],
    "pair": [
      {
        "SpecialToken": {
          "id": "[BOS]",
          "type_id": 0
        }
      },
      {
        "Sequence": {
          "id": "A",
          "type_id": 0
        }
      },
      {
        "SpecialToken": {
          "id": "[EOS]",
          "type_id": 0
        }
      },
      {
        "Sequence": {
          "id": "B",
          "type_id": 1
        }
      },
      {
        "SpecialToken": {
          "id": "[EOS]",
          "type_id": 1
        }
      }
    ],
    "special_tokens": {
      "[BOS]": {
        "id": "[BOS]",
        "ids": [
          2
        ],
        "tokens": [
          "[BOS]"
        ]
      },
      "[EOS]": {
        "id": "[EOS]",
        "ids": [
          3
        ],
        "tokens": [
          "[EOS]"
        ]
      }
    }
  },
  "decoder": {
    "type": "ByteLevel",
    "add_prefix_space": true,
    "trim_offsets": true,
    "use_regex": true
  },
  "model": {
    "type": "BPE",
    "dropout": null,
    "unk_token": "[UNK]",
    "continuing_subword_prefix": null,
    "end_of_word_suffix": null,
    "fuse_unk": false,
    "byte_fallback": false,
    "ignore_merges": false,
    "vocab": {
      "[PAD]": 0,
      "[UNK]": 1,
      "[BOS]": 2,
      "[EOS]": 3,
      "!": 4,
      "\"": 5,
      "#": 6,
      "$": 7,
      "%": 8,
      "&": 9,
      "'": 10,
      "(": 11,
      ")": 12,
      "*": 13,
      "+": 14,
      ",": 15,
      "-": 16,
      ".": 17,
      "/": 18,
      "0": 19,
      "1": 20,
      "2": 21,
      "3": 22,
      "4": 23,
      "5": 24,
      "6": 25,
      "7": 26,
      "8": 27,
      "9": 28,
      ":": 29,
      ";": 30,
      "<": 31,
      "=": 32,
      ">": 33,
      "?": 34,
      "@": 35,
      "A": 36,
      "B": 37,
      "C": 38,
      "D": 39,
      "E": 40,
      "F": 41,
      "G": 42,
      "H": 43,
      "I": 44,
      "J": 45,
      "K": 46,
      "L": 47,
      "M": 48,
      "N": 49,
      "O": 50,
      "P": 51,
      "Q": 52,
      "R": 53,
      "S": 54,
      "T": 55,
      "U": 56,
      "V": 57,
      "W": 58,
      "X": 59,
      "Y": 60,
      "Z": 61,
      "[": 62,
      "\\": 63,
      "]": 64,
      "^": 65,
      "_": 66,
      "`": 67,
      "a": 68,
      "b": 69,
      "c": 70,
      "d": 71,
      "e": 72,
      "f": 73,
      "g": 74,
      "h": 75,
      "i": 76,
      "j": 77,
      "k": 78,
      "l": 79,
      "m": 80,
      "n": 81,
      "o": 82,
      "p": 83,
      "q": 84,
      "r": 85,
      "s": 86,
      "t": 87,
      "u": 88,
      "v": 89,
      "w": 90,
      "x": 91,
      "y": 92,
      "z": 93,
      "{": 94,
      "|": 95,
      "}": 96,
      "~": 97,
      "¡": 98,
      "¢": 99,
      "£": 100,
      "¤": 101,
      "¥": 102,
      "¦": 103,
      "§": 104,
      "¨": 105,
      "©": 106,
      "ª": 107,
      "«": 108,
      "¬": 109,
      "®": 110,
      "¯": 111,
      "°": 112,
      "±": 113,
      "²": 114,
      "³": 115,
      "´": 116,
      "µ": 117,
      "¶": 118,
      "·": 119,
      "¸": 120,
      "¹": 121,
      "º": 122,
      "»": 123,
      "¼": 124,
      "½": 125,
      "¾": 126,
      "¿": 127,
      "À": 128,
      "Á": 129,
      "Â": 130,
      "Ã": 131,
      "Ä": 132,
      "Å": 133,
      "Æ": 134,
      "Ç": 135,
      "È": 136,
      "É": 137,
      "Ê": 138,
      "Ë": 139,
      "Ì": 140,
      "Í": 141,
      "Î": 142,
      "Ï": 143,
      "Ð": 144,
      "Ñ": 145,
      "Ò": 146,
      "Ó": 147,
      "Ô": 148,
      "Õ": 149,
      "Ö": 150,
      "×": 151,
      "Ø": 152,
      "Ù": 153,
      "Ú": 154,
      "Û": 155,
      "Ü": 156,
      "Ý": 157,
      "Þ": 158,
      "ß": 159,
      "à": 160,
      "á": 161,
      "â": 162,
      "ã": 163,
      "ä": 164,
      "å": 165,
      "æ": 166,
      "ç": 167,
      "è": 168,
      "é": 169,
      "ê": 170,
      "ë": 171,
      "ì": 172,
      "í": 173,
      "î": 174,
      "ï": 175,
      "ð": 176,
      "ñ": 177,
      "ò": 178,
      "ó": 179,
      "ô": 180,
      "õ": 181,
      "ö": 182,
      "÷": 183,
      "ø": 184,
      "ù": 185,
      "ú": 186,
      "û": 187,
      "ü": 188,
      "ý": 189,
      "þ": 190,
      "ÿ": 191,
      "Ā": 192,
      "ā": 193,
      "Ă": 194,
      "ă": 195,
      "Ą": 196,
      "ą": 197,
      "Ć": 198,
      "ć": 199,
      "Ĉ": 200,
      "ĉ": 201,
      "Ċ": 202,
      "ċ": 203,
      "Č": 204,
      "č": 205,
      "Ď": 206,
      "ď": 207,
      "Đ": 208,
      "đ": 209,
      "Ē": 210,
      "ē": 211,
      "Ĕ": 212,
      "ĕ": 213,
      "Ė": 214,
      "ė": 215,
      "Ę": 216,
      "ę": 217,
      "Ě": 218,
      "ě": 219,
      "Ĝ": 220,
      "ĝ": 221,
      "Ğ": 222,
      "ğ": 223,
      "Ġ": 224,
      "ġ": 225,
      "Ģ": 226,
      "ģ": 227,
      "Ĥ": 228,
      "ĥ": 229,
      "Ħ": 230,
      "ħ": 231,
      "Ĩ": 232,
      "ĩ": 233,
      "Ī": 234,
      "ī": 235,
      "Ĭ": 236,
      "ĭ": 237,
      "Į": 238,
      "į": 239,
      "İ": 240,
      "ı": 241,
      "Ĳ": 242,
      "ĳ": 243,
      "Ĵ": 244,
      "ĵ": 245,
      "Ķ": 246,
      "ķ": 247,
      "ĸ": 248,
      "Ĺ": 249,
      "ĺ": 250,
      "Ļ": 251,
      "ļ": 252,
      "Ľ": 253,
      "ľ": 254,
      "Ŀ": 255,
      "ŀ": 256,
      "Ł": 257,
      "ł": 258,
      "Ń": 259,
      "Ġt": 260,
      "Ġa": 261,
      "in": 262,
      "he": 263,
      "re": 264,
      "on": 265,
      "Ġthe": 266,
      "Ġs": 267,
      "er": 268,
      "at": 269,
      "nd": 270,
      "Ġc": 271,
      "Ġo": 272,
      "Ġw": 273,
      "es": 274,
      "it": 275,
      "en": 276,
      "or": 277,
      "ing": 278,
      "ou": 279,
      "Ġp": 280,
      "Ġf": 281,
      "is": 282,
      "an": 283,
      "Ġb": 284,
      "al": 285,
      "Ġand": 286,
      "Ġm": 287,
      "ed": 288,
      "Ġto": 289,
      "Ġin": 290,
      "ar": 291,
      "Ġof": 292,
      "Ġd": 293,
      "ic": 294,
      "le": 295,
      "ion": 296,
      "Ġh": 297,
      "as": 298,
      "om": 299,
      "Ġth": 300,
      "ent": 301,
      "Ġe": 302,
      "il": 303,
      "us": 304,
      "ro": 305,
      "ve": 306,
      "Ġl": 307,
      "Ġre": 308,
      "ĠT": 309,
      "ct": 310,
      "Ġy": 311,
      "ĠI": 312,
      "Ġn": 313,
      "Ġg": 314,
      "et": 315,
      "Ġyou": 316,
      "ly": 317,
      "id": 318,
      "ut": 319,
      "ĠS": 320,
      "Ġfor": 321,
      "Ġbe": 322,
      "ow": 323,
      "ĠA": 324,
      "im": 325,
      "ra": 326,
      "st": 327,
      "ot": 328,
      "Ġon": 329,
      "ce": 330,
      "âĢ": 331,
      "Ġis": 332,
      "ĠC": 333,
      "ol": 334,
      "ch": 335,
      "ur": 336,
      "ig": 337,
      "Ġthat": 338,
      "ation": 339,
      "Ġst": 340,
      "ay": 341,
      "el": 342,
      "ith": 343,
      "ver": 344,
      "Ġhe": 345,
      "am": 346,
      "ad": 347,
      "ir": 348,
      "Ġwith": 349,
      "Ġas": 350,
      "ĠThe": 351,
      "ers": 352,
      "Ġpro": 353,
      "Ġit": 354,
      "ul": 355,
      "ĠM": 356,
      "if": 357,
      "se": 358,
      "un": 359,
      "Ġal": 360,
      "Ġan": 361,
      "ĠB": 362,
      "Ġcon": 363,
      "Ġwh": 364,
      "ist": 365,
      "ĠP": 366,
      "ess": 367,
      "ke": 368,
      "Ġor": 369,
      "ate": 370,
      "Ġare": 371,
      "ĠW": 372,
      "ge": 373,
      "ant": 374,
      "ill": 375,
      "Ġus": 376,
      "ĠH": 377,
      "ment": 378,
      "ore": 379,
      "pp": 380,
      "Ġcom": 381,
      "ter": 382,
      "Ġex": 383,
      "Ġha": 384,
      "Ġwe": 385,
      "oo": 386,
      "her": 387,
      "ure": 388,
      "ld": 389,
      "ri": 390,
      "ab": 391,
      "âĢĻ": 392,
      "ac": 393,
      "Ġde": 394,
      "Ġcan": 395,
      "est": 396,
      "ĠD": 397,
      "Ġ1": 398,
      "ĠF": 399,
      "ive": 400,
      "pe": 401,
      "Ġv": 402,
      "qu": 403,
      "Ġse": 404,
      "igh": 405,
      "th": 406,
      "Ġsu": 407,
      "ity": 408,
      "rom": 409,
      "Ġwas": 410,
      "Ġne": 411,
      "Ġyour": 412,
      "ĠR": 413,
      "Ġ-": 414,
      "Ġat": 415,
      "ort": 416,
      "ies": 417,
      "oc": 418,
      "ain": 419,
      "em": 420,
      "Ġch": 421,
      "ust": 422,
      "op": 423,
      "Ġ2": 424,
      "ĠE": 425,
      "ĠL": 426,
      "Ġsh": 427,
      "os": 428,
      "um": 429,
      "'s": 430,
      "ud": 431,
      "art": 432,
      "Ġr": 433,
      "Ġ(": 434,
      "ome": 435,
      "Ġhave": 436,
      "Ġle": 437,
      "iv": 438,
      "ĠG": 439,
      "res": 440,
      "nt": 441,
      "all": 442,
      "ould": 443,
      "ĠO": 444,
      "Ġfrom": 445,
      "Ġby": 446,
      "ĠN": 447,
      "ight": 448,
      "out": 449,
      "ial": 450,
      "and": 451,
      "ide": 452,
      "Ġen": 453,
      "Ġu": 454,
      "Ġwor": 455,
      "ect": 456,
      "Ġab": 457,
      "our": 458,
      "Ġtheir": 459,
      "rou": 460,
      "Ġpl": 461,
      "Ġad": 462,
      "ere": 463,
      "Ġthis": 464,
      "od": 465,
      "Ġnot": 466,
      "ĠâĢ": 467,
      "ions": 468,
      "gh": 469,
      "ard": 470,
      "pl": 471,
      "king": 472,
      "pt": 473,
      "ĠTh": 474,
      "per": 475,
      "Ġim": 476,
      "ast": 477,
      "ag": 478,
      "ie": 479,
      "iz": 480,
      "age": 481,
      "ine": 482,
      "are": 483,
      "Ġwill": 484,
      "Ġmore": 485,
      "ff": 486,
      "ost": 487,
      "Ġint": 488,
      "Ġme": 489,
      "Ġj": 490,
      "ĠJ": 491,
      "ell": 492,
      "Ġall": 493,
      "ĠIn": 494,
      "du": 495,
      "ake": 496,
      "og": 497,
      "Ġk": 498,
      "ther": 499,
      "ip": 500,
      "Ġte": 501,
      "ally": 502,
      "act": 503,
      "Ġhas": 504,
      "ks": 505,
      "Ġinc": 506,
      "Ġcomp": 507,
      "able": 508,
      "Ġthey": 509,
      "ice": 510,
      "orm": 511,
      "ind": 512,
      "cc": 513,
      "Ġfe": 514,
      "reat": 515,
      "ry": 516,
      "ich": 517,
      "Ġbut": 518,
      "ĠU": 519,
      "Ġwhe": 520,
      "Ġun": 521,
      "ack": 522,
      "Ġcont": 523,
      "Ġout": 524,
      "ru": 525,
      "00": 526,
      "so": 527,
      "Ġass": 528,
      "ign": 529,
      "ance": 530,
      "ous": 531,
      "Ġcl": 532,
      "Ġup": 533,
      "Ġdo": 534,
      "ime": 535,
      "ear": 536,
      "ood": 537,
      "Ġimp": 538,
      "Ġ\"": 539,
      "ire": 540,
      "Ġabout": 541,
      "ations": 542,
      "ong": 543,
      "Ġher": 544,
      "ail": 545,
      "Ġsome": 546,
      "one": 547,
      "ite": 548,
      "ult": 549,
      "ans": 550,
      "ach": 551,
      "ike": 552,
      "Ġres": 553,
      "Ġso": 554,
      "form": 555,
      "ĠY": 556,
      "ep": 557,
      "ated": 558,
      "Ġmy": 559,
      "ib": 560,
      "Ġman": 561,
      "Ġapp": 562,
      "ase": 563,
      "ence": 564,
      "vel": 565,
      "Ġhis": 566,
      "av": 567,
      "Ġother": 568,
      "ĠIt": 569,
      "Ġalso": 570,
      "ak": 571,
      "very": 572,
      "Ġ3": 573,
      "Ġwho": 574,
      "ia": 575,
      "ĠSt": 576,
      "ace": 577,
      "ame": 578,
      "Ġwhich": 579,
      "Ġthem": 580,
      "Ġdis": 581,
      "Ġqu": 582,
      "ĠThis": 583,
      "Ġhad": 584,
      "Ġhel": 585,
      "ical": 586,
      "ition": 587,
      "Ġtra": 588,
      "Ġsp": 589,
      "ap": 590,
      "end": 591,
      "Ġone": 592,
      "ress": 593,
      "ass": 594,
      "Ġhelp": 595,
      "ile": 596,
      "Ġoff": 597,
      "Ġev": 598,
      "Ġuser": 599,
      "ction": 600,
      "Ġgo": 601,
      "ents": 602,
      "Ġhow": 603,
      "Ġour": 604,
      "..": 605,
      "Ġlike": 606,
      "Ġany": 607,
      "Ġprov": 608,
      "Ġper": 609,
      "ue": 610,
      "Ġar": 611,
      "Ġassist": 612,
      "ĠâĢľ": 613,
      "âĢĿ": 614,
      "Ġsa": 615,
      "Ġtime": 616,
      "ĠK": 617,
      "ber": 618,
      "ary": 619,
      "ll": 620,
      "Ġover": 621,
      "ays": 622,
      "ne": 623,
      "Ġsc": 624,
      "Ġrec": 625,
      "ark": 626,
      "ors": 627,
      "Ġadd": 628,
      "Ġnew": 629,
      "ces": 630,
      "Ġspe": 631,
      "ount": 632,
      "ree": 633,
      "erv": 634,
      "Ġem": 635,
      "ings": 636,
      "Ġpe": 637,
      "ord": 638,
      "ove": 639,
      "lud": 640,
      "ook": 641,
      "Ġassistant": 642,
      "now": 643,
      "Ġpre": 644,
      "Ġwere": 645,
      "ound": 646,
      "Ġro": 647,
      "Ġpart": 648,
      "ĠV": 649,
      "ub": 650,
      "ick": 651,
      "Ġshe": 652,
      "ific": 653,
      "ĠCh": 654,
      "ater": 655,
      "Ġdes": 656,
      "Ġcomm": 657,
      "ory": 658,
      "ild": 659,
      "Ġbeen": 660,
      "low": 661,
      "ang": 662,
      "rough": 663,
      "Ġinto": 664,
      "Ġacc": 665,
      "Ġits": 666,
      "Ġ20": 667,
      "Ġwork": 668,
      "ens": 669,
      "Ġinclud": 670,
      "ful": 671,
      "Ġwould": 672,
      "Ġ4": 673,
      "Ġthere": 674,
      "ond": 675,
      "int": 676,
      "iff": 677,
      "ck": 678,
      "red": 679,
      "ose": 680,
      "Ġif": 681,
      "Ġuse": 682,
      "oy": 683,
      "ual": 684,
      "Ġag": 685,
      "ough": 686,
      "ram": 687,
      "Ġyear": 688,
      "Ġneed": 689,
      "les": 690,
      "Ġcol": 691,
      "wn": 692,
      "Ġwhen": 693,
      "Ġwhat": 694,
      "ob": 695,
      "ĠWe": 696,
      "Ġind": 697,
      "Ġget": 698,
      "Ġknow": 699,
      "Ġmake": 700,
      "ments": 701,
      "Ġsuch": 702,
      "Ġ5": 703,
      "amp": 704,
      "lic": 705,
      "ish": 706,
      "te": 707,
      "nder": 708,
      "ities": 709,
      "ov": 710,
      "get": 711,
      "ning": 712,
      "ious": 713,
      "Ġdiff": 714,
      "ric": 715,
      "Ġprodu": 716,
      "Ġam": 717,
      "Ġbec": 718,
      "Ġthrough": 719,
      "ople": 720,
      "Ġcould": 721,
      "ĠHe": 722,
      "ons": 723,
      "vers": 724,
      "Ġjust": 725,
      "Ġthan": 726,
      "own": 727,
      "round": 728,
      "ating": 729,
      "xt": 730,
      "Ġtr": 731,
      "Ġthese": 732,
      "Ġexper": 733,
      "pport": 734,
      "Ġmay": 735,
      "irst": 736,
      "use": 737,
      "ates": 738,
      "we": 739,
      "ience": 740,
      "ert": 741,
      "'t": 742,
      "ĠAs": 743,
      "Ġeff": 744,
      "Ġpeople": 745,
      "Ġsy": 746,
      "ft": 747,
      "rit": 748,
      "Ġbet": 749,
      "Ġco": 750,
      "Ġcons": 751,
      "Ġrel": 752,
      "ife": 753,
      "Ġact": 754,
      "tern": 755,
      "old": 756,
      "ade": 757,
      "ting": 758,
      "Ġbl": 759,
      "aking": 760,
      "ures": 761,
      "alth": 762,
      "Ġno": 763,
      "hed": 764,
      "Ġfl": 765,
      "bs": 766,
      "ract": 767,
      "als": 768,
      "ject": 769,
      "ĠWh": 770,
      "Ġwell": 771,
      "ph": 772,
      "Ġpers": 773,
      "elf": 774,
      "ise": 775,
      "ility": 776,
      "Ġspec": 777,
      "ian": 778,
      "Ġbu": 779,
      "ĠRe": 780,
      "lect": 781,
      "Ġsm": 782,
      "Ġinv": 783,
      "velop": 784,
      "olog": 785,
      "Ġinform": 786,
      "ĠYou": 787,
      "Ġ201": 788,
      "Ġserv": 789,
      "Ġunder": 790,
      "Ġtw": 791,
      "ices": 792,
      "ink": 793,
      "cess": 794,
      "ced": 795,
      "fter": 796,
      "hing": 797,
      "Ġpo": 798,
      "Ġph": 799,
      "Ġra": 800,
      "ular": 801,
      "Ġstud": 802,
      "ily": 803,
      "ased": 804,
      "Ġdiffere": 805,
      "chn": 806,
      "mer": 807,
      "Ġke": 808,
      "row": 809,
      "ĠCan": 810,
      "Ġback": 811,
      "Ġshould": 812,
      "Ġmost": 813,
      "Ġfirst": 814,
      "uring": 815,
      "ange": 816,
      "Ġrep": 817,
      "Ġevery": 818,
      "Ġmed": 819,
      "Ġatt": 820,
      "gan": 821,
      "Ġway": 822,
      "Ġcre": 823,
      "iness": 824,
      "Ġprog": 825,
      "Ġpos": 826,
      "Ġreg": 827,
      "Ġsee": 828,
      "fore": 829,
      "iew": 830,
      "ative": 831,
      "its": 832,
      "urn": 833,
      "Ġwant": 834,
      "Ġrem": 835,
      "Ġsaid": 836,
      "Ġgreat": 837,
      "Ġdet": 838,
      "ient": 839,
      "stem": 840,
      "ys": 841,
      "Ġprovide": 842,
      "ness": 843,
      "Ġonly": 844,
      "ng": 845,
      "ts": 846,
      "Ġplay": 847,
      "iss": 848,
      "oth": 849,
      "gg": 850,
      "Ġinformation": 851,
      "ustom": 852,
      "hen": 853,
      "ower": 854,
      "Ġdevelop": 855,
      "Ġused": 856,
      "hip": 857,
      "Ġhigh": 858,
      "Ġmany": 859,
      "Ġdec": 860,
      "pect": 861,
      "Ġloc": 862,
      "ize": 863,
      "hes": 864,
      "ics": 865,
      "ause": 866,
      "Ġstr": 867,
      "arket": 868,
      "Ġwhere": 869,
      "Ġinst": 870,
      "ible": 871,
      "Ġbus": 872,
      "Ġperson": 873,
      "Ġtechn": 874,
      "arch": 875,
      "up": 876,
      "ew": 877,
      "Ġeven": 878,
      "ĠIf": 879,
      "erg": 880,
      "Ġhealth": 881,
      "ident": 882,
      "Ġstart": 883,
      "ĠâĢĵ": 884,
      "Ġpr": 885,
      "Ġla": 886,
      "Ġset": 887,
      "Ġdifferent": 888,
      "ward": 889,
      "rib": 890,
      "Ġtwo": 891,
      "ĠAd": 892,
      "ĠFor": 893,
      "Ġeach": 894,
      "Ġgu": 895,
      "Ġ19": 896,
      "Ġworld": 897,
      "Ġfind": 898,
      "Ġ6": 899,
      "Ġcommun": 900,
      "ĠThey": 901,
      "ont": 902,
      "ener": 903,
      "any": 904,
      "Ġsec": 905,
      "Ġproduct": 906,
      "erm": 907,
      "Ġlife": 908,
      "Ġac": 909,
      "day": 910,
      "ath": 911,
      "Ġcustom": 912,
      "iet": 913,
      "Ġhim": 914,
      "omm": 915,
      "Ġsign": 916,
      "ĠAnd": 917,
      "Ġown": 918,
      "Ġsoc": 919,
      "iqu": 920,
      "ational": 921,
      "Ġmin": 922,
      ").": 923,
      "Ġfin": 924,
      "ata": 925,
      "Ġart": 926,
      "Ġsk": 927,
      "cy": 928,
      "ef": 929,
      "Ġdesign": 930,
      "Ġins": 931,
      "Ġgood": 932,
      "Ġche": 933,
      "Ġtrans": 934,
      "Ġmade": 935,
      "ĠHow": 936,
      "Ġprogram": 937,
      "ool": 938,
      "Ġlong": 939,
      "Ġent": 940,
      "Ġcreat": 941,
      "Ġsystem": 942,
      "uch": 943,
      "Ġsur": 944,
      "Ġsupport": 945,
      "Ġprovid": 946,
      "Ġthen": 947,
      "Ġusing": 948,
      "Ġvis": 949,
      "Ġcar": 950,
      "ized": 951,
      "ues": 952,
      "Ġdown": 953,
      "led": 954,
      "ĠAn": 955,
      "Ġfeel": 956,
      "Ġlead": 957,
      "ten": 958,
      "ĠBut": 959,
      "Ġfam": 960,
      "Ġbusiness": 961,
      "Ġafter": 962,
      "Ġyears": 963,
      "Ġdisc": 964,
      "other": 965,
      "ĠPro": 966,
      "ble": 967,
      "ven": 968,
      "Ġinter": 969,
      "Ġwhile": 970,
      "ied": 971,
      "Ġbefore": 972,
      "Ġtake": 973,
      "line": 974,
      "Ġbr": 975,
      "ollow": 976,
      "Ġmarket": 977,
      "ĠUn": 978,
      "Ġday": 979,
      "ality": 980,
      "Ġav": 981,
      "Ġread": 982,
      "omet": 983,
      "arn": 984,
      "ict": 985,
      "cial": 986,
      "ix": 987,
      "Ġshow": 988,
      "Ġ$": 989,
      "Ġvar": 990,
      "Ġrequ": 991,
      "Ġmod": 992,
      "...": 993,
      "tle": 994,
      "ren": 995,
      "ited": 996,
      "ec": 997,
      "Ġchar": 998,
      "ty": 999,
      "ĠAl": 1000,
      "Ġend": 1001,
      "riend": 1002,
      "Ġpol": 1003,
      "Ġdid": 1004,
      "ives": 1005,
      "ural": 1006,
      "Ġtoo": 1007,
      "com": 1008,
      "ĠShe": 1009,
      "Ġhere": 1010,
      "Ġright": 1011,
      "ax": 1012,
      "Ġhand": 1013,
      "Ġeffect": 1014,
      "Ġdon": 1015,
      "Ġsim": 1016,
      "ever": 1017,
      "Ġnum": 1018,
      "Ġpres": 1019,
      "ature": 1020,
      "ional": 1021,
      "ĠÐ": 1022,
      "Ġopt": 1023,
      "ork": 1024,
      "Ġform": 1025,
      "air": 1026,
      "Ġnow": 1027,
      "ock": 1028,
      "Ġmet": 1029,
      "uc": 1030,
      "Ġexp": 1031,
      "Ġmem": 1032,
      "ving": 1033,
      "ines": 1034,
      "Ġteam": 1035,
      "Ġcomple": 1036,
      "ered": 1037,
      "Ġincluding": 1038,
      "und": 1039,
      "Ġvery": 1040,
      "Ġbeing": 1041,
      "Ġref": 1042,
      "Ġbest": 1043,
      "Ġret": 1044,
      "dition": 1045,
      "Ġmon": 1046,
      "Ġfun": 1047,
      "Ġmuch": 1048,
      "ential": 1049,
      "arm": 1050,
      "Ġ7": 1051,
      "Ġagain": 1052,
      "Ġadv": 1053,
      "Ġgra": 1054,
      "Ġaround": 1055,
      "Ġcle": 1056,
      "ars": 1057,
      "eng": 1058,
      "Ġfollow": 1059,
      "io": 1060,
      "Ġimport": 1061,
      "Ġthose": 1062,
      "ages": 1063,
      "Ġimpro": 1064,
      "Ġprocess": 1065,
      "Ġcreate": 1066,
      "Ġfew": 1067,
      "Ġprom": 1068,
      "Ġcur": 1069,
      "ins": 1070,
      "Ġinf": 1071,
      "ology": 1072,
      "Ġfound": 1073,
      "Ġed": 1074,
      "Ġeas": 1075,
      "roup": 1076,
      "akes": 1077,
      "ner": 1078,
      "Ġmus": 1079,
      "Ġdata": 1080,
      "olut": 1081,
      "Ġval": 1082,
      "ween": 1083,
      "ien": 1084,
      "Ġaut": 1085,
      "Ġwater": 1086,
      "),": 1087,
      "ved": 1088,
      "ense": 1089,
      "way": 1090,
      "ather": 1091,
      "read": 1092,
      "Ġexpl": 1093,
      "chool": 1094,
      "Ġeng": 1095,
      "ason": 1096,
      "Ġreal": 1097,
      "ier": 1098,
      "Ġve": 1099,
      "Ġty": 1100,
      "atch": 1101,
      "Ġhome": 1102,
      "Ġcall": 1103,
      "Ġallow": 1104,
      "Ġcount": 1105,
      "lease": 1106,
      "Ġbetween": 1107,
      "Ġsub": 1108,
      "Ġbecause": 1109,
      "ros": 1110,
      "ruct": 1111,
      "Ġincre": 1112,
      "az": 1113,
      "Ġgl": 1114,
      "Ġcare": 1115,
      "Ġsocial": 1116,
      "Ġconf": 1117,
      "ample": 1118,
      "Ġduring": 1119,
      "Ġdel": 1120,
      "Ġext": 1121,
      "Ġ10": 1122,
      "Ġdef": 1123,
      "Ġsal": 1124,
      "ually": 1125,
      "Ġ200": 1126,
      "ted": 1127,
      "Ġop": 1128,
      "ave": 1129,
      "Ġpub": 1130,
      "ling": 1131,
      "erest": 1132,
      "Ġplan": 1133,
      "ĠHere": 1134,
      "Ġexperience": 1135,
      "Ġredu": 1136,
      "der": 1137,
      "ĠThere": 1138,
      "ertain": 1139,
      "Ġlist": 1140,
      "Ġ|": 1141,
      "ergy": 1142,
      "self": 1143,
      "ways": 1144,
      "cept": 1145,
      "Ġdoes": 1146,
      "stand": 1147,
      "ivid": 1148,
      "Ġsomet": 1149,
      "Ġsmall": 1150,
      "ĠSh": 1151,
      "nce": 1152,
      "Ġ8": 1153,
      "ull": 1154,
      "ples": 1155,
      "Ġcour": 1156,
      ".\"": 1157,
      "Ġspecific": 1158,
      "Ġboth": 1159,
      "ccess": 1160,
      "Ġwee": 1161,
      "Ġgener": 1162,
      "ple": 1163,
      "Ġlook": 1164,
      "Ġser": 1165,
      "Ġpract": 1166,
      "Ġthough": 1167,
      "Ġprof": 1168,
      "Ġlit": 1169,
      "Ġbuild": 1170,
      "Ġorgan": 1171,
      "ves": 1172,
      "Ġchild": 1173,
      "ah": 1174,
      "ash": 1175,
      "Ð¾": 1176,
      "Ġpower": 1177,
      "Ġbra": 1178,
      "ee": 1179,
      "Ġlove": 1180,
      "imes": 1181,
      "view": 1182,
      "eg": 1183,
      "Ġpur": 1184,
      "ants": 1185,
      "ining": 1186,
      "Ġreally": 1187,
      "Ġ[": 1188,
      "ank": 1189,
      "Ġresp": 1190,
      "els": 1191,
      "Ġca": 1192,
      "Ġpot": 1193,
      "ware": 1194,
      "Ġconc": 1195,
      "ouse": 1196,
      "Ġtop": 1197,
      "ex": 1198,
      "Ġlar": 1199,
      "Ġpartic": 1200,
      "ĠCl": 1201,
      "irect": 1202,
      "Ġplace": 1203,
      "Ġinterest": 1204,
      "ĠThese": 1205,
      "Ġkeep": 1206,
      "Ġproject": 1207,
      "Ġappro": 1208,
      "__": 1209,
      "Ġstill": 1210,
      "Ġpat": 1211,
      "Ġmain": 1212,
      "ooking": 1213,
      "Ġthink": 1214,
      ".âĢĿ": 1215,
      "Ġgroup": 1216,
      "ĠTo": 1217,
      "ĠNew": 1218,
      "Ġide": 1219,
      "Ġstre": 1220,
      "Ġlast": 1221,
      "Ġob": 1222,
      "iel": 1223,
      "Ġimpact": 1224,
      "Ġpass": 1225,
      "ody": 1226,
      "Ġ&": 1227,
      "ering": 1228,
      "ients": 1229,
      "Ġperform": 1230,
      "ired": 1231,
      "land": 1232,
      "Ġcontin": 1233,
      "Ġexam": 1234,
      "cing": 1235,
      "Ġresult": 1236,
      "Ġdetail": 1237,
      "ism": 1238,
      "Ġtry": 1239,
      "Ġdist": 1240,
      "pr": 1241,
      "Ġaccess": 1242,
      "con": 1243,
      "ploy": 1244,
      "bers": 1245,
      "ĠAr": 1246,
      "Ġbel": 1247,
      "ateg": 1248,
      "Ġel": 1249,
      "ern": 1250,
      "ince": 1251,
      "iron": 1252,
      "Ġbo": 1253,
      "Ġgrow": 1254,
      "ention": 1255,
      "Ġfriend": 1256,
      "Ġfood": 1257,
      "ĠDe": 1258,
      "Ġpoint": 1259,
      "Ġenergy": 1260,
      "ĠWhat": 1261,
      "ocus": 1262,
      "Ġwrit": 1263,
      "ique": 1264,
      "ivers": 1265,
      "Ġcor": 1266,
      "Ġhapp": 1267,
      "ital": 1268,
      "Ġben": 1269,
      "Ġunt": 1270,
      "ify": 1271,
      "ets": 1272,
      "Ġinclude": 1273,
      "itive": 1274,
      "20": 1275,
      "Ġrest": 1276,
      "orts": 1277,
      "Ġfil": 1278,
      "less": 1279,
      "iety": 1280,
      "ote": 1281,
      "Ġ=": 1282,
      "ists": 1283,
      "Ġrun": 1284,
      "Ġlet": 1285,
      "ips": 1286,
      "ĠBe": 1287,
      "Ġ9": 1288,
      "Ġsuccess": 1289,
      "Ġcr": 1290,
      "nect": 1291,
      "Ġchall": 1292,
      "Ġcent": 1293,
      "Ġfamily": 1294,
      "Ġfree": 1295,
      "||": 1296,
      "Ġrese": 1297,
      "Ġclass": 1298,
      "Ġalways": 1299,
      "Ġmaking": 1300,
      "ined": 1301,
      "Ġfact": 1302,
      "Ġsure": 1303,
      "Ġbetter": 1304,
      "Ġpop": 1305,
      "Ġgr": 1306,
      "Ġavail": 1307,
      "oh": 1308,
      "meric": 1309,
      "Ġcompany": 1310,
      "ross": 1311,
      "Ġgoing": 1312,
      "reen": 1313,
      "ds": 1314,
      "Ġear": 1315,
      "Ġlevel": 1316,
      "rent": 1317,
      "thing": 1318,
      "Ġwebs": 1319,
      "Ġsame": 1320,
      "por": 1321,
      "Ġindust": 1322,
      "Ġlight": 1323,
      "Ġpost": 1324,
      "Ġbre": 1325,
      "Ġsignific": 1326,
      "agement": 1327,
      "ared": 1328,
      "Ġcult": 1329,
      "vern": 1330,
      "Ġposs": 1331,
      "ute": 1332,
      "ĠEx": 1333,
      "Ġpersonal": 1334,
      "ries": 1335,
      "Ġsomething": 1336,
      "Ġunderstand": 1337,
      "ale": 1338,
      "ĠSo": 1339,
      "Ġuntil": 1340,
      "alk": 1341,
      "Ġimportant": 1342,
      "ources": 1343,
      "Ðµ": 1344,
      "ug": 1345,
      "ividual": 1346,
      "Ġiss": 1347,
      "Ġ`": 1348,
      "Ġaff": 1349,
      "viron": 1350,
      "Ġexample": 1351,
      "Ġgive": 1352,
      "aut": 1353,
      "Ġmedia": 1354,
      "Ġens": 1355,
      "Ġcost": 1356,
      "ider": 1357,
      "uss": 1358,
      "ames": 1359,
      "Ġprot": 1360,
      "Ġhum": 1361,
      "Ġpri": 1362,
      "iving": 1363,
      "ization": 1364,
      "Ġnumber": 1365,
      "new": 1366,
      "Ġopen": 1367,
      "Ġsit": 1368,
      "Ġfocus": 1369,
      "Ġcome": 1370,
      "ills": 1371,
      "ĠWhen": 1372,
      "Ġbro": 1373,
      "Ġactiv": 1374,
      "Ġlearn": 1375,
      "ically": 1376,
      "Ġstate": 1377,
      "ps": 1378,
      "Ġthings": 1379,
      "ms": 1380,
      "be": 1381,
      "ĠPl": 1382,
      "Ġdri": 1383,
      "ĠSc": 1384,
      "Ġquest": 1385,
      "Ġinvest": 1386,
      "Ġwithout": 1387,
      "Ġstory": 1388,
      "Ġimprove": 1389,
      "ton": 1390,
      "Ġaddition": 1391,
      "aterial": 1392,
      "Ġtoget": 1393,
      "Ġtogether": 1394,
      "Ġschool": 1395,
      "Ġindividual": 1396,
      "Ġmusic": 1397,
      "ĠAmeric": 1398,
      "lement": 1399,
      "Ġnever": 1400,
      "oun": 1401,
      "Ġhist": 1402,
      "ĠHowever": 1403,
      "ĠCom": 1404,
      "Ġstand": 1405,
      "000": 1406,
      "ability": 1407,
      "Ġsl": 1408,
      "oot": 1409,
      "pend": 1410,
      "Ġthree": 1411,
      "ately": 1412,
      "Ġbenef": 1413,
      "The": 1414,
      "to": 1415,
      "Ġavailable": 1416,
      "Ġfac": 1417,
      "pped": 1418,
      "ĠEn": 1419,
      "Ġprev": 1420,
      "rol": 1421,
      "Ġgame": 1422,
      "Ġtri": 1423,
      "Ġest": 1424,
      "ieve": 1425,
      "oad": 1426,
      "Ġmust": 1427,
      "ope": 1428,
      "Ġoften": 1429,
      "Ġsay": 1430,
      "put": 1431,
      "ĠThat": 1432,
      "Ġonline": 1433,
      "man": 1434,
      "Ġservices": 1435,
      "Ġtest": 1436,
      "Ġpublic": 1437,
      "ories": 1438,
      "ery": 1439,
      "Ġable": 1440,
      "ĠWith": 1441,
      "Ġlocal": 1442,
      "Ġenviron": 1443,
      "Ġanal": 1444,
      "oss": 1445,
      "ĠCon": 1446,
      "ode": 1447,
      "Ġexamples": 1448,
      "ĠQ": 1449,
      "iver": 1450,
      "Ġess": 1451,
      "Ġdem": 1452,
      "Ġbeh": 1453,
      "ĠAt": 1454,
      "Ġchang": 1455,
      "ases": 1456,
      "Ġhead": 1457,
      "ĠSp": 1458,
      "Ġsignificant": 1459,
      "Ġanother": 1460,
      "Ġcontent": 1461,
      "Ġmonth": 1462,
      "Ġlot": 1463,
      "ished": 1464,
      "ript": 1465,
      "Ð°": 1466,
      "utes": 1467,
      "Ġstudents": 1468,
      "atures": 1469,
      ",âĢĿ": 1470,
      "Ġ'": 1471,
      "Ġhard": 1472,
      "Ġmight": 1473,
      "Ġcharact": 1474,
      "Ġmaterial": 1475,
      "Ġes": 1476,
      "ggest": 1477,
      "Ġoffer": 1478,
      "aj": 1479,
      "au": 1480,
      "Ġtext": 1481,
      "joy": 1482,
      "avor": 1483,
      "Ġwebsite": 1484,
      "Ġmov": 1485,
      "ĠAll": 1486,
      "ÑĤ": 1487,
      "ĠInd": 1488,
      "Ġdirect": 1489,
      "de": 1490,
      ",\"": 1491,
      "Ġconnect": 1492,
      "ior": 1493,
      "Ġsound": 1494,
      "aw": 1495,
      "orn": 1496,
      "Ġemploy": 1497,
      "Ġcommunity": 1498,
      "Ġ0": 1499,
      "ĠBy": 1500,
      "Ġsever": 1501,
      "ĠSe": 1502,
      "Ġsuggest": 1503,
      "Ġenc": 1504,
      "Ġdevelopment": 1505,
      "ĠIs": 1506,
      "iven": 1507,
      "Ġlittle": 1508,
      "port": 1509,
      "Ġpar": 1510,
      "Ġaud": 1511,
      "Ġservice": 1512,
      "Ġnext": 1513,
      "Ġresearch": 1514,
      "Ġtool": 1515,
      "ĠOne": 1516,
      "ision": 1517,
      "Ġpast": 1518,
      "Ġcamp": 1519,
      "ĠBl": 1520,
      "Ġident": 1521,
      "Ġproducts": 1522,
      "Ġrece": 1523,
      "ration": 1524,
      "ems": 1525,
      "ral": 1526,
      "ooks": 1527,
      "ron": 1528,
      "Ġconst": 1529,
      "ental": 1530,
      "oney": 1531,
      "ĠOn": 1532,
      "Ġmind": 1533,
      "ĠUse": 1534,
      "Ġseveral": 1535,
      "'re": 1536,
      "Ġput": 1537,
      "Ġstep": 1538,
      "Ġpay": 1539,
      "Ġproble": 1540,
      "ats": 1541,
      "ording": 1542,
      "Ġless": 1543,
      "ommend": 1544,
      "itions": 1545,
      "Ġjob": 1546,
      "Ġtechnology": 1547,
      "Ġchange": 1548,
      "yle": 1549,
      "Ð¸": 1550,
      "pping": 1551,
      "over": 1552,
      "tain": 1553,
      "Ġmat": 1554,
      "Ġenvironment": 1555,
      "Ġproper": 1556,
      "ead": 1557,
      "ium": 1558,
      "Ġoper": 1559,
      "'m": 1560,
      "ours": 1561,
      "conom": 1562,
      "Ġair": 1563,
      "ik": 1564,
      "Ġsecond": 1565,
      "ĠCol": 1566,
      "cl": 1567,
      "Ġdep": 1568,
      "Ġturn": 1569,
      "Ġinvol": 1570,
      "Ġchalleng": 1571,
      "Ġtyp": 1572,
      "Ġreport": 1573,
      "Ġwom": 1574,
      "pportun": 1575,
      "Ġbig": 1576,
      "me": 1577,
      "Ġwithin": 1578,
      "aring": 1579,
      "aging": 1580,
      "raph": 1581,
      "Ġ#": 1582,
      "Ġequ": 1583,
      "Ġtell": 1584,
      "Ġcurrent": 1585,
      "Ġagainst": 1586,
      "Ġunique": 1587,
      "Ġbook": 1588,
      "Ġstrateg": 1589,
      "Ġpain": 1590,
      "Ġsoft": 1591,
      "ember": 1592,
      "Ġold": 1593,
      "Ġvide": 1594,
      "ination": 1595,
      "ney": 1596,
      "Ġpotential": 1597,
      "Ġgovern": 1598,
      "Ġeffective": 1599,
      "here": 1600,
      "Ġapplic": 1601,
      "Ġkey": 1602,
      "ards": 1603,
      "ĠTe": 1604,
      "ield": 1605,
      "Ġdev": 1606,
      "Ġmeet": 1607,
      "ables": 1608,
      "Ġeduc": 1609,
      "Ġindustry": 1610,
      "let": 1611,
      "Ġrecommend": 1612,
      "Ġworking": 1613,
      "Ġlarge": 1614,
      "Ġmove": 1615,
      "Ġview": 1616,
      "fect": 1617,
      "Ġopportun": 1618,
      "Ġcourse": 1619,
      "Ġspecial": 1620,
      "ĠInst": 1621,
      "Ġneeds": 1622,
      "Ġbased": 1623,
      "rap": 1624,
      "Ġothers": 1625,
      "Ġevent": 1626,
      "Ġprofess": 1627,
      "Ġbrand": 1628,
      "Ġeasy": 1629,
      "Ġtru": 1630,
      "wards": 1631,
      "Ġarea": 1632,
      "ĠZ": 1633,
      "Ġsince": 1634,
      "hor": 1635,
      "ray": 1636,
      "atural": 1637,
      "illion": 1638,
      "iting": 1639,
      "ently": 1640,
      "Ġcap": 1641,
      "mm": 1642,
      "gin": 1643,
      "Ġris": 1644,
      "ann": 1645,
      "Ġi": 1646,
      "work": 1647,
      "lu": 1648,
      "err": 1649,
      "Ġtreat": 1650,
      "ĠFr": 1651,
      "Ġensure": 1652,
      "Ġbecome": 1653,
      "ĠDo": 1654,
      "ication": 1655,
      "Ġpresent": 1656,
      "Ġdays": 1657,
      "ĠPh": 1658,
      "Ġfore": 1659,
      "ains": 1660,
      "ĠRes": 1661,
      "Ġrelations": 1662,
      "Ġfeatures": 1663,
      "Ġsupp": 1664,
      "Ġchildren": 1665,
      "Ġmar": 1666,
      "Ġdra": 1667,
      "Ġcity": 1668,
      "Ġsaf": 1669,
      "Ġfull": 1670,
      "Ġclear": 1671,
      "Ġenjoy": 1672,
      "Ġweek": 1673,
      "Ġbody": 1674,
      "rist": 1675,
      "Ġbeaut": 1676,
      "Ġgot": 1677,
      "elt": 1678,
      "Ġelect": 1679,
      "ights": 1680,
      "uture": 1681,
      "abor": 1682,
      "Ġcustomers": 1683,
      "Ġland": 1684,
      "Ġ/": 1685,
      "Ġquality": 1686,
      "Ġmom": 1687,
      "ator": 1688,
      "angu": 1689,
      "Ġaway": 1690,
      "Ġorder": 1691,
      "lish": 1692,
      "Ġwin": 1693,
      "co": 1694,
      "Ġminutes": 1695,
      "Ġpa": 1696,
      "ency": 1697,
      "iversity": 1698,
      "ger": 1699,
      "Ġworks": 1700,
      "Ġfr": 1701,
      "Ġtem": 1702,
      "Ġcase": 1703,
      "the": 1704,
      "ission": 1705,
      "oid": 1706,
      "Ġeconom": 1707,
      "Ġcontrol": 1708,
      "Ġsol": 1709,
      "ush": 1710,
      "med": 1711,
      "Ġphot": 1712,
      "Ġdesc": 1713,
      "ĠOr": 1714,
      "br": 1715,
      "Ġleg": 1716,
      "Ġbas": 1717,
      "by": 1718,
      "Ġexperien": 1719,
      "ĠOver": 1720,
      "Ġtre": 1721,
      "olution": 1722,
      "lection": 1723,
      "arning": 1724,
      "ER": 1725,
      "oura": 1726,
      "Ġheart": 1727,
      "Ġroom": 1728,
      "Ġvarious": 1729,
      "ĠMar": 1730,
      "Ġreturn": 1731,
      "Ġsense": 1732,
      "10": 1733,
      "Ġintern": 1734,
      "ified": 1735,
      "oice": 1736,
      "Ġcomb": 1737,
      "Ġsw": 1738,
      "Ġ12": 1739,
      "ilities": 1740,
      "inal": 1741,
      "ci": 1742,
      "Ġlim": 1743,
      "Ġtimes": 1744,
      "Ġfunction": 1745,
      "hod": 1746,
      "Ġself": 1747,
      "à¸": 1748,
      "cent": 1749,
      "ĠLe": 1750,
      "Ġdetails": 1751,
      "Ġmil": 1752,
      "Ġmarketing": 1753,
      "ury": 1754,
      "ohn": 1755,
      "Ġcal": 1756,
      "Ġprotect": 1757,
      "oci": 1758,
      "Ġseason": 1759,
      "oose": 1760,
      "Ġemail": 1761,
      "ised": 1762,
      "ape": 1763,
      "ribut": 1764,
      "Ġfriends": 1765,
      "Ġname": 1766,
      "oint": 1767,
      "Ð¾Ð": 1768,
      "duct": 1769,
      "arget": 1770,
      "Ġleft": 1771,
      "Ġlooking": 1772,
      "Ġrelationship": 1773,
      "Ġach": 1774,
      "Ġside": 1775,
      "Ġfuture": 1776,
      "Ġphys": 1777,
      "fort": 1778,
      "Ġusers": 1779,
      "Ġstrong": 1780,
      "Ġfollowing": 1781,
      "Ġstudy": 1782,
      "Ġterm": 1783,
      "ina": 1784,
      "Ġmess": 1785,
      "aster": 1786,
      "Ġexpect": 1787,
      "Ġcustomer": 1788,
      "Ġlow": 1789,
      "Ġmult": 1790,
      "ances": 1791,
      "Ġrange": 1792,
      "ĠSure": 1793,
      "ĠMy": 1794,
      "oon": 1795,
      "Ġalong": 1796,
      "Ġlaw": 1797,
      "Ġey": 1798,
      "rite": 1799,
      "Ġways": 1800,
      "ising": 1801,
      "Ġstore": 1802,
      "arent": 1803,
      "osed": 1804,
      "cer": 1805,
      "ok": 1806,
      "Ġtradition": 1807,
      "Ġsing": 1808,
      "ret": 1809,
      "ĠâĢĺ": 1810,
      "outh": 1811,
      "Ġ18": 1812,
      "atform": 1813,
      "ird": 1814,
      "Ġpie": 1815,
      "Ġnight": 1816,
      "Ġquick": 1817,
      "Ġkind": 1818,
      "--": 1819,
      "Ġoil": 1820,
      "Ġask": 1821,
      "lev": 1822,
      "oring": 1823,
      "Ġknown": 1824,
      "Ġpossible": 1825,
      "Ġtoday": 1826,
      "Ġmembers": 1827,
      "Ġtips": 1828,
      "ĠâĢĶ": 1829,
      "ane": 1830,
      "illed": 1831,
      "sc": 1832,
      "Ġplease": 1833,
      "ĠComm": 1834,
      "Ġperfect": 1835,
      "Ñģ": 1836,
      "Ġoffers": 1837,
      "Ġline": 1838,
      "Ġstay": 1839,
      "Ġcomplete": 1840,
      "Ġshare": 1841,
      "Ġreduce": 1842,
      "erc": 1843,
      "ertainly": 1844,
      "ĠJohn": 1845,
      "side": 1846,
      "ley": 1847,
      "ump": 1848,
      "ots": 1849,
      "resh": 1850,
      "urity": 1851,
      "ĠMay": 1852,
      "Ġlangu": 1853,
      "Ġparticular": 1854,
      "Ġmot": 1855,
      "ides": 1856,
      "sel": 1857,
      "ĠOur": 1858,
      "ĠMan": 1859,
      "Ġoptions": 1860,
      "Ġfour": 1861,
      "Ġhistory": 1862,
      "Ġvisit": 1863,
      "Ġaccount": 1864,
      "ream": 1865,
      "urther": 1866,
      "Ġnet": 1867,
      "ued": 1868,
      "Ġ.": 1869,
      "mb": 1870,
      "ott": 1871,
      "50": 1872,
      "ived": 1873,
      "Ġemot": 1874,
      "Ġnatural": 1875,
      "sw": 1876,
      "ograph": 1877,
      "ĠYes": 1878,
      "bo": 1879,
      "Ġcompet": 1880,
      "Ġacross": 1881,
      "ĠUS": 1882,
      "Ġann": 1883,
      "Ġpopular": 1884,
      "ids": 1885,
      "ĠNo": 1886,
      "Ġnon": 1887,
      "Ġhuman": 1888,
      "Ð½": 1889,
      "Ġprovides": 1890,
      "Ġshort": 1891,
      "Ġfund": 1892,
      "idd": 1893,
      "Ġhope": 1894,
      "Ġvers": 1895,
      "Ġresources": 1896,
      "Ġskills": 1897,
      "osp": 1898,
      "Ġplatform": 1899,
      "Ġsearch": 1900,
      "Ġrequire": 1901,
      "ogn": 1902,
      "ustain": 1903,
      "ches": 1904,
      "Ã©": 1905,
      "rop": 1906,
      "ource": 1907,
      "Ġgovernment": 1908,
      "asing": 1909,
      ".,": 1910,
      "icle": 1911,
      "Ġwhy": 1912,
      "Ġmethod": 1913,
      "19": 1914,
      "anies": 1915,
      "Ġocc": 1916,
      "Ġmean": 1917,
      "ĠSome": 1918,
      "Ġlearning": 1919,
      "ged": 1920,
      "ffic": 1921,
      "Ġstarted": 1922,
      "Ġaddress": 1923,
      "Ġnear": 1924,
      "imate": 1925,
      "Ġareas": 1926,
      "Ġimplement": 1927,
      "min": 1928,
      "urs": 1929,
      "ibility": 1930,
      "aign": 1931,
      "Ġhot": 1932,
      "Ġincrease": 1933,
      "Ġmeas": 1934,
      "Ġperformance": 1935,
      "Ġtravel": 1936,
      "Ġmoney": 1937,
      "Ġmanagement": 1938,
      "Ġface": 1939,
      "Ġtarget": 1940,
      "ese": 1941,
      "Ġspace": 1942,
      "back": 1943,
      "Ġrole": 1944,
      "ners": 1945,
      "Ġhold": 1946,
      "Ġtraining": 1947,
      "uck": 1948,
      "Ġclean": 1949,
      "ÑĢ": 1950,
      "Ġcountry": 1951,
      "orth": 1952,
      "orpor": 1953,
      "fact": 1954,
      "Ġmakes": 1955,
      "Ġcheck": 1956,
      "Ġenough": 1957,
      "Ġlive": 1958,
      "Ġever": 1959,
      "Ġreview": 1960,
      "Ġdidn": 1961,
      "pper": 1962,
      "ajor": 1963,
      "ĠDes": 1964,
      "Ġbring": 1965,
      "ruction": 1966,
      "Ġjour": 1967,
      "ĠEng": 1968,
      "Ġevents": 1969,
      "pecial": 1970,
      "ĠSu": 1971,
      "ift": 1972,
      "ring": 1973,
      "Ġcup": 1974,
      "Ġwind": 1975,
      "Ġthing": 1976,
      "'ll": 1977,
      "Ġinflu": 1978,
      "Ġbenefits": 1979,
      "Ġmen": 1980,
      "af": 1981,
      "ones": 1982,
      "atic": 1983,
      "ored": 1984,
      "ĠApp": 1985,
      "Ġrespons": 1986,
      "Ġhaving": 1987,
      "ĠCent": 1988,
      "ĠCar": 1989,
      "Ġhouse": 1990,
      "pro": 1991,
      "cle": 1992,
      "ĠAm": 1993,
      "ĠTr": 1994,
      "Ġyoung": 1995,
      "'ve": 1996,
      "ably": 1997,
      "ĠYour": 1998,
      "ched": 1999,
      "irt": 2000,
      "par": 2001,
      "play": 2002,
      "Ġvalue": 2003,
      "ĠChrist": 2004,
      "Ġdr": 2005,
      "Ġcharacter": 2006,
      "Ġbit": 2007,
      "Ġfelt": 2008,
      "Ġchallenges": 2009,
      "icult": 2010,
      "ww": 2011,
      "ĠAfter": 2012,
      "Ġsite": 2013,
      "ĠTra": 2014,
      "ructure": 2015,
      "ze": 2016,
      "Ġ15": 2017,
      "icy": 2018,
      "Ġthought": 2019,
      "ĠAdd": 2020,
      "Ġcolor": 2021,
      "of": 2022,
      "Ġbuilding": 2023,
      "enn": 2024,
      "Ġhig": 2025,
      "Ġcalled": 2026,
      "Ġcoll": 2027,
      "Ġcampaign": 2028,
      "ancial": 2029,
      "Ġissues": 2030,
      "ene": 2031,
      "Ġdig": 2032,
      "Ġdone": 2033,
      "ĠEm": 2034,
      "Ġgrowth": 2035,
      "Ġ30": 2036,
      "Ġdi": 2037,
      "room": 2038,
      "oor": 2039,
      "come": 2040,
      "____": 2041,
      "ilar": 2042,
      "Ġcompanies": 2043,
      "Ġcrit": 2044,
      "Ġexc": 2045,
      "Ġpositive": 2046,
      "izing": 2047,
      "Ġcommon": 2048,
      "acks": 2049,
      "ĠAmerican": 2050,
      "app": 2051,
      "Ġcame": 2052,
      "ges": 2053,
      "Ġrepres": 2054,
      "Ġaudience": 2055,
      "âĢĶ": 2056,
      "Ġsays": 2057,
      "Ġmeans": 2058,
      "Ġvideo": 2059,
      "Ġtraditional": 2060,
      "Ġknew": 2061,
      "Ġsustain": 2062,
      "Ġlanguage": 2063,
      "aces": 2064,
      "tt": 2065,
      "lex": 2066,
      "Ġdiscuss": 2067,
      "mit": 2068,
      "Ġindividuals": 2069,
      "Ġ11": 2070,
      "Ġhours": 2071,
      "Ġrecord": 2072,
      "ready": 2073,
      ");": 2074,
      "Ġsystems": 2075,
      "Ġmajor": 2076,
      "Ġcut": 2077,
      "Ġtaking": 2078,
      "Ġanim": 2079,
      "Ġsuccessful": 2080,
      "Ġcomes": 2081,
      "Ġbreak": 2082,
      "Ġconsum": 2083,
      "uro": 2084,
      "Ġactivities": 2085,
      "Ġleast": 2086,
      "att": 2087,
      "Ġtype": 2088,
      "Ġfar": 2089,
      "irl": 2090,
      "Ġdeterm": 2091,
      "iod": 2092,
      "ees": 2093,
      "ĠUniversity": 2094,
      "alf": 2095,
      "ony": 2096,
      "idence": 2097,
      "Ġdifficult": 2098,
      "Ġtook": 2099,
      "Ġbuy": 2100,
      "Ġdeep": 2101,
      "unch": 2102,
      "Ġupd": 2103,
      "Ġconsider": 2104,
      "Ġeverything": 2105,
      "sh": 2106,
      "Ġcook": 2107,
      "for": 2108,
      "Ġvol": 2109,
      "aff": 2110,
      "Ġwriting": 2111,
      "Ġgetting": 2112,
      "Ġinteg": 2113,
      "ulation": 2114,
      "ĠCont": 2115,
      "Ġnews": 2116,
      "Ġaffect": 2117,
      "Ġonce": 2118,
      "Ġsat": 2119,
      "une": 2120,
      "Ġfre": 2121,
      "usion": 2122,
      "vert": 2123,
      "Ġpress": 2124,
      "ief": 2125,
      "ON": 2126,
      "hers": 2127,
      "ĠMed": 2128,
      "IN": 2129,
      "Ġmag": 2130,
      "Ġauthor": 2131,
      "Ġbegin": 2132,
      "ows": 2133,
      "Ġmental": 2134,
      "Ġpurch": 2135,
      "ĠInc": 2136,
      "ĠChe": 2137,
      "Ġinit": 2138,
      "30": 2139,
      "ĠWor": 2140,
      "ĠCo": 2141,
      "Ġamong": 2142,
      "weet": 2143,
      "Ġalready": 2144,
      "Ġ{": 2145,
      "Ġamount": 2146,
      "ians": 2147,
      "ledge": 2148,
      "Ġstyle": 2149,
      "Ġz": 2150,
      "Ġcontact": 2151,
      "Ġsoftware": 2152,
      "Ġprograms": 2153,
      "ivity": 2154,
      "Ġoffic": 2155,
      "Ġadditional": 2156,
      "ĠGod": 2157,
      "Ġcreating": 2158,
      "apt": 2159,
      "Ġorig": 2160,
      "Ġearly": 2161,
      "ming": 2162,
      "Ġstru": 2163,
      "Ġtools": 2164,
      "Ġcra": 2165,
      "Ġdoing": 2166,
      "Ġneg": 2167,
      "Ġessential": 2168,
      "Ġsens": 2169,
      "rew": 2170,
      "Ġincludes": 2171,
      "Ġfit": 2172,
      "ĠAddition": 2173,
      "aken": 2174,
      "Ġmix": 2175,
      "aim": 2176,
      "ression": 2177,
      "Ġparticip": 2178,
      "Ġhelps": 2179,
      "Ġpack": 2180,
      "Ġfresh": 2181,
      "Ġclose": 2182,
      "gle": 2183,
      "selves": 2184,
      "Ġele": 2185,
      "Ġfeed": 2186,
      "Ġchanges": 2187,
      "nam": 2188,
      "Ġant": 2189,
      "fer": 2190,
      "ilt": 2191,
      "Ġgiven": 2192,
      "iful": 2193,
      "Ġcover": 2194,
      "Ġprint": 2195,
      "Ġeducation": 2196,
      "Ġeffic": 2197,
      "Ġce": 2198,
      "Ġveget": 2199,
      "Ġseen": 2200,
      "Ġnecess": 2201,
      "Ġ*": 2202,
      "Ġwa": 2203,
      "Ġencoura": 2204,
      "Ġseem": 2205,
      "AR": 2206,
      "Ġmillion": 2207,
      "rodu": 2208,
      "Ġgoals": 2209,
      "Ġmaintain": 2210,
      "pos": 2211,
      "Ġneeded": 2212,
      "Ġquestions": 2213,
      "ato": 2214,
      "aps": 2215,
      "ĠSy": 2216,
      "go": 2217,
      "arr": 2218,
      "Ġred": 2219,
      "Ġwent": 2220,
      "nov": 2221,
      "Ġtal": 2222,
      "Ġidea": 2223,
      "uff": 2224,
      "iques": 2225,
      "ises": 2226,
      "Ġpage": 2227,
      "Ġwomen": 2228,
      "ĠÂ": 2229,
      "ĠIm": 2230,
      "ĠWhile": 2231,
      "Ġfurther": 2232,
      "Ġhappen": 2233,
      "ĠMe": 2234,
      "Ġbusinesses": 2235,
      "Ġport": 2236,
      "Ġflow": 2237,
      "ipe": 2238,
      "Ġresults": 2239,
      "ured": 2240,
      "based": 2241,
      "Ġdue": 2242,
      "Ġdeal": 2243,
      "ires": 2244,
      "Ġsomeone": 2245,
      "Ġbar": 2246,
      "Ġregular": 2247,
      "Ġet": 2248,
      "Ġaccording": 2249,
      "ĠFl": 2250,
      "ES": 2251,
      "anks": 2252,
      "Ġsimple": 2253,
      "Ġste": 2254,
      "book": 2255,
      "Ġalm": 2256,
      "ibr": 2257,
      "aves": 2258,
      "ino": 2259,
      "ding": 2260,
      "Ġabove": 2261,
      "Ġ}": 2262,
      "ĠUnited": 2263,
      "aged": 2264,
      "Ġproviding": 2265,
      "Ġobject": 2266,
      "ditions": 2267,
      "lished": 2268,
      "ĠNe": 2269,
      "Ġfinancial": 2270,
      "Ġexerc": 2271,
      "time": 2272,
      "anced": 2273,
      "Ġthroughout": 2274,
      "Ġtypes": 2275,
      "Ġperiod": 2276,
      "Ġinteract": 2277,
      "ster": 2278,
      "aching": 2279,
      "AT": 2280,
      "ument": 2281,
      "Ġpriv": 2282,
      "Ġpolit": 2283,
      "ters": 2284,
      "ither": 2285,
      "Ġfeature": 2286,
      "Ġproblem": 2287,
      "aur": 2288,
      "roll": 2289,
      "Ġdepend": 2290,
      "ĠOverall": 2291,
      "Ġanaly": 2292,
      "Ġwon": 2293,
      "Ġsun": 2294,
      "vent": 2295,
      "Ġbal": 2296,
      "Ġdesigned": 2297,
      "artment": 2298,
      "not": 2299,
      "Ġsitu": 2300,
      "val": 2301,
      "redients": 2302,
      "Ġnut": 2303,
      "ask": 2304,
      "ĠFe": 2305,
      "Ġsuper": 2306,
      "ĠAdditionally": 2307,
      "erence": 2308,
      "Ġmoment": 2309,
      "Ġsle": 2310,
      "Ġideas": 2311,
      "Ġwond": 2312,
      "Ġmaterials": 2313,
      "Ġinsp": 2314,
      "Ġtrack": 2315,
      "place": 2316,
      "ators": 2317,
      "Ġpractice": 2318,
      "Ġmonths": 2319,
      "face": 2320,
      "ĠFin": 2321,
      "Ġcou": 2322,
      "ili": 2323,
      "Ġing": 2324,
      "Ġcontinue": 2325,
      "Ġphysical": 2326,
      "Ġ199": 2327,
      "Ġthin": 2328,
      "oll": 2329,
      "Ġfall": 2330,
      "Ġappear": 2331,
      "ĠAss": 2332,
      "ĠX": 2333,
      "ĠCertainly": 2334,
      "ysis": 2335,
      "Ġpan": 2336,
      "Ġpromot": 2337,
      "light": 2338,
      "Ġvariety": 2339,
      "12": 2340,
      "cell": 2341,
      "Ġbegan": 2342,
      "ging": 2343,
      "Ġstress": 2344,
      "Ġrisk": 2345,
      "Ġprep": 2346,
      "istic": 2347,
      "aving": 2348,
      "Ġblack": 2349,
      "Ġallows": 2350,
      "umb": 2351,
      "care": 2352,
      "Ġlevels": 2353,
      "used": 2354,
      "ĠNot": 2355,
      "Ġgames": 2356,
      "Ġability": 2357,
      "ĠKe": 2358,
      "just": 2359,
      "Ġhy": 2360,
      "Ġwide": 2361,
      "Ġtour": 2362,
      "Ġfavor": 2363,
      "ensive": 2364,
      "Ġcomplex": 2365,
      "pecially": 2366,
      "Ġcommit": 2367,
      "Ġstrugg": 2368,
      "ites": 2369,
      "Ġlay": 2370,
      "Ġdoesn": 2371,
      "eral": 2372,
      "Ġground": 2373,
      "obal": 2374,
      "Ġsize": 2375,
      "ai": 2376,
      "Ġweb": 2377,
      "Ġprofessional": 2378,
      "ĠRep": 2379,
      "Ġquestion": 2380,
      "Ġbat": 2381,
      "elling": 2382,
      "Ġlog": 2383,
      "Ġbeautiful": 2384,
      "gar": 2385,
      "load": 2386,
      "lege": 2387,
      "itation": 2388,
      "Ġtowards": 2389,
      "ler": 2390,
      "Ġlater": 2391,
      "Ġsecurity": 2392,
      "ĠComp": 2393,
      "Ġyet": 2394,
      "ĠPr": 2395,
      "uce": 2396,
      "ided": 2397,
      "Ġtrying": 2398,
      "Ġwhether": 2399,
      "ops": 2400,
      "Ġcomput": 2401,
      "Ġ<": 2402,
      "Ġaction": 2403,
      "Ġwhole": 2404,
      "ĠUs": 2405,
      "Ġcomfort": 2406,
      "Ġtechniques": 2407,
      "aily": 2408,
      "Ġpow": 2409,
      "che": 2410,
      "nds": 2411,
      "Ġachieve": 2412,
      "Ġyourself": 2413,
      "Ġliving": 2414,
      "Ġanything": 2415,
      "oph": 2416,
      "Ġfoot": 2417,
      "Ġbelieve": 2418,
      "Ġpercent": 2419,
      "Ġstreng": 2420,
      "Ġhealthy": 2421,
      "Ã³": 2422,
      "acy": 2423,
      "Ġrepresent": 2424,
      "Ġoverall": 2425,
      "omes": 2426,
      "Ġidentify": 2427,
      "ival": 2428,
      "Ġwords": 2429,
      "Ġapproach": 2430,
      "obile": 2431,
      "ude": 2432,
      "Ġprevent": 2433,
      "Ġlikely": 2434,
      "Ġque": 2435,
      "erson": 2436,
      "Ġpaper": 2437,
      "Ġprovided": 2438,
      "ĠTw": 2439,
      "Ġfive": 2440,
      "iple": 2441,
      "irc": 2442,
      "overed": 2443,
      "nces": 2444,
      "ained": 2445,
      "oved": 2446,
      "Ġinput": 2447,
      "Ġseries": 2448,
      "rict": 2449,
      "ĠPre": 2450,
      "word": 2451,
      "Ġrecogn": 2452,
      "ball": 2453,
      "itor": 2454,
      "Ġactually": 2455,
      "ĠGu": 2456,
      "Ġstra": 2457,
      "ole": 2458,
      "Ġ``": 2459,
      "AN": 2460,
      "Ġoptim": 2461,
      "Ġinstall": 2462,
      "Ġage": 2463,
      "Ġsingle": 2464,
      "Ġknowledge": 2465,
      "Ġdoc": 2466,
      "Ġelse": 2467,
      "ĠIntern": 2468,
      "Ġeveryone": 2469,
      "Ġimm": 2470,
      "Ġcred": 2471,
      "Ġadded": 2472,
      "Ġleading": 2473,
      "Ġjo": 2474,
      "Ġstat": 2475,
      "head": 2476,
      "Ġ16": 2477,
      "ĠHis": 2478,
      "Ġtast": 2479,
      "ĠGo": 2480,
      "Ġcell": 2481,
      "ĠCal": 2482,
      "rown": 2483,
      "Ġtou": 2484,
      "ground": 2485,
      "ĠEuro": 2486,
      "Ġbehind": 2487,
      "Ġwatch": 2488,
      "Ġassoci": 2489,
      "Ġmor": 2490,
      "Ġavoid": 2491,
      "Ġtransport": 2492,
      "Ġselect": 2493,
      "Ġblog": 2494,
      "augh": 2495,
      "Ġap": 2496,
      "Ġlives": 2497,
      "Ġparent": 2498,
      "ister": 2499,
      "ison": 2500,
      "Ġtax": 2501,
      "Ġsent": 2502,
      "Ġsales": 2503,
      "Ġpoints": 2504,
      "ĠQu": 2505,
      "Ġestab": 2506,
      "Ġchoose": 2507,
      "Ġtakes": 2508,
      "Ġincorpor": 2509,
      "Ġreason": 2510,
      "Ġskin": 2511,
      "ĠSm": 2512,
      "Ġrout": 2513,
      "Ġ```": 2514,
      "son": 2515,
      "Ġfield": 2516,
      "astic": 2517,
      "Ġpractices": 2518,
      "Ġ14": 2519,
      "OR": 2520,
      "Ġexist": 2521,
      "Ġexplore": 2522,
      "ĠRem": 2523,
      "Ġdam": 2524,
      "Ġ--": 2525,
      "gest": 2526,
      "Ġenh": 2527,
      "Ġculture": 2528,
      "Ġcode": 2529,
      "Ġproduction": 2530,
      "Ġsn": 2531,
      "ried": 2532,
      "iam": 2533,
      "ĠCons": 2534,
      "ification": 2535,
      "ctor": 2536,
      "rast": 2537,
      "era": 2538,
      "Ġsimilar": 2539,
      "Ġautom": 2540,
      "hel": 2541,
      "Ġespecially": 2542,
      "Ġsum": 2543,
      "Ġcreated": 2544,
      "Ġtot": 2545,
      "Ġmiss": 2546,
      "Ġhelped": 2547,
      "wh": 2548,
      "Ġnature": 2549,
      "Ġopportunities": 2550,
      "sy": 2551,
      "wor": 2552,
      "Ġprior": 2553,
      "Ġut": 2554,
      "ply": 2555,
      "Ġansw": 2556,
      "Ġapplication": 2557,
      "ĠInt": 2558,
      "Ġmach": 2559,
      "ĠAb": 2560,
      "Ġdark": 2561,
      "Ġill": 2562,
      "ety": 2563,
      "Ġmodern": 2564,
      "Ġmodel": 2565,
      "ests": 2566,
      "Ġheat": 2567,
      "ands": 2568,
      "Ġ100": 2569,
      "Ġbelow": 2570,
      "mber": 2571,
      "ura": 2572,
      "Ġentire": 2573,
      "Ġgreen": 2574,
      "Ġquickly": 2575,
      "Ġgen": 2576,
      "Ġextra": 2577,
      "iday": 2578,
      "Ġ...": 2579,
      "Ġdest": 2580,
      "itch": 2581,
      "Ġtown": 2582,
      "ĠState": 2583,
      "Ġbehav": 2584,
      "Ġtold": 2585,
      "Ġhigher": 2586,
      "ĠEl": 2587,
      "ĠHer": 2588,
      "ĠDis": 2589,
      "Ġfeeling": 2590,
      "enc": 2591,
      "Ġbecame": 2592,
      "ption": 2593,
      "Ġrequired": 2594,
      "ĠServ": 2595,
      "inc": 2596,
      "Ġnecessary": 2597,
      "Ġwalk": 2598,
      "Ġfile": 2599,
      "Ġprice": 2600,
      "Ġsong": 2601,
      "Ġtaken": 2602,
      "ĠAcc": 2603,
      "Ġhalf": 2604,
      "Ġsmo": 2605,
      "Ġwhite": 2606,
      "nding": 2607,
      "15": 2608,
      "aling": 2609,
      "Ġemb": 2610,
      "Ġposition": 2611,
      "Ġexperiences": 2612,
      "Ġlat": 2613,
      "ĠEurope": 2614,
      "iously": 2615,
      "Ġcy": 2616,
      "Ġcertain": 2617,
      "erve": 2618,
      "irm": 2619,
      "Ġtrue": 2620,
      "ĠPe": 2621,
      "Ġengine": 2622,
      "Ġcollect": 2623,
      "Ġsaw": 2624,
      "ĠDr": 2625,
      "Ġcard": 2626,
      "Ġbreat": 2627,
      "Ġversion": 2628,
      "icate": 2629,
      "Ġfilm": 2630,
      "Ġcommunication": 2631,
      "Ġfail": 2632,
      "Ġattention": 2633,
      "ĠNational": 2634,
      "Ġpattern": 2635,
      "Ġfront": 2636,
      "ĠDon": 2637,
      "ĠNow": 2638,
      "eds": 2639,
      "AS": 2640,
      "We": 2641,
      "itut": 2642,
      "Ġcountries": 2643,
      "EN": 2644,
      "urch": 2645,
      "ening": 2646,
      "oogle": 2647,
      "ological": 2648,
      "Ġwarm": 2649,
      "Ġconcern": 2650,
      "mon": 2651,
      "Ġunderstanding": 2652,
      "Ġorganiz": 2653,
      "Ġpict": 2654,
      "Ġhost": 2655,
      "Ġ13": 2656,
      "rate": 2657,
      "Ġled": 2658,
      "illing": 2659,
      "Ġprogress": 2660,
      "Ġful": 2661,
      "Ġcool": 2662,
      "olutions": 2663,
      "Ġcultural": 2664,
      "ĠOf": 2665,
      "ĠStates": 2666,
      "ĠPart": 2667,
      "Ġprojects": 2668,
      "Ġtalk": 2669,
      "ober": 2670,
      "ĠPlease": 2671,
      "Ġcollabor": 2672,
      "//": 2673,
      "ox": 2674,
      "Ġspir": 2675,
      "ĠAf": 2676,
      "Ġdeb": 2677,
      "ĠPres": 2678,
      "Ġmatter": 2679,
      "na": 2680,
      "Ġreach": 2681,
      "Ġeconomic": 2682,
      "ĠSec": 2683,
      "Ġeffects": 2684,
      "Ġeyes": 2685,
      "Ġthemselves": 2686,
      "Ġ17": 2687,
      "Ġforward": 2688,
      "ĠSoc": 2689,
      "Ġhappy": 2690,
      "onse": 2691,
      "though": 2692,
      "Ġheav": 2693,
      "Ġanalysis": 2694,
      "Ġfire": 2695,
      "Ġloss": 2696,
      "atives": 2697,
      "Ġdise": 2698,
      "pite": 2699,
      "Ġflavor": 2700,
      "ufact": 2701,
      "iment": 2702,
      "ĠCity": 2703,
      "Ġinnov": 2704,
      "Ġamaz": 2705,
      "Ġfinal": 2706,
      "ĠPer": 2707,
      "Ġpric": 2708,
      "Ġrecipe": 2709,
      "Ġstrategies": 2710,
      "Ġwanted": 2711,
      "11": 2712,
      "cul": 2713,
      "ĠJust": 2714,
      "ublic": 2715,
      "ĠBra": 2716,
      "Ġabs": 2717,
      "ung": 2718,
      "Ġthird": 2719,
      "ĠYork": 2720,
      "Ġoutside": 2721,
      "Ġattend": 2722,
      "Ġslow": 2723,
      "Ġproblems": 2724,
      "Ġ25": 2725,
      "ĠMr": 2726,
      "Ġclaim": 2727,
      "Ġsoon": 2728,
      "Ġelements": 2729,
      "pose": 2730,
      "Ġjourney": 2731,
      "Ġtable": 2732,
      "Ġcele": 2733,
      "Ġsweet": 2734,
      "friend": 2735,
      "://": 2736,
      "Ġdou": 2737,
      "ĠWorld": 2738,
      "In": 2739,
      "Ġdigital": 2740,
      "Ġemployees": 2741,
      "ĠMore": 2742,
      "ĠCount": 2743,
      "Ġdaily": 2744,
      "ĠGra": 2745,
      "Ġopportunity": 2746,
      "Ġfig": 2747,
      "Ġcause": 2748,
      "Ġconditions": 2749,
      "adem": 2750,
      "Ġpromote": 2751,
      "Ġlost": 2752,
      "Ġalmost": 2753,
      "ĠStud": 2754,
      "Ġbud": 2755,
      "ĠBr": 2756,
      "Ġcompl": 2757,
      "Ġissue": 2758,
      "ager": 2759,
      "izes": 2760,
      "ĠAg": 2761,
      "Ġrenew": 2762,
      "Ġvisual": 2763,
      "Ġplant": 2764,
      "Ġmessage": 2765,
      "Ġgoal": 2766,
      "ĠSouth": 2767,
      "Ġrecent": 2768,
      "Ġsauce": 2769,
      "Ġphone": 2770,
      "ĠMin": 2771,
      "ana": 2772,
      "):": 2773,
      "Ġgar": 2774,
      "Ġitems": 2775,
      "Ġsafe": 2776,
      "Ġgirl": 2777,
      "Ġcosts": 2778,
      "Ġarch": 2779,
      "Ġlo": 2780,
      "ĠStep": 2781,
      "Ġcapt": 2782,
      "Ġdescrib": 2783,
      "iol": 2784,
      "ĠMc": 2785,
      "Ġappe": 2786,
      "ugh": 2787,
      "ĠLet": 2788,
      "Ġsteps": 2789,
      "den": 2790,
      "Ð»": 2791,
      "Ġprob": 2792,
      "Ġlower": 2793,
      "Ġplayers": 2794,
      "Ġconvers": 2795,
      "Ġlonger": 2796,
      "ĠWill": 2797,
      "Ġeither": 2798,
      "ĠReg": 2799,
      "Ġrate": 2800,
      "Ġuses": 2801,
      "ĠGl": 2802,
      "fully": 2803,
      "Ġterms": 2804,
      "Ġrestaur": 2805,
      "Ġcho": 2806,
      "Ġrather": 2807,
      "Ġingredients": 2808,
      "Ġstaff": 2809,
      "icken": 2810,
      "Ġ+": 2811,
      "ÃŃ": 2812,
      "Ġleaders": 2813,
      "ĠFrom": 2814,
      "Ġinvolved": 2815,
      "aches": 2816,
      "Ġsqu": 2817,
      "Ġ24": 2818,
      "earch": 2819,
      "Ġoffice": 2820,
      "Ġsho": 2821,
      "oud": 2822,
      "Ġdisplay": 2823,
      "Ġsubject": 2824,
      "Ġconsist": 2825,
      "Ġlocation": 2826,
      "Ġcirc": 2827,
      "nal": 2828,
      "cast": 2829,
      "Ġbur": 2830,
      "Ġroad": 2831,
      "Ġwar": 2832,
      "!!": 2833,
      "Ġdeath": 2834,
      "cks": 2835,
      "Ġmultiple": 2836,
      "hens": 2837,
      "ĠOnce": 2838,
      "ume": 2839,
      "Ġoption": 2840,
      "vey": 2841,
      "ĠSchool": 2842,
      "Ġwall": 2843,
      "Ġinstead": 2844,
      "Ġsources": 2845,
      "Ġrespect": 2846,
      "ada": 2847,
      "ecut": 2848,
      "Ġago": 2849,
      "Ġsource": 2850,
      "hood": 2851,
      "Ġstri": 2852,
      "Ġri": 2853,
      "icles": 2854,
      "aining": 2855,
      "rug": 2856,
      "verage": 2857,
      "Ġeasily": 2858,
      "Ġdefin": 2859,
      "Ġcoming": 2860,
      "iddle": 2861,
      "ĠNorth": 2862,
      "Ġshows": 2863,
      "Ġquite": 2864,
      "Ġdecision": 2865,
      "enge": 2866,
      "Ġsleep": 2867,
      "rated": 2868,
      "Ġnetwork": 2869,
      "ipment": 2870,
      "Ġrunning": 2871,
      "rect": 2872,
      "Ġrad": 2873,
      "Ġreflect": 2874,
      "Ġhands": 2875,
      "Ġinteresting": 2876,
      "Ġcareer": 2877,
      "Ġtreatment": 2878,
      "Ġmedical": 2879,
      "icro": 2880,
      "olute": 2881,
      "anger": 2882,
      "Ġadjust": 2883,
      "Ġcontribut": 2884,
      "icated": 2885,
      "gra": 2886,
      "Ġupon": 2887,
      "ĠAlso": 2888,
      "Ġrelated": 2889,
      "anc": 2890,
      "Ġworked": 2891,
      "imately": 2892,
      "Ġreceive": 2893,
      "Ġtemper": 2894,
      "my": 2895,
      "Ġbase": 2896,
      "Ġaware": 2897,
      "Ġmention": 2898,
      "Ġtrust": 2899,
      "Ġgeneral": 2900,
      "Ġsou": 2901,
      "ĠBar": 2902,
      "Ġhon": 2903,
      "Ġdate": 2904,
      "Ġpiece": 2905,
      "Ġofficial": 2906,
      "hib": 2907,
      "Ġaccept": 2908,
      "Ġsix": 2909,
      "pri": 2910,
      "Ġorganization": 2911,
      "Ġimage": 2912,
      "Ġ50": 2913,
      "ĠAust": 2914,
      "Ġprim": 2915,
      "Ġstrength": 2916,
      "Ġpick": 2917,
      "Ġbooks": 2918,
      "ength": 2919,
      "Ġones": 2920,
      "ille": 2921,
      "ha": 2922,
      "idge": 2923,
      "ĠArt": 2924,
      "Ġclients": 2925,
      "Ġheld": 2926,
      "IS": 2927,
      "ĠGe": 2928,
      "Ġcop": 2929,
      "Ġgroups": 2930,
      "iable": 2931,
      "Ġweeks": 2932,
      "Ġsimply": 2933,
      "Ġclos": 2934,
      "Ġdraw": 2935,
      "Ġsustainable": 2936,
      "Ġglobal": 2937,
      "Ġminim": 2938,
      "inary": 2939,
      "Ġur": 2940,
      "ĠAct": 2941,
      "Ġlink": 2942,
      "Ġregard": 2943,
      "Ġsil": 2944,
      "atur": 2945,
      "Ġsche": 2946,
      "Ġarticle": 2947,
      "Ġimag": 2948,
      "Ġhit": 2949,
      "ĠPar": 2950,
      "ĠRed": 2951,
      "Ġlif": 2952,
      "Ġleave": 2953,
      "cript": 2954,
      "Ġfeedback": 2955,
      "iction": 2956,
      "Ġrev": 2957,
      "Ġcream": 2958,
      "ED": 2959,
      "Ġobs": 2960,
      "Ġinside": 2961,
      "ĠBu": 2962,
      "Ġble": 2963,
      "Ġcam": 2964,
      "Ġfast": 2965,
      "org": 2966,
      "ached": 2967,
      "Ġnothing": 2968,
      "ĠCre": 2969,
      "Ġfight": 2970,
      "Ġbad": 2971,
      "sp": 2972,
      "ĠPol": 2973,
      "Ġ:": 2974,
      "Ġresponse": 2975,
      "zz": 2976,
      "Ġfavorite": 2977,
      "ĠEd": 2978,
      "urance": 2979,
      "Ġcoun": 2980,
      "ĠSal": 2981,
      "cking": 2982,
      "Ġweight": 2983,
      "Ġemerg": 2984,
      "Ġattract": 2985,
      "Ġintrodu": 2986,
      "Ġincreased": 2987,
      "Ġimages": 2988,
      "Ġmanufact": 2989,
      "owl": 2990,
      "Ġcharacters": 2991,
      "Ġrelev": 2992,
      "atory": 2993,
      "Ġmass": 2994,
      "Ġball": 2995,
      "Ġamazing": 2996,
      "ructions": 2997,
      "Ġready": 2998,
      "Ġsus": 2999,
      "ĠMake": 3000,
      "Ġbed": 3001,
      "Ġsurv": 3002,
      "Ġx": 3003,
      "ĠâĢ¢": 3004,
      "Ġdescript": 3005,
      "bit": 3006,
      "Ġtit": 3007,
      "IT": 3008,
      "Ġpret": 3009,
      "Ã¡": 3010,
      "Ġsumm": 3011,
      "medi": 3012,
      "ĠGoogle": 3013,
      "reme": 3014,
      "Ġarg": 3015,
      "reci": 3016,
      "Th": 3017,
      "Ġsatis": 3018,
      "Ġrelationships": 3019,
      "Ġpred": 3020,
      "Ġincreasing": 3021,
      "Ġbir": 3022,
      "ĠJan": 3023,
      "aced": 3024,
      "ĠHealth": 3025,
      "Ġwood": 3026,
      "error": 3027,
      "Ġcheese": 3028,
      "Ġaim": 3029,
      "ules": 3030,
      "Ġpowerful": 3031,
      "ky": 3032,
      "St": 3033,
      "ado": 3034,
      "Ġguide": 3035,
      "ension": 3036,
      "Ġtouch": 3037,
      "Ġasked": 3038,
      "aker": 3039,
      "Ġmobile": 3040,
      "ama": 3041,
      "bon": 3042,
      "Ġstories": 3043,
      "Ġworth": 3044,
      "ica": 3045,
      "onst": 3046,
      "Ġchoice": 3047,
      "Ġhair": 3048,
      "Ġdream": 3049,
      "Ġparticularly": 3050,
      "IC": 3051,
      "Ġstop": 3052,
      "Ġpath": 3053,
      "'d": 3054,
      "aly": 3055,
      "ades": 3056,
      "eth": 3057,
      "Ġplayed": 3058,
      "Ġexcell": 3059,
      "AL": 3060,
      "Ġparty": 3061,
      "ively": 3062,
      "Ġwonder": 3063,
      "ĠHigh": 3064,
      "minist": 3065,
      "Ġproperty": 3066,
      "Ġtur": 3067,
      "Ġreading": 3068,
      "Ġpolitical": 3069,
      "ĠSar": 3070,
      "rong": 3071,
      "asc": 3072,
      "Ġcenter": 3073,
      "Ġfru": 3074,
      "Ġsave": 3075,
      "itude": 3076,
      "Ġanyone": 3077,
      "inks": 3078,
      "ologies": 3079,
      "Ġpolicy": 3080,
      "ocol": 3081,
      "Ġsurround": 3082,
      "icious": 3083,
      "Ġreceived": 3084,
      "Ġactivity": 3085,
      "Ġpartners": 3086,
      "ĠPark": 3087,
      "year": 3088,
      "Ġword": 3089,
      "Ġbuilt": 3090,
      "Ġexpress": 3091,
      "rel": 3092,
      "Ġfarm": 3093,
      "Ġcouldn": 3094,
      "amed": 3095,
      "where": 3096,
      "Ġscreen": 3097,
      "Ġbi": 3098,
      "Ġconduct": 3099,
      "Ñĥ": 3100,
      "Ġ2012": 3101,
      "Ġcru": 3102,
      "Ġopp": 3103,
      "ĠDep": 3104,
      "Ġsalt": 3105,
      "hold": 3106,
      "Ġtherap": 3107,
      "Ġdrive": 3108,
      "Ġveh": 3109,
      "igation": 3110,
      "ĠCould": 3111,
      "Ġsounds": 3112,
      "Ġsex": 3113,
      "Ġnegative": 3114,
      "empt": 3115,
      "Ġwoman": 3116,
      "ĠSim": 3117,
      "Ġwrite": 3118,
      "Ġwal": 3119,
      "Ġhear": 3120,
      "Ġcolors": 3121,
      "Ġwasn": 3122,
      "Ġsubst": 3123,
      "Ġsolutions": 3124,
      "ĠDav": 3125,
      "ĠOff": 3126,
      "Ġmatch": 3127,
      "Ġhowever": 3128,
      "eter": 3129,
      "Ġagree": 3130,
      "18": 3131,
      "uge": 3132,
      "Ġmember": 3133,
      "Ġefforts": 3134,
      "lying": 3135,
      "Ġmyself": 3136,
      "Ġorganizations": 3137,
      "Ġmi": 3138,
      "AC": 3139,
      "Ġsafety": 3140,
      "Ġfactors": 3141,
      "Ġlooks": 3142,
      "Ġinterested": 3143,
      "Ġstrategy": 3144,
      "Ġdom": 3145,
      "ux": 3146,
      "25": 3147,
      "ĠWrite": 3148,
      "Ġincluded": 3149,
      "Ġplans": 3150,
      "Ġplaying": 3151,
      "Ġstudent": 3152,
      "Ġpatients": 3153,
      "like": 3154,
      "Ġhistor": 3155,
      "Ġbox": 3156,
      "Ġaltern": 3157,
      "Ġdevices": 3158,
      "Ġhighly": 3159,
      "Ġboard": 3160,
      "Ġbudget": 3161,
      "ĠCenter": 3162,
      "Ġblood": 3163,
      "amb": 3164,
      "Ġcelebr": 3165,
      "Ġstructure": 3166,
      "uel": 3167,
      "Ġmanage": 3168,
      "Ġoriginal": 3169,
      "ĠAfric": 3170,
      "Ġappreci": 3171,
      "Ġprivate": 3172,
      "ĠMany": 3173,
      "Ġprote": 3174,
      "Ġsess": 3175,
      "rought": 3176,
      "Ġreducing": 3177,
      "Ġusually": 3178,
      "ĠAmerica": 3179,
      "Ġcommunities": 3180,
      "Ġregion": 3181,
      "ule": 3182,
      ".)": 3183,
      "erences": 3184,
      "Ġrele": 3185,
      "Ġinde": 3186,
      "apan": 3187,
      "Ġtotal": 3188,
      "Ġrelevant": 3189,
      "nes": 3190,
      "Ġ//": 3191,
      "Ġvirt": 3192,
      "ĠFace": 3193,
      "16": 3194,
      "Ġdress": 3195,
      "ences": 3196,
      "Ġdog": 3197,
      "oe": 3198,
      "mbol": 3199,
      "Ġlocated": 3200,
      "Ġcand": 3201,
      "iring": 3202,
      "Ġequipment": 3203,
      "ĠDay": 3204,
      "Ġlab": 3205,
      "It": 3206,
      "Ġroll": 3207,
      "Ġimportance": 3208,
      "Ġwritten": 3209,
      "ended": 3210,
      "yond": 3211,
      "isions": 3212,
      "Ġcannot": 3213,
      "ctions": 3214,
      "Ġparents": 3215,
      "200": 3216,
      "Ġhor": 3217,
      "Ġremember": 3218,
      "Ġcreative": 3219,
      "ĠJu": 3220,
      "Ġinj": 3221,
      "Ġnav": 3222,
      "Ġlearned": 3223,
      "iced": 3224,
      "aries": 3225,
      "ffee": 3226,
      "Ġhtt": 3227,
      "ĠGr": 3228,
      "Ġlatest": 3229,
      "Ġseems": 3230,
      "reg": 3231,
      "urt": 3232,
      "Ġlate": 3233,
      "bor": 3234,
      "Ġtom": 3235,
      "ĠMon": 3236,
      "ĠTH": 3237,
      "Ðº": 3238,
      "itect": 3239,
      "ĠAre": 3240,
      "âĢĵ": 3241,
      "Ġfa": 3242,
      "Ġsepar": 3243,
      "aks": 3244,
      "Ġhelpful": 3245,
      "Ġpurchase": 3246,
      "ĠThen": 3247,
      "ĠHar": 3248,
      "airs": 3249,
      "Ġmotiv": 3250,
      "asks": 3251,
      "rehens": 3252,
      "Ġteac": 3253,
      "ios": 3254,
      "ĠFirst": 3255,
      "Ġhol": 3256,
      "yl": 3257,
      "Ġessay": 3258,
      "Ġfish": 3259,
      "Ġinternational": 3260,
      "Ġpepper": 3261,
      "Ġbutter": 3262,
      "ĠPa": 3263,
      "Ġrates": 3264,
      "ĠAug": 3265,
      "Ġemotional": 3266,
      "Ġdeveloped": 3267,
      "Ġkids": 3268,
      "ĠEvery": 3269,
      "set": 3270,
      "Ġdry": 3271,
      "iverse": 3272,
      "ĠSw": 3273,
      "Ġefficient": 3274,
      "Ġgard": 3275,
      "Ġdish": 3276,
      "13": 3277,
      "Ġiniti": 3278,
      "Ġdeg": 3279,
      "ID": 3280,
      "14": 3281,
      "Ġtaste": 3282,
      "Ġconcept": 3283,
      "ĠAnother": 3284,
      "uth": 3285,
      "Ġmother": 3286,
      "Ġadapt": 3287,
      "Ġnational": 3288,
      "ĠGener": 3289,
      "Ġanx": 3290,
      "iles": 3291,
      "Ġrenewable": 3292,
      "Ġisn": 3293,
      "Ġdiv": 3294,
      "Ġnorm": 3295,
      "Ġadvert": 3296,
      "ils": 3297,
      "Ġcontain": 3298,
      "Ġaspect": 3299,
      "Ġvict": 3300,
      "ĠChar": 3301,
      "oms": 3302,
      "Ġenter": 3303,
      "Ġadding": 3304,
      "Ġbehavior": 3305,
      "Ġbelie": 3306,
      "Ġfram": 3307,
      "Ġbeauty": 3308,
      "ties": 3309,
      "ilies": 3310,
      "itely": 3311,
      "ĠSte": 3312,
      "Ġapplications": 3313,
      "Ġmorning": 3314,
      "Ġspirit": 3315,
      "ĠApr": 3316,
      "Ġult": 3317,
      "Ã³n": 3318,
      "itc": 3319,
      "ĠDevelop": 3320,
      "Ġmeeting": 3321,
      "board": 3322,
      "zy": 3323,
      "Ġremind": 3324,
      "Ġmount": 3325,
      "ications": 3326,
      "Ġfrequ": 3327,
      "reet": 3328,
      "Ġmeaning": 3329,
      "ĠSam": 3330,
      "alu": 3331,
      "Ġ2013": 3332,
      "Ġlimited": 3333,
      "idered": 3334,
      "Ġcomputer": 3335,
      "Ġsymbol": 3336,
      "ened": 3337,
      "Ġsummer": 3338,
      "igate": 3339,
      "ĠWest": 3340,
      "lier": 3341,
      "Ġclimate": 3342,
      "Ġdead": 3343,
      "Ġcases": 3344,
      "Ġitself": 3345,
      "ĠMarket": 3346,
      "Ġeffectively": 3347,
      "olutely": 3348,
      "su": 3349,
      "Ġchance": 3350,
      "ashion": 3351,
      "Ġparts": 3352,
      "Ġpeace": 3353,
      "Ġcat": 3354,
      "ĠJapan": 3355,
      "Ġbalance": 3356,
      "Ġsection": 3357,
      "itary": 3358,
      "Ġchallenge": 3359,
      "Ġep": 3360,
      "uses": 3361,
      "Ġded": 3362,
      "Ġscient": 3363,
      "Ġvalues": 3364,
      "Ġexpert": 3365,
      "Ġgold": 3366,
      "pre": 3367,
      "ĠAv": 3368,
      "orage": 3369,
      "Ġengaging": 3370,
      "Ġbott": 3371,
      "Ġpretty": 3372,
      "Ġassociated": 3373,
      "ĠOct": 3374,
      "oming": 3375,
      "asp": 3376,
      "....": 3377,
      "Ġelectric": 3378,
      "Ġimmedi": 3379,
      "ography": 3380,
      "sych": 3381,
      "ĠLa": 3382,
      "Ġexpected": 3383,
      "ĠThanks": 3384,
      "Ġchicken": 3385,
      "Ġcouple": 3386,
      "Ġwaste": 3387,
      "Ġrelease": 3388,
      "Ġsituation": 3389,
      "Ġdocument": 3390,
      "istics": 3391,
      "ĠMich": 3392,
      "Ġviol": 3393,
      "Ġver": 3394,
      "Ġbackground": 3395,
      "Ġlos": 3396,
      "ribute": 3397,
      "Ġarri": 3398,
      "Ġprec": 3399,
      "Ġcritical": 3400,
      "Ġenvironmental": 3401,
      "Ġdemand": 3402,
      "ags": 3403,
      "ancing": 3404,
      "Ġ198": 3405,
      "Ġprobably": 3406,
      "Ġpref": 3407,
      "Ġvegetables": 3408,
      "Ġheard": 3409,
      "Ġdetailed": 3410,
      "Ġenhance": 3411,
      "Ġtried": 3412,
      "Ġhimself": 3413,
      "ĠAut": 3414,
      "Ġsort": 3415,
      "Ġstarting": 3416,
      "key": 3417,
      "Ġetc": 3418,
      "Ġtransform": 3419,
      "sequ": 3420,
      "Ġliter": 3421,
      "Ġsetting": 3422,
      "Ġsubs": 3423,
      "Ġcontract": 3424,
      "Ġstudies": 3425,
      "ĠMus": 3426,
      "Ġegg": 3427,
      "Ġthinking": 3428,
      "Ġexcellent": 3429,
      "Ġguid": 3430,
      "Ġplanning": 3431,
      "Ġcollection": 3432,
      "ĠVal": 3433,
      "ek": 3434,
      "60": 3435,
      "friendly": 3436,
      "Ġexact": 3437,
      "ĠBrit": 3438,
      "Ġmethods": 3439,
      "Ġple": 3440,
      "ĠFacebook": 3441,
      "ned": 3442,
      "Ġexcept": 3443,
      "chan": 3444,
      "ashing": 3445,
      "useum": 3446,
      "Ġnumbers": 3447,
      "Ġcurrently": 3448,
      "Ġsav": 3449,
      "ought": 3450,
      "itter": 3451,
      "Ġvoice": 3452,
      "Ġencourage": 3453,
      "ĠBo": 3454,
      "Ġ>": 3455,
      "Ġrelig": 3456,
      "ĠWar": 3457,
      "Ġpurpose": 3458,
      "Ġsociety": 3459,
      "RE": 3460,
      "Ġgradu": 3461,
      "ĠCreate": 3462,
      "17": 3463,
      "ĠHouse": 3464,
      "Ġdy": 3465,
      "ĠPresident": 3466,
      "Ġdeveloping": 3467,
      "Ġtransportation": 3468,
      "\",": 3469,
      "Ġappropri": 3470,
      "ĠRead": 3471,
      "US": 3472,
      "akers": 3473,
      "Ġsolution": 3474,
      "Ġconsidered": 3475,
      "Ġmax": 3476,
      "ĠCounty": 3477,
      "Ġsmooth": 3478,
      "Ġwild": 3479,
      "Ġadvant": 3480,
      "Ġserve": 3481,
      "arter": 3482,
      "Ġdecided": 3483,
      "Ġdiet": 3484,
      "Ġspeed": 3485,
      "venue": 3486,
      "Ġthreat": 3487,
      "Ġeasier": 3488,
      "Ġmachine": 3489,
      "Ġdrug": 3490,
      "asons": 3491,
      "Ġcomprehens": 3492,
      "ĠCommun": 3493,
      "Ġdevice": 3494,
      "Ñı": 3495,
      "ĠMarch": 3496,
      "Ġformer": 3497,
      "Ġexercise": 3498,
      "oke": 3499,
      "Ġmovie": 3500,
      "Ġfinally": 3501,
      "ection": 3502,
      "idents": 3503,
      "ĠThank": 3504,
      "het": 3505,
      "ague": 3506,
      "off": 3507,
      "Ġhealthcare": 3508,
      "ĠGet": 3509,
      "Ġrelax": 3510,
      "ĠPost": 3511,
      "Ġbeyond": 3512,
      "Ġrights": 3513,
      "ivil": 3514,
      "hips": 3515,
      "Ġcredit": 3516,
      "Ġplatforms": 3517,
      "Ġaccom": 3518,
      "Ġrequest": 3519,
      "Ġdemonst": 3520,
      "Ġsugar": 3521,
      "Ġcooking": 3522,
      "Ġutil": 3523,
      "ĠRec": 3524,
      "Ġsold": 3525,
      "right": 3526,
      "Ġbowl": 3527,
      "Ġgiving": 3528,
      "itable": 3529,
      "Ġmeasure": 3530,
      "Ġfear": 3531,
      "ĠAccording": 3532,
      "ny": 3533,
      "Ġreve": 3534,
      "Ġju": 3535,
      "Ñĭ": 3536,
      "Ġlooked": 3537,
      "Ġeye": 3538,
      "Ġjud": 3539,
      "ĠCO": 3540,
      "Ġturned": 3541,
      "Ġevidence": 3542,
      "Ġrespond": 3543,
      "ĠBro": 3544,
      "Ġdoor": 3545,
      "Ġgrowing": 3546,
      "Ġafford": 3547,
      "term": 3548,
      "Ġprop": 3549,
      "ronic": 3550,
      "Ġsurpr": 3551,
      "Ġdownload": 3552,
      "Ġspent": 3553,
      "EO": 3554,
      "Ġweather": 3555,
      "Ġsmart": 3556,
      "Ġbrought": 3557,
      "Ġsty": 3558,
      "Ġgave": 3559,
      "Ġtraffic": 3560,
      "Ġrecommendations": 3561,
      "Ġrecently": 3562,
      "ĠAc": 3563,
      "lusion": 3564,
      "22": 3565,
      "Ġloved": 3566,
      "Ġspread": 3567,
      "Ġcross": 3568,
      "Ġcorrect": 3569,
      "Ġcompletely": 3570,
      "unt": 3571,
      "Ġeffort": 3572,
      "Ġcourt": 3573,
      "ares": 3574,
      "Ġshall": 3575,
      "Ġfully": 3576,
      "ĠSarah": 3577,
      "Ġdifference": 3578,
      "Ġengagement": 3579,
      "Ġadop": 3580,
      "Ġalg": 3581,
      "ceed": 3582,
      "itute": 3583,
      "ellow": 3584,
      "Ġvia": 3585,
      "ĠJune": 3586,
      "ĠApril": 3587,
      "Ġalone": 3588,
      "Ġround": 3589,
      "Ġrich": 3590,
      "Ġplayer": 3591,
      "ĠPat": 3592,
      "ĠOut": 3593,
      "Ġinvestment": 3594,
      "ĠOther": 3595,
      "ded": 3596,
      "ban": 3597,
      "aby": 3598,
      "ĠIN": 3599,
      "Ġgoes": 3600,
      "ĠAustral": 3601,
      "Ġnice": 3602,
      "Ġallowed": 3603,
      "ĠSan": 3604,
      "Ġ2011": 3605,
      "Ġfeet": 3606,
      "name": 3607,
      "Ġrequirements": 3608,
      "Ġvac": 3609,
      "ĠEar": 3610,
      "oyal": 3611,
      "Ġappl": 3612,
      "fulness": 3613,
      "Ġfamilies": 3614,
      "Ġstandard": 3615,
      "ĠEnglish": 3616,
      "hy": 3617,
      "Ġblock": 3618,
      "xture": 3619,
      "ĠTechn": 3620,
      "arc": 3621,
      "Ġ40": 3622,
      "Ġord": 3623,
      "ĠOb": 3624,
      "unte": 3625,
      "ĠBlack": 3626,
      "Ġdirectly": 3627,
      "Ġdat": 3628,
      "Ġleaves": 3629,
      "rag": 3630,
      "Ġqual": 3631,
      "Ġattempt": 3632,
      "Ġcontinued": 3633,
      "Ġpressure": 3634,
      "Ġscience": 3635,
      "iency": 3636,
      "Ġanswer": 3637,
      "Ġter": 3638,
      "Ð¼": 3639,
      "Ġclot": 3640,
      "Ġcoffee": 3641,
      "________": 3642,
      "gram": 3643,
      "AM": 3644,
      "ara": 3645,
      "ĠBus": 3646,
      "Ġschools": 3647,
      "Ġgreater": 3648,
      "ham": 3649,
      "ores": 3650,
      "Ġpieces": 3651,
      "iveness": 3652,
      "ĠTV": 3653,
      "Ġemotions": 3654,
      "()": 3655,
      "ĠSept": 3656,
      "ivery": 3657,
      "Ġclick": 3658,
      "Ġarchitect": 3659,
      "rest": 3660,
      "uary": 3661,
      "Ġdisease": 3662,
      "Ġshown": 3663,
      "wood": 3664,
      "ederal": 3665,
      "Ġchann": 3666,
      "Ġrealized": 3667,
      "iding": 3668,
      "Ġneigh": 3669,
      "ÑĮ": 3670,
      "Ġsell": 3671,
      "Ġkn": 3672,
      "Ġproduce": 3673,
      "Ġbroad": 3674,
      "iers": 3675,
      "\".": 3676,
      "Ġcas": 3677,
      "Ġanimals": 3678,
      "Ġgas": 3679,
      "free": 3680,
      "Ġhosp": 3681,
      "ses": 3682,
      "Ġaf": 3683,
      "dom": 3684,
      "Ġbenefit": 3685,
      "Ġson": 3686,
      "tings": 3687,
      "21": 3688,
      "lam": 3689,
      "Ġ,": 3690,
      "Ġteams": 3691,
      "hern": 3692,
      "40": 3693,
      "Ġassess": 3694,
      "rench": 3695,
      "Ġplaces": 3696,
      "Ġlegal": 3697,
      "ĠNet": 3698,
      "Ġinterview": 3699,
      "ĠGerm": 3700,
      "etic": 3701,
      "Ġtrip": 3702,
      "Ġmid": 3703,
      "isc": 3704,
      "Ġoffering": 3705,
      "phas": 3706,
      "antly": 3707,
      "Ġhop": 3708,
      "ibrary": 3709,
      "ĠJack": 3710,
      "ĠProv": 3711,
      "Ġtechnologies": 3712,
      "issions": 3713,
      "OS": 3714,
      "Ġherself": 3715,
      "Ġge": 3716,
      "Ġsurface": 3717,
      "Ġcondition": 3718,
      "Ġearn": 3719,
      "ĠEach": 3720,
      "Ġtasks": 3721,
      "ĠAng": 3722,
      "Ġtables": 3723,
      "ĠChina": 3724,
      "Ġplants": 3725,
      "atoes": 3726,
      "Ġtruly": 3727,
      "Ġpatterns": 3728,
      "ris": 3729,
      "Ġfair": 3730,
      "Ġstream": 3731,
      "Ġcomprehensive": 3732,
      "agn": 3733,
      "enty": 3734,
      "Ġcompon": 3735,
      "Ġphotos": 3736,
      "life": 3737,
      "Ġsecure": 3738,
      "ext": 3739,
      "ĠGreat": 3740,
      "iance": 3741,
      "raft": 3742,
      "ma": 3743,
      "Ġanxiety": 3744,
      "quality": 3745,
      "Ġglass": 3746,
      "ĠUp": 3747,
      "Ġprevious": 3748,
      "Ġevalu": 3749,
      "Ġexecut": 3750,
      "Ġconnection": 3751,
      "Ġaw": 3752,
      "ĠIndia": 3753,
      "Ġdeliver": 3754,
      "ĠResearch": 3755,
      "Ġ2010": 3756,
      "Ġaverage": 3757,
      "Ġacadem": 3758,
      "ibly": 3759,
      "Ġdelicious": 3760,
      "ĠSocial": 3761,
      "more": 3762,
      "Ġpolic": 3763,
      "Ġwrong": 3764,
      "Ġallowing": 3765,
      "Ġblue": 3766,
      "Ġexpand": 3767,
      "rics": 3768,
      "ĠEven": 3769,
      "ĠAssoci": 3770,
      "iling": 3771,
      "Ġdistribut": 3772,
      "ightly": 3773,
      "Ġhandle": 3774,
      "Ġlength": 3775,
      "Ġanc": 3776,
      "Ġ21": 3777,
      "Ġfocused": 3778,
      "house": 3779,
      "ĠMost": 3780,
      "ĠSet": 3781,
      "ĠInternational": 3782,
      "Ġconflic": 3783,
      "Ġthoughts": 3784,
      "Ġesc": 3785,
      "Ġcollege": 3786,
      "Ġregul": 3787,
      "Ġtemperature": 3788,
      "Ġdefinitely": 3789,
      "ĠTrans": 3790,
      "ields": 3791,
      "Ġhelping": 3792,
      "Ġreported": 3793,
      "que": 3794,
      "Ġunc": 3795,
      "Ġoccur": 3796,
      "Ġgarlic": 3797,
      "Ġdanger": 3798,
      "haps": 3799,
      "Ġstorage": 3800,
      "ĠDirect": 3801,
      "Ġrepl": 3802,
      "Ġrock": 3803,
      "Ġsym": 3804,
      "ĠWell": 3805,
      "Ġcarry": 3806,
      "Ġeconomy": 3807,
      "Ġreality": 3808,
      "Ġprotein": 3809,
      "Ġvideos": 3810,
      "Ġmovement": 3811,
      "ĠFinally": 3812,
      "Ġdamage": 3813,
      "ĠJuly": 3814,
      "Ġcris": 3815,
      "Ġachie": 3816,
      "Ġsuff": 3817,
      "Ġsometimes": 3818,
      "inated": 3819,
      "Ġseemed": 3820,
      "Ġband": 3821,
      "ĠCour": 3822,
      "Ġund": 3823,
      "Ġpublished": 3824,
      "Ġconstruction": 3825,
      "Ġscen": 3826,
      "Ġprofession": 3827,
      "ĠOp": 3828,
      "umn": 3829,
      "Ġ2017": 3830,
      "Ġbreath": 3831,
      "Ġshared": 3832,
      "ipping": 3833,
      "Ġinitial": 3834,
      "Ġ2016": 3835,
      "cil": 3836,
      "Ġ2018": 3837,
      "Ġapply": 3838,
      "iant": 3839,
      "iber": 3840,
      "vest": 3841,
      "Ġsites": 3842,
      "Ġsuggestions": 3843,
      "down": 3844,
      "Ġgraph": 3845,
      "Ġextreme": 3846,
      "Ġlines": 3847,
      "Ġartists": 3848,
      "ĠFeb": 3849,
      "Ġstring": 3850,
      "Ġfather": 3851,
      "Ġspot": 3852,
      "Ġrequires": 3853,
      "Ġestablish": 3854,
      "Ġadminist": 3855,
      "Ð²": 3856,
      "Ġtrade": 3857,
      "Ġsend": 3858,
      "Ġexperienced": 3859,
      "Ġpolice": 3860,
      "Ġhous": 3861,
      "Ġlack": 3862,
      "Ġmixture": 3863,
      "oop": 3864,
      "ena": 3865,
      "Ġpatient": 3866,
      "Ġhom": 3867,
      "Ġmechan": 3868,
      "ĠCalif": 3869,
      "ĠAlex": 3870,
      "ĠFriday": 3871,
      "Ġmoving": 3872,
      "ĠAir": 3873,
      "ĠRuss": 3874,
      "rief": 3875,
      "Ġemp": 3876,
      "ss": 3877,
      "Ġnote": 3878,
      "ĠSch": 3879,
      "ael": 3880,
      "Ġappropriate": 3881,
      "dule": 3882,
      "Ġwel": 3883,
      "Ġfashion": 3884,
      "Ġstage": 3885,
      "order": 3886,
      "Ġgives": 3887,
      "Ġmentioned": 3888,
      "Ġfine": 3889,
      "Ġcomfortable": 3890,
      "urer": 3891,
      "coming": 3892,
      "rim": 3893,
      "ĠTake": 3894,
      "Ġboy": 3895,
      "Ġincred": 3896,
      "ĠTheir": 3897,
      "Ġdishes": 3898,
      "Ġexplain": 3899,
      "Ġadvice": 3900,
      "force": 3901,
      "ĠSund": 3902,
      "Ġfat": 3903,
      "duc": 3904,
      "ously": 3905,
      "ĠAugust": 3906,
      "Ġpark": 3907,
      "Ġmemory": 3908,
      "Ġemphas": 3909,
      "Ġtim": 3910,
      "wise": 3911,
      "Ġinvolves": 3912,
      "Ġvirtual": 3913,
      "Ġpolicies": 3914,
      "Ġlimit": 3915,
      "Ġ2014": 3916,
      "Ġrob": 3917,
      "Ġcommer": 3918,
      "Ġsupply": 3919,
      "Ġconclusion": 3920,
      "Ġactive": 3921,
      "Ġadvanced": 3922,
      "ervation": 3923,
      "Ġmedium": 3924,
      "Ġspend": 3925,
      "ellig": 3926,
      "Ġgrand": 3927,
      "rastructure": 3928,
      "uments": 3929,
      "Ġvalu": 3930,
      "Ġlarger": 3931,
      "ĠSer": 3932,
      "Ġrecip": 3933,
      "Ġscene": 3934,
      "Ġadult": 3935,
      "ĠSatur": 3936,
      "Ġgets": 3937,
      "Ġsports": 3938,
      "Ġshowc": 3939,
      "Ġbrain": 3940,
      "Ġonto": 3941,
      "mission": 3942,
      "Ġgain": 3943,
      "ĠCheck": 3944,
      "Ġflex": 3945,
      "Ġmark": 3946,
      "Ġimpress": 3947,
      "lin": 3948,
      "ĠDepartment": 3949,
      "rupt": 3950,
      "ipped": 3951,
      "Ġ22": 3952,
      "Ġprefer": 3953,
      "Ġforest": 3954,
      "OT": 3955,
      "Ġstates": 3956,
      "Ġcast": 3957,
      "Ġpet": 3958,
      "ida": 3959,
      "ĠSystem": 3960,
      "Ġtesting": 3961,
      "rows": 3962,
      "za": 3963,
      "orial": 3964,
      "Ġfest": 3965,
      "iation": 3966,
      "Ġcold": 3967,
      "Ġ2015": 3968,
      "itchen": 3969,
      "Ġserved": 3970,
      "aint": 3971,
      "inger": 3972,
      "Ġadvent": 3973,
      "Ġchanged": 3974,
      "ube": 3975,
      "ondon": 3976,
      "Ġfab": 3977,
      "Ġdro": 3978,
      "Ġindepend": 3979,
      "Ġadvance": 3980,
      "ĠUK": 3981,
      "ales": 3982,
      "Ġforms": 3983,
      "orith": 3984,
      "Ġforce": 3985,
      "Ġhuge": 3986,
      "ĠSen": 3987,
      "Ġresponsible": 3988,
      "Ġclient": 3989,
      "Ġeat": 3990,
      "Ġdecor": 3991,
      "ĠWhy": 3992,
      "ĠDavid": 3993,
      "Ġmilk": 3994,
      "Ġfix": 3995,
      "Ġsand": 3996,
      "ĠGreen": 3997,
      "ken": 3998,
      "Ġtherapy": 3999,
      "Ġload": 4000,
      "ĠMet": 4001,
      "Ġmis": 4002,
      "Ġwait": 4003,
      "Ġinstructions": 4004,
      "LE": 4005,
      "Ġmilitary": 4006,
      "Ġfinish": 4007,
      "Ġahead": 4008,
      "Ġattack": 4009,
      "Ġshape": 4010,
      "Ġfinding": 4011,
      "ror": 4012,
      "ocolate": 4013,
      "Ġprices": 4014,
      "Ġoutd": 4015,
      "Ġclub": 4016,
      "ornia": 4017,
      "ĠRemember": 4018,
      "Ġcancer": 4019,
      "Ġmaxim": 4020,
      "ĠDuring": 4021,
      "bum": 4022,
      "Ġcateg": 4023,
      "rig": 4024,
      "Ġmeasures": 4025,
      "Ġletter": 4026,
      "Ġpartner": 4027,
      "Ġfilled": 4028,
      "Ġremain": 4029,
      "ĠTod": 4030,
      "sec": 4031,
      "ĠKing": 4032,
      "Ġoffered": 4033,
      "ĠSpe": 4034,
      "ĠGood": 4035,
      "erved": 4036,
      "Ġbread": 4037,
      "Ġcomments": 4038,
      "ĠJames": 4039,
      "Ġengage": 4040,
      "Ġimproving": 4041,
      "ĠCor": 4042,
      "Ġfirm": 4043,
      "Ġbasic": 4044,
      "Ġelement": 4045,
      "Ġol": 4046,
      "ĠSince": 4047,
      "Ġcompared": 4048,
      "band": 4049,
      "Ġshap": 4050,
      "Ġhighlight": 4051,
      "Ġhour": 4052,
      "Ġharm": 4053,
      "ĠProgram": 4054,
      "apter": 4055,
      "Ġremove": 4056,
      "ying": 4057,
      "Ġmiddle": 4058,
      "Ġ197": 4059,
      "Ġbeginning": 4060,
      "Ġrent": 4061,
      "Ġmission": 4062,
      "Ġsaying": 4063,
      "inner": 4064,
      "ĠDesign": 4065,
      "Ġnamed": 4066,
      "Ġfamous": 4067,
      "wide": 4068,
      "Ġnovel": 4069,
      "Ġcrucial": 4070,
      "Ġdelivery": 4071,
      "anch": 4072,
      "using": 4073,
      "Ġdetermine": 4074,
      "Ġacqu": 4075,
      "urg": 4076,
      "arily": 4077,
      "agram": 4078,
      "Ġcry": 4079,
      "Ġreports": 4080,
      "Ġconsult": 4081,
      "Ġcomment": 4082,
      "Ġrace": 4083,
      "Ġarr": 4084,
      "ico": 4085,
      "(\"": 4086,
      "Ġreleased": 4087,
      "Ġcontinu": 4088,
      "ĠWind": 4089,
      "ĠBusiness": 4090,
      "ounced": 4091,
      "ĠMod": 4092,
      "Ġstatement": 4093,
      "ĠIndian": 4094,
      "Ġten": 4095,
      "fit": 4096,
      "Ġpassion": 4097,
      "ĠSaturday": 4098,
      "www": 4099,
      "ĠVis": 4100,
      "ĠDespite": 4101,
      "Ġinsurance": 4102,
      "Ġbrown": 4103,
      "Ġreact": 4104,
      "Ġmeal": 4105,
      "Ġalgorith": 4106,
      "Ġdance": 4107,
      "Ġarray": 4108,
      "Ġpages": 4109,
      "Ġ23": 4110,
      "Ġstock": 4111,
      "Ġgenerate": 4112,
      "ING": 4113,
      "Ġwine": 4114,
      "Ġrestaurant": 4115,
      "Ġmel": 4116,
      "hest": 4117,
      "ĠWed": 4118,
      "ĠCalifornia": 4119,
      "illa": 4120,
      "ĠAny": 4121,
      "ĠCle": 4122,
      "ĠAP": 4123,
      "Ġpresident": 4124,
      "Ġcit": 4125,
      "ĠName": 4126,
      "ĠMond": 4127,
      "Ġtask": 4128,
      "change": 4129,
      "ĠWhe": 4130,
      "----": 4131,
      "Ġresist": 4132,
      "Ġworkers": 4133,
      "ĠGroup": 4134,
      "Ġbatter": 4135,
      "usive": 4136,
      "overy": 4137,
      "Ġregist": 4138,
      "Ġchem": 4139,
      "ĠLondon": 4140,
      "pective": 4141,
      "Ġmodels": 4142,
      "Ġnumer": 4143,
      "Ġcarbon": 4144,
      "ancy": 4145,
      "Ġpsych": 4146,
      "ĠBen": 4147,
      "Ġsea": 4148,
      "ĠFree": 4149,
      "Ġactions": 4150,
      "Ġchallenging": 4151,
      "ula": 4152,
      "ville": 4153,
      "ovember": 4154,
      "ĠOctober": 4155,
      "Ġretail": 4156,
      "ĠJanuary": 4157,
      "ester": 4158,
      "ĠHol": 4159,
      "Ġvolunte": 4160,
      "Ġment": 4161,
      "Ġoperations": 4162,
      "iÃ³n": 4163,
      "Ġtrees": 4164,
      "Ġpaid": 4165,
      "vis": 4166,
      "arian": 4167,
      "icks": 4168,
      "Ġcentury": 4169,
      "ĠSeptember": 4170,
      "Ġearth": 4171,
      "ĠII": 4172,
      "Ġfaced": 4173,
      "Ġupdated": 4174,
      "Ġroutine": 4175,
      "Ġbright": 4176,
      "Ġinfrastructure": 4177,
      "Ġinfluence": 4178,
      "icip": 4179,
      "Ġpicture": 4180,
      "Ġheavy": 4181,
      "ocks": 4182,
      "ĠÐ¿": 4183,
      "Ġreb": 4184,
      "oos": 4185,
      "Ġcalcul": 4186,
      "ĠCoun": 4187,
      "ĠTom": 4188,
      "ĠRom": 4189,
      "ĠFrench": 4190,
      "abilities": 4191,
      "anging": 4192,
      "Ġconv": 4193,
      "Ġmist": 4194,
      "Ġyog": 4195,
      "itors": 4196,
      "Ġban": 4197,
      "mar": 4198,
      "99": 4199,
      "Ġcert": 4200,
      "Ġpul": 4201,
      "Ġ2009": 4202,
      "Ġbank": 4203,
      "Ġclassic": 4204,
      "ĠInter": 4205,
      "Ġjobs": 4206,
      "inating": 4207,
      "Ġfloor": 4208,
      "Ġexhib": 4209,
      "ĠSunday": 4210,
      "80": 4211,
      "enses": 4212,
      "des": 4213,
      "Ġinstitut": 4214,
      "Ġsharing": 4215,
      "OU": 4216,
      "ricult": 4217,
      "ET": 4218,
      "Ġvot": 4219,
      "Ġtree": 4220,
      "estern": 4221,
      "Ġstraight": 4222,
      "Ġwat": 4223,
      "umber": 4224,
      "kend": 4225,
      "Ġbirth": 4226,
      "Ġearlier": 4227,
      "oves": 4228,
      "Ġinfluen": 4229,
      "Ġboo": 4230,
      "Ġtitle": 4231,
      "rial": 4232,
      "rie": 4233,
      "Ġvaluable": 4234,
      "porary": 4235,
      "Ġrain": 4236,
      "Ġpersonalized": 4237,
      "Ġowners": 4238,
      "Ġmaybe": 4239,
      "orge": 4240,
      "ĠEduc": 4241,
      "Ġcommercial": 4242,
      "ĠBest": 4243,
      "ĠDem": 4244,
      "Ġmeat": 4245,
      "Ġpoem": 4246,
      "ira": 4247,
      "ĠSub": 4248,
      "Ġgift": 4249,
      "ĠPal": 4250,
      "Ġexisting": 4251,
      "Ġinterests": 4252,
      "ĠCollege": 4253,
      "uk": 4254,
      "ĠMor": 4255,
      "hent": 4256,
      "Ġpractical": 4257,
      "tra": 4258,
      "Ġsolar": 4259,
      "Ġcopy": 4260,
      "Ġdecisions": 4261,
      "Ġincome": 4262,
      "Ġpresence": 4263,
      "Ġoccas": 4264,
      "ford": 4265,
      "Ġlargest": 4266,
      "Ġmo": 4267,
      "Ġcampaigns": 4268,
      "Ġspecies": 4269,
      "ĠStreet": 4270,
      "AD": 4271,
      "Ġprem": 4272,
      "Ġtypically": 4273,
      "Ġstar": 4274,
      "Ġice": 4275,
      "Ġwed": 4276,
      "Ġformat": 4277,
      "Ġconcerns": 4278,
      "Ġstuff": 4279,
      "Ġbottom": 4280,
      "Ġdepending": 4281,
      "Ġimmediately": 4282,
      "Ġalternative": 4283,
      "ĠSee": 4284,
      "ĠIr": 4285,
      "Ġdetect": 4286,
      "po": 4287,
      "ĠSl": 4288,
      "Ġcivil": 4289,
      "Ġinstru": 4290,
      "Ġcells": 4291,
      "ĠPri": 4292,
      "ĠTy": 4293,
      "acity": 4294,
      "ĠRet": 4295,
      "Ġ2019": 4296,
      "tee": 4297,
      "cember": 4298,
      "mosp": 4299,
      "olf": 4300,
      "Ġmeditation": 4301,
      "ounds": 4302,
      "ĠWilliam": 4303,
      "Ġbillion": 4304,
      "ĠPlay": 4305,
      "Ġuseful": 4306,
      "AP": 4307,
      "ĠProf": 4308,
      "mas": 4309,
      "unk": 4310,
      "ĠStart": 4311,
      "TM": 4312,
      "Ġremote": 4313,
      "Ġcraft": 4314,
      "Ġtrain": 4315,
      "omb": 4316,
      "Ġoven": 4317,
      "Ġshot": 4318,
      "Ġpair": 4319,
      "ĠDef": 4320,
      "Ġcombination": 4321,
      "Ġfans": 4322,
      "Ġcatch": 4323,
      "Ġsalad": 4324,
      "Ġreviews": 4325,
      "Ġgarden": 4326,
      "ĠMonday": 4327,
      "ĠOh": 4328,
      "Ġ60": 4329,
      "ĠNovember": 4330,
      "Ġwish": 4331,
      "ĠEast": 4332,
      "Ġobtain": 4333,
      "eria": 4334,
      "Ġserving": 4335,
      "Ġdesigns": 4336,
      "Ġimproved": 4337,
      "aled": 4338,
      "EC": 4339,
      "Ġinsights": 4340,
      "Ġcompetition": 4341,
      "encies": 4342,
      "Ġpowder": 4343,
      "ĠThrough": 4344,
      "Ġadvertising": 4345,
      "Ġir": 4346,
      "rote": 4347,
      "bl": 4348,
      "being": 4349,
      "unning": 4350,
      "Ġalbum": 4351,
      "Ġlic": 4352,
      "Ġacademic": 4353,
      "Ġpassed": 4354,
      "Ġfigure": 4355,
      "ald": 4356,
      "Ġsmaller": 4357,
      "Ġfollowed": 4358,
      "Ġdiscover": 4359,
      "Ġdriving": 4360,
      "ashington": 4361,
      "ĠHome": 4362,
      "eper": 4363,
      "rition": 4364,
      "ĠWeb": 4365,
      "Ġlik": 4366,
      "Ġpayment": 4367,
      "Ġreaders": 4368,
      "Ġpal": 4369,
      "Ġvalid": 4370,
      "Ġchat": 4371,
      "ĠLaw": 4372,
      "Ġcapital": 4373,
      "ey": 4374,
      "Ġschedule": 4375,
      "ocal": 4376,
      "Ġslic": 4377,
      "inate": 4378,
      "Ġtick": 4379,
      "Ġinternet": 4380,
      "Ġ2008": 4381,
      "ĠCustom": 4382,
      "Ñĩ": 4383,
      "ocr": 4384,
      "Ġawareness": 4385,
      "fl": 4386,
      "Ġopin": 4387,
      "ĠRo": 4388,
      "Ġhotel": 4389,
      "Ġhomes": 4390,
      "Ġtechnical": 4391,
      "tenance": 4392,
      "gen": 4393,
      "Ġsuppl": 4394,
      "ĠAlthough": 4395,
      "Ġcu": 4396,
      "Ġscript": 4397,
      "Ġsen": 4398,
      "ĠPlan": 4399,
      "Ġflav": 4400,
      "Ġvisitors": 4401,
      "Ġstreet": 4402,
      "Ġprimary": 4403,
      "agon": 4404,
      "Ġlandsc": 4405,
      "ault": 4406,
      "Ġcertainly": 4407,
      "imb": 4408,
      "Ġcaused": 4409,
      "Ġwear": 4410,
      "Ġpopulation": 4411,
      "ĠService": 4412,
      "Ġclasses": 4413,
      "Ġthick": 4414,
      "ĠAN": 4415,
      "Ġdoll": 4416,
      "Ġatmosp": 4417,
      "Ġprocesses": 4418,
      "Ġpoll": 4419,
      "Ġchopped": 4420,
      "Ġhappened": 4421,
      "ĠNews": 4422,
      "Ġancient": 4423,
      "ĠKeep": 4424,
      "Ġreplace": 4425,
      "Ġcamera": 4426,
      "Ġaccur": 4427,
      "IL": 4428,
      "Ġdating": 4429,
      "ĠWhite": 4430,
      "Ġ27": 4431,
      "Ġthous": 4432,
      "reek": 4433,
      "ĠGovern": 4434,
      "Ġexercises": 4435,
      "Ġcandid": 4436,
      "Ġdiscovered": 4437,
      "Ġtalking": 4438,
      "Ġnation": 4439,
      "ĠLast": 4440,
      "Ġleaving": 4441,
      "Ġidentity": 4442,
      "Ġhar": 4443,
      "ech": 4444,
      "ĠWow": 4445,
      "eff": 4446,
      "ĠDec": 4447,
      "ĠDel": 4448,
      "ĠWashington": 4449,
      "cean": 4450,
      "ĠJo": 4451,
      "ecause": 4452,
      "nown": 4453,
      "Ġadvantage": 4454,
      "add": 4455,
      "Ġbecoming": 4456,
      "ĠDet": 4457,
      "Ġ28": 4458,
      "Ġdoub": 4459,
      "Ġproced": 4460,
      "Ġwants": 4461,
      "ught": 4462,
      "Ġfiles": 4463,
      "Ġpen": 4464,
      "Ġdistance": 4465,
      "Ġfruit": 4466,
      "ĠDecember": 4467,
      "Ġefficiency": 4468,
      "Ð´": 4469,
      "ĠTwitter": 4470,
      "Ġmoved": 4471,
      "fast": 4472,
      "Ġtrou": 4473,
      "Ġpromoting": 4474,
      "Ġbaking": 4475,
      "Ġinstance": 4476,
      "Ġchanging": 4477,
      "icon": 4478,
      "lim": 4479,
      "ÑģÑĤ": 4480,
      "Ġbul": 4481,
      "Ġ26": 4482,
      "ĠConf": 4483,
      "ĠJes": 4484,
      "Ġjoin": 4485,
      "Ġpros": 4486,
      "ĠMichael": 4487,
      "Ġexactly": 4488,
      "Ġuna": 4489,
      "Ġproperties": 4490,
      "ĠEst": 4491,
      "Ġwife": 4492,
      "ĠCompany": 4493,
      "OM": 4494,
      "ĠApple": 4495,
      "ĠTHE": 4496,
      "Ġstatus": 4497,
      "ĠToday": 4498,
      "oving": 4499,
      "24": 4500,
      "Ġentertain": 4501,
      "Ġaward": 4502,
      "Ġran": 4503,
      "Ġdatab": 4504,
      "ĠEuropean": 4505,
      "Ġbaby": 4506,
      "iny": 4507,
      "ĠLear": 4508,
      "Ġden": 4509,
      "Ġvill": 4510,
      "ĠDist": 4511,
      "atever": 4512,
      "ĠPort": 4513,
      "Ġclin": 4514,
      "Ġrefer": 4515,
      "Ġshoot": 4516,
      "Ġnearly": 4517,
      "Ġfitness": 4518,
      "ĠÐ²": 4519,
      "ĠClick": 4520,
      "ĠBel": 4521,
      "Ġphoto": 4522,
      "Ġcontext": 4523,
      "ka": 4524,
      "reed": 4525,
      "BC": 4526,
      "osition": 4527,
      "inct": 4528,
      "Ġrice": 4529,
      "atively": 4530,
      "Ġkept": 4531,
      "Ġviews": 4532,
      "Ġnetwor": 4533,
      "?\"": 4534,
      "23": 4535,
      "Ġfunding": 4536,
      "Ġpowers": 4537,
      "Ġrepe": 4538,
      "iller": 4539,
      "ifications": 4540,
      "Ġcontinues": 4541,
      "body": 4542,
      "aughter": 4543,
      "ĠAnt": 4544,
      "Wh": 4545,
      "uries": 4546,
      "Ġtend": 4547,
      "EL": 4548,
      "ĠHave": 4549,
      "ĠAbs": 4550,
      "ĠAI": 4551,
      "Ġrevenue": 4552,
      "ulate": 4553,
      "icine": 4554,
      "Ch": 4555,
      "lation": 4556,
      "Ġsecret": 4557,
      "outs": 4558,
      "idden": 4559,
      "Ġleader": 4560,
      "Ġlas": 4561,
      "eless": 4562,
      "Ġideal": 4563,
      "Ġcorpor": 4564,
      "inese": 4565,
      "Ġoutput": 4566,
      "Ġdouble": 4567,
      "arant": 4568,
      "formation": 4569,
      "Ġpreferences": 4570,
      "Ġkitchen": 4571,
      "Ġshop": 4572,
      "Ġpoor": 4573,
      "Ġtail": 4574,
      "ĠBritish": 4575,
      "Ġerror": 4576,
      "Ġestablished": 4577,
      "Ġexperiment": 4578,
      "ruary": 4579,
      "Ġprotection": 4580,
      "Ġemployee": 4581,
      "ĠSpr": 4582,
      "ĠLike": 4583,
      "Ġgone": 4584,
      "ini": 4585,
      "la": 4586,
      "à¹": 4587,
      "Ġrules": 4588,
      "comes": 4589,
      "PS": 4590,
      "Ġbecomes": 4591,
      "omen": 4592,
      "oly": 4593,
      "Ġleads": 4594,
      "Ġfeelings": 4595,
      "Ġwalking": 4596,
      "tion": 4597,
      "Ġinnovative": 4598,
      "Ġmaster": 4599,
      "ĠUnder": 4600,
      "Ġkeeping": 4601,
      "icking": 4602,
      "ij": 4603,
      "Ġovercome": 4604,
      "ĠPaul": 4605,
      "ĠConsider": 4606,
      "Ġcharge": 4607,
      "tics": 4608,
      "ĠServices": 4609,
      "ius": 4610,
      "Ġintellig": 4611,
      "acing": 4612,
      "ĠFound": 4613,
      "Ġreasons": 4614,
      "Ġflour": 4615,
      "Ġfant": 4616,
      "Ġtexture": 4617,
      "Ġstir": 4618,
      "Ġnotice": 4619,
      "Ġdegree": 4620,
      "Ġwrote": 4621,
      "Ġassign": 4622,
      "Ġvari": 4623,
      "Ġprofessionals": 4624,
      "Ġstret": 4625,
      "mitted": 4626,
      "Ġnormal": 4627,
      "ĠDan": 4628,
      "Ġbelief": 4629,
      "hem": 4630,
      "Ġremains": 4631,
      "ifying": 4632,
      "Ġaffected": 4633,
      "Ġâ": 4634,
      "Ġwhose": 4635,
      "Ġsets": 4636,
      "ett": 4637,
      "ĠCourt": 4638,
      "ĠThurs": 4639,
      "Ġcontribute": 4640,
      "Ġtransfer": 4641,
      "Ġdisapp": 4642,
      "Ġjoy": 4643,
      "Ġartist": 4644,
      "ĠMark": 4645,
      "Ġexcl": 4646,
      "ĠGold": 4647,
      "Ġnumerous": 4648,
      "Ġrise": 4649,
      "ĠMary": 4650,
      "osure": 4651,
      "Ġbutton": 4652,
      "Ġplastic": 4653,
      "aming": 4654,
      "ION": 4655,
      "odes": 4656,
      "Ġshel": 4657,
      "ĠiP": 4658,
      "Ġslightly": 4659,
      "ĠSuper": 4660,
      "Ġregarding": 4661,
      "Ġcrow": 4662,
      "Ġpropos": 4663,
      "Ġtheme": 4664,
      "Ġannounced": 4665,
      "Ġbeg": 4666,
      "ĠBre": 4667,
      "Ġhyd": 4668,
      "Ġtruth": 4669,
      "ĠPeople": 4670,
      "lines": 4671,
      "Ġcourses": 4672,
      "Ġdire": 4673,
      "iled": 4674,
      "Ġolive": 4675,
      "Ġcalls": 4676,
      "Ġmindfulness": 4677,
      "Ġcities": 4678,
      "Ġimplemented": 4679,
      "Ġfem": 4680,
      "Ġsnow": 4681,
      "asure": 4682,
      "crib": 4683,
      "cription": 4684,
      "asted": 4685,
      "Ġweekend": 4686,
      "ĠTues": 4687,
      "Ġbag": 4688,
      "ĠAmaz": 4689,
      "AY": 4690,
      "Ġdirector": 4691,
      "ago": 4692,
      "Ġthemes": 4693,
      "iences": 4694,
      "Ġnames": 4695,
      "Ġchocolate": 4696,
      "Ġstyles": 4697,
      "leg": 4698,
      "ĠSk": 4699,
      "Ġobst": 4700,
      "Ġlaunch": 4701,
      "Ġregularly": 4702,
      "Ġleadership": 4703,
      "ero": 4704,
      "icing": 4705,
      "fficient": 4706,
      "ander": 4707,
      "Ġauthent": 4708,
      "yn": 4709,
      "Ġprepared": 4710,
      "45": 4711,
      "Ġwilling": 4712,
      "bre": 4713,
      "vere": 4714,
      "ĠMac": 4715,
      "Ġposts": 4716,
      "You": 4717,
      "Ġsatisf": 4718,
      "inking": 4719,
      "Ġaffordable": 4720,
      "Ġmoments": 4721,
      "ĠTex": 4722,
      "aked": 4723,
      "Ġmap": 4724,
      "Ġshopping": 4725,
      "ĠCanada": 4726,
      "ĠAssociation": 4727,
      "ĠFind": 4728,
      "Ġsky": 4729,
      "pa": 4730,
      "Ġ@": 4731,
      "?âĢĿ": 4732,
      "iration": 4733,
      "Ġimpl": 4734,
      "Ġsympt": 4735,
      "antic": 4736,
      "ĠYear": 4737,
      "ĠAtt": 4738,
      "pan": 4739,
      "going": 4740,
      "Ġcontains": 4741,
      "Ġdiscount": 4742,
      "Ġserious": 4743,
      "ĠFebruary": 4744,
      "Ġthank": 4745,
      "raw": 4746,
      "ĠTime": 4747,
      "undred": 4748,
      "rael": 4749,
      "pter": 4750,
      "=\"": 4751,
      "Ġconsequ": 4752,
      "Ġ2020": 4753,
      "Ġitem": 4754,
      "ĠMag": 4755,
      "ĠMem": 4756,
      "ĠHot": 4757,
      "Ġproduced": 4758,
      "Ġhttp": 4759,
      "Ġcovered": 4760,
      "Ġopening": 4761,
      "Ġvehicle": 4762,
      "Ġmill": 4763,
      "ĠWater": 4764,
      "gy": 4765,
      "Ġtow": 4766,
      "ender": 4767,
      "Ġexcited": 4768,
      "Ġcoc": 4769,
      "ĠRel": 4770,
      "Ġconven": 4771,
      "field": 4772,
      "Ġdynam": 4773,
      "Ġincorporate": 4774,
      "Ġannual": 4775,
      "Ġconfident": 4776,
      "Ġaccompl": 4777,
      "Ġhus": 4778,
      "ĠRich": 4779,
      "Ġfasc": 4780,
      "Ġpictures": 4781,
      "olic": 4782,
      "Ġspending": 4783,
      "Ġbuildings": 4784,
      "Ġmeant": 4785,
      "ĠThursday": 4786,
      "Ġillust": 4787,
      "Ġang": 4788,
      "Ġeight": 4789,
      "ĠUsing": 4790,
      "Ġquarter": 4791,
      "Ġforget": 4792,
      "water": 4793,
      "ĠPublic": 4794,
      "Ġfaith": 4795,
      "part": 4796,
      "gment": 4797,
      "itness": 4798,
      "ĠTop": 4799,
      "ĠEmily": 4800,
      "âĢĿ.": 4801,
      "Ġproperly": 4802,
      "Ġcash": 4803,
      "Ġcompleted": 4804,
      "Ġwatching": 4805,
      "ups": 4806,
      "Ġcommunicate": 4807,
      "Ġsale": 4808,
      "Ġeating": 4809,
      "Ġinvolve": 4810,
      "ĠChristmas": 4811,
      "Ġdepth": 4812,
      "ĠCong": 4813,
      "Ġtopics": 4814,
      "ĠCur": 4815,
      "Ġjournal": 4816,
      "Ġrecommended": 4817,
      "Ġjuice": 4818,
      "orrow": 4819,
      "Ġsignificantly": 4820,
      "ĠTO": 4821,
      "Ġisland": 4822,
      "ĠRepublic": 4823,
      "NA": 4824,
      "Ġprompter": 4825,
      "Ġtalent": 4826,
      "Ġbasis": 4827,
      "ppers": 4828,
      "Ġvision": 4829,
      "Ġrisks": 4830,
      "Ġseven": 4831,
      "ĠAM": 4832,
      "Ġreduced": 4833,
      "ails": 4834,
      "known": 4835,
      "ĠReview": 4836,
      "ĠMicro": 4837,
      "Ġsched": 4838,
      "ĠWho": 4839,
      "Ġcollaboration": 4840,
      "Ġapps": 4841,
      "Ġapart": 4842,
      "ĠTuesday": 4843,
      "Ġseek": 4844,
      "Ġdespite": 4845,
      "Ġsector": 4846,
      "Ġbill": 4847,
      "Ġtrends": 4848,
      "ĠMex": 4849,
      "cel": 4850,
      "Ġatmosphere": 4851,
      "Ġappreciate": 4852,
      "Ġmulti": 4853,
      "asy": 4854,
      "Ġmiles": 4855,
      "Ġteaching": 4856,
      "ĠChinese": 4857,
      "ĠMaybe": 4858,
      "Ġappoint": 4859,
      "Ġanimal": 4860,
      "Ġbattle": 4861,
      "Ġthr": 4862,
      "Ġlisten": 4863,
      "inter": 4864,
      "rees": 4865,
      "Ġsoil": 4866,
      "Ġchurch": 4867,
      "Ġprompt": 4868,
      "Ġcentral": 4869,
      "ĠWednes": 4870,
      "Ġmaintenance": 4871,
      "Ġspeak": 4872,
      "Ġwebsites": 4873,
      "Ġgather": 4874,
      "Ġluck": 4875,
      "ĠOpen": 4876,
      "Ġselection": 4877,
      "ĠAbsolutely": 4878,
      "ĠChristian": 4879,
      "Ġboost": 4880,
      "ception": 4881,
      "Ġhighest": 4882,
      "Ġdram": 4883,
      "see": 4884,
      "Ġdecl": 4885,
      "step": 4886,
      "Ġfields": 4887,
      "Ġstandards": 4888,
      "Ġaspects": 4889,
      "Ġer": 4890,
      "ams": 4891,
      "Ġstruct": 4892,
      "Ġexciting": 4893,
      "Ġvan": 4894,
      "ront": 4895,
      "Ġdedicated": 4896,
      "lude": 4897,
      "ĠPerson": 4898,
      "Ġhistorical": 4899,
      "Ġinteractive": 4900,
      "Ġtechnique": 4901,
      "pm": 4902,
      "Ġpod": 4903,
      "Ġfederal": 4904,
      "Ġpredict": 4905,
      "Ġolder": 4906,
      "Ġseeing": 4907,
      "Ġassistance": 4908,
      "Ġfinished": 4909,
      "ĠHall": 4910,
      "Ġproductivity": 4911,
      "Ġloyal": 4912,
      "istry": 4913,
      "Ġstores": 4914,
      "Ġflu": 4915,
      "Ġindustries": 4916,
      "Ġalthough": 4917,
      "Ġresidents": 4918,
      "faction": 4919,
      "rooms": 4920,
      "ĠClass": 4921,
      "Ġfuel": 4922,
      "',": 4923,
      "Ġnotes": 4924,
      "Ġbrief": 4925,
      "etry": 4926,
      "ĠIts": 4927,
      "Ġeventually": 4928,
      "Ġec": 4929,
      "Ġbeat": 4930,
      "ĠChurch": 4931,
      "Ġwaiting": 4932,
      "Ġfurn": 4933,
      "Ġwinter": 4934,
      "do": 4935,
      "Ġplays": 4936,
      "pected": 4937,
      "],": 4938,
      "Ġcontem": 4939,
      "ĠAnsw": 4940,
      "ĠSur": 4941,
      "Ġmarkets": 4942,
      "ĠBecause": 4943,
      "ounce": 4944,
      "ĠJesus": 4945,
      "Ġreligious": 4946,
      "atically": 4947,
      "eline": 4948,
      "print": 4949,
      "ĠRober": 4950,
      "Ġsch": 4951,
      "rain": 4952,
      "ĠEv": 4953,
      "Ġgrew": 4954,
      "Ġscore": 4955,
      "Ġstarts": 4956,
      "ĠÐ¸": 4957,
      "ĠÑģ": 4958,
      "Ġguests": 4959,
      "Ġbond": 4960,
      "Ġquant": 4961,
      "Ġmenu": 4962,
      "mp": 4963,
      "alt": 4964,
      "Ġspecifically": 4965,
      "ĠIsrael": 4966,
      "Ġpara": 4967,
      "Ġplenty": 4968,
      "ĠInternet": 4969,
      "ĠHel": 4970,
      "Ġstick": 4971,
      "phone": 4972,
      "Ġrap": 4973,
      "ĠEarth": 4974,
      "Ġmicro": 4975,
      "Ġserver": 4976,
      "ĠJour": 4977,
      "ĠWednesday": 4978,
      "standing": 4979,
      "verse": 4980,
      "Ġcontroll": 4981,
      "Ġagricult": 4982,
      "Ġresearc": 4983,
      "Ġgenerally": 4984,
      "Ġgre": 4985,
      "Ġcolle": 4986,
      "uration": 4987,
      "ourage": 4988,
      "Ġshowed": 4989,
      "Ġconnected": 4990,
      "ĠAustralia": 4991,
      "ĠThom": 4992,
      "Ġmer": 4993,
      "ĠCouncil": 4994,
      "Ġsongs": 4995,
      "iture": 4996,
      "Ġdetermined": 4997,
      "Ġdesired": 4998,
      "ĠBefore": 4999,
      "Ġborn": 5000,
      "arp": 5001,
      "ari": 5002,
      "iliar": 5003,
      "Ġfol": 5004,
      "ĠÂ£": 5005,
      "ĠMart": 5006,
      "Ġsymptoms": 5007,
      "ĠRiver": 5008,
      "Ġlibrary": 5009,
      "75": 5010,
      "yc": 5011,
      "Ġparties": 5012,
      "Ġtea": 5013,
      "list": 5014,
      "Ġforeign": 5015,
      "Ġwindow": 5016,
      "Ġbiggest": 5017,
      "Ġdecre": 5018,
      "Ġsession": 5019,
      "ilding": 5020,
      "ĠMat": 5021,
      "ĠHist": 5022,
      "Ġindic": 5023,
      "Ġprepare": 5024,
      "bed": 5025,
      "ĠPM": 5026,
      "Ġtopic": 5027,
      "Ġbelieved": 5028,
      "ĠST": 5029,
      "Ġfoods": 5030,
      "Ġperhaps": 5031,
      "ĠLife": 5032,
      "Ġpush": 5033,
      "box": 5034,
      "Ġabilities": 5035,
      "Ġjump": 5036,
      "Ġ29": 5037,
      "Ġeducational": 5038,
      "ĠEducation": 5039,
      "Ġbath": 5040,
      "col": 5041,
      "Ġhospital": 5042,
      "Ġsolid": 5043,
      "Ġvary": 5044,
      "Ġpap": 5045,
      "Ġblend": 5046,
      "udd": 5047,
      "Ġsoul": 5048,
      "Â°": 5049,
      "ĠChild": 5050,
      "ĠTest": 5051,
      "Ġconfidence": 5052,
      "ĠExper": 5053,
      "Ġcapacity": 5054,
      "Ġdirection": 5055,
      "Ġbrother": 5056,
      "Ġpus": 5057,
      "ym": 5058,
      "Ġoutcomes": 5059,
      "ommod": 5060,
      "ĠTexas": 5061,
      "Ġoutdoor": 5062,
      "EM": 5063,
      "Ġcards": 5064,
      "Ġruns": 5065,
      "Ġalign": 5066,
      "li": 5067,
      "Ġworksh": 5068,
      "ĠIS": 5069,
      "ĠAmazon": 5070,
      "Ġdiverse": 5071,
      "inations": 5072,
      "ĠIsland": 5073,
      "Ġbrands": 5074,
      "Ġmanaged": 5075,
      "Ġseparate": 5076,
      "Ġrecipes": 5077,
      "Ġcreation": 5078,
      "ston": 5079,
      "Ġanti": 5080,
      "ette": 5081,
      "Ġath": 5082,
      "ulations": 5083,
      "Ġconsumers": 5084,
      "Ġtone": 5085,
      "Ġpainting": 5086,
      "Ġexperts": 5087,
      "ibilities": 5088,
      "35": 5089,
      "Ġopened": 5090,
      "Ġhundred": 5091,
      "Ġcontrast": 5092,
      "roud": 5093,
      "Ġforg": 5094,
      "70": 5095,
      "IG": 5096,
      "Ġedge": 5097,
      "Ġteachers": 5098,
      "Ġfeels": 5099,
      "Ġgun": 5100,
      "ĠAfrica": 5101,
      "This": 5102,
      "ĠManagement": 5103,
      "ĠChoose": 5104,
      "Ġcab": 5105,
      "ĠAnn": 5106,
      "Ġarchitecture": 5107,
      "ĠHum": 5108,
      "Ġmetal": 5109,
      "ament": 5110,
      "erry": 5111,
      "Ġrat": 5112,
      "example": 5113,
      "Ġteasp": 5114,
      "Ġneighbor": 5115,
      "Ġ2007": 5116,
      "Ġdim": 5117,
      "Ġplanet": 5118,
      "ĠBig": 5119,
      "ĠSum": 5120,
      "ĠÃ": 5121,
      "Ġbeach": 5122,
      "ĠCamp": 5123,
      "ctors": 5124,
      "ternal": 5125,
      "ĠId": 5126,
      "Ġsequ": 5127,
      "Ġupdate": 5128,
      "ution": 5129,
      "Ġspr": 5130,
      "Ġswe": 5131,
      "Ġreader": 5132,
      "Ġfro": 5133,
      "ĠPhot": 5134,
      "Ġdrop": 5135,
      "ampions": 5136,
      "ĠWork": 5137,
      "Ġfacilities": 5138,
      "ĠInstead": 5139,
      "Ġdatabase": 5140,
      "Ġaccessible": 5141,
      "Ġquiet": 5142,
      "Ġfan": 5143,
      "ĠSun": 5144,
      "atitude": 5145,
      "Ġfill": 5146,
      "Ġemissions": 5147,
      "Ġcleaning": 5148,
      "IP": 5149,
      "oration": 5150,
      "ĠOffice": 5151,
      "Ġupdates": 5152,
      "Ġcitiz": 5153,
      "Ġflo": 5154,
      "gers": 5155,
      "Ġreached": 5156,
      "ĠRob": 5157,
      "alls": 5158,
      "point": 5159,
      "Ġprocessing": 5160,
      "100": 5161,
      "Ġsto": 5162,
      "Ġflowers": 5163,
      "Ġuns": 5164,
      "elines": 5165,
      "ĠProduct": 5166,
      "men": 5167,
      "ĠFlor": 5168,
      "Ġinitiatives": 5169,
      "ĠIT": 5170,
      "ĠLord": 5171,
      "ĠProject": 5172,
      "aught": 5173,
      "Ġwonderful": 5174,
      "acking": 5175,
      "Ġdrink": 5176,
      "Ġdial": 5177,
      "ĠScience": 5178,
      "ae": 5179,
      "Ġcars": 5180,
      "Ġhusband": 5181,
      "IM": 5182,
      "Ġdeeper": 5183,
      "Ġinvent": 5184,
      "Ġmanager": 5185,
      "Ġlinks": 5186,
      "ĠIns": 5187,
      "Ġparticipants": 5188,
      "unction": 5189,
      "Ġvul": 5190,
      "ĠTwo": 5191,
      "Ġsituations": 5192,
      "ĠRoad": 5193,
      "Ġcounter": 5194,
      "Ġevol": 5195,
      "ĠAngel": 5196,
      "Ġvir": 5197,
      "Ġplaced": 5198,
      "itoring": 5199,
      "Ġlabor": 5200,
      "Ġobjects": 5201,
      "ĠBased": 5202,
      "ĠFood": 5203,
      "Ġchain": 5204,
      "Ġexpertise": 5205,
      "UT": 5206,
      "Ġensuring": 5207,
      "Ġestim": 5208,
      "Ġultimately": 5209,
      "ective": 5210,
      "Ġrom": 5211,
      "ĠBoard": 5212,
      "ugg": 5213,
      "umin": 5214,
      "Ġfunds": 5215,
      "cious": 5216,
      "Ġcro": 5217,
      "Ġweap": 5218,
      "craft": 5219,
      "Ġnarr": 5220,
      "Ġthanks": 5221,
      "Ġorganic": 5222,
      "Ġcloud": 5223,
      "Ġgeneration": 5224,
      "Ġpackage": 5225,
      "Ġmur": 5226,
      "Ġobstac": 5227,
      "Ġmessages": 5228,
      "Ġsessions": 5229,
      "ĠData": 5230,
      "ĠInstagram": 5231,
      "ĠCare": 5232,
      "Ġscientific": 5233,
      "Ġinspired": 5234,
      "ona": 5235,
      "ĠFam": 5236,
      "ĠÐ½": 5237,
      "rian": 5238,
      "Ġparticipate": 5239,
      "Ġrestaurants": 5240,
      "IV": 5241,
      "Ġcombined": 5242,
      "odies": 5243,
      "Ġperspective": 5244,
      "dd": 5245,
      "soft": 5246,
      "Ġpool": 5247,
      "Ġspl": 5248,
      "Ġtracking": 5249,
      "Ġpresented": 5250,
      "Ġsummary": 5251,
      "ĠCam": 5252,
      "ĠAnswer": 5253,
      "ĠOnline": 5254,
      "Ġstation": 5255,
      "ĠMarketing": 5256,
      "Ġflat": 5257,
      "Ġvegan": 5258,
      "Ġfabric": 5259,
      "ĠFurther": 5260,
      "ĠGeneral": 5261,
      "Ġpray": 5262,
      "Ġship": 5263,
      "cles": 5264,
      "ĠFollow": 5265,
      "ooper": 5266,
      "Ġsuccessfully": 5267,
      "Ġconversation": 5268,
      "words": 5269,
      "Ġregions": 5270,
      "Ġseeking": 5271,
      "Ġwhis": 5272,
      "ĠAfrican": 5273,
      "Ġvictim": 5274,
      "ĠSmith": 5275,
      "Ġactual": 5276,
      "ogue": 5277,
      "Ġpriorit": 5278,
      "Ġnavigate": 5279,
      "Ġcreatures": 5280,
      "ĠPhil": 5281,
      "Ġwire": 5282,
      "Ġgrant": 5283,
      "agers": 5284,
      "ava": 5285,
      "Ġamb": 5286,
      "Ġspiritual": 5287,
      "arsh": 5288,
      "ĠMount": 5289,
      "ĠStar": 5290,
      "Ġchannels": 5291,
      "ĠSol": 5292,
      "ĠCreat": 5293,
      "Ġcore": 5294,
      "Ġtough": 5295,
      "Ġ80": 5296,
      "Ġpassage": 5297,
      "ker": 5298,
      "Ġmit": 5299,
      "ilit": 5300,
      "Ġepis": 5301,
      "ĠCook": 5302,
      "Ġrare": 5303,
      "Ġconsistent": 5304,
      "Ġsettings": 5305,
      "ĠPower": 5306,
      "Ġtrail": 5307,
      "osis": 5308,
      "zen": 5309,
      "Ġapprox": 5310,
      "ĠClub": 5311,
      "CT": 5312,
      "Ġfaster": 5313,
      "Ġlaugh": 5314,
      "Ġsac": 5315,
      "Ġmagn": 5316,
      "roy": 5317,
      "Ġdinner": 5318,
      "Ġcreates": 5319,
      "Ġaren": 5320,
      "Ġlayer": 5321,
      "Ġunit": 5322,
      "ĠVol": 5323,
      "Ġconference": 5324,
      "Ġwww": 5325,
      "Ġcommitment": 5326,
      "Ġknows": 5327,
      "ĠProfess": 5328,
      "500": 5329,
      "Ġsides": 5330,
      "Ġarm": 5331,
      "Ġguys": 5332,
      "26": 5333,
      "Ġsatisfaction": 5334,
      "Ġdied": 5335,
      "Ġwhatever": 5336,
      "Ġconcent": 5337,
      "hetic": 5338,
      "ĠMal": 5339,
      "Ġarticles": 5340,
      "Ġcorner": 5341,
      "ĠInstitute": 5342,
      "Ġmonitor": 5343,
      "ĠMain": 5344,
      "ipp": 5345,
      "Ġconflict": 5346,
      "Ġdaughter": 5347,
      "Ġfriendly": 5348,
      "Ġsurvey": 5349,
      "Ġstars": 5350,
      "Ġexploring": 5351,
      "ĠLove": 5352,
      "ndom": 5353,
      "Ġimplementation": 5354,
      "ulated": 5355,
      "Ġguidance": 5356,
      "ĠFore": 5357,
      "33": 5358,
      "Ġseeds": 5359,
      "Ġaccommod": 5360,
      "ĠAbout": 5361,
      "ĠHy": 5362,
      "rive": 5363,
      "pass": 5364,
      "Ġlux": 5365,
      "ĠJew": 5366,
      "ĠBay": 5367,
      "ĠLit": 5368,
      "Ġvehicles": 5369,
      "Ġcooked": 5370,
      "Ġadds": 5371,
      "Ġcloser": 5372,
      "Ġguarant": 5373,
      "Ġdepression": 5374,
      "ĠTur": 5375,
      "Ġimplementing": 5376,
      "90": 5377,
      "Ġmuseum": 5378,
      "ĠSil": 5379,
      "night": 5380,
      "Ġcere": 5381,
      "ht": 5382,
      "Ġwedding": 5383,
      "Ġextremely": 5384,
      "Ġvulner": 5385,
      "OL": 5386,
      "Ġsoup": 5387,
      "flow": 5388,
      "otes": 5389,
      "Ġcommitted": 5390,
      "estyle": 5391,
      "Ġmut": 5392,
      "unately": 5393,
      "Ġmanufacturer": 5394,
      "amin": 5395,
      "ĠPract": 5396,
      "Ġwouldn": 5397,
      "Ġdiagn": 5398,
      "Ġwalls": 5399,
      "Ġpaint": 5400,
      "ĠCr": 5401,
      "ishes": 5402,
      "Ð·": 5403,
      "Ġsitting": 5404,
      "Ġowner": 5405,
      "can": 5406,
      "Ġgirls": 5407,
      "ĠOrgan": 5408,
      "Ġspring": 5409,
      "ĠPress": 5410,
      "Ġfreed": 5411,
      "Ġexpensive": 5412,
      "Ġcomponents": 5413,
      "Ġanalyze": 5414,
      "Ġholding": 5415,
      "Ġdescription": 5416,
      "Ġevening": 5417,
      "Ġimpacts": 5418,
      "zing": 5419,
      "Ġlived": 5420,
      "Ġresponsibility": 5421,
      "Ġpu": 5422,
      "Ġpossess": 5423,
      "Ġshad": 5424,
      "ending": 5425,
      "Ġproud": 5426,
      "Ġexchange": 5427,
      "Ġign": 5428,
      "ĠEnjoy": 5429,
      "Ġseconds": 5430,
      "roid": 5431,
      "iking": 5432,
      "Ġagency": 5433,
      "ĠBack": 5434,
      "ĠEngland": 5435,
      "Ġweak": 5436,
      "semb": 5437,
      "Ġlose": 5438,
      "ĠInf": 5439,
      "Ġshowing": 5440,
      "rad": 5441,
      "Ġhaven": 5442,
      "ĠTry": 5443,
      "ĠObama": 5444,
      "Ġrecords": 5445,
      "Ġfunctions": 5446,
      "Ġlocations": 5447,
      "Ġclearly": 5448,
      "orders": 5449,
      "ola": 5450,
      "ĠPet": 5451,
      "Ġride": 5452,
      "Ġlaun": 5453,
      "Ġtele": 5454,
      "Ġbound": 5455,
      "Ġchemical": 5456,
      "Ġteacher": 5457,
      "Ġoverw": 5458,
      "Ġhun": 5459,
      "Ġreput": 5460,
      "Ġclosed": 5461,
      "nel": 5462,
      "ĠWindows": 5463,
      "Ġflavors": 5464,
      "Ġcompetitive": 5465,
      "Ġcompar": 5466,
      "Ġlots": 5467,
      "ĠPay": 5468,
      "Ġeggs": 5469,
      "Ġguy": 5470,
      "Ġraised": 5471,
      "Ġresil": 5472,
      "erts": 5473,
      "ST": 5474,
      "Ġinnovation": 5475,
      "host": 5476,
      "Ġstanding": 5477,
      "ÐµÐ½": 5478,
      "isco": 5479,
      "Ġoperating": 5480,
      "ensity": 5481,
      "ĠJapanese": 5482,
      "Ġwealth": 5483,
      "ĠSomet": 5484,
      "Ġtut": 5485,
      "Ġorigin": 5486,
      "related": 5487,
      "cont": 5488,
      "Ġtoward": 5489,
      "Ġnutrition": 5490,
      "Ġconvey": 5491,
      "Ġraise": 5492,
      "Ġmood": 5493,
      "Ġlemon": 5494,
      "rating": 5495,
      "ĠMusic": 5496,
      "Ġinterface": 5497,
      "28": 5498,
      "ĠCap": 5499,
      "Ġenable": 5500,
      "Ġlighting": 5501,
      "uts": 5502,
      "Ġsupporting": 5503,
      "Ġburn": 5504,
      "ĠInformation": 5505,
      "Ġthousands": 5506,
      "ĠMedia": 5507,
      "Ġ196": 5508,
      "Ġdescribed": 5509,
      "Ġhidden": 5510,
      "top": 5511,
      "itar": 5512,
      "Ġcaught": 5513,
      "Ġfell": 5514,
      "ĠBoth": 5515,
      "Ġresource": 5516,
      "Ġmemories": 5517,
      "Ġincorporating": 5518,
      "ĠStr": 5519,
      "iors": 5520,
      "Ġcommand": 5521,
      "ĠPR": 5522,
      "Ġplus": 5523,
      "Ġmaximum": 5524,
      "ĠMo": 5525,
      "Ġdepartment": 5526,
      "Ġcoord": 5527,
      "otic": 5528,
      "Ġgoods": 5529,
      "ĠSing": 5530,
      "Ġreliable": 5531,
      "Ġton": 5532,
      "Ġindependent": 5533,
      "Ġresulting": 5534,
      "Ġdu": 5535,
      "Ġbrings": 5536,
      "ĠMil": 5537,
      "ĠElect": 5538,
      "Ġresearchers": 5539,
      "coh": 5540,
      "CC": 5541,
      "Ġprofile": 5542,
      "isms": 5543,
      "well": 5544,
      "ads": 5545,
      "ĠCommunity": 5546,
      "ĠOpt": 5547,
      "Ġmeals": 5548,
      "ĠLou": 5549,
      "ĠPlace": 5550,
      "ucle": 5551,
      "yth": 5552,
      "Ġhoney": 5553,
      "Ġking": 5554,
      "Ġmaintaining": 5555,
      "27": 5556,
      "mes": 5557,
      "SS": 5558,
      "spe": 5559,
      "Ġinternal": 5560,
      "Ġknowing": 5561,
      "edy": 5562,
      "ĠDevelopment": 5563,
      "dden": 5564,
      "ĠOF": 5565,
      "Ġgent": 5566,
      "UR": 5567,
      "Ġerr": 5568,
      "Ġvivid": 5569,
      "Ġtrial": 5570,
      "ords": 5571,
      "ĠEnergy": 5572,
      "Ġsusp": 5573,
      "Ġurban": 5574,
      "Ġembra": 5575,
      "Ġhabit": 5576,
      "estic": 5577,
      "Ġofficials": 5578,
      "Ġ90": 5579,
      "press": 5580,
      "Ġextensive": 5581,
      "Ġguess": 5582,
      "Ġmagic": 5583,
      "itage": 5584,
      "oles": 5585,
      "Ġforces": 5586,
      "Ġclaims": 5587,
      "Ġcin": 5588,
      "Ġteach": 5589,
      "Ġstruggle": 5590,
      "rab": 5591,
      "Ġcoach": 5592,
      "arge": 5593,
      "hab": 5594,
      "ota": 5595,
      "kin": 5596,
      "Ġrealize": 5597,
      "Ġteaspoon": 5598,
      "Ġoptimize": 5599,
      "Ġimprovement": 5600,
      "Ġbike": 5601,
      "Ġlandscape": 5602,
      "Ġextract": 5603,
      "Ġsuitable": 5604,
      "!\"": 5605,
      "ĠBrown": 5606,
      "Ġstorm": 5607,
      "Ġclothing": 5608,
      "ĠWhere": 5609,
      "asts": 5610,
      "ENT": 5611,
      "Ġenjoyed": 5612,
      "ä¸": 5613,
      "ĠMax": 5614,
      "Ġstronger": 5615,
      "Ġbot": 5616,
      "ĠEnter": 5617,
      "Ġeffectiveness": 5618,
      "Ġaccurate": 5619,
      "ĠRock": 5620,
      "Ġempt": 5621,
      "Ġinvestig": 5622,
      "Ġscale": 5623,
      "Ġinjury": 5624,
      "Ġdistribution": 5625,
      "gress": 5626,
      "orough": 5627,
      "Ġsurrounding": 5628,
      "Ġaid": 5629,
      "Ġdoctor": 5630,
      "ĠVe": 5631,
      "lo": 5632,
      "Ġoverwhel": 5633,
      "Ġexpression": 5634,
      "Ġvit": 5635,
      "Ġsudden": 5636,
      "Ġmanufacturing": 5637,
      "Ġslowly": 5638,
      "ĠBook": 5639,
      "ait": 5640,
      "Ġagreement": 5641,
      "inci": 5642,
      "onut": 5643,
      "anta": 5644,
      "Ġdifferences": 5645,
      "ĠList": 5646,
      "Ġsignificance": 5647,
      "Ġestate": 5648,
      "Ġselected": 5649,
      "ĠTre": 5650,
      "ĠBet": 5651,
      "ĠFire": 5652,
      "Ġsustainability": 5653,
      "Ġlistening": 5654,
      "lights": 5655,
      "Ġswitch": 5656,
      "ĠForm": 5657,
      "eed": 5658,
      "Ġmanaging": 5659,
      "ateful": 5660,
      "ĠDirector": 5661,
      "osen": 5662,
      "riage": 5663,
      "gn": 5664,
      "Ġgro": 5665,
      "sm": 5666,
      "Ġsem": 5667,
      "ansion": 5668,
      "Ġincredible": 5669,
      "ĠWhether": 5670,
      "].": 5671,
      "Ġpor": 5672,
      "ĠMiss": 5673,
      "Ġminute": 5674,
      "mental": 5675,
      "Ġfeat": 5676,
      "ĠBlue": 5677,
      "eries": 5678,
      "uled": 5679,
      "Ġobv": 5680,
      "date": 5681,
      "Ġholiday": 5682,
      "ensions": 5683,
      "Ġcuis": 5684,
      "uten": 5685,
      "ĠPC": 5686,
      "Ġfactor": 5687,
      "Ġconsid": 5688,
      "Ġworry": 5689,
      "ket": 5690,
      "Ġrecovery": 5691,
      "Ġentre": 5692,
      "Ġcreativity": 5693,
      "Ġdangerous": 5694,
      "lt": 5695,
      "Ġkid": 5696,
      "Ġstunning": 5697,
      "Ġrow": 5698,
      "Ġhero": 5699,
      "Ġtherefore": 5700,
      "Ġ500": 5701,
      "ĠDig": 5702,
      "Ġ2006": 5703,
      "Ġconsumer": 5704,
      "uit": 5705,
      "Ġtransact": 5706,
      "Ġconsequences": 5707,
      "writ": 5708,
      "Ġtaught": 5709,
      "Ġdocuments": 5710,
      "Ġfold": 5711,
      "ĠBank": 5712,
      "athy": 5713,
      "lor": 5714,
      "Ġpull": 5715,
      "Ġgod": 5716,
      "Ġpreviously": 5717,
      "Ġroot": 5718,
      "Ġconstantly": 5719,
      "ÑĢÐ°": 5720,
      "Ġspaces": 5721,
      "Ġcups": 5722,
      "Ġlaws": 5723,
      "Ġonion": 5724,
      "Ġtwist": 5725,
      "Ġspect": 5726,
      "ĠFlorida": 5727,
      "ĠTim": 5728,
      "ĠChic": 5729,
      "Ġbusy": 5730,
      "itz": 5731,
      "Ġbuying": 5732,
      "ĠProvide": 5733,
      "ĠDown": 5734,
      "azz": 5735,
      "Ġreturns": 5736,
      "ĠGeorge": 5737,
      "ionally": 5738,
      "Ġappears": 5739,
      "berg": 5740,
      "Ġvast": 5741,
      "Ġdescribe": 5742,
      "Ġwriter": 5743,
      "Ġbrows": 5744,
      "**": 5745,
      "vin": 5746,
      "Ġchoices": 5747,
      "bu": 5748,
      "Ġelim": 5749,
      "Ġengaged": 5750,
      "ĠJournal": 5751,
      "Ġintelligence": 5752,
      "Ġasking": 5753,
      "Ġmanner": 5754,
      "Ġhttps": 5755,
      "Ġpun": 5756,
      "Ġdie": 5757,
      "fol": 5758,
      "last": 5759,
      "Ġrule": 5760,
      "Ġtransition": 5761,
      "Ġcircum": 5762,
      "Ġimmers": 5763,
      "ĠCommission": 5764,
      "Ġisol": 5765,
      "ĠExpl": 5766,
      "Ġcarefully": 5767,
      "ĠTit": 5768,
      "Ġapplied": 5769,
      "Ġdecide": 5770,
      "Ġ35": 5771,
      "alian": 5772,
      "outhern": 5773,
      "ĠLook": 5774,
      "ishing": 5775,
      "Ġcapture": 5776,
      "Ġhonest": 5777,
      "Ġschol": 5778,
      "ĠIng": 5779,
      "equ": 5780,
      "iate": 5781,
      "Ġ31": 5782,
      "Ġswim": 5783,
      "Ġmort": 5784,
      "Ġselling": 5785,
      "Ġfrag": 5786,
      "Ġwalked": 5787,
      "Ġvent": 5788,
      "Ġconducted": 5789,
      "oosing": 5790,
      "osh": 5791,
      "Ġgratitude": 5792,
      "He": 5793,
      "Ġappearance": 5794,
      "Ġfootball": 5795,
      "ĠAdv": 5796,
      "Ġmonitoring": 5797,
      "Ġdiscussion": 5798,
      "Ġfulf": 5799,
      "Ġeth": 5800,
      "Ġconfig": 5801,
      "Ġadults": 5802,
      "ifts": 5803,
      "ĠScott": 5804,
      "rical": 5805,
      "Ġexcess": 5806,
      "ĠShow": 5807,
      "resp": 5808,
      "Ġ70": 5809,
      "Ġheight": 5810,
      "Ġtransl": 5811,
      "Ġaudio": 5812,
      "Ġunivers": 5813,
      "Ġhumans": 5814,
      "Ġrandom": 5815,
      "Ġhousing": 5816,
      "prene": 5817,
      "Â®": 5818,
      "29": 5819,
      "Ġwelcome": 5820,
      "Ġoperation": 5821,
      "Ġvibr": 5822,
      "Ġexpectations": 5823,
      "Ġdesk": 5824,
      "Ġfacing": 5825,
      "Ġstrange": 5826,
      "Ġreturned": 5827,
      "Ġdesire": 5828,
      "ums": 5829,
      "ognitive": 5830,
      "Ð¾Ð²": 5831,
      "Ġphil": 5832,
      "Ġocean": 5833,
      "Ġmixed": 5834,
      "Ġsenior": 5835,
      "icial": 5836,
      "ĠAR": 5837,
      "rates": 5838,
      "Ġaccounts": 5839,
      "ĠBill": 5840,
      "azine": 5841,
      "Ġinfluenced": 5842,
      "Ġicon": 5843,
      "Ġskill": 5844,
      "ĠWal": 5845,
      "Ġperformed": 5846,
      "hand": 5847,
      "Ġspons": 5848,
      "Ġotherwise": 5849,
      "Ġproviders": 5850,
      "Ġthrow": 5851,
      "Ġlegis": 5852,
      "Ġder": 5853,
      "Ġjoint": 5854,
      "Ġforced": 5855,
      "Ġcrim": 5856,
      "Ġrapid": 5857,
      "Ġhappens": 5858,
      "Ġbreakfast": 5859,
      "onom": 5860,
      "Ġmissing": 5861,
      "Ġintroduced": 5862,
      "Ġrot": 5863,
      "Ġmovies": 5864,
      "ĠMuseum": 5865,
      "ĠCall": 5866,
      "ĠOl": 5867,
      "ĠWood": 5868,
      "ĠReal": 5869,
      "aren": 5870,
      "Ġsuit": 5871,
      "Ġfamiliar": 5872,
      "Ġhearing": 5873,
      "ĠUSA": 5874,
      "Ġcoverage": 5875,
      "Ġgall": 5876,
      "MS": 5877,
      "Ġtun": 5878,
      "Ġstretch": 5879,
      "Ġenab": 5880,
      "ita": 5881,
      "ĠLos": 5882,
      "Ġspin": 5883,
      "Ġaccident": 5884,
      "Ġsimpl": 5885,
      "kay": 5886,
      "Ġcart": 5887,
      "ĠHam": 5888,
      "Ġliqu": 5889,
      "Ġplot": 5890,
      "ĠLake": 5891,
      "Ġshowcase": 5892,
      "Ġsquare": 5893,
      "ĠLead": 5894,
      "opy": 5895,
      "ĠGrand": 5896,
      "Ġdough": 5897,
      "ĠTechnology": 5898,
      "vention": 5899,
      "Ġended": 5900,
      "cho": 5901,
      "ĠCarol": 5902,
      "ĠRef": 5903,
      "bits": 5904,
      "Ġminimum": 5905,
      "Ġmouth": 5906,
      "Ġsmell": 5907,
      "ship": 5908,
      "ĠCongress": 5909,
      "Ġchart": 5910,
      "dy": 5911,
      "Ġnearby": 5912,
      "ĠArch": 5913,
      "Ġputting": 5914,
      "Ġadventure": 5915,
      "Ġmotor": 5916,
      "Ġspeaking": 5917,
      "ĠFranc": 5918,
      "Ġadvoc": 5919,
      "Ġsteel": 5920,
      "Ġengineering": 5921,
      "ighter": 5922,
      "ĠLat": 5923,
      "Ġconsumption": 5924,
      "Ġcake": 5925,
      "ocation": 5926,
      "Ġimpressive": 5927,
      "ĠFrance": 5928,
      "ras": 5929,
      "Ġfilter": 5930,
      "Ġsigns": 5931,
      "Ġvolume": 5932,
      "oom": 5933,
      "ĠCentral": 5934,
      "Ġemergency": 5935,
      "Ġthus": 5936,
      "lets": 5937,
      "Ġusage": 5938,
      "Ġalive": 5939,
      "Ġproposed": 5940,
      "rs": 5941,
      "person": 5942,
      "Ġincent": 5943,
      "Ġast": 5944,
      "Ġdisp": 5945,
      "under": 5946,
      "Ġsurg": 5947,
      "Ġradio": 5948,
      "alse": 5949,
      "ĠGreek": 5950,
      "Ġchair": 5951,
      "Ġgrateful": 5952,
      "ĠLu": 5953,
      "Ġconstruct": 5954,
      "Ġmajority": 5955,
      "Ġrepair": 5956,
      "ographic": 5957,
      "gl": 5958,
      "oster": 5959,
      "Ġcalm": 5960,
      "Ġneighborhood": 5961,
      "emic": 5962,
      "ĠVir": 5963,
      "Ġdiseases": 5964,
      "Ġdriver": 5965,
      "Ġmoist": 5966,
      "ĠMad": 5967,
      "ĠSupport": 5968,
      "Ġbelong": 5969,
      "Ġremaining": 5970,
      "ĠFoundation": 5971,
      "Ġfreedom": 5972,
      "ocking": 5973,
      "Ġpure": 5974,
      "ĠUnion": 5975,
      "ĠTherefore": 5976,
      "ĠMa": 5977,
      "merce": 5978,
      "Ġsuggests": 5979,
      "Ġads": 5980,
      "mail": 5981,
      "Ġmusical": 5982,
      "Ġmail": 5983,
      "ĠQue": 5984,
      "ython": 5985,
      "Ġcoast": 5986,
      "Ġturns": 5987,
      "ady": 5988,
      "Ġarrange": 5989,
      "Ġspeech": 5990,
      "Ġrooms": 5991,
      "Ġvisually": 5992,
      "ĠWestern": 5993,
      "Ġmassive": 5994,
      "Ġpricing": 5995,
      "ĠCommit": 5996,
      "Ġongoing": 5997,
      "orter": 5998,
      "IA": 5999,
      "Ġathlet": 6000,
      "ĠBur": 6001,
      "rip": 6002,
      "Ġdebt": 6003,
      "ĠEmm": 6004,
      "Ġcultures": 6005,
      "Ġstruggling": 6006,
      "ĠNote": 6007,
      "Ġcauses": 6008,
      "Ġbon": 6009,
      "ev": 6010,
      "ĠDisc": 6011,
      "yer": 6012,
      "ĠMicrosoft": 6013,
      "Ġwitness": 6014,
      "ĠStand": 6015,
      "Ġfra": 6016,
      "ĠMix": 6017,
      "aciÃ³n": 6018,
      "poses": 6019,
      "ĠInvest": 6020,
      "mark": 6021,
      "Ġentry": 6022,
      "RA": 6023,
      "Ġyoga": 6024,
      "ĠFrank": 6025,
      "Ġsizes": 6026,
      "ĠRobert": 6027,
      "ĠDemocr": 6028,
      "Ġfilling": 6029,
      "CA": 6030,
      "Ġcontemporary": 6031,
      "ya": 6032,
      "ki": 6033,
      "ĠDiv": 6034,
      "Ġlabel": 6035,
      "Ġanalytics": 6036,
      "Ġease": 6037,
      "ĠMot": 6038,
      "Ġends": 6039,
      "Ġrid": 6040,
      "Ġshift": 6041,
      "Ġbeans": 6042,
      "rier": 6043,
      "ĠChicago": 6044,
      "OW": 6045,
      "Ġenem": 6046,
      "ĠProt": 6047,
      "eal": 6048,
      "Ġvote": 6049,
      "how": 6050,
      "PA": 6051,
      "Ġinformed": 6052,
      "Ġourselves": 6053,
      "Ġbringing": 6054,
      "Ġpump": 6055,
      "Ġunex": 6056,
      "Ġfav": 6057,
      "Ġattacks": 6058,
      "Ġtight": 6059,
      "while": 6060,
      "Ñħ": 6061,
      "Ġbeef": 6062,
      "Ġnoticed": 6063,
      "Ð¿": 6064,
      "Ġwinning": 6065,
      "idth": 6066,
      "ĠJul": 6067,
      "Ġdefense": 6068,
      "inch": 6069,
      "ĠColor": 6070,
      "levision": 6071,
      "but": 6072,
      "Ġpresentation": 6073,
      "Ġdistinct": 6074,
      "65": 6075,
      "Ġlifestyle": 6076,
      "Ġarms": 6077,
      "ste": 6078,
      "yan": 6079,
      "Ġincreasingly": 6080,
      "Ġserves": 6081,
      "Ġdut": 6082,
      "Ġfollows": 6083,
      "obe": 6084,
      "Ġlights": 6085,
      "Ġloan": 6086,
      "ipl": 6087,
      "Ġsport": 6088,
      "Ġshut": 6089,
      "Ġunf": 6090,
      "Ġfestival": 6091,
      "Ġrub": 6092,
      "))": 6093,
      "Ġcrisis": 6094,
      "agues": 6095,
      "hus": 6096,
      "Ġneck": 6097,
      "Ġsight": 6098,
      "ystem": 6099,
      "Ġshipping": 6100,
      "ĠConst": 6101,
      "Ġcausing": 6102,
      "Ġcitizens": 6103,
      "Ġresolution": 6104,
      "ĠRev": 6105,
      "CH": 6106,
      "ĠUN": 6107,
      "Ġcolumn": 6108,
      "Ġinspiration": 6109,
      "Ġrecognition": 6110,
      "Ġfle": 6111,
      "amples": 6112,
      "BA": 6113,
      "Ġtomatoes": 6114,
      "Ġfailure": 6115,
      "Ġinstallation": 6116,
      "Ġbegins": 6117,
      "Ġcuisine": 6118,
      "ĠJim": 6119,
      "Ġfees": 6120,
      "Ġherbs": 6121,
      "Ġjew": 6122,
      "Ã±": 6123,
      "Ġcovers": 6124,
      "Ġfrequently": 6125,
      "inciples": 6126,
      "ĠNext": 6127,
      "ĠMont": 6128,
      "Ġopinion": 6129,
      "ĠTeam": 6130,
      "Ġapproximately": 6131,
      "hors": 6132,
      "Ġeco": 6133,
      "Ġprinc": 6134,
      "Ġbattery": 6135,
      "Ġescape": 6136,
      "Ġgentle": 6137,
      "ãĢ": 6138,
      "ĠSecond": 6139,
      "Ġresol": 6140,
      "Ġlaunched": 6141,
      "met": 6142,
      "ĠÐ¾": 6143,
      "Ġ2005": 6144,
      "Ġinstitutions": 6145,
      "ĠHey": 6146,
      "ĠCut": 6147,
      "ĠLong": 6148,
      "ĠAcadem": 6149,
      "ĠSoph": 6150,
      "sole": 6151,
      "Ġfurniture": 6152,
      "achel": 6153,
      "Ġrepresents": 6154,
      "Ġindex": 6155,
      "Ġfarmers": 6156,
      "Ġgrown": 6157,
      "Ġarrived": 6158,
      "Ġempty": 6159,
      "Ġsupported": 6160,
      "Ġpurposes": 6161,
      "ĠSa": 6162,
      "Ġlisted": 6163,
      "Ġequal": 6164,
      "ĠGerman": 6165,
      "Ġstruggles": 6166,
      "Ġmountain": 6167,
      "Ġuniversity": 6168,
      "ĠEngine": 6169,
      "ossible": 6170,
      "Ġdreams": 6171,
      "dem": 6172,
      "Ġforever": 6173,
      "Ġalt": 6174,
      "Ġtheory": 6175,
      "Ġposted": 6176,
      "ria": 6177,
      "Ġliterature": 6178,
      "Ġframe": 6179,
      "ĠSpecial": 6180,
      "Ġlock": 6181,
      "Ġjustice": 6182,
      "Ġcycle": 6183,
      "ĠBat": 6184,
      "Ġconstant": 6185,
      "Ġabsolutely": 6186,
      "ĠSaf": 6187,
      "Ġintense": 6188,
      "ora": 6189,
      "ĠLight": 6190,
      "pret": 6191,
      "umes": 6192,
      "rm": 6193,
      "Ġalgorithm": 6194,
      "agonist": 6195,
      "Ġstake": 6196,
      "Ġelectricity": 6197,
      "hone": 6198,
      "ican": 6199,
      "44": 6200,
      "Ġven": 6201,
      "Ġexpenses": 6202,
      "Ġworldwide": 6203,
      "Ġ45": 6204,
      "cohol": 6205,
      "ĠTrump": 6206,
      "Ġvine": 6207,
      "âĢĿ,": 6208,
      "Ġreduction": 6209,
      "DA": 6210,
      "Ġmovements": 6211,
      "Pro": 6212,
      "ĠItalian": 6213,
      "ruit": 6214,
      "Ġthorough": 6215,
      "Ġsample": 6216,
      "ĠLeg": 6217,
      "win": 6218,
      "Ġbroken": 6219,
      "Ġillness": 6220,
      "Ġrecyc": 6221,
      "TS": 6222,
      "ĠAnaly": 6223,
      "Ġsyn": 6224,
      "Ġfly": 6225,
      "ario": 6226,
      "Ġupcoming": 6227,
      "making": 6228,
      "Ġorganized": 6229,
      "ĠHead": 6230,
      "Ġcapable": 6231,
      "pes": 6232,
      "rations": 6233,
      "ĠGermany": 6234,
      "ĠFort": 6235,
      "Ġclar": 6236,
      "BS": 6237,
      "Ġroles": 6238,
      "Ġdura": 6239,
      "ĠProm": 6240,
      "Ġriver": 6241,
      "oma": 6242,
      "orthern": 6243,
      "Ġelectronic": 6244,
      "Ġcutting": 6245,
      "istan": 6246,
      "Ġcrisp": 6247,
      "ĠKore": 6248,
      "Ġdiss": 6249,
      "Ġtests": 6250,
      "Ġvegetable": 6251,
      "izza": 6252,
      "Ġresistance": 6253,
      "ĠSecurity": 6254,
      "Ġpanel": 6255,
      "esome": 6256,
      "ulpt": 6257,
      "Ġsexual": 6258,
      "ĠAmericans": 6259,
      "orable": 6260,
      "ĠPeter": 6261,
      "ĠGovernment": 6262,
      "Ġstructures": 6263,
      "Ġterror": 6264,
      "ĠMel": 6265,
      "pet": 6266,
      "Ġyouth": 6267,
      "Ġlunch": 6268,
      "Ġsliced": 6269,
      "ĠAud": 6270,
      "Ġnoise": 6271,
      "Ġsevere": 6272,
      "Ġcommonly": 6273,
      "Ġinn": 6274,
      "Ġfacilit": 6275,
      "Ġcalling": 6276,
      "ĠJohnson": 6277,
      "ĠLeague": 6278,
      "Ġtells": 6279,
      "ograp": 6280,
      "Ġvital": 6281,
      "Ġobstacles": 6282,
      "Ġinstruction": 6283,
      "ĠIngredients": 6284,
      "holders": 6285,
      "Ġflight": 6286,
      "ala": 6287,
      "ĠBeach": 6288,
      "ĠWall": 6289,
      "Ġexposure": 6290,
      "fortunately": 6291,
      "Ġunits": 6292,
      "ĠMass": 6293,
      "Ġ2000": 6294,
      "Ġbirds": 6295,
      "ĠColl": 6296,
      "weight": 6297,
      "Ġappeared": 6298,
      "abet": 6299,
      "cknow": 6300,
      "Ġtrend": 6301,
      "ĠHill": 6302,
      "Ġconnections": 6303,
      "Ġcrew": 6304,
      "55": 6305,
      "Ġidentified": 6306,
      "Ġtact": 6307,
      "okes": 6308,
      "Ġnegot": 6309,
      "gu": 6310,
      "Ġbold": 6311,
      "Ġdeploy": 6312,
      "ĠOld": 6313,
      "Ġreward": 6314,
      "ache": 6315,
      "Ġdefe": 6316,
      "Ġfascinating": 6317,
      "isher": 6318,
      "aze": 6319,
      "ĠThomas": 6320,
      "ĠPan": 6321,
      "Ġupgra": 6322,
      "Ġfilms": 6323,
      "ĠFest": 6324,
      "ias": 6325,
      "Ġappealing": 6326,
      "net": 6327,
      "ĠDid": 6328,
      "Ġwidely": 6329,
      "Ġcrime": 6330,
      "Ġstreets": 6331,
      "Ġlessons": 6332,
      "Cl": 6333,
      "lessly": 6334,
      "Ġclimb": 6335,
      "Ġpotatoes": 6336,
      "Ġarts": 6337,
      "Ġprovider": 6338,
      "Ġencount": 6339,
      "ta": 6340,
      "Ġsheet": 6341,
      "Ġerrors": 6342,
      "Ġseat": 6343,
      "Ġfeaturing": 6344,
      "Ġsupports": 6345,
      "iner": 6346,
      "Ġnutri": 6347,
      "Ġpassword": 6348,
      "Ġphr": 6349,
      "Ġintended": 6350,
      "What": 6351,
      "Ġmuscle": 6352,
      "Ġadm": 6353,
      "Ð¹": 6354,
      "Ġcircumst": 6355,
      "Ġmotion": 6356,
      "iability": 6357,
      "Ġnetworks": 6358,
      "Ġtall": 6359,
      "ĠEns": 6360,
      "Ġdistrict": 6361,
      "ĠID": 6362,
      "Ġrhy": 6363,
      "Ġhousehold": 6364,
      "ĠCD": 6365,
      "ĠExt": 6366,
      "Ġuniverse": 6367,
      "Ġfo": 6368,
      "Ġfruits": 6369,
      "Ġinsight": 6370,
      "Ġcurious": 6371,
      "Ġfacility": 6372,
      "eah": 6373,
      "ĠGard": 6374,
      "Ġcritic": 6375,
      "Ġspices": 6376,
      "Ġkick": 6377,
      "Ġwhom": 6378,
      "ĠWrit": 6379,
      "Ġmostly": 6380,
      "Ġfemale": 6381,
      "Ġmig": 6382,
      "ĠAPI": 6383,
      "Ġchosen": 6384,
      "ĠMike": 6385,
      "ivered": 6386,
      "Ġfee": 6387,
      "ĠLim": 6388,
      "Ġtrig": 6389,
      "ĠÐº": 6390,
      "('": 6391,
      "Ġinvestigation": 6392,
      "ĠFil": 6393,
      "ĠContact": 6394,
      "Ġsharp": 6395,
      "Ġkilled": 6396,
      "ĠDistrict": 6397,
      "Ġworkout": 6398,
      "Ġbell": 6399,
      "anges": 6400,
      "Ġrelief": 6401,
      "Com": 6402,
      "Ġalmond": 6403,
      "cher": 6404,
      "95": 6405,
      "Ġfantastic": 6406,
      "Ġcognitive": 6407,
      "Ġgreatest": 6408,
      "Ġmale": 6409,
      "Ġpoly": 6410,
      "Ġframew": 6411,
      "Ġmode": 6412,
      "Ġavailability": 6413,
      "erate": 6414,
      "rome": 6415,
      "Ġjoined": 6416,
      "Ġsigned": 6417,
      "Ġiron": 6418,
      "ĠWil": 6419,
      "ether": 6420,
      "Ġprogramming": 6421,
      "gypt": 6422,
      "Ġpand": 6423,
      "Ġarrest": 6424,
      "Ġsuc": 6425,
      "ĠRad": 6426,
      "asters": 6427,
      "imal": 6428,
      "Ġaccomplish": 6429,
      "ĠCEO": 6430,
      "Ġnucle": 6431,
      "Ġprotagonist": 6432,
      "Ġfailed": 6433,
      "ĠTor": 6434,
      "ĠAtl": 6435,
      "Ġadministration": 6436,
      "Ġvs": 6437,
      "ĠView": 6438,
      "ĠIndust": 6439,
      "Ġdoubt": 6440,
      "raid": 6441,
      "ĠReport": 6442,
      "Ġentertainment": 6443,
      "ĠSociety": 6444,
      "Ġfocusing": 6445,
      "orney": 6446,
      "Ġclothes": 6447,
      "ĠSand": 6448,
      "Ġcomplement": 6449,
      "Ġroof": 6450,
      "ĠCommittee": 6451,
      "Ġtender": 6452,
      "Ġcorporate": 6453,
      "Ġminor": 6454,
      "Ġtransp": 6455,
      "Ġsouth": 6456,
      "Ġsad": 6457,
      "ĠTour": 6458,
      "ĠMind": 6459,
      "Ġtension": 6460,
      "ĠParis": 6461,
      "Ġreference": 6462,
      "icians": 6463,
      "Ġsurvive": 6464,
      "Ġrevolution": 6465,
      "Ġintric": 6466,
      "Ġacid": 6467,
      "Ġindustrial": 6468,
      "igen": 6469,
      "ĠBas": 6470,
      "ĠPot": 6471,
      "no": 6472,
      "Ġturning": 6473,
      "Ġconsidering": 6474,
      "Ġteen": 6475,
      "Ġhandling": 6476,
      "Ġorders": 6477,
      "Ġprinciples": 6478,
      "ĠLand": 6479,
      "Ġrein": 6480,
      "ano": 6481,
      "Ġdynamic": 6482,
      "ĠThose": 6483,
      "never": 6484,
      "bing": 6485,
      "Ġrough": 6486,
      "ulty": 6487,
      "Ġcoconut": 6488,
      "rance": 6489,
      "Ġresident": 6490,
      "ĠPersonal": 6491,
      "found": 6492,
      "ml": 6493,
      "berry": 6494,
      "Ġstone": 6495,
      "Ġviolence": 6496,
      "Ġbreathing": 6497,
      "Ġrestrict": 6498,
      "roduction": 6499,
      "Ġcombine": 6500,
      "Ġnuts": 6501,
      "Ġtargeted": 6502,
      "Ġglad": 6503,
      "Ġcorn": 6504,
      "Ġrecognize": 6505,
      "36": 6506,
      "Ġunexpected": 6507,
      "ðŁ": 6508,
      "Ġblow": 6509,
      "ternoon": 6510,
      "Ġmal": 6511,
      "angers": 6512,
      "Ġentreprene": 6513,
      "bal": 6514,
      "ĠBer": 6515,
      "Ġtraditions": 6516,
      "Ġgenerated": 6517,
      "Ġmeetings": 6518,
      "ĠTimes": 6519,
      "ĠWord": 6520,
      "Ġbeliefs": 6521,
      "ĠJoe": 6522,
      "ĠValley": 6523,
      "ĠSign": 6524,
      "Ġperfectly": 6525,
      "Ġfort": 6526,
      "Ġagencies": 6527,
      "Ġbird": 6528,
      "Ġrose": 6529,
      "ĠCost": 6530,
      "osoph": 6531,
      "Ġnarrative": 6532,
      "ĠConnect": 6533,
      "ĠCard": 6534,
      "Ġrecognized": 6535,
      "ĠChapter": 6536,
      "32": 6537,
      "Ġvisiting": 6538,
      "Ġloyalty": 6539,
      "Ġsupplies": 6540,
      "Ġsubmit": 6541,
      "ĠMer": 6542,
      "Ġinvestors": 6543,
      "Ġdestination": 6544,
      "Ġpartnership": 6545,
      "\")": 6546,
      "Ġinner": 6547,
      "ĠFamily": 6548,
      "ĠAS": 6549,
      "Ġfighting": 6550,
      "ĠWomen": 6551,
      "backs": 6552,
      "Ġdepart": 6553,
      "Ġmyst": 6554,
      "Ġoccup": 6555,
      "Ġexplan": 6556,
      "world": 6557,
      "ĠVide": 6558,
      "rum": 6559,
      "Ġsolve": 6560,
      "Ġdrugs": 6561,
      "Ġhur": 6562,
      "Ġbreaks": 6563,
      "hered": 6564,
      "ĠAsia": 6565,
      "Ġcapabilities": 6566,
      "Ġflood": 6567,
      "Ġprison": 6568,
      "ĠEgypt": 6569,
      "ĠIll": 6570,
      "Ġfeatured": 6571,
      "Ġdefend": 6572,
      "OP": 6573,
      "48": 6574,
      "Ġaside": 6575,
      "Ġcasino": 6576,
      "Ġrelatively": 6577,
      "ĠOnly": 6578,
      "Ġpersonality": 6579,
      "Ġstatistics": 6580,
      "ĠAND": 6581,
      "Ġbought": 6582,
      "ownt": 6583,
      "iche": 6584,
      "Ġnorth": 6585,
      "Ġfourth": 6586,
      "Ġstim": 6587,
      "Ġshoes": 6588,
      "Ġchoosing": 6589,
      "ella": 6590,
      "Ġnor": 6591,
      "Ġautomatically": 6592,
      "Ġvillage": 6593,
      "Ġmedicine": 6594,
      "Ġtempl": 6595,
      "Ġsan": 6596,
      "oned": 6597,
      "ĠPo": 6598,
      "Ġcontainer": 6599,
      "Ġmotivated": 6600,
      "ĠSpan": 6601,
      "Ġfrust": 6602,
      "ĠRE": 6603,
      "Ġgolden": 6604,
      "Ġbes": 6605,
      "Ġchannel": 6606,
      "Ġvend": 6607,
      "Ġsurf": 6608,
      "rix": 6609,
      "Ġplate": 6610,
      "Ġdevelopers": 6611,
      "isation": 6612,
      "Ġexclusive": 6613,
      "Ġmachines": 6614,
      "Ġaims": 6615,
      "Ġsculpt": 6616,
      "Ġcrowd": 6617,
      "Ġsor": 6618,
      "ĠJud": 6619,
      "Ġrural": 6620,
      "Ġdecades": 6621,
      "Ġfigures": 6622,
      "ÐµÑĤ": 6623,
      "38": 6624,
      "Ġcomponent": 6625,
      "Ġcategory": 6626,
      "Ġwaves": 6627,
      "ĠFurthermore": 6628,
      "Ġacknow": 6629,
      "Ġcher": 6630,
      "ÃŃa": 6631,
      "ĠInstructions": 6632,
      "cific": 6633,
      "Ġflexible": 6634,
      "Ġafraid": 6635,
      "rey": 6636,
      "Ġdess": 6637,
      "ĠSqu": 6638,
      "Ġanywhere": 6639,
      "Ġveter": 6640,
      "inn": 6641,
      "Ġguard": 6642,
      "ĠHand": 6643,
      "________________": 6644,
      "Ġyellow": 6645,
      "çļ": 6646,
      "Ġox": 6647,
      "ĠEnc": 6648,
      "igan": 6649,
      "Ġdogs": 6650,
      "bles": 6651,
      "ĠGiven": 6652,
      "Ġdrag": 6653,
      "Ġwearing": 6654,
      "kes": 6655,
      "Ġloop": 6656,
      "ĠEmma": 6657,
      "Ġemployment": 6658,
      "Ġinstalled": 6659,
      "Ġenthus": 6660,
      "ĠVict": 6661,
      "text": 6662,
      "Ġentirely": 6663,
      "ĠKey": 6664,
      "ĠParty": 6665,
      "Ġargument": 6666,
      "Ġintegration": 6667,
      "Ġhappening": 6668,
      "Ġnerv": 6669,
      "Ġexternal": 6670,
      "rid": 6671,
      "poon": 6672,
      "çļĦ": 6673,
      "ĠRest": 6674,
      "Ġhighlights": 6675,
      "lete": 6676,
      "Ġgrab": 6677,
      "Ġunable": 6678,
      "ĠAccess": 6679,
      "Ġsuggested": 6680,
      "Ġreputation": 6681,
      "Ġdelivered": 6682,
      "Ġabsor": 6683,
      "ĠIslam": 6684,
      "ĠCat": 6685,
      "Ġmetrics": 6686,
      "han": 6687,
      "Ġguidelines": 6688,
      "Ġdemonstrate": 6689,
      "Ġmarried": 6690,
      "Ġdescriptions": 6691,
      "ashed": 6692,
      "Ġkne": 6693,
      "ĠEnd": 6694,
      "Ġpaying": 6695,
      "ĠMiddle": 6696,
      "ĠDou": 6697,
      "emade": 6698,
      "Ġappeal": 6699,
      "rete": 6700,
      "ĠHaw": 6701,
      "34": 6702,
      "Ġclosely": 6703,
      "Ġsister": 6704,
      "Ġachieved": 6705,
      "Ġsurprise": 6706,
      "Ġupl": 6707,
      "Ġcarried": 6708,
      "Ġscientists": 6709,
      "Ġinfect": 6710,
      "arrant": 6711,
      "ĠEconom": 6712,
      "Ġannounce": 6713,
      "ĠVirgin": 6714,
      "iat": 6715,
      "ĠBob": 6716,
      "rd": 6717,
      "Ġguest": 6718,
      "Ġimagine": 6719,
      "Ġ2004": 6720,
      "kins": 6721,
      "Ġdestroy": 6722,
      "Ġachieving": 6723,
      "ĠBal": 6724,
      "Ġbasket": 6725,
      "Ġpoetry": 6726,
      "ĠContin": 6727,
      "Ġpursu": 6728,
      "Ġwindows": 6729,
      "Ġconver": 6730,
      "Ġelection": 6731,
      "Ġstood": 6732,
      "Ġentered": 6733,
      "ĠFund": 6734,
      "Ġfollowers": 6735,
      "Ġcounsel": 6736,
      "Ġstopped": 6737,
      "adian": 6738,
      "Ġtelevision": 6739,
      "ĠNor": 6740,
      "ĠGen": 6741,
      "ĠRoman": 6742,
      "zzle": 6743,
      "ounter": 6744,
      "ificial": 6745,
      "uracy": 6746,
      "arrow": 6747,
      "gend": 6748,
      "ĠMedical": 6749,
      "Ġremoved": 6750,
      "ĠTem": 6751,
      "Ġsucceed": 6752,
      "ĠNav": 6753,
      "Ġmarriage": 6754,
      "real": 6755,
      "Ġpassing": 6756,
      "ĠMexico": 6757,
      "Ġclinical": 6758,
      "Ġresilience": 6759,
      "Ġafternoon": 6760,
      "Ġguitar": 6761,
      "Ġstands": 6762,
      "Ġsavings": 6763,
      "ĠIP": 6764,
      "what": 6765,
      "If": 6766,
      "edia": 6767,
      "Ġpodcast": 6768,
      "osit": 6769,
      "Ġcharges": 6770,
      "Ġrevealed": 6771,
      "ĠBi": 6772,
      "Ġring": 6773,
      "ĠDigital": 6774,
      "ĠAL": 6775,
      "anged": 6776,
      "Ġimpossible": 6777,
      "Ġformed": 6778,
      "Ġda": 6779,
      "ĠStudents": 6780,
      "Ġshares": 6781,
      "37": 6782,
      "Ġletters": 6783,
      "âĢ²": 6784,
      "Ġtag": 6785,
      "active": 6786,
      "Ġintegrated": 6787,
      "verty": 6788,
      "ĠDen": 6789,
      "VID": 6790,
      "Ġconcepts": 6791,
      "Ġscr": 6792,
      "Ġid": 6793,
      "ĠImpro": 6794,
      "Ġcookies": 6795,
      "Ġdeals": 6796,
      "Ġunless": 6797,
      "Ġhes": 6798,
      "Ġpackaging": 6799,
      "Ġwriters": 6800,
      "Ġcontributed": 6801,
      "with": 6802,
      "Ġpasta": 6803,
      "Ġprocedures": 6804,
      "eration": 6805,
      "ogether": 6806,
      "Ġfaces": 6807,
      "ĠLouis": 6808,
      "Ġeditor": 6809,
      "Ġpoverty": 6810,
      "Ġepisode": 6811,
      "ĠPass": 6812,
      "Ġpossibly": 6813,
      "Ġlosing": 6814,
      "DF": 6815,
      "berries": 6816,
      "Ġpurs": 6817,
      "Ġexecutive": 6818,
      "Ġsin": 6819,
      "Ġ%": 6820,
      "Ġvictory": 6821,
      "Ġhabits": 6822,
      "iest": 6823,
      "Ġeveryday": 6824,
      "Ġtsp": 6825,
      "Ġcircumstances": 6826,
      "oul": 6827,
      "Ġbeer": 6828,
      "Ġtelling": 6829,
      "Ġextended": 6830,
      "ĠGame": 6831,
      "Ġliquid": 6832,
      "Ġrely": 6833,
      "Ġstated": 6834,
      "Ġobl": 6835,
      "Ġenvironments": 6836,
      "Ġagreed": 6837,
      "Ġnoted": 6838,
      "ila": 6839,
      "Ã¡s": 6840,
      "car": 6841,
      "onial": 6842,
      "Ġprepar": 6843,
      "ĠLily": 6844,
      "profit": 6845,
      "ĠEnsure": 6846,
      "ĠAward": 6847,
      "Ġsearching": 6848,
      "ĠDi": 6849,
      "Ġmagical": 6850,
      "Ġshapes": 6851,
      "Ð±": 6852,
      "ĠSn": 6853,
      "Ġ2021": 6854,
      "ĠMoreover": 6855,
      "Ġfindings": 6856,
      "Ġtro": 6857,
      "izz": 6858,
      "ĠWhich": 6859,
      "Ġdates": 6860,
      "Ġprofit": 6861,
      "ĠWeek": 6862,
      "Ġalcohol": 6863,
      "Ġtrained": 6864,
      "Ġobjectives": 6865,
      "ĠHuman": 6866,
      "à¤": 6867,
      "Ġincreases": 6868,
      "Ġconvenient": 6869,
      "Ġlinked": 6870,
      "Ġnom": 6871,
      "Ġlegs": 6872,
      "respond": 6873,
      "Ġfif": 6874,
      "Ġremained": 6875,
      "ĠJane": 6876,
      "Ġtablespoon": 6877,
      "Ġenables": 6878,
      "Ġplanned": 6879,
      "Ġdistract": 6880,
      "prise": 6881,
      "Ġprioritize": 6882,
      "lymp": 6883,
      "Ġscholars": 6884,
      "Ġneighb": 6885,
      "ĠOffic": 6886,
      "Ġvibrant": 6887,
      "Ġcolleagues": 6888,
      "Sh": 6889,
      "Ġnine": 6890,
      "Ġinteractions": 6891,
      "Ġcompare": 6892,
      "Ġunlike": 6893,
      "lamm": 6894,
      "Ġsmile": 6895,
      "IR": 6896,
      "ĠMcC": 6897,
      "anda": 6898,
      "ĠSometimes": 6899,
      "ĠPub": 6900,
      "Ġheavily": 6901,
      "ĠLink": 6902,
      "Ġphotograph": 6903,
      "tr": 6904,
      "ĠIdent": 6905,
      "Ġfoundation": 6906,
      "Ġdegrees": 6907,
      "ĠChris": 6908,
      "Ġped": 6909,
      "ĠCup": 6910,
      "ĠÐ¼": 6911,
      "burg": 6912,
      "Ġcelebrate": 6913,
      "appy": 6914,
      "Ġroute": 6915,
      "ĠHistory": 6916,
      "Ġsummar": 6917,
      "Ġdraft": 6918,
      "Ġinterpret": 6919,
      "Ġluxury": 6920,
      "osing": 6921,
      "ĠVer": 6922,
      "ĠNov": 6923,
      "Ġregional": 6924,
      "ua": 6925,
      "Ġauthority": 6926,
      "ĠJose": 6927,
      "Ġprivacy": 6928,
      "Ġwatched": 6929,
      "Ġcareful": 6930,
      "Ġdeeply": 6931,
      "Ġalgorithms": 6932,
      "Ġbags": 6933,
      "Ġchronic": 6934,
      "Ġchest": 6935,
      "ĠWatch": 6936,
      "encers": 6937,
      "road": 6938,
      "Ġgear": 6939,
      "Ġbodies": 6940,
      "Ġplug": 6941,
      "ĠOper": 6942,
      "Ġsour": 6943,
      "Ġstaying": 6944,
      "Ġsensory": 6945,
      "Ġgraphics": 6946,
      "Ġheritage": 6947,
      "Ġabuse": 6948,
      "Ġmillions": 6949,
      "Ġinspire": 6950,
      "Ġspoke": 6951,
      "ĠJenn": 6952,
      "ĠLog": 6953,
      "Ġholds": 6954,
      "Ġmanip": 6955,
      "ĠAvoid": 6956,
      "SA": 6957,
      "ĠPac": 6958,
      "ii": 6959,
      "ĠChildren": 6960,
      "ĠSEO": 6961,
      "Ġperformances": 6962,
      "ĠGlobal": 6963,
      "Ġkill": 6964,
      "En": 6965,
      "cons": 6966,
      "rapy": 6967,
      "rich": 6968,
      "Ġflexibility": 6969,
      "Ġsupposed": 6970,
      "TA": 6971,
      "Ġminimal": 6972,
      "Ġmyth": 6973,
      "reens": 6974,
      "erving": 6975,
      "Ġkeeps": 6976,
      "Ġhardware": 6977,
      "ĠFestival": 6978,
      "ĠShare": 6979,
      "Ġmic": 6980,
      "Ġcheap": 6981,
      "clusion": 6982,
      "Ġpositions": 6983,
      "itt": 6984,
      "Ġincredibly": 6985,
      "ĠServe": 6986,
      "ircle": 6987,
      "Ġintricate": 6988,
      "uling": 6989,
      "Ġanticip": 6990,
      "ĠWild": 6991,
      "Ġtrouble": 6992,
      "Ġhurt": 6993,
      "ĠINT": 6994,
      "ĠCorpor": 6995,
      "Ġmissed": 6996,
      "Ġcooper": 6997,
      "Ġstrategic": 6998,
      "icity": 6999,
      "ĠLab": 7000,
      "88": 7001,
      "Ġera": 7002,
      "Ġhonor": 7003,
      "Ġlanguages": 7004,
      "Ġsacr": 7005,
      "Ġscenes": 7006,
      "rence": 7007,
      "Ġexcite": 7008,
      "ĠSpanish": 7009,
      "Ñİ": 7010,
      "Ġnative": 7011,
      "hi": 7012,
      "Ġsole": 7013,
      "uma": 7014,
      "Ġdried": 7015,
      "ĠNetwork": 7016,
      "Ġcock": 7017,
      "Ġinvesting": 7018,
      "Ġaccuracy": 7019,
      "Ġsettle": 7020,
      "otal": 7021,
      "Ġimpacted": 7022,
      "Ġautomation": 7023,
      "endar": 7024,
      "ĠHope": 7025,
      "Ġreceiving": 7026,
      "ĠEr": 7027,
      "Ġconcise": 7028,
      "OD": 7029,
      "Ġfiber": 7030,
      "LA": 7031,
      "Ġcabin": 7032,
      "rets": 7033,
      "77": 7034,
      "Ġpregn": 7035,
      "page": 7036,
      "acon": 7037,
      "49": 7038,
      "Ġdollars": 7039,
      "paper": 7040,
      "Ġweapons": 7041,
      "Ġanswers": 7042,
      "Tube": 7043,
      "Ġaddiction": 7044,
      "Ġcontributions": 7045,
      "!âĢĿ": 7046,
      "Ġconcerned": 7047,
      "ĠInstruction": 7048,
      "ĠHen": 7049,
      "Ġportion": 7050,
      "Ġscheme": 7051,
      "ĠUt": 7052,
      "Ġreform": 7053,
      "Ġgrass": 7054,
      "Ġtreatments": 7055,
      "ĠSoft": 7056,
      "most": 7057,
      "Ġdust": 7058,
      "ÑĤÐ¾": 7059,
      "Ġcoaching": 7060,
      "Ġoutl": 7061,
      "Ġdoors": 7062,
      "PR": 7063,
      "Ġparking": 7064,
      "IF": 7065,
      "Ġtrading": 7066,
      "Ġchips": 7067,
      "Ġparam": 7068,
      "ĠEff": 7069,
      "ĠEmploy": 7070,
      "39": 7071,
      "Ġtang": 7072,
      "ĠCy": 7073,
      "Ġworse": 7074,
      "Ġagriculture": 7075,
      "Ġpandemic": 7076,
      "ĠAngeles": 7077,
      "Ġtech": 7078,
      "ingu": 7079,
      "Ġagent": 7080,
      "Ġsynt": 7081,
      "Ġapparent": 7082,
      "ĠRussia": 7083,
      "ĠMaster": 7084,
      "Ġpil": 7085,
      "Ġinches": 7086,
      "Ġfinds": 7087,
      "ĠGal": 7088,
      "Ġdressing": 7089,
      "Ġchildhood": 7090,
      "ĠPlus": 7091,
      "ĠCharl": 7092,
      "ĠWay": 7093,
      "ĠOlymp": 7094,
      "Ġreporting": 7095,
      "Ġjudge": 7096,
      "</": 7097,
      "wing": 7098,
      "ĠÐ´": 7099,
      "Ġtutorial": 7100,
      "ĠGar": 7101,
      "Ġfalse": 7102,
      "Ġcrack": 7103,
      "Ġsensitive": 7104,
      "izer": 7105,
      "nament": 7106,
      "Ġtwice": 7107,
      "Ġapproaches": 7108,
      "ĠJon": 7109,
      "pot": 7110,
      "uing": 7111,
      "Ġnone": 7112,
      "Ġtiss": 7113,
      "Ġadministr": 7114,
      "Ġelev": 7115,
      "fall": 7116,
      "Ġunw": 7117,
      "Ġimagery": 7118,
      "Ġinjuries": 7119,
      "vy": 7120,
      "van": 7121,
      "gent": 7122,
      "ĠAuthor": 7123,
      "ĠSearch": 7124,
      "Ġassessment": 7125,
      "ĠCath": 7126,
      "Ġsoph": 7127,
      "Ġmir": 7128,
      "Ġsurgery": 7129,
      "ĠAndroid": 7130,
      "Ġcriminal": 7131,
      "ĠEll": 7132,
      "Ġadvis": 7133,
      "Ġbigger": 7134,
      "riers": 7135,
      "Ġchief": 7136,
      "Ġboat": 7137,
      "Ġmine": 7138,
      "ĠMartin": 7139,
      "Ġyounger": 7140,
      "Ġfocuses": 7141,
      "Ġperforming": 7142,
      "inder": 7143,
      "ĠiPhone": 7144,
      "oral": 7145,
      "Ġjewel": 7146,
      "ĠSecret": 7147,
      "which": 7148,
      "tery": 7149,
      "Ġsurvival": 7150,
      "lands": 7151,
      "Ġwave": 7152,
      "Ġlib": 7153,
      "ĠDoes": 7154,
      "Ġexplained": 7155,
      "Ġmonthly": 7156,
      "Ġhoping": 7157,
      "LC": 7158,
      "Ġcharged": 7159,
      "Ġtap": 7160,
      "Ġpayments": 7161,
      "Ġmeaningful": 7162,
      "bur": 7163,
      "style": 7164,
      "Ġmush": 7165,
      "ĠDev": 7166,
      "ĠSeries": 7167,
      "oston": 7168,
      "ran": 7169,
      "Ġhundreds": 7170,
      "Ex": 7171,
      "Ġspeaker": 7172,
      "Ġpotentially": 7173,
      "Ġdepends": 7174,
      "Ġfixed": 7175,
      "ĠEnviron": 7176,
      "Ġworkshops": 7177,
      "Ġbear": 7178,
      "ean": 7179,
      "itual": 7180,
      "ĠAff": 7181,
      "astern": 7182,
      "Ġma": 7183,
      "Ġdispl": 7184,
      "Ġassets": 7185,
      "ĠIncre": 7186,
      "ĠArts": 7187,
      "bert": 7188,
      "ĠJeff": 7189,
      "umbled": 7190,
      "Ġpeppers": 7191,
      "Ġefficiently": 7192,
      "Ġtack": 7193,
      "Ð¾Ð»": 7194,
      "ĠTown": 7195,
      "Ġfunctionality": 7196,
      "Ġapproved": 7197,
      "ĠPolice": 7198,
      "Ġexcitement": 7199,
      "ackson": 7200,
      "Ġproposal": 7201,
      "ocado": 7202,
      "heat": 7203,
      "luding": 7204,
      "ĠRussian": 7205,
      "ĠQuest": 7206,
      "Ġstability": 7207,
      "ĠArab": 7208,
      "Ġemails": 7209,
      "Ġworkplace": 7210,
      "Ġjack": 7211,
      "Ġextend": 7212,
      "Ġpracticing": 7213,
      "Ġbatt": 7214,
      "illet": 7215,
      "Ġconservation": 7216,
      "Ġnurs": 7217,
      "Ġstudying": 7218,
      "Ġcenters": 7219,
      "Ġupper": 7220,
      "Ġcha": 7221,
      "Ġhealing": 7222,
      "CE": 7223,
      "Ġdetermination": 7224,
      "Ġgluten": 7225,
      "Ġwra": 7226,
      "Ġfellow": 7227,
      "Ġcommission": 7228,
      "47": 7229,
      "ÑĤÑĮ": 7230,
      "ĠRemove": 7231,
      "west": 7232,
      "Ġcos": 7233,
      "Ġyes": 7234,
      "Ġdisorders": 7235,
      "Ġhistoric": 7236,
      "arks": 7237,
      "icit": 7238,
      "Ġfrequency": 7239,
      "fu": 7240,
      "itting": 7241,
      "Ġbottle": 7242,
      "Ġunderst": 7243,
      "ĠLearn": 7244,
      "ĠAD": 7245,
      "Ġeleg": 7246,
      "Ġoperate": 7247,
      "log": 7248,
      "ĠMS": 7249,
      "Ġ32": 7250,
      "ĠYouTube": 7251,
      "tering": 7252,
      "Ġfunctional": 7253,
      "Ġdining": 7254,
      "Ġborder": 7255,
      "istant": 7256,
      "Ġkinds": 7257,
      "ĠVers": 7258,
      "Ġimprovements": 7259,
      "Ġaffili": 7260,
      "ĠNY": 7261,
      "Your": 7262,
      "Ĥ¬": 7263,
      "Ġpicked": 7264,
      "Ġvacc": 7265,
      "Ġrust": 7266,
      "Ġaffects": 7267,
      "ĠManager": 7268,
      "rant": 7269,
      "ĠJones": 7270,
      "Ġcompass": 7271,
      "Ġsnack": 7272,
      "Ġreject": 7273,
      "pat": 7274,
      "UN": 7275,
      "ĠUlt": 7276,
      "Ġconfir": 7277,
      "ĠLee": 7278,
      "Ġmatters": 7279,
      "Ġcampus": 7280,
      "Ġgained": 7281,
      "ĠKnow": 7282,
      "Ġmole": 7283,
      "Ġpued": 7284,
      "Ġconfirm": 7285,
      "Ġwet": 7286,
      "Ġstudio": 7287,
      "then": 7288,
      "Ġbrush": 7289,
      "osystem": 7290,
      "inding": 7291,
      "ĠMen": 7292,
      "ĠHosp": 7293,
      "Ġinstruct": 7294,
      "Ġcandidates": 7295,
      "ÑĢÐµ": 7296,
      "ĠEs": 7297,
      "Ġreson": 7298,
      "Ġawesome": 7299,
      "ĠDu": 7300,
      "Ġhall": 7301,
      "Ġbars": 7302,
      "Ġdiam": 7303,
      "Ġscan": 7304,
      "Ġroasted": 7305,
      "inkle": 7306,
      "Ġlogo": 7307,
      "Ġimmig": 7308,
      "forcement": 7309,
      "ventions": 7310,
      "ĠFull": 7311,
      "oding": 7312,
      "ĠRen": 7313,
      "Ġpapers": 7314,
      "Ġdealing": 7315,
      "Ġsubscrib": 7316,
      "Ġpizza": 7317,
      "Ġages": 7318,
      "oman": 7319,
      "Ġ?": 7320,
      "ĠStore": 7321,
      "Ġsurrounded": 7322,
      "Ġtickets": 7323,
      "Ġintroduction": 7324,
      "Ġalle": 7325,
      "Ġ2003": 7326,
      "Ġphilosoph": 7327,
      "Ġbreaking": 7328,
      "Ġdialogue": 7329,
      "Ġmanual": 7330,
      "Ġexperim": 7331,
      "ikes": 7332,
      "Ġaccepted": 7333,
      "ele": 7334,
      "Ġformal": 7335,
      "Ġdefined": 7336,
      "ello": 7337,
      "Ġpremium": 7338,
      "Ġecho": 7339,
      "file": 7340,
      "ĠCast": 7341,
      "Ġprecise": 7342,
      "Ġhouses": 7343,
      "Ġpollution": 7344,
      "Ġcandidate": 7345,
      "Ġprotected": 7346,
      "Ġcorrespond": 7347,
      "Ġevaluate": 7348,
      "Ġrelaxation": 7349,
      "Ġprinting": 7350,
      "Ġphase": 7351,
      "Ġofficer": 7352,
      "ĠThough": 7353,
      "ocked": 7354,
      "Ġdivid": 7355,
      "eren": 7356,
      "Ġpublish": 7357,
      "ĠNE": 7358,
      "ĠNOT": 7359,
      "long": 7360,
      "Ġsaved": 7361,
      "ĠAcademy": 7362,
      "Ġhorse": 7363,
      "Ġvariations": 7364,
      "alle": 7365,
      "Ġspark": 7366,
      "ĠConclusion": 7367,
      "umps": 7368,
      "Ġamounts": 7369,
      "Ġrequests": 7370,
      "ician": 7371,
      "Ġtalked": 7372,
      "cur": 7373,
      "etime": 7374,
      "Ġtreated": 7375,
      "Ġperiods": 7376,
      "Ġfacts": 7377,
      "ĠTurn": 7378,
      "ĠMatt": 7379,
      "Ġsignal": 7380,
      "ÑĤÐµ": 7381,
      "ĠInclude": 7382,
      "Ġencounter": 7383,
      "Ġmac": 7384,
      "Ġdrinks": 7385,
      "ĠAustralian": 7386,
      "Ġsick": 7387,
      "Ġretire": 7388,
      "46": 7389,
      "Ġcontest": 7390,
      "Ġcarro": 7391,
      "Ġvegetarian": 7392,
      "ocket": 7393,
      "osite": 7394,
      "vas": 7395,
      "Ġbare": 7396,
      "ĠCH": 7397,
      "fe": 7398,
      "Ġperman": 7399,
      "Ġbless": 7400,
      "owered": 7401,
      "Ġassum": 7402,
      "Ġresc": 7403,
      "Ġrhyth": 7404,
      "Ġdefine": 7405,
      "Ġinterior": 7406,
      "Ġcollected": 7407,
      "Ġgenerations": 7408,
      "II": 7409,
      "ĠRichard": 7410,
      "Ġdrivers": 7411,
      "Ġbreast": 7412,
      "Ġorange": 7413,
      "Ġsilver": 7414,
      "Ġencouraged": 7415,
      "Ġinventory": 7416,
      "inf": 7417,
      "itution": 7418,
      "Ġensures": 7419,
      "ributes": 7420,
      "made": 7421,
      "Ġtotally": 7422,
      "folio": 7423,
      "Ġonions": 7424,
      "Ġjun": 7425,
      "ĠWel": 7426,
      "Ġapartment": 7427,
      "Ġdrawing": 7428,
      "ĠHotel": 7429,
      "ĠPractice": 7430,
      "ĠBoston": 7431,
      "ially": 7432,
      "Ġinformative": 7433,
      "Ġpurchased": 7434,
      "aste": 7435,
      "Ġprimarily": 7436,
      "CS": 7437,
      "Ġestimated": 7438,
      "ĠFour": 7439,
      "ĠAT": 7440,
      "Ġinitiative": 7441,
      "âĢľ": 7442,
      "Ġrecorded": 7443,
      "ĠBuilding": 7444,
      "ĠMult": 7445,
      "ĠTru": 7446,
      "Ġseam": 7447,
      "Ġmere": 7448,
      "ĠCas": 7449,
      "FL": 7450,
      "Ġfing": 7451,
      "Ġaband": 7452,
      "ĠResp": 7453,
      "ĠPage": 7454,
      "\">": 7455,
      "raction": 7456,
      "ĠJackson": 7457,
      "ĠMinister": 7458,
      "Ġhospit": 7459,
      "ĠMic": 7460,
      "Ã¼": 7461,
      "Ġelig": 7462,
      "ãģ": 7463,
      "ĠSimilar": 7464,
      "ushed": 7465,
      "Ġdiscipl": 7466,
      "Ġtab": 7467,
      "irty": 7468,
      "Ġstruggled": 7469,
      "ĠCode": 7470,
      "bsp": 7471,
      "ĠBir": 7472,
      "Ġsegment": 7473,
      "ĠCA": 7474,
      "ĠQual": 7475,
      "Ġmeets": 7476,
      "atre": 7477,
      "Ġnuclear": 7478,
      "Ġevolution": 7479,
      "celer": 7480,
      "Ġraw": 7481,
      "chain": 7482,
      "Ġdescriptive": 7483,
      "ieties": 7484,
      "Ġexperiencing": 7485,
      "sembly": 7486,
      "ye": 7487,
      "Ġproof": 7488,
      "ession": 7489,
      "Ġauthorities": 7490,
      "ls": 7491,
      "ĠLive": 7492,
      "Ġvisited": 7493,
      "Ġchapter": 7494,
      "Ġtourism": 7495,
      "--------": 7496,
      "gs": 7497,
      "ifies": 7498,
      "Ġcolorful": 7499,
      "Ġearned": 7500,
      "Ġgaming": 7501,
      "oses": 7502,
      "Ġtiny": 7503,
      "Ġdiscussed": 7504,
      "MA": 7505,
      "ints": 7506,
      "Ġsubstant": 7507,
      "Ġfishing": 7508,
      "Ġhomemade": 7509,
      "Ġsentence": 7510,
      "Ġcrust": 7511,
      "There": 7512,
      "Ġvinegar": 7513,
      "rup": 7514,
      "ĠLittle": 7515,
      "una": 7516,
      "Ġadoption": 7517,
      "ĠFederal": 7518,
      "ĠTitle": 7519,
      "ĠVictor": 7520,
      "OC": 7521,
      "Ġtested": 7522,
      "orus": 7523,
      "ĠSmall": 7524,
      "Ar": 7525,
      "ushing": 7526,
      "Ġpolitics": 7527,
      "Ġglow": 7528,
      "31": 7529,
      "Ġpossibility": 7530,
      "amm": 7531,
      "ĠVan": 7532,
      "Ġtracks": 7533,
      "Ġpercentage": 7534,
      "level": 7535,
      "Ġframework": 7536,
      "ĠFre": 7537,
      "No": 7538,
      "Ġmessaging": 7539,
      "ĠEss": 7540,
      "Ġcategories": 7541,
      "Ġ300": 7542,
      "pany": 7543,
      "ĠSpring": 7544,
      "ĠEmp": 7545,
      "ĠEp": 7546,
      "Ġvariable": 7547,
      "lywood": 7548,
      "Ġpoems": 7549,
      "Ġconversion": 7550,
      "Ġghost": 7551,
      "Ġstored": 7552,
      "Ġphen": 7553,
      "Ġhesit": 7554,
      "Ġreligion": 7555,
      "ĠDate": 7556,
      "Ġ36": 7557,
      "iox": 7558,
      "Ġincident": 7559,
      "Ġphotography": 7560,
      "Ġfalling": 7561,
      "lers": 7562,
      "inent": 7563,
      "idad": 7564,
      "Ġmoves": 7565,
      "Ġnarrow": 7566,
      "eling": 7567,
      "Ġforth": 7568,
      "Ġdiced": 7569,
      "ĠIran": 7570,
      "bar": 7571,
      "zil": 7572,
      "Ġprospect": 7573,
      "Ð³": 7574,
      "Ġofficers": 7575,
      "Ġinstruments": 7576,
      "Ġintent": 7577,
      "Ġpasseng": 7578,
      "Ġinqu": 7579,
      "ulf": 7580,
      "ented": 7581,
      "ĠStudies": 7582,
      "Ġwider": 7583,
      "Ġecosystem": 7584,
      "Ġteeth": 7585,
      "ĠCanadian": 7586,
      "ĠAdminist": 7587,
      "Ġfinance": 7588,
      "And": 7589,
      "va": 7590,
      "alled": 7591,
      "Ġpulled": 7592,
      "ellect": 7593,
      "Ġgram": 7594,
      "cers": 7595,
      "ading": 7596,
      "++": 7597,
      "Ġenjoying": 7598,
      "Ġdownt": 7599,
      "Ġusual": 7600,
      "anes": 7601,
      "Ġhydro": 7602,
      "ĠItaly": 7603,
      "nic": 7604,
      "Ġfavour": 7605,
      "Ġdelay": 7606,
      "ĠMean": 7607,
      "Ġmuscles": 7608,
      "Ġtemperatures": 7609,
      "ĠPack": 7610,
      "Ġdelight": 7611,
      "Ġrising": 7612,
      "poons": 7613,
      "ĠÑ": 7614,
      "ĠSteve": 7615,
      "ĠMur": 7616,
      "Ġauthors": 7617,
      "Ġmatches": 7618,
      "Ġdisappoint": 7619,
      "ĠWilliams": 7620,
      "Ġreaching": 7621,
      "Ġdisaster": 7622,
      "ĠNon": 7623,
      "Ġoverl": 7624,
      "da": 7625,
      "ĠYet": 7626,
      "Ġuncertain": 7627,
      "Ġyester": 7628,
      "ĠSports": 7629,
      "Ġcriteria": 7630,
      "elly": 7631,
      "Ġflash": 7632,
      "Ġinfluencers": 7633,
      "htt": 7634,
      "ĠClean": 7635,
      "Ġaimed": 7636,
      "Ġproducing": 7637,
      "Ġrail": 7638,
      "ĠPenn": 7639,
      "oked": 7640,
      "ĠVideo": 7641,
      "ĠSmart": 7642,
      "Ġ==": 7643,
      "rency": 7644,
      "ĠLearning": 7645,
      "Ġcultiv": 7646,
      "Ġbanks": 7647,
      "Ġthread": 7648,
      "Ġmountains": 7649,
      "78": 7650,
      "ĠLocal": 7651,
      "ĠCross": 7652,
      "Ġsending": 7653,
      "ĠBrand": 7654,
      "ĠSud": 7655,
      "Ġhappiness": 7656,
      "ampionship": 7657,
      "dri": 7658,
      "Ġwheel": 7659,
      "Ġdisrupt": 7660,
      "ĠChief": 7661,
      "ĠSelect": 7662,
      "Ġsuspect": 7663,
      "ĠLow": 7664,
      "utch": 7665,
      "Ġrefrig": 7666,
      "Ġworst": 7667,
      "Ġtomato": 7668,
      "stone": 7669,
      "Ġencountered": 7670,
      "ĠON": 7671,
      "ĠCustomer": 7672,
      "Ġengines": 7673,
      "ĠYoung": 7674,
      "Ġlimits": 7675,
      "As": 7676,
      "Ġemerged": 7677,
      "ĠAri": 7678,
      "ĠPerform": 7679,
      "Ġadvantages": 7680,
      "Ġmob": 7681,
      "ĠYOU": 7682,
      "ĠPhys": 7683,
      "Ġdiscl": 7684,
      "Ġcul": 7685,
      "ĠMach": 7686,
      "Ġpace": 7687,
      "leep": 7688,
      "onic": 7689,
      "Ġregistration": 7690,
      "ĠLib": 7691,
      "ĠCult": 7692,
      "class": 7693,
      "ĠGall": 7694,
      "ĠThree": 7695,
      "zer": 7696,
      "ĠCa": 7697,
      "Ġshooting": 7698,
      "Ġvulnerable": 7699,
      "abetes": 7700,
      ".'": 7701,
      "comm": 7702,
      "Ġpra": 7703,
      "Ġwarrant": 7704,
      "01": 7705,
      "gage": 7706,
      "phones": 7707,
      "Ġproceed": 7708,
      "Ġgrace": 7709,
      "PC": 7710,
      "ĠHD": 7711,
      "Ġidentifying": 7712,
      "bi": 7713,
      "Ġske": 7714,
      "Ġblank": 7715,
      "Ġseed": 7716,
      "Is": 7717,
      "ĠFrancisco": 7718,
      "Ġcounty": 7719,
      "Ġimmune": 7720,
      "Ġsurve": 7721,
      "ĠRight": 7722,
      "Don": 7723,
      "otton": 7724,
      "ĠFriend": 7725,
      "Ġcreamy": 7726,
      "ĠEvent": 7727,
      "Ġ195": 7728,
      "Ġdarkness": 7729,
      "luded": 7730,
      "Ġalongside": 7731,
      "ingly": 7732,
      "ruption": 7733,
      "Ġtablespoons": 7734,
      "Ġgrade": 7735,
      "ĠLo": 7736,
      "ĠHard": 7737,
      "Ġdecline": 7738,
      "Ġprove": 7739,
      "Ġbeneficial": 7740,
      "ĠBoy": 7741,
      "pie": 7742,
      "Ġcompat": 7743,
      "ĠUnfortunately": 7744,
      "Ġgovernments": 7745,
      "Ġlimitations": 7746,
      "Ġmistakes": 7747,
      "Ġnotable": 7748,
      "Ġlists": 7749,
      "ĠLibrary": 7750,
      "mony": 7751,
      "Ġwinner": 7752,
      "Ġyesterday": 7753,
      "Ġfears": 7754,
      "Ġagents": 7755,
      "Ġsett": 7756,
      "ifting": 7757,
      "ventional": 7758,
      "ĠConference": 7759,
      "Ġregistered": 7760,
      "ĠJun": 7761,
      "Ġyogurt": 7762,
      "Ġlesson": 7763,
      "oty": 7764,
      "hr": 7765,
      "ĠAsk": 7766,
      "ĠCR": 7767,
      "Ġmixing": 7768,
      "erent": 7769,
      "Ġdecade": 7770,
      "ĠKen": 7771,
      "Ġcomplexity": 7772,
      "Ġmotivation": 7773,
      "Ġboys": 7774,
      "Ġbridge": 7775,
      "Ġmurder": 7776,
      "ĠHaving": 7777,
      "Ġskillet": 7778,
      "Ġstatements": 7779,
      "ĠMid": 7780,
      "stream": 7781,
      "Ġtherm": 7782,
      "Ġevil": 7783,
      "Ġpm": 7784,
      "Ġimmediate": 7785,
      "Ġtruck": 7786,
      "ĠEqu": 7787,
      "ĠIntroduction": 7788,
      "Ġaudiences": 7789,
      "ĠWH": 7790,
      "ĠIra": 7791,
      "ĠControl": 7792,
      "Ġrefres": 7793,
      "Ġsoldiers": 7794,
      "ĠFarm": 7795,
      "Ġtort": 7796,
      "Ġtypical": 7797,
      "Ġzone": 7798,
      "Ġmini": 7799,
      "ĠContent": 7800,
      "ĠAp": 7801,
      "front": 7802,
      "Ġly": 7803,
      "ĠHun": 7804,
      "ĠGeorg": 7805,
      "Ġromantic": 7806,
      "Ġterrit": 7807,
      "ĠCentre": 7808,
      "Ġrank": 7809,
      "Ġwash": 7810,
      "ĠNight": 7811,
      "Ġtrib": 7812,
      "ĠMrs": 7813,
      "Ġfu": 7814,
      "namon": 7815,
      "Ġinteraction": 7816,
      "Ġscheduled": 7817,
      "ĠVirginia": 7818,
      "Ð¾Ð¼": 7819,
      "Ġpit": 7820,
      "state": 7821,
      "Ġcoat": 7822,
      "oli": 7823,
      "ĠWin": 7824,
      "Ġdomestic": 7825,
      "ĠHold": 7826,
      "Ġapple": 7827,
      "ĠOrig": 7828,
      "ĠSalt": 7829,
      "ĠðŁ": 7830,
      "Ġtip": 7831,
      "Ġfir": 7832,
      "zed": 7833,
      "ĠIncorpor": 7834,
      "Ġticket": 7835,
      "Ġpitch": 7836,
      "Ġexpansion": 7837,
      "ĠFair": 7838,
      "pack": 7839,
      "pace": 7840,
      "oted": 7841,
      "Ġchecking": 7842,
      "ĠDownload": 7843,
      "Ġrealistic": 7844,
      "mat": 7845,
      "ĠExecut": 7846,
      "uction": 7847,
      "Ġpour": 7848,
      "ulous": 7849,
      "Ġcentre": 7850,
      "Ġissued": 7851,
      "Ġremark": 7852,
      "Ġcompens": 7853,
      "Ġjewelry": 7854,
      "iano": 7855,
      "aws": 7856,
      "Ġforecast": 7857,
      "Ġpriority": 7858,
      "Ġexplanation": 7859,
      "Ġclassroom": 7860,
      "Ġmemorable": 7861,
      "ĠTraining": 7862,
      "Ġpreparation": 7863,
      "Ġvacation": 7864,
      "Ġunknown": 7865,
      "onna": 7866,
      "Ġconvert": 7867,
      "Ġconflicts": 7868,
      "ĠRyan": 7869,
      "Ġaccessories": 7870,
      "Ġdrinking": 7871,
      "ĠJava": 7872,
      "ESS": 7873,
      "ĠRoyal": 7874,
      "Ġprocedure": 7875,
      "ĠFocus": 7876,
      "stal": 7877,
      "Ġpromise": 7878,
      "Ġbroth": 7879,
      "Ġscored": 7880,
      "Ġ2001": 7881,
      "Ġharder": 7882,
      "Ġconscious": 7883,
      "Ġembrace": 7884,
      "Ġhole": 7885,
      "TH": 7886,
      "Ġ!": 7887,
      "hemat": 7888,
      "Ġvolunteer": 7889,
      "Ġleather": 7890,
      "Ġcompetitors": 7891,
      "Ġindeed": 7892,
      "Ġod": 7893,
      "uine": 7894,
      "ĠTrust": 7895,
      "ĠJoin": 7896,
      "Ġversat": 7897,
      "commerce": 7898,
      "Ġcharacteristics": 7899,
      "aturally": 7900,
      "Ġultimate": 7901,
      "Ġrecording": 7902,
      "Ġwellness": 7903,
      "Ġ400": 7904,
      "Ġresulted": 7905,
      "ĠPacific": 7906,
      "ĠWithout": 7907,
      "ĠSenate": 7908,
      "Ġrewards": 7909,
      "Ġshops": 7910,
      "Ġgender": 7911,
      "Ġbelieves": 7912,
      "ĠCarolina": 7913,
      "ĠStrateg": 7914,
      "05": 7915,
      "Ġstead": 7916,
      "UL": 7917,
      "Ġkeywords": 7918,
      "Ġtaxes": 7919,
      "Ġloans": 7920,
      "Ġfont": 7921,
      "uls": 7922,
      "lyn": 7923,
      "Ð½Ð¸": 7924,
      "Ġcommittee": 7925,
      "haust": 7926,
      "Ġdriven": 7927,
      "Ġencry": 7928,
      "Ġpanels": 7929,
      "Ġchances": 7930,
      "Ġpreferred": 7931,
      "othe": 7932,
      "mond": 7933,
      "yard": 7934,
      "Ġpink": 7935,
      "SP": 7936,
      "Ġcenturies": 7937,
      "Ġguided": 7938,
      "ĠSupp": 7939,
      "ĠSales": 7940,
      "Ġsurprised": 7941,
      "Ġmanagers": 7942,
      "Ġpartnerships": 7943,
      "ĠCOVID": 7944,
      "Ġlicense": 7945,
      "Ġdesigners": 7946,
      "secut": 7947,
      "Ġmagazine": 7948,
      "umer": 7949,
      "Ġpip": 7950,
      "Ġbirthday": 7951,
      "obby": 7952,
      "Ġ2002": 7953,
      "imp": 7954,
      "Ġattach": 7955,
      "Ġrig": 7956,
      "Ġhumor": 7957,
      "Ġwarn": 7958,
      "Ġrental": 7959,
      "ĠSpir": 7960,
      "isa": 7961,
      "ĠLas": 7962,
      "Ġdiscovery": 7963,
      "Ġstakeholders": 7964,
      "amental": 7965,
      "Ġskilled": 7966,
      "Ġreasonable": 7967,
      "Ġtours": 7968,
      "Ġdebate": 7969,
      "Ġsandw": 7970,
      "Ġsaving": 7971,
      "But": 7972,
      "Ġvanilla": 7973,
      "Ð½Ð¾": 7974,
      "Ġcolour": 7975,
      "Ġcombat": 7976,
      "Ġsuddenly": 7977,
      "ĠUser": 7978,
      "Ġshots": 7979,
      "nda": 7980,
      "Ġdrawn": 7981,
      "Ð½Ñĭ": 7982,
      "Ġquote": 7983,
      "Ġcorrectly": 7984,
      "opt": 7985,
      "aborate": 7986,
      "Ġdomain": 7987,
      "ba": 7988,
      "ulum": 7989,
      "acher": 7990,
      "ĠRa": 7991,
      "Ġpursue": 7992,
      "Ġinterf": 7993,
      "ĠPoint": 7994,
      "osa": 7995,
      "Ġpurchasing": 7996,
      "ĠGirl": 7997,
      "ĠApplic": 7998,
      "Ġlovely": 7999,
      "ĠFinancial": 8000,
      "ca": 8001,
      "Ġfert": 8002,
      "ĠSky": 8003,
      "acter": 8004,
      "isk": 8005,
      "Ġartificial": 8006,
      "Ġcompelling": 8007,
      "Ġcomparison": 8008,
      "antha": 8009,
      "Ġcompassion": 8010,
      ".âĢĻ": 8011,
      "EE": 8012,
      "iser": 8013,
      "Ġowned": 8014,
      "Ġvisible": 8015,
      "eras": 8016,
      "Ġproven": 8017,
      "Ġregister": 8018,
      "Ġcontrolled": 8019,
      "Ġexistence": 8020,
      "ĠJac": 8021,
      "plement": 8022,
      "Ġleague": 8023,
      "Ġoutcome": 8024,
      "ĠIraq": 8025,
      "Ġpride": 8026,
      "Ġaest": 8027,
      "angle": 8028,
      "erves": 8029,
      "ulating": 8030,
      "Ġguarantee": 8031,
      "rat": 8032,
      "izations": 8033,
      "away": 8034,
      "Ġexceptional": 8035,
      "Ġvolunteers": 8036,
      "Ġmechanisms": 8037,
      "ĠBudd": 8038,
      "Ġregardless": 8039,
      "inity": 8040,
      "ns": 8041,
      "Ġcourage": 8042,
      "ĠSpace": 8043,
      "ĠMeet": 8044,
      "ĠTravel": 8045,
      "66": 8046,
      "Ġhat": 8047,
      "Ġformula": 8048,
      "Ġneut": 8049,
      "Ġstrengths": 8050,
      "Ġpeaceful": 8051,
      "Ġhiking": 8052,
      "My": 8053,
      "Ġhang": 8054,
      "td": 8055,
      "Ġlikes": 8056,
      "Ġconcrete": 8057,
      "Ġmystery": 8058,
      "!)": 8059,
      "Ġshell": 8060,
      "Ġwildlife": 8061,
      "Ġsod": 8062,
      "ĠHelp": 8063,
      "uster": 8064,
      "ĠBible": 8065,
      "Ġparticipation": 8066,
      "Ġthy": 8067,
      "Ġvoc": 8068,
      "Ġputs": 8069,
      "makers": 8070,
      "%.": 8071,
      "Ġtu": 8072,
      "Ġacts": 8073,
      "Ġencouraging": 8074,
      "igenous": 8075,
      "mo": 8076,
      "taking": 8077,
      "Ð»Ð¸": 8078,
      "Ġstable": 8079,
      "Ġinstrument": 8080,
      "Ġpsychological": 8081,
      "icted": 8082,
      "Ġbutt": 8083,
      "aints": 8084,
      "Ġru": 8085,
      "ĠGuide": 8086,
      "Ġfunny": 8087,
      "Ġbrowser": 8088,
      "Ġhosting": 8089,
      "ĠPop": 8090,
      "ĠArmy": 8091,
      "bell": 8092,
      "ĠCharles": 8093,
      "ĠPython": 8094,
      "Ġ48": 8095,
      "ĠBrazil": 8096,
      "ĠPrem": 8097,
      "Ġcalculate": 8098,
      "sect": 8099,
      "MP": 8100,
      "Ġaddressing": 8101,
      "Ġseriously": 8102,
      "bra": 8103,
      "ĠSophie": 8104,
      "ivals": 8105,
      "ĠRose": 8106,
      "born": 8107,
      "Ġokay": 8108,
      "Ġresponsibilities": 8109,
      "ĠOR": 8110,
      "cies": 8111,
      "rible": 8112,
      "ĠMichigan": 8113,
      "Ġgraduate": 8114,
      "Ġgran": 8115,
      "gal": 8116,
      "you": 8117,
      "ÑĢÐ¸": 8118,
      "Ġpreparing": 8119,
      "Ãº": 8120,
      "Ġdisplays": 8121,
      "Ġtraveling": 8122,
      "Ġsought": 8123,
      "Ġversions": 8124,
      "Ġoccurred": 8125,
      "ĠJewish": 8126,
      "Ġcustomized": 8127,
      "ĠScot": 8128,
      "ido": 8129,
      "Ġloves": 8130,
      "ĠSouthern": 8131,
      "ĠSeason": 8132,
      "Ġdiscounts": 8133,
      "Ġshoulder": 8134,
      "ĠPrice": 8135,
      "Ġemerging": 8136,
      "ĠKn": 8137,
      "GB": 8138,
      "pending": 8139,
      "ĠJob": 8140,
      "ĠCB": 8141,
      "Ġindicate": 8142,
      "urning": 8143,
      "Ġsummarize": 8144,
      "ĠSat": 8145,
      "Ġportfolio": 8146,
      "Ġreflects": 8147,
      "ĠColumb": 8148,
      "ĠGenerate": 8149,
      "CD": 8150,
      "Ġwondering": 8151,
      "Ġsections": 8152,
      "ĠDom": 8153,
      "Ġcater": 8154,
      "Ġmyster": 8155,
      "rick": 8156,
      "Ġheads": 8157,
      "Ġappreciation": 8158,
      "Ġgiant": 8159,
      "Ġsuffering": 8160,
      "Ġspicy": 8161,
      "ĠÂ©": 8162,
      "tail": 8163,
      "Ġdefault": 8164,
      "ĠJess": 8165,
      "Ġrepeated": 8166,
      "Ġobvious": 8167,
      "ĠMuslim": 8168,
      "ĠCatholic": 8169,
      "ĠKat": 8170,
      "agraph": 8171,
      "tes": 8172,
      "Ġinch": 8173,
      "Ġsubsequ": 8174,
      "worth": 8175,
      "Ġmand": 8176,
      "jo": 8177,
      "Ġsplit": 8178,
      "Ġmargin": 8179,
      "Ġscent": 8180,
      "ĠNever": 8181,
      "Ġinsert": 8182,
      "ĠFOR": 8183,
      "Ġgolf": 8184,
      "ders": 8185,
      "Ġoriginally": 8186,
      "Ġgradually": 8187,
      "Ġconsole": 8188,
      "through": 8189,
      "ĠAndrew": 8190,
      "Ġoverwhelming": 8191,
      "Ġunderstood": 8192,
      "ĠTri": 8193,
      "ĠGames": 8194,
      "Ġmusicians": 8195,
      "Ġresponses": 8196,
      "Ġfaculty": 8197,
      "Ġzero": 8198,
      "Ġcalendar": 8199,
      "ĠEU": 8200,
      "Ġterr": 8201,
      "Ġfraud": 8202,
      "ersey": 8203,
      "ema": 8204,
      "Ġvirus": 8205,
      "Ġexpressed": 8206,
      "mented": 8207,
      "Ġprime": 8208,
      "ĠSamantha": 8209,
      "ĠSP": 8210,
      "mic": 8211,
      "Ġcable": 8212,
      "Ġdecrease": 8213,
      "illy": 8214,
      "Ġpill": 8215,
      "ocated": 8216,
      "Ġathletes": 8217,
      "Ġsatisfied": 8218,
      "Ġtargets": 8219,
      "Ġartistic": 8220,
      "amic": 8221,
      "Ġinitially": 8222,
      "Ġemphasis": 8223,
      "alysis": 8224,
      "ĠDAY": 8225,
      "ĠDie": 8226,
      "Ġopinions": 8227,
      "ĠBeing": 8228,
      "Ġtestim": 8229,
      "Ġlayers": 8230,
      "ĠDiff": 8231,
      "Ġwhenever": 8232,
      "Ġcarrying": 8233,
      "Ġprofound": 8234,
      "Ġreaction": 8235,
      "ĠLin": 8236,
      "Ġshelter": 8237,
      "Ġtrick": 8238,
      "ĠIre": 8239,
      "Ġshower": 8240,
      "ĠChall": 8241,
      "ĠHon": 8242,
      "ogen": 8243,
      "ĠAgain": 8244,
      "ĠStay": 8245,
      "ĠHa": 8246,
      "Ġcharity": 8247,
      "Ġstuck": 8248,
      "Ð¾Ð³": 8249,
      "Ġdirected": 8250,
      "reement": 8251,
      "Ġwrap": 8252,
      "Ġmoon": 8253,
      "Ġtalks": 8254,
      "Ġsoy": 8255,
      "ĠCurrent": 8256,
      "Ġvo": 8257,
      "etch": 8258,
      "Ġequipped": 8259,
      "Ġbooking": 8260,
      "overs": 8261,
      "Ġspots": 8262,
      "Ġincentives": 8263,
      "arios": 8264,
      "Ġ($": 8265,
      "Ġintellect": 8266,
      "Ġhotels": 8267,
      "ĠUsers": 8268,
      "ĠHor": 8269,
      "oken": 8270,
      "Ġcomposition": 8271,
      "Ġpharm": 8272,
      "char": 8273,
      "ĠDNA": 8274,
      "Ġgently": 8275,
      "ĠNut": 8276,
      "Ġblocks": 8277,
      "ione": 8278,
      "gener": 8279,
      "greg": 8280,
      "ĠOil": 8281,
      "ĠBon": 8282,
      "Ġlayout": 8283,
      "Ġnode": 8284,
      "Ġencourages": 8285,
      "Ġgenuine": 8286,
      "ĠMobile": 8287,
      "Ġrecover": 8288,
      "Ġkit": 8289,
      "Ġevaluation": 8290,
      "Ġweakness": 8291,
      "bour": 8292,
      "Ġpersonally": 8293,
      "Ġattending": 8294,
      "Ġappointment": 8295,
      "intage": 8296,
      "Ġnetworking": 8297,
      "px": 8298,
      "cend": 8299,
      "ĠEth": 8300,
      "Ġreminder": 8301,
      "ĠStat": 8302,
      "oven": 8303,
      "Ġreduces": 8304,
      "Ġweekly": 8305,
      "ĠCoast": 8306,
      "VD": 8307,
      "Ġthreats": 8308,
      "Ġranking": 8309,
      "roph": 8310,
      "stract": 8311,
      "Ġextent": 8312,
      "Ġfootprint": 8313,
      "vity": 8314,
      "Ġoverview": 8315,
      "Ġpenal": 8316,
      "Ġconversations": 8317,
      "Ġcrops": 8318,
      "ĠAsian": 8319,
      "ĠMaterial": 8320,
      "Ġinterviews": 8321,
      "onym": 8322,
      "telling": 8323,
      "Ġcontrols": 8324,
      "Ġauto": 8325,
      "Ġlibr": 8326,
      "Ġexhaust": 8327,
      "Ġpars": 8328,
      "Ġattractive": 8329,
      "ĠLuc": 8330,
      "ĠStill": 8331,
      "ĠSea": 8332,
      "Ġending": 8333,
      "Ġmetap": 8334,
      "Ġcuts": 8335,
      "ĠEliz": 8336,
      "AG": 8337,
      "ĠCopy": 8338,
      "Ġentrepreneurs": 8339,
      "Ġlift": 8340,
      "ĠEmail": 8341,
      "Ġanalyzing": 8342,
      "ĠImp": 8343,
      "sized": 8344,
      "Ġdesigner": 8345,
      "ĠPut": 8346,
      "ĠDar": 8347,
      "Ġtbsp": 8348,
      "Ġharsh": 8349,
      "Ġnob": 8350,
      "eters": 8351,
      "Ġprotocol": 8352,
      "Ġhoriz": 8353,
      "Ġfundamental": 8354,
      "Ġreplaced": 8355,
      "lock": 8356,
      "Ġstrike": 8357,
      "eller": 8358,
      "Ġsnacks": 8359,
      "div": 8360,
      "osc": 8361,
      "Ġphotograp": 8362,
      "ĠEnt": 8363,
      "amber": 8364,
      "äº": 8365,
      "Ġexploration": 8366,
      "Ġcustomize": 8367,
      "Ġupload": 8368,
      "Ġawards": 8369,
      "Ġchecks": 8370,
      "Ġedition": 8371,
      "ĠOhio": 8372,
      "Ġformation": 8373,
      "ĠRequ": 8374,
      "Ġlapt": 8375,
      "Ġ75": 8376,
      "42": 8377,
      "ĠDI": 8378,
      "works": 8379,
      "Ġobserved": 8380,
      "Ġcommunications": 8381,
      "Ġgal": 8382,
      "Ġtailored": 8383,
      "Ġsequence": 8384,
      "Ġtactics": 8385,
      "Ġadequ": 8386,
      "bration": 8387,
      "ansas": 8388,
      "ĠComple": 8389,
      "Ġdism": 8390,
      "New": 8391,
      "Ġspray": 8392,
      "ĠOk": 8393,
      "Ġgreenhouse": 8394,
      "Ġdropped": 8395,
      "Ġpromotion": 8396,
      "QL": 8397,
      "Ġsurviv": 8398,
      "à¸²": 8399,
      "Ġgifts": 8400,
      "Ġlean": 8401,
      "oured": 8402,
      "Ġenthusi": 8403,
      "uation": 8404,
      "Ġbalanced": 8405,
      "Ġhopes": 8406,
      "ĠTay": 8407,
      "Ġbub": 8408,
      "ressed": 8409,
      "ricks": 8410,
      "Ġsees": 8411,
      "athered": 8412,
      "scale": 8413,
      "Ġfrozen": 8414,
      "EST": 8415,
      "Ġsufficient": 8416,
      "Ġcrazy": 8417,
      "Ġperm": 8418,
      "Ġreplacement": 8419,
      "brid": 8420,
      "ĠÂ·": 8421,
      "Ġattached": 8422,
      "Ġtransformation": 8423,
      "Ġritual": 8424,
      "Ġvictims": 8425,
      "Ġavocado": 8426,
      "een": 8427,
      "iana": 8428,
      "Ġeld": 8429,
      "ĠÐ½Ð°": 8430,
      "income": 8431,
      "Ġmerch": 8432,
      "oir": 8433,
      "books": 8434,
      "dis": 8435,
      "Ġmild": 8436,
      "RL": 8437,
      "lements": 8438,
      "ĠType": 8439,
      "Ġbills": 8440,
      "Ġflower": 8441,
      "ĠFun": 8442,
      "Ġinfo": 8443,
      "Ġrum": 8444,
      "Ġwooden": 8445,
      "Ġmarked": 8446,
      "ĠCapt": 8447,
      "ailable": 8448,
      "85": 8449,
      "Ġlicens": 8450,
      "Ġconsideration": 8451,
      "Ġdifficulty": 8452,
      "Ġlies": 8453,
      "BI": 8454,
      "Ġdessert": 8455,
      "Ġhearts": 8456,
      "Ġviewers": 8457,
      "Ġdesert": 8458,
      "Ġrepeat": 8459,
      "zes": 8460,
      "anted": 8461,
      "ĠTips": 8462,
      "Ġmainly": 8463,
      "??": 8464,
      "Ġsubjects": 8465,
      "athan": 8466,
      "Ġvegg": 8467,
      "Ġdisplayed": 8468,
      "Ġpushing": 8469,
      "ĠCS": 8470,
      "Ġhits": 8471,
      "Ġexposed": 8472,
      "ĠSS": 8473,
      "ĠThus": 8474,
      "Ġhaz": 8475,
      "43": 8476,
      "Ġoppon": 8477,
      "Ġiconic": 8478,
      "ĠKim": 8479,
      "ando": 8480,
      "Ġinvestments": 8481,
      "ref": 8482,
      "Ġfounded": 8483,
      "Ġexplores": 8484,
      "Ġnutrients": 8485,
      "ĠEX": 8486,
      "ĠMah": 8487,
      "eath": 8488,
      "Ġchick": 8489,
      "Ġreferred": 8490,
      "Ġdemands": 8491,
      "ĠGive": 8492,
      "airy": 8493,
      "ĠHeart": 8494,
      "Ġswimming": 8495,
      "ĠPsych": 8496,
      "Ġnewslet": 8497,
      "Ġtechnological": 8498,
      "ga": 8499,
      "Ġacceler": 8500,
      "Ġobtained": 8501,
      "ĠCra": 8502,
      "irts": 8503,
      "Ġceremony": 8504,
      "abeth": 8505,
      "ĠRun": 8506,
      "Ġstrengthen": 8507,
      "ĠExecutive": 8508,
      "Ġgenre": 8509,
      "Ġrestrictions": 8510,
      "ĠJason": 8511,
      "ĠAutom": 8512,
      "ĠTal": 8513,
      "ATE": 8514,
      "Ġapplying": 8515,
      "ppings": 8516,
      "âģ": 8517,
      "Ġpopulations": 8518,
      "Ġloud": 8519,
      "Con": 8520,
      "ĠWebs": 8521,
      "ĠPerhaps": 8522,
      "Ġinvolving": 8523,
      "ĠBuild": 8524,
      "Ġstro": 8525,
      "ĠBuy": 8526,
      "ador": 8527,
      "ĠLine": 8528,
      "Ġcomo": 8529,
      "Ġconfirmed": 8530,
      "ĠDaniel": 8531,
      "Ġsupportive": 8532,
      "Ġauthentic": 8533,
      "Ġchili": 8534,
      "ĠCert": 8535,
      "uous": 8536,
      "Ġrating": 8537,
      "cular": 8538,
      "ults": 8539,
      "Ġexplains": 8540,
      "Ġpotato": 8541,
      "Ġspell": 8542,
      "och": 8543,
      "orship": 8544,
      "Ġrapidly": 8545,
      "Ġartwork": 8546,
      "âģĦ": 8547,
      "Ġboil": 8548,
      "Ġlie": 8549,
      "ĠVR": 8550,
      "Ġtitles": 8551,
      "inoa": 8552,
      "Ġpushed": 8553,
      "ouch": 8554,
      "ĠCase": 8555,
      "pers": 8556,
      "ĠSus": 8557,
      "sters": 8558,
      "Ġacting": 8559,
      "Ġwalks": 8560,
      "cling": 8561,
      "ĠInit": 8562,
      "ĠTerm": 8563,
      "ĠComput": 8564,
      ":||": 8565,
      "Ġstraw": 8566,
      "erring": 8567,
      "For": 8568,
      "Ġyards": 8569,
      "Ġstreaming": 8570,
      "Ġattended": 8571,
      "Ġfirms": 8572,
      "tered": 8573,
      "Ġobjective": 8574,
      "Ġstrict": 8575,
      "Ġelectrical": 8576,
      "Ġstages": 8577,
      "Ġincorporated": 8578,
      "Ġreveal": 8579,
      "Ġsecrets": 8580,
      "();": 8581,
      "Ġdivision": 8582,
      "ĠCloud": 8583,
      "Ġgym": 8584,
      "ĠRam": 8585,
      "Ġfewer": 8586,
      "ATION": 8587,
      "Ġclaimed": 8588,
      "Ġlegend": 8589,
      "iot": 8590,
      "ears": 8591,
      "Ġpin": 8592,
      "aped": 8593,
      "iances": 8594,
      "ĠInteg": 8595,
      "Ġcalories": 8596,
      "ĠRepublican": 8597,
      "ĠDri": 8598,
      "alog": 8599,
      "OV": 8600,
      "ĠRub": 8601,
      "They": 8602,
      "Ġprincip": 8603,
      "ĠVisit": 8604,
      "Ġbench": 8605,
      "Ġsamples": 8606,
      "ĠPriv": 8607,
      "Ġ1990": 8608,
      "Ð¾Ð´": 8609,
      "Ġtomorrow": 8610,
      "Ġforgot": 8611,
      "Ġracing": 8612,
      "ĠLooking": 8613,
      "ĠMP": 8614,
      "Ġspecialized": 8615,
      "Ġbedroom": 8616,
      "ĠTer": 8617,
      "Ġfolks": 8618,
      "Ġacquis": 8619,
      "Ġfib": 8620,
      "urse": 8621,
      "Ġseasons": 8622,
      "sts": 8623,
      "Ġstack": 8624,
      "ĠLy": 8625,
      "bel": 8626,
      "Ġcow": 8627,
      "Ġattorney": 8628,
      "Ġoutstanding": 8629,
      "Ġcinnamon": 8630,
      "Ġpleasure": 8631,
      "ĠShould": 8632,
      "ĠBreak": 8633,
      "aper": 8634,
      "ĠSelf": 8635,
      "Ġbehaviors": 8636,
      "isters": 8637,
      "Ġpacked": 8638,
      "Ġmoisture": 8639,
      "Ġchose": 8640,
      "foot": 8641,
      "Ġhip": 8642,
      "Ġunus": 8643,
      "Ġfier": 8644,
      "Ġwithd": 8645,
      "ĠWalk": 8646,
      "ĠPosted": 8647,
      "Ġbonus": 8648,
      "Ġram": 8649,
      "ĠJustice": 8650,
      "Ġedges": 8651,
      "ĠAdam": 8652,
      "ĠBox": 8653,
      "Ã¶": 8654,
      "Ġtor": 8655,
      "ĠMill": 8656,
      "Ġdisorder": 8657,
      "Ġsurroundings": 8658,
      "RI": 8659,
      "aven": 8660,
      "Ġselecting": 8661,
      "ĠSher": 8662,
      "ĠHospital": 8663,
      "!!!": 8664,
      "Ġempathy": 8665,
      "ĠTool": 8666,
      "Ġenabling": 8667,
      "Ġimmersive": 8668,
      "Ġconvin": 8669,
      "Ġodd": 8670,
      "ĠImplement": 8671,
      "high": 8672,
      "Ġduty": 8673,
      "Ġcrop": 8674,
      "Ġroots": 8675,
      "ervice": 8676,
      "amel": 8677,
      "Ġactively": 8678,
      "Ġflying": 8679,
      "neys": 8680,
      "Ġcub": 8681,
      "Ġbroke": 8682,
      "Ġlegacy": 8683,
      "inals": 8684,
      "Ġgreatly": 8685,
      "Ġevolved": 8686,
      "ĠPolicy": 8687,
      "Ġcarrots": 8688,
      "efficient": 8689,
      "That": 8690,
      "Ġnervous": 8691,
      "lastname": 8692,
      "Ġretailers": 8693,
      "ĠWorks": 8694,
      "olving": 8695,
      "idays": 8696,
      "ĠSanta": 8697,
      "eping": 8698,
      "Ġboundaries": 8699,
      "ÑĪ": 8700,
      "ĠExp": 8701,
      "Ġmanufacturers": 8702,
      "Ġpounds": 8703,
      "Ġsymbols": 8704,
      "Ġtransactions": 8705,
      "ĠChair": 8706,
      "ĠColorado": 8707,
      "Ġintu": 8708,
      "ĠFed": 8709,
      "ĠLED": 8710,
      "oval": 8711,
      "Ġaccordingly": 8712,
      "Ġplain": 8713,
      "ĠSystems": 8714,
      "Ġham": 8715,
      "ĠEastern": 8716,
      "ĠSite": 8717,
      "Ġaircraft": 8718,
      "Ġliked": 8719,
      "Ġediting": 8720,
      "Ġpossibilities": 8721,
      "Ġconsistency": 8722,
      "ĠHost": 8723,
      "isdom": 8724,
      "adium": 8725,
      "Ġconcert": 8726,
      "riculum": 8727,
      "Ġadvancements": 8728,
      "Ġcertific": 8729,
      "Ġinspiring": 8730,
      "Ġspecified": 8731,
      "Ġmushrooms": 8732,
      "aron": 8733,
      "Ġhaun": 8734,
      "Ġscar": 8735,
      "Ġcoal": 8736,
      "Ġelectron": 8737,
      "Ġcontinuing": 8738,
      "Ġdurable": 8739,
      "Ġqualified": 8740,
      "Ġpresents": 8741,
      "ani": 8742,
      "Ġcrypt": 8743,
      "Ġnegoti": 8744,
      "ervations": 8745,
      "41": 8746,
      "Ġhook": 8747,
      "asant": 8748,
      "TC": 8749,
      "ĠGeorgia": 8750,
      "rem": 8751,
      "employ": 8752,
      "Ġfur": 8753,
      "Ġcomprom": 8754,
      "ĠProper": 8755,
      "ĠHenry": 8756,
      "ĠIce": 8757,
      "Ġintegrate": 8758,
      "Ġwarning": 8759,
      "âĢĻ.": 8760,
      "ĠFar": 8761,
      "ãĢĤ": 8762,
      "Ġconsists": 8763,
      "Ġmedication": 8764,
      "action": 8765,
      "num": 8766,
      "racy": 8767,
      "08": 8768,
      "ĠIrish": 8769,
      "Ġfinger": 8770,
      "Ġregulation": 8771,
      "ects": 8772,
      "Ġwaters": 8773,
      "ĠNatural": 8774,
      "Ġintensity": 8775,
      "cery": 8776,
      "Ġcircle": 8777,
      "Ġthoroughly": 8778,
      "Ġstations": 8779,
      "Ġbrill": 8780,
      "ĠProfessor": 8781,
      "Ġpound": 8782,
      "Ġbasketball": 8783,
      "Ġdrama": 8784,
      "iders": 8785,
      "atching": 8786,
      "Ġcreature": 8787,
      "Ġjoining": 8788,
      "Ġarom": 8789,
      "ĠRights": 8790,
      "Ġrecycling": 8791,
      "iform": 8792,
      "Ġdedication": 8793,
      "ĠIreland": 8794,
      "oons": 8795,
      "Ġprinted": 8796,
      "pres": 8797,
      "count": 8798,
      "Ġoptimization": 8799,
      "Ġordered": 8800,
      "ĠRay": 8801,
      "stein": 8802,
      "such": 8803,
      "Ġminced": 8804,
      "Ġcasual": 8805,
      "Ġgap": 8806,
      "Ġimplications": 8807,
      "Ġnavigation": 8808,
      "Ġdiabetes": 8809,
      "Ġpackages": 8810,
      "Ġapproval": 8811,
      "Ġminimize": 8812,
      "Ġlegislation": 8813,
      "ja": 8814,
      "Ġlad": 8815,
      "ĠMaria": 8816,
      "Ġtargeting": 8817,
      "ographics": 8818,
      "Ġfalls": 8819,
      "size": 8820,
      "Ġfundra": 8821,
      "Ġdebut": 8822,
      "ĠSuch": 8823,
      "Ġmembership": 8824,
      "Ġbathroom": 8825,
      "Re": 8826,
      "duction": 8827,
      "Ġextension": 8828,
      "Ġconfront": 8829,
      "Ġhealthier": 8830,
      "Ġspirits": 8831,
      "Ġsolo": 8832,
      "Ġopposite": 8833,
      "Ġgate": 8834,
      "Ġdoctors": 8835,
      "Ġcompr": 8836,
      "Ġwest": 8837,
      "Ġdesper": 8838,
      "Ġdigest": 8839,
      "ĠBan": 8840,
      "ĠVirt": 8841,
      "Ġholes": 8842,
      "Ġ;": 8843,
      "Ġspeakers": 8844,
      "Ġboss": 8845,
      "Ġtoss": 8846,
      "Ġarmy": 8847,
      "ĠZeal": 8848,
      "ĠStan": 8849,
      "Ġenroll": 8850,
      "Ġmitigate": 8851,
      "izable": 8852,
      "98": 8853,
      "Ġcompete": 8854,
      "Ġenemy": 8855,
      "urb": 8856,
      "ĠDC": 8857,
      "Ġwake": 8858,
      "Ġairport": 8859,
      "def": 8860,
      "ĠSever": 8861,
      "ĠSup": 8862,
      "inton": 8863,
      "Ġfairly": 8864,
      "ih": 8865,
      "Ġinteger": 8866,
      "ĠOrder": 8867,
      "Ġcollaborate": 8868,
      "sem": 8869,
      "Ġslot": 8870,
      "Ġparticipating": 8871,
      "Ġvess": 8872,
      "Ġbeneath": 8873,
      "Ġinflamm": 8874,
      "Ġimper": 8875,
      "Ġdispos": 8876,
      "Ġvisibility": 8877,
      "Ð¶": 8878,
      "Ġadopted": 8879,
      "Ġinvited": 8880,
      "ĠRegular": 8881,
      "Ġfingers": 8882,
      "Ġoccurs": 8883,
      "Ġcovering": 8884,
      "Ġpopularity": 8885,
      "Ġhire": 8886,
      "ĠMountain": 8887,
      "Ġlasting": 8888,
      "Ġlargely": 8889,
      "Ġsensors": 8890,
      "ĠComb": 8891,
      "ĠTable": 8892,
      "ĠMarc": 8893,
      "gency": 8894,
      "ĠFact": 8895,
      "apes": 8896,
      "Americ": 8897,
      "Ġdelivering": 8898,
      "ĠBlog": 8899,
      "ĠRO": 8900,
      "Ġrefused": 8901,
      "Ġhung": 8902,
      "Ġessays": 8903,
      "Ġgene": 8904,
      "Ġginger": 8905,
      "ĠHeat": 8906,
      "afe": 8907,
      "Enter": 8908,
      "iter": 8909,
      "Ġclassical": 8910,
      "Ġcomputers": 8911,
      "Ġduration": 8912,
      "ennis": 8913,
      "Ġadopt": 8914,
      "ĠBa": 8915,
      "ĠRachel": 8916,
      "ĠAsh": 8917,
      "Ġtissue": 8918,
      "Ġchamp": 8919,
      "Ġbroadcast": 8920,
      "mates": 8921,
      "ä»": 8922,
      "ĠMeanwhile": 8923,
      "ĠLatin": 8924,
      "Ġloose": 8925,
      "Ġsomewhere": 8926,
      "ĠAccount": 8927,
      "Ġ38": 8928,
      "ĠCorporation": 8929,
      "ĠSH": 8930,
      "ĠStory": 8931,
      "aver": 8932,
      "Ġevenly": 8933,
      "Ġfestivals": 8934,
      "Ġber": 8935,
      "Ġblind": 8936,
      "arters": 8937,
      "Ġbackup": 8938,
      "Fi": 8939,
      "Ġintroduce": 8940,
      "Ġaddresses": 8941,
      "Ġmarks": 8942,
      "ĠDivision": 8943,
      "ERS": 8944,
      "Ġattempts": 8945,
      "ĠYeah": 8946,
      "hesis": 8947,
      "mus": 8948,
      "wear": 8949,
      "Ġtie": 8950,
      "obb": 8951,
      "Ġstruck": 8952,
      "anna": 8953,
      "ilant": 8954,
      "omy": 8955,
      "Ġpersist": 8956,
      "ĠBridge": 8957,
      "Ġagricultural": 8958,
      "erie": 8959,
      "Ġbow": 8960,
      "Ġnaturally": 8961,
      "iger": 8962,
      "Ġweren": 8963,
      "ĠZealand": 8964,
      "aded": 8965,
      "inson": 8966,
      "ĠNeed": 8967,
      "Ġconsistently": 8968,
      "data": 8969,
      "market": 8970,
      "ĠCover": 8971,
      "ĠNorthern": 8972,
      "input": 8973,
      "oa": 8974,
      "Ġoils": 8975,
      "ĠDa": 8976,
      "ĠTaylor": 8977,
      "Ġparagraph": 8978,
      "Ġcomputing": 8979,
      "Ã¤": 8980,
      "Ġsyrup": 8981,
      "oes": 8982,
      "Ġtox": 8983,
      "ĠQueen": 8984,
      "ĠAlice": 8985,
      "Ġ150": 8986,
      "redit": 8987,
      "afood": 8988,
      "Ġrefreshing": 8989,
      "ceived": 8990,
      "ĠMess": 8991,
      "Ġloving": 8992,
      "Ġoptimal": 8993,
      "Ġhorm": 8994,
      "Ġpermanent": 8995,
      "Ġ37": 8996,
      "Ġmistake": 8997,
      "ĠNick": 8998,
      "ĠTreat": 8999,
      "stra": 9000,
      "96": 9001,
      "ĠSpain": 9002,
      "Ġsail": 9003,
      "Ġvendors": 9004,
      "ĠPak": 9005,
      "ĠBenef": 9006,
      "ĠSU": 9007,
      "ĠWelcome": 9008,
      "ĠJake": 9009,
      "duate": 9010,
      "Ġprofessor": 9011,
      "Ġdiscussions": 9012,
      "Ġmath": 9013,
      "Ġrepresented": 9014,
      "Ġgraphic": 9015,
      "Ġnewly": 9016,
      "Ġliterary": 9017,
      "Ġlucky": 9018,
      "Ġnecessarily": 9019,
      "Ġinstant": 9020,
      "ĠJoseph": 9021,
      "CO": 9022,
      "inst": 9023,
      "AA": 9024,
      "Ġclosing": 9025,
      "Ġquotes": 9026,
      "Ġworkshop": 9027,
      "Ġalleged": 9028,
      "ĠVen": 9029,
      "Ġendless": 9030,
      "indu": 9031,
      "Ġuniversities": 9032,
      "Al": 9033,
      "Ġretention": 9034,
      "Ġcompos": 9035,
      "Ġfiled": 9036,
      "ĠDaily": 9037,
      "Ġouts": 9038,
      "oors": 9039,
      "Ġheating": 9040,
      "Ġscreens": 9041,
      "ership": 9042,
      "ĠKar": 9043,
      "Ġrear": 9044,
      "ĠPrior": 9045,
      "lower": 9046,
      "tw": 9047,
      "star": 9048,
      "mary": 9049,
      "Ġsinging": 9050,
      "Ġcameras": 9051,
      "Ġprotest": 9052,
      "ĠPers": 9053,
      "Ġtub": 9054,
      "Ġles": 9055,
      "ghan": 9056,
      "Ġ33": 9057,
      "ĠLind": 9058,
      "Ġplane": 9059,
      "Ġcelebrated": 9060,
      "Ġattitude": 9061,
      ".|": 9062,
      "Ġlosses": 9063,
      "rog": 9064,
      "vit": 9065,
      "WS": 9066,
      "Ġtears": 9067,
      "Ġhyper": 9068,
      "Ġharvest": 9069,
      "ĠGrow": 9070,
      "07": 9071,
      "natural": 9072,
      "rape": 9073,
      "ĠKenn": 9074,
      "ĠGarden": 9075,
      "run": 9076,
      "abil": 9077,
      "Ġhorror": 9078,
      "Ġcomplicated": 9079,
      "ĠVery": 9080,
      "Ġsurprising": 9081,
      "Ġpersonnel": 9082,
      "ĠRod": 9083,
      "ĠElizabeth": 9084,
      "Ġhate": 9085,
      "Ġpad": 9086,
      "Ġnormally": 9087,
      "pay": 9088,
      "Ġbands": 9089,
      "Ġalert": 9090,
      "Ġgranted": 9091,
      "ĠSummer": 9092,
      "EA": 9093,
      "etary": 9094,
      "Ġpassionate": 9095,
      "case": 9096,
      "Pl": 9097,
      "Ġscal": 9098,
      "An": 9099,
      "Ġnights": 9100,
      "olit": 9101,
      "ifact": 9102,
      "Ġsubstitute": 9103,
      "Ġstorytelling": 9104,
      "ĠCarl": 9105,
      "ĠPrint": 9106,
      "Ġpaintings": 9107,
      "ĠSon": 9108,
      "Ġsupplement": 9109,
      "Ġdump": 9110,
      "apers": 9111,
      "Ġtired": 9112,
      "eding": 9113,
      "ĠDog": 9114,
      "ologist": 9115,
      "Ġ2022": 9116,
      "Ġ<<": 9117,
      "Ġjudgment": 9118,
      "ĠPH": 9119,
      "Ġrocks": 9120,
      "Ġbran": 9121,
      "Ġtournament": 9122,
      "ĠWi": 9123,
      "Ġaer": 9124,
      "Ġregulations": 9125,
      "::": 9126,
      "ĠLabor": 9127,
      "ĠVill": 9128,
      "ĠBeaut": 9129,
      "ĠEmpire": 9130,
      "Ġfits": 9131,
      "pectives": 9132,
      "lla": 9133,
      "ĠSafety": 9134,
      "Ġroads": 9135,
      "iament": 9136,
      "Ġbone": 9137,
      "ĠCommon": 9138,
      "Ġsmoke": 9139,
      "Ġincl": 9140,
      "Ġlip": 9141,
      "Ġofferings": 9142,
      "anned": 9143,
      "Ġtrips": 9144,
      "Ġtum": 9145,
      "Ġtheater": 9146,
      "Ġlect": 9147,
      "ĠSeat": 9148,
      "ĠCoc": 9149,
      "Ġisolation": 9150,
      "ĠHi": 9151,
      "orted": 9152,
      "ali": 9153,
      "Ġkiller": 9154,
      "Ġdietary": 9155,
      "uct": 9156,
      "Ġretirement": 9157,
      "Ġeligible": 9158,
      "Ġkindness": 9159,
      "Ġdomin": 9160,
      "PM": 9161,
      "itative": 9162,
      "Ġdistributed": 9163,
      "Ġwings": 9164,
      "Ġlake": 9165,
      "ppy": 9166,
      "Ġenforcement": 9167,
      "Ġjazz": 9168,
      "Ġarguments": 9169,
      "Ġfiction": 9170,
      "Ġorganize": 9171,
      "ĠSimilarly": 9172,
      "Ġtire": 9173,
      "Ġsubtle": 9174,
      "06": 9175,
      "Ġfought": 9176,
      "Ġparks": 9177,
      "Ġoffices": 9178,
      "anguage": 9179,
      "Ġcountless": 9180,
      "Ġpork": 9181,
      "()`": 9182,
      "sey": 9183,
      "ĠDub": 9184,
      "gressive": 9185,
      "she": 9186,
      "Ġfriendship": 9187,
[...]
